{
  "version": "1.0",
  "truncation": null,
  "padding": null,
  "added_tokens": [
    {
      "id": 0,
      "content": "[PAD]",
      "single_word": false,
      "lstrip": false,
      "rstrip": false,
      "normalized": false,
      "special": true
    },
    {
      "id": 1,
      "content": "[UNK]",
      "single_word": false,
      "lstrip": false,
      "rstrip": false,
      "normalized": false,
      "special": true
    },
    {
      "id": 2,
      "content": "[SOS]",
      "single_word": false,
      "lstrip": false,
      "rstrip": false,
      "normalized": false,
      "special": true
    },
    {
      "id": 3,
      "content": "[EOS]",
      "single_word": false,
      "lstrip": false,
      "rstrip": false,
      "normalized": false,
      "special": true
    }
  ],
  "normalizer": null,
  "pre_tokenizer": {
    "type": "Whitespace"
  },
  "post_processor": null,
  "decoder": null,
  "model": {
    "type": "BPE",
    "dropout": null,
    "unk_token": "[UNK]",
    "continuing_subword_prefix": null,
    "end_of_word_suffix": null,
    "fuse_unk": false,
    "byte_fallback": false,
    "ignore_merges": false,
    "vocab": {
      "[PAD]": 0,
      "[UNK]": 1,
      "[SOS]": 2,
      "[EOS]": 3,
      "!": 4,
      "%": 5,
      "(": 6,
      ")": 7,
      "*": 8,
      ",": 9,
      "-": 10,
      ".": 11,
      "/": 12,
      "0": 13,
      "1": 14,
      "2": 15,
      "3": 16,
      "4": 17,
      "5": 18,
      "6": 19,
      "7": 20,
      "8": 21,
      "9": 22,
      ":": 23,
      ";": 24,
      "?": 25,
      "A": 26,
      "E": 27,
      "H": 28,
      "I": 29,
      "K": 30,
      "L": 31,
      "M": 32,
      "N": 33,
      "P": 34,
      "R": 35,
      "S": 36,
      "T": 37,
      "U": 38,
      "W": 39,
      "a": 40,
      "b": 41,
      "c": 42,
      "d": 43,
      "e": 44,
      "f": 45,
      "g": 46,
      "h": 47,
      "i": 48,
      "j": 49,
      "k": 50,
      "l": 51,
      "m": 52,
      "n": 53,
      "o": 54,
      "p": 55,
      "r": 56,
      "s": 57,
      "t": 58,
      "u": 59,
      "v": 60,
      "w": 61,
      "x": 62,
      "y": 63,
      "«": 64,
      "»": 65,
      "А": 66,
      "Б": 67,
      "В": 68,
      "Г": 69,
      "Д": 70,
      "Е": 71,
      "Ж": 72,
      "З": 73,
      "И": 74,
      "К": 75,
      "Л": 76,
      "М": 77,
      "Н": 78,
      "О": 79,
      "П": 80,
      "Р": 81,
      "С": 82,
      "Т": 83,
      "У": 84,
      "Ф": 85,
      "Х": 86,
      "Ц": 87,
      "Ч": 88,
      "Ш": 89,
      "Э": 90,
      "Я": 91,
      "а": 92,
      "б": 93,
      "в": 94,
      "г": 95,
      "д": 96,
      "е": 97,
      "ж": 98,
      "з": 99,
      "и": 100,
      "й": 101,
      "к": 102,
      "л": 103,
      "м": 104,
      "н": 105,
      "о": 106,
      "п": 107,
      "р": 108,
      "с": 109,
      "т": 110,
      "у": 111,
      "ф": 112,
      "х": 113,
      "ц": 114,
      "ч": 115,
      "ш": 116,
      "щ": 117,
      "ъ": 118,
      "ы": 119,
      "ь": 120,
      "э": 121,
      "ю": 122,
      "я": 123,
      "ё": 124,
      "–": 125,
      "—": 126,
      "ст": 127,
      "но": 128,
      "ен": 129,
      "ра": 130,
      "по": 131,
      "на": 132,
      "ре": 133,
      "ов": 134,
      "ны": 135,
      "не": 136,
      "то": 137,
      "ка": 138,
      "ко": 139,
      "ни": 140,
      "ет": 141,
      "ль": 142,
      "ени": 143,
      "ти": 144,
      "пр": 145,
      "ци": 146,
      "те": 147,
      "за": 148,
      "об": 149,
      "го": 150,
      "ли": 151,
      "во": 152,
      "ва": 153,
      "че": 154,
      "да": 155,
      "де": 156,
      "ви": 157,
      "вы": 158,
      "та": 159,
      "ки": 160,
      "ло": 161,
      "раз": 162,
      "ных": 163,
      "ле": 164,
      "ть": 165,
      "ля": 166,
      "мо": 167,
      "пре": 168,
      "ми": 169,
      "ер": 170,
      "ма": 171,
      "про": 172,
      "ся": 173,
      "со": 174,
      "ще": 175,
      "ения": 176,
      "сти": 177,
      "ла": 178,
      "ста": 179,
      "до": 180,
      "от": 181,
      "ное": 182,
      "ак": 183,
      "ро": 184,
      "при": 185,
      "ня": 186,
      "ча": 187,
      "ве": 188,
      "си": 189,
      "ри": 190,
      "ру": 191,
      "ств": 192,
      "льно": 193,
      "ку": 194,
      "сть": 195,
      "ры": 196,
      "ров": 197,
      "что": 198,
      "мы": 199,
      "га": 200,
      "ные": 201,
      "сов": 202,
      "чи": 203,
      "чес": 204,
      "ин": 205,
      "ции": 206,
      "уй": 207,
      "ме": 208,
      "ный": 209,
      "пред": 210,
      "од": 211,
      "се": 212,
      "хуй": 213,
      "из": 214,
      "сто": 215,
      "па": 216,
      "ту": 217,
      "ение": 218,
      "мен": 219,
      "зна": 220,
      "лов": 221,
      "ую": 222,
      "тив": 223,
      "ор": 224,
      "ес": 225,
      "соб": 226,
      "щи": 227,
      "ани": 228,
      "тре": 229,
      "же": 230,
      "пе": 231,
      "ная": 232,
      "лю": 233,
      "са": 234,
      "су": 235,
      "ены": 236,
      "хуйня": 237,
      "бо": 238,
      "ши": 239,
      "цио": 240,
      "бы": 241,
      "вл": 242,
      "жи": 243,
      "ты": 244,
      "гра": 245,
      "разви": 246,
      "вля": 247,
      "тельно": 248,
      "ду": 249,
      "пи": 250,
      "ют": 251,
      "ности": 252,
      "ность": 253,
      "ствен": 254,
      "развити": 255,
      "!,": 256,
      "ческо": 257,
      "бу": 258,
      "под": 259,
      "зации": 260,
      "зы": 261,
      "поз": 262,
      "ция": 263,
      "ди": 264,
      "уча": 265,
      "кая": 266,
      "ис": 267,
      "ремен": 268,
      "бе": 269,
      "фор": 270,
      "ного": 271,
      "циа": 272,
      "предста": 273,
      "для": 274,
      "му": 275,
      "сле": 276,
      "ус": 277,
      "ше": 278,
      "рас": 279,
      "вает": 280,
      "мер": 281,
      "фи": 282,
      "чно": 283,
      "ство": 284,
      "is": 285,
      "Как": 286,
      "це": 287,
      "нима": 288,
      "ну": 289,
      "ений": 290,
      "ды": 291,
      "клю": 292,
      "ной": 293,
      "рез": 294,
      "как": 295,
      "кон": 296,
      "тель": 297,
      "зави": 298,
      "так": 299,
      "кий": 300,
      "преде": 301,
      "зависи": 302,
      "he": 303,
      "спо": 304,
      "ства": 305,
      "обще": 306,
      "10": 307,
      "ан": 308,
      "ба": 309,
      "все": 310,
      "ке": 311,
      "стру": 312,
      "тор": 313,
      "образ": 314,
      "ровани": 315,
      "современ": 316,
      "вне": 317,
      "ги": 318,
      "дов": 319,
      "сво": 320,
      "стви": 321,
      "новы": 322,
      "ным": 323,
      "зада": 324,
      "дей": 325,
      "пози": 326,
      "50": 327,
      "гов": 328,
      "ек": 329,
      "ления": 330,
      "он": 331,
      "енных": 332,
      "трей": 333,
      "развития": 334,
      "as": 335,
      "вет": 336,
      "пра": 337,
      "тов": 338,
      "ход": 339,
      "ред": 340,
      "кото": 341,
      "тех": 342,
      "лити": 343,
      "социа": 344,
      "щее": 345,
      "ствую": 346,
      "инте": 347,
      "услов": 348,
      "20": 349,
      "ана": 350,
      "ом": 351,
      "цен": 352,
      "ень": 353,
      "рес": 354,
      "част": 355,
      "щих": 356,
      "струк": 357,
      "26": 358,
      "ско": 359,
      "пол": 360,
      "вед": 361,
      "суще": 362,
      "циона": 363,
      "форми": 364,
      "24": 365,
      "30": 366,
      "гу": 367,
      "пер": 368,
      "сде": 369,
      "спе": 370,
      "ша": 371,
      "ят": 372,
      "ней": 373,
      "каче": 374,
      "ется": 375,
      "выво": 376,
      "ться": 377,
      "чительно": 378,
      "современных": 379,
      "..": 380,
      "14": 381,
      "16": 382,
      "17": 383,
      "18": 384,
      "19": 385,
      "27": 386,
      "28": 387,
      "29": 388,
      "34": 389,
      "36": 390,
      "37": 391,
      "38": 392,
      "39": 393,
      "54": 394,
      "56": 395,
      "57": 396,
      "58": 397,
      "59": 398,
      "али": 399,
      "жа": 400,
      "их": 401,
      "нен": 402,
      "ой": 403,
      "сь": 404,
      "шь": 405,
      "это": 406,
      "ком": 407,
      "лей": 408,
      "ляет": 409,
      "актив": 410,
      "вест": 411,
      "кую": 412,
      "быть": 413,
      "формировани": 414,
      "оче": 415,
      "пла": 416,
      "ёт": 417,
      "сте": 418,
      "реали": 419,
      "ния": 420,
      "лько": 421,
      "ложи": 422,
      "мож": 423,
      "стоя": 424,
      "цион": 425,
      "способ": 426,
      "действи": 427,
      "которы": 428,
      "полити": 429,
      "кое": 430,
      "льных": 431,
      "ций": 432,
      "челов": 433,
      "дер": 434,
      "лез": 435,
      "мых": 436,
      "одно": 437,
      "также": 438,
      "образом": 439,
      "структу": 440,
      "гда": 441,
      "лу": 442,
      "опреде": 443,
      "ря": 444,
      "тр": 445,
      "стра": 446,
      "ках": 447,
      "какая": 448,
      "важ": 449,
      "акти": 450,
      "пример": 451,
      "извест": 452,
      "широ": 453,
      "баз": 454,
      "новых": 455,
      "40": 456,
      "46": 457,
      "47": 458,
      "48": 459,
      "49": 460,
      "вер": 461,
      "пу": 462,
      "уров": 463,
      "чё": 464,
      "чения": 465,
      "эта": 466,
      "повед": 467,
      "нет": 468,
      "неизвест": 469,
      "ении": 470,
      "даёт": 471,
      "вите": 472,
      "ким": 473,
      "логи": 474,
      "ответ": 475,
      "мето": 476,
      "хуйн": 477,
      "значно": 478,
      "вляют": 479,
      "зыва": 480,
      "представите": 481,
      "22": 482,
      "60": 483,
      "67": 484,
      "68": 485,
      "69": 486,
      "in": 487,
      "вов": 488,
      "кла": 489,
      "огра": 490,
      "ует": 491,
      "раб": 492,
      "полез": 493,
      "каза": 494,
      "коно": 495,
      "ний": 496,
      "высо": 497,
      "ких": 498,
      "мость": 499,
      "дол": 500,
      "развитие": 501,
      "участи": 502,
      "всего": 503,
      "которые": 504,
      "!.": 505,
      "11": 506,
      "33": 507,
      "55": 508,
      "70": 509,
      "78": 510,
      "79": 511,
      "Не": 512,
      "вся": 513,
      "дне": 514,
      "дин": 515,
      "кру": 516,
      "ктив": 517,
      "мет": 518,
      "нда": 519,
      "нное": 520,
      "оп": 521,
      "сл": 522,
      "шё": 523,
      "ый": 524,
      "эконо": 525,
      "пос": 526,
      "поня": 527,
      "независи": 528,
      "точ": 529,
      "низации": 530,
      "вид": 531,
      "лож": 532,
      "разу": 533,
      "ствует": 534,
      "туа": 535,
      "орга": 536,
      "вляет": 537,
      "исклю": 538,
      "следов": 539,
      "позиции": 540,
      "ходи": 541,
      "выводы": 542,
      "политическо": 543,
      "работ": 544,
      "днев": 545,
      "экономи": 546,
      "исключительно": 547,
      ".!": 548,
      "80": 549,
      "89": 550,
      "at": 551,
      "бес": 552,
      "жения": 553,
      "кры": 554,
      "лки": 555,
      "ление": 556,
      "нсов": 557,
      "ную": 558,
      "оста": 559,
      "пло": 560,
      "сложи": 561,
      "цес": 562,
      "чу": 563,
      "чение": 564,
      "чены": 565,
      "ющее": 566,
      "нансов": 567,
      "тер": 568,
      "тери": 569,
      "воз": 570,
      "вот": 571,
      "вая": 572,
      "процес": 573,
      "соответ": 574,
      "ставл": 575,
      "отно": 576,
      "рии": 577,
      "мые": 578,
      "щие": 579,
      "треб": 580,
      "циями": 581,
      "шей": 582,
      "способствует": 583,
      "челове": 584,
      "организации": 585,
      "сложив": 586,
      "12": 587,
      "13": 588,
      "15": 589,
      "90": 590,
      "an": 591,
      "На": 592,
      "При": 593,
      "жны": 594,
      "кра": 595,
      "кре": 596,
      "она": 597,
      "ори": 598,
      "хо": 599,
      "нологи": 600,
      "нео": 601,
      "нечто": 602,
      "объ": 603,
      "чего": 604,
      "дать": 605,
      "дешё": 606,
      "прият": 607,
      "одна": 608,
      "собой": 609,
      "финансов": 610,
      "цело": 611,
      "технологи": 612,
      "анали": 613,
      "однозначно": 614,
      "хуйню": 615,
      "ограни": 616,
      "должны": 617,
      "соответствую": 618,
      "23": 619,
      "25": 620,
      "44": 621,
      "66": 622,
      "77": 623,
      "88": 624,
      "99": 625,
      "?!": 626,
      "las": 627,
      "th": 628,
      "to": 629,
      "Да": 630,
      "ев": 631,
      "ий": 632,
      "мя": 633,
      "ос": 634,
      "пени": 635,
      "шне": 636,
      "шения": 637,
      "ща": 638,
      "ых": 639,
      "стни": 640,
      "енности": 641,
      "рам": 642,
      "рабо": 643,
      "повы": 644,
      "поставл": 645,
      "нас": 646,
      "когда": 647,
      "ние": 648,
      "льта": 649,
      "либо": 650,
      "воляет": 651,
      "ери": 652,
      "ервов": 653,
      "произ": 654,
      "веще": 655,
      "мыш": 656,
      "совер": 657,
      "тивно": 658,
      "аний": 659,
      "дут": 660,
      "ческое": 661,
      "позволяет": 662,
      "участни": 663,
      "резервов": 664,
      "задач": 665,
      "трейдер": 666,
      "трейдин": 667,
      "правл": 668,
      "техни": 669,
      "цена": 670,
      "существую": 671,
      "формировании": 672,
      "очеред": 673,
      "степени": 674,
      "может": 675,
      "базов": 676,
      "поведения": 677,
      "независимые": 678,
      "бесполез": 679,
      "анализа": 680,
      "поставленных": 681,
      "35": 682,
      "ch": 683,
      "clas": 684,
      "er": 685,
      "Ра": 686,
      "Та": 687,
      "бра": 688,
      "вка": 689,
      "вну": 690,
      "гру": 691,
      "грес": 692,
      "дров": 693,
      "ей": 694,
      "емо": 695,
      "зр": 696,
      "ков": 697,
      "кти": 698,
      "особ": 699,
      "ун": 700,
      "ью": 701,
      "эле": 702,
      "ях": 703,
      "явл": 704,
      "нов": 705,
      "постоя": 706,
      "над": 707,
      "нашей": 708,
      "нес": 709,
      "том": 710,
      "кадров": 711,
      "обес": 712,
      "вод": 713,
      "чем": 714,
      "даль": 715,
      "выпол": 716,
      "предо": 717,
      "мало": 718,
      "матери": 719,
      "прогрес": 720,
      "соз": 721,
      "ситуа": 722,
      "предмет": 723,
      "требу": 724,
      "само": 725,
      "тельности": 726,
      "ственный": 727,
      "исследов": 728,
      "ством": 729,
      "торгов": 730,
      "социально": 731,
      "интерес": 732,
      "условий": 733,
      "частность": 734,
      "реализации": 735,
      "структуры": 736,
      "уровня": 737,
      "экономичес": 738,
      "повыш": 739,
      "class": 740,
      "особенности": 741,
      "обеспе": 742,
      "требует": 743,
      "en": 744,
      "es": 745,
      "Но": 746,
      "Пре": 747,
      "блю": 748,
      "дь": 749,
      "ден": 750,
      "жде": 751,
      "зуслов": 752,
      "ктор": 753,
      "лы": 754,
      "ска": 755,
      "смо": 756,
      "укре": 757,
      "фес": 758,
      "фун": 759,
      "ям": 760,
      "ём": 761,
      "стре": 762,
      "поку": 763,
      "позна": 764,
      "только": 765,
      "кой": 766,
      "льный": 767,
      "цию": 768,
      "чевы": 769,
      "дело": 770,
      "моде": 771,
      "ман": 772,
      "проек": 773,
      "профес": 774,
      "станда": 775,
      "откры": 776,
      "вектор": 777,
      "сиона": 778,
      "ческий": 779,
      "сторо": 780,
      "пас": 781,
      "менты": 782,
      "ственных": 783,
      "след": 784,
      "ключевы": 785,
      "социальных": 786,
      "сдела": 787,
      "специа": 788,
      "комп": 789,
      "ционных": 790,
      "действий": 791,
      "ряд": 792,
      "трен": 793,
      "зывают": 794,
      "представители": 795,
      "участия": 796,
      "политического": 797,
      "человека": 798,
      "and": 799,
      "неопозна": 800,
      "однако": 801,
      "рамках": 802,
      "работа": 803,
      "базовый": 804,
      "элементы": 805,
      "дальней": 806,
      "Прежде": 807,
      "зусловно": 808,
      "укреп": 809,
      "функ": 810,
      "профессиона": 811,
      "стандар": 812,
      "21": 813,
      "45": 814,
      "76": 815,
      "98": 816,
      "?!,": 817,
      "His": 818,
      "Lu": 819,
      "ar": 820,
      "cas": 821,
      "mat": 822,
      "or": 823,
      "st": 824,
      "the": 825,
      "Го": 826,
      "За": 827,
      "Ка": 828,
      "ап": 829,
      "аны": 830,
      "бла": 831,
      "внима": 832,
      "др": 833,
      "день": 834,
      "его": 835,
      "емых": 836,
      "жда": 837,
      "ит": 838,
      "ино": 839,
      "игра": 840,
      "лка": 841,
      "нения": 842,
      "нные": 843,
      "нный": 844,
      "опас": 845,
      "рс": 846,
      "ркий": 847,
      "рнет": 848,
      "три": 849,
      "уже": 850,
      "фе": 851,
      "ченных": 852,
      "щё": 853,
      "эти": 854,
      "эту": 855,
      "яся": 856,
      "ятельности": 857,
      "яркий": 858,
      "ном": 859,
      "нова": 860,
      "рациона": 861,
      "нам": 862,
      "наме": 863,
      "направл": 864,
      "необ": 865,
      "кар": 866,
      "них": 867,
      "нить": 868,
      "льз": 869,
      "льное": 870,
      "ению": 871,
      "тие": 872,
      "пров": 873,
      "теку": 874,
      "зация": 875,
      "гоприят": 876,
      "лич": 877,
      "вой": 878,
      "вать": 879,
      "деятельности": 880,
      "выра": 881,
      "там": 882,
      "кие": 883,
      "могу": 884,
      "проч": 885,
      "принима": 886,
      "риз": 887,
      "купи": 888,
      "рован": 889,
      "мыс": 890,
      "значение": 891,
      "гражда": 892,
      "дует": 893,
      "учай": 894,
      "представляют": 895,
      "общества": 896,
      "внедр": 897,
      "заданий": 898,
      "практи": 899,
      "интернет": 900,
      "частный": 901,
      "ского": 902,
      "перспе": 903,
      "шаяся": 904,
      "очевид": 905,
      "плановых": 906,
      "реализация": 907,
      "структура": 908,
      "определения": 909,
      "случай": 910,
      "ходимость": 911,
      "сложившаяся": 912,
      "ограничены": 913,
      "мышления": 914,
      "участника": 915,
      "внутрен": 916,
      "материа": 917,
      "прогресса": 918,
      "создаёт": 919,
      "покупа": 920,
      "укрепление": 921,
      "Lucas": 922,
      "благоприят": 923,
      "намеченных": 924,
      "необходимость": 925,
      "перспектив": 926,
      "31": 927,
      "32": 928,
      "Пов": 929,
      "Что": 930,
      "блей": 931,
      "вя": 932,
      "глу": 933,
      "дё": 934,
      "дня": 935,
      "еб": 936,
      "зи": 937,
      "свер": 938,
      "сцена": 939,
      "тен": 940,
      "тное": 941,
      "уж": 942,
      "учения": 943,
      "фак": 944,
      "фан": 945,
      "чет": 946,
      "явля": 947,
      "нок": 948,
      "енное": 949,
      "ражения": 950,
      "пока": 951,
      "подо": 952,
      "потреб": 953,
      "нача": 954,
      "нега": 955,
      "непоня": 956,
      "тоти": 957,
      "ним": 958,
      "тины": 959,
      "забы": 960,
      "занима": 961,
      "оба": 962,
      "обучения": 963,
      "горо": 964,
      "готов": 965,
      "ливает": 966,
      "такая": 967,
      "лок": 968,
      "мира": 969,
      "маши": 970,
      "прототи": 971,
      "щего": 972,
      "дом": 973,
      "роль": 974,
      "приня": 975,
      "ритель": 976,
      "рублей": 977,
      "льного": 978,
      "рованы": 979,
      "гад": 980,
      "чивает": 981,
      "предпос": 982,
      "седнев": 983,
      "пара": 984,
      "значительно": 985,
      "пере": 986,
      "сами": 987,
      "дума": 988,
      "ческой": 989,
      "будут": 990,
      "зывает": 991,
      "форм": 992,
      "представл": 993,
      "музы": 994,
      "распреде": 995,
      "цеп": 996,
      "концеп": 997,
      "качества": 998,
      "вывода": 999,
      "ненуж": 1000,
      "активов": 1001,
      "неизвестное": 1002,
      "представителей": 1003,
      "ing": 1004,
      "класт": 1005,
      "работы": 1006,
      "щиеся": 1007,
      "финансовых": 1008,
      "производ": 1009,
      "очередных": 1010,
      "исследований": 1011,
      "повышению": 1012,
      "обеспечивает": 1013,
      "модели": 1014,
      "открывает": 1015,
      "ключевые": 1016,
      "играет": 1017,
      "картины": 1018,
      "текущих": 1019,
      "внедрение": 1020,
      "практика": 1021,
      "благоприятных": 1022,
      "Повседнев": 1023,
      "сценарии": 1024,
      "является": 1025,
      "показывает": 1026,
      "прототип": 1027,
      "предпосы": 1028,
      "Повседневная": 1029,
      ".,": 1030,
      "64": 1031,
      "65": 1032,
      "74": 1033,
      "75": 1034,
      "ac": 1035,
      "al": 1036,
      "ay": 1037,
      "his": 1038,
      "oo": 1039,
      "ts": 1040,
      "Вы": 1041,
      "Он": 1042,
      "Это": 1043,
      "ара": 1044,
      "дно": 1045,
      "ещё": 1046,
      "ждо": 1047,
      "жиз": 1048,
      "зо": 1049,
      "зва": 1050,
      "им": 1051,
      "кс": 1052,
      "кет": 1053,
      "кси": 1054,
      "нт": 1055,
      "нность": 1056,
      "нке": 1057,
      "рда": 1058,
      "сро": 1059,
      "счи": 1060,
      "сфе": 1061,
      "тра": 1062,
      "уп": 1063,
      "ульта": 1064,
      "чная": 1065,
      "шан": 1066,
      "являют": 1067,
      "стов": 1068,
      "ност": 1069,
      "рактив": 1070,
      "пов": 1071,
      "повсе": 1072,
      "показа": 1073,
      "польз": 1074,
      "нау": 1075,
      "ными": 1076,
      "неу": 1077,
      "недо": 1078,
      "неодно": 1079,
      "каждо": 1080,
      "коли": 1081,
      "кому": 1082,
      "низ": 1083,
      "льту": 1084,
      "льная": 1085,
      "тий": 1086,
      "типа": 1087,
      "лий": 1088,
      "лишь": 1089,
      "листов": 1090,
      "вай": 1091,
      "вам": 1092,
      "выс": 1093,
      "тать": 1094,
      "разработ": 1095,
      "разнес": 1096,
      "различ": 1097,
      "мости": 1098,
      "презр": 1099,
      "мар": 1100,
      "мас": 1101,
      "проис": 1102,
      "продать": 1103,
      "состоя": 1104,
      "щей": 1105,
      "рой": 1106,
      "часть": 1107,
      "вещи": 1108,
      "систе": 1109,
      "курс": 1110,
      "культу": 1111,
      "рынке": 1112,
      "читься": 1113,
      "меется": 1114,
      "предлож": 1115,
      "себе": 1116,
      "значи": 1117,
      "уют": 1118,
      "тивных": 1119,
      "собы": 1120,
      "ших": 1121,
      "живот": 1122,
      "пидо": 1123,
      "ственные": 1124,
      "ственного": 1125,
      "подоб": 1126,
      "подготов": 1127,
      "следует": 1128,
      "рассмо": 1129,
      "результа": 1130,
      "тельное": 1131,
      "зависимости": 1132,
      "спода": 1133,
      "обществом": 1134,
      "внешне": 1135,
      "говори": 1136,
      "литики": 1137,
      "интерактив": 1138,
      "аналитики": 1139,
      "ционально": 1140,
      "сделки": 1141,
      "качествен": 1142,
      "качество": 1143,
      "жаю": 1144,
      "формированию": 1145,
      "трены": 1146,
      "активи": 1147,
      "широкому": 1148,
      "базе": 1149,
      "пусто": 1150,
      "уровень": 1151,
      "методом": 1152,
      "высоко": 1153,
      "участие": 1154,
      "кругу": 1155,
      "дневной": 1156,
      "оставляет": 1157,
      "отнош": 1158,
      "дешёвка": 1159,
      "целом": 1160,
      "технологии": 1161,
      "соверша": 1162,
      "трейдинг": 1163,
      "существующих": 1164,
      "сделанные": 1165,
      "специалистов": 1166,
      "неопознанное": 1167,
      "функционально": 1168,
      "Господа": 1169,
      "аппара": 1170,
      "внимания": 1171,
      "иногда": 1172,
      "направлений": 1173,
      "купить": 1174,
      "очевидна": 1175,
      "внутренней": 1176,
      "фанта": 1177,
      "начало": 1178,
      "забывать": 1179,
      "принято": 1180,
      "значительной": 1181,
      "прототипы": 1182,
      "считать": 1183,
      "шанса": 1184,
      "являются": 1185,
      "повседневной": 1186,
      "количе": 1187,
      "разнесены": 1188,
      "различных": 1189,
      "предложений": 1190,
      "рассмотрены": 1191,
      "говорит": 1192,
      "интерактивные": 1193,
      "ci": 1194,
      "hi": 1195,
      "le": 1196,
      "li": 1197,
      "un": 1198,
      "ver": 1199,
      "Бе": 1200,
      "Вне": 1201,
      "Вот": 1202,
      "Ин": 1203,
      "Идей": 1204,
      "Ли": 1205,
      "Одно": 1206,
      "Учи": 1207,
      "ад": 1208,
      "ас": 1209,
      "ах": 1210,
      "бов": 1211,
      "бор": 1212,
      "вз": 1213,
      "вс": 1214,
      "вным": 1215,
      "гла": 1216,
      "дру": 1217,
      "жд": 1218,
      "жение": 1219,
      "или": 1220,
      "ими": 1221,
      "имен": 1222,
      "йского": 1223,
      "лет": 1224,
      "лся": 1225,
      "лены": 1226,
      "ммы": 1227,
      "нь": 1228,
      "нди": 1229,
      "оц": 1230,
      "оч": 1231,
      "сет": 1232,
      "све": 1233,
      "смы": 1234,
      "слов": 1235,
      "свет": 1236,
      "свя": 1237,
      "тно": 1238,
      "тных": 1239,
      "упо": 1240,
      "уси": 1241,
      "учё": 1242,
      "уточ": 1243,
      "фф": 1244,
      "ца": 1245,
      "чь": 1246,
      "экс": 1247,
      "эфф": 1248,
      "яс": 1249,
      "енти": 1250,
      "рай": 1251,
      "побе": 1252,
      "поряд": 1253,
      "национа": 1254,
      "наблю": 1255,
      "называют": 1256,
      "реш": 1257,
      "тон": 1258,
      "тории": 1259,
      "кого": 1260,
      "нистра": 1261,
      "льные": 1262,
      "енить": 1263,
      "тиво": 1264,
      "тинен": 1265,
      "проб": 1266,
      "заб": 1267,
      "зап": 1268,
      "обла": 1269,
      "обуслов": 1270,
      "ображения": 1271,
      "вое": 1272,
      "вом": 1273,
      "востре": 1274,
      "валю": 1275,
      "дан": 1276,
      "вызыва": 1277,
      "тально": 1278,
      "локи": 1279,
      "разобла": 1280,
      "левой": 1281,
      "лям": 1282,
      "министра": 1283,
      "продаёт": 1284,
      "сообщества": 1285,
      "соображения": 1286,
      "отрас": 1287,
      "акциями": 1288,
      "рост": 1289,
      "ропе": 1290,
      "рует": 1291,
      "рынок": 1292,
      "чтобы": 1293,
      "сово": 1294,
      "ческих": 1295,
      "иннова": 1296,
      "сем": 1297,
      "столько": 1298,
      "если": 1299,
      "щий": 1300,
      "щими": 1301,
      "сульта": 1302,
      "тывая": 1303,
      "граммы": 1304,
      "подход": 1305,
      "дик": 1306,
      "шее": 1307,
      "шего": 1308,
      "фикси": 1309,
      "нуто": 1310,
      "континен": 1311,
      "консульта": 1312,
      "пределяет": 1313,
      "зависит": 1314,
      "100": 1315,
      "анность": 1316,
      "рование": 1317,
      "внеш": 1318,
      "своев": 1319,
      "задания": 1320,
      "позиций": 1321,
      "социативно": 1322,
      "сколько": 1323,
      "перимен": 1324,
      "ятно": 1325,
      "....": 1326,
      "этом": 1327,
      "активности": 1328,
      "действия": 1329,
      "человек": 1330,
      "важные": 1331,
      "важность": 1332,
      "важную": 1333,
      "активом": 1334,
      "широким": 1335,
      "методик": 1336,
      "высокую": 1337,
      "Нечто": 1338,
      "ходит": 1339,
      "политической": 1340,
      "плохо": 1341,
      "возмож": 1342,
      "Приятно": 1343,
      "кратно": 1344,
      "ориенти": 1345,
      "объек": 1346,
      "европе": 1347,
      "мянуто": 1348,
      "еризации": 1349,
      "бесполезное": 1350,
      "Равным": 1351,
      "Таким": 1352,
      "постоянный": 1353,
      "выполнить": 1354,
      "предопределяет": 1355,
      "экономическую": 1356,
      "проект": 1357,
      "компью": 1358,
      "работает": 1359,
      "дальнейшее": 1360,
      "профессионального": 1361,
      "стандартных": 1362,
      "опасное": 1363,
      "выражение": 1364,
      "могут": 1365,
      "рованный": 1366,
      "граждане": 1367,
      "участниками": 1368,
      "материально": 1369,
      "покупает": 1370,
      "глубо": 1371,
      "тенден": 1372,
      "непонятное": 1373,
      "занимаемых": 1374,
      "распределены": 1375,
      "кластеризации": 1376,
      "предпосылки": 1377,
      "жизни": 1378,
      "кетин": 1379,
      "сфера": 1380,
      "неоднократно": 1381,
      "каждого": 1382,
      "высшего": 1383,
      "разработке": 1384,
      "маркетин": 1385,
      "системы": 1386,
      "культуры": 1387,
      "животное": 1388,
      "активизации": 1389,
      "отношении": 1390,
      "совершает": 1391,
      "количественный": 1392,
      "very": 1393,
      "Безусловно": 1394,
      "Идейные": 1395,
      "Учитывая": 1396,
      "администра": 1397,
      "ассоциативно": 1398,
      "бованность": 1399,
      "оценить": 1400,
      "упомянуто": 1401,
      "усилий": 1402,
      "учётом": 1403,
      "уточнения": 1404,
      "эксперимен": 1405,
      "эффек": 1406,
      "порядка": 1407,
      "национальный": 1408,
      "наблюдать": 1409,
      "пробле": 1410,
      "обусловливает": 1411,
      "востребованность": 1412,
      "разоблачены": 1413,
      "отраслям": 1414,
      "подходов": 1415,
      "фиксирует": 1416,
      "континентально": 1417,
      "консультация": 1418,
      "своевремен": 1419,
      "ориентированный": 1420,
      "европейского": 1421,
      "административных": 1422,
      "),": 1423,
      "84": 1424,
      "85": 1425,
      "86": 1426,
      "87": 1427,
      "94": 1428,
      "95": 1429,
      "96": 1430,
      "97": 1431,
      "ce": 1432,
      "do": 1433,
      "ith": 1434,
      "ks": 1435,
      "kes": 1436,
      "me": 1437,
      "of": 1438,
      "re": 1439,
      "te": 1440,
      "ws": 1441,
      "whi": 1442,
      "with": 1443,
      "Для": 1444,
      "Зна": 1445,
      "По": 1446,
      "Пред": 1447,
      "Сов": 1448,
      "Явля": 1449,
      "ау": 1450,
      "аграммы": 1451,
      "ву": 1452,
      "ге": 1453,
      "гни": 1454,
      "гля": 1455,
      "дви": 1456,
      "есть": 1457,
      "ешь": 1458,
      "жё": 1459,
      "зно": 1460,
      "зей": 1461,
      "ито": 1462,
      "име": 1463,
      "йне": 1464,
      "крас": 1465,
      "нни": 1466,
      "нци": 1467,
      "нциями": 1468,
      "оре": 1469,
      "опри": 1470,
      "плы": 1471,
      "рь": 1472,
      "сси": 1473,
      "сме": 1474,
      "спло": 1475,
      "тя": 1476,
      "тро": 1477,
      "ттер": 1478,
      "уст": 1479,
      "укла": 1480,
      "ублю": 1481,
      "фон": 1482,
      "хани": 1483,
      "цены": 1484,
      "чные": 1485,
      "чений": 1486,
      "шу": 1487,
      "шую": 1488,
      "ъё": 1489,
      "ыт": 1490,
      "ясь": 1491,
      "ёй": 1492,
      "ёр": 1493,
      "ступ": 1494,
      "нор": 1495,
      "ново": 1496,
      "новая": 1497,
      "раст": 1498,
      "поче": 1499,
      "пола": 1500,
      "понима": 1501,
      "положи": 1502,
      "послед": 1503,
      "настолько": 1504,
      "ований": 1505,
      "неси": 1506,
      "непра": 1507,
      "неприят": 1508,
      "несколько": 1509,
      "той": 1510,
      "тота": 1511,
      "кации": 1512,
      "каких": 1513,
      "какой": 1514,
      "кос": 1515,
      "коман": 1516,
      "льни": 1517,
      "тический": 1518,
      "цифи": 1519,
      "тели": 1520,
      "теле": 1521,
      "теши": 1522,
      "запа": 1523,
      "обста": 1524,
      "гой": 1525,
      "гориз": 1526,
      "лита": 1527,
      "вос": 1528,
      "воочередных": 1529,
      "варитель": 1530,
      "дача": 1531,
      "дек": 1532,
      "вычные": 1533,
      "тами": 1534,
      "лодё": 1535,
      "разбор": 1536,
      "лечения": 1537,
      "мое": 1538,
      "мом": 1539,
      "мотри": 1540,
      "молодё": 1541,
      "еръё": 1542,
      "прост": 1543,
      "просто": 1544,
      "противо": 1545,
      "сом": 1546,
      "сокий": 1547,
      "щем": 1548,
      "стики": 1549,
      "лась": 1550,
      "станциями": 1551,
      "доказа": 1552,
      "акций": 1553,
      "призывают": 1554,
      "принци": 1555,
      "привычные": 1556,
      "вести": 1557,
      "гает": 1558,
      "гаты": 1559,
      "совсем": 1560,
      "чимость": 1561,
      "инстру": 1562,
      "инстанциями": 1563,
      "мело": 1564,
      "механи": 1565,
      "предпола": 1566,
      "сей": 1567,
      "семан": 1568,
      "стой": 1569,
      "стоит": 1570,
      "паттер": 1571,
      "собственных": 1572,
      "ании": 1573,
      "ания": 1574,
      "жество": 1575,
      "богаты": 1576,
      "жий": 1577,
      "тельном": 1578,
      "тельного": 1579,
      "ческого": 1580,
      "бурда": 1581,
      "дит": 1582,
      "дитории": 1583,
      "диаграммы": 1584,
      "беж": 1585,
      "бера": 1586,
      "безусловно": 1587,
      "форма": 1588,
      "филь": 1589,
      "целевой": 1590,
      "резко": 1591,
      "конструк": 1592,
      "тельны": 1593,
      "тельством": 1594,
      "общей": 1595,
      "общественного": 1596,
      "образный": 1597,
      "свою": 1598,
      "своих": 1599,
      "новые": 1600,
      "новым": 1601,
      "позиционных": 1602,
      "онты": 1603,
      "ценное": 1604,
      "частности": 1605,
      "существ": 1606,
      "существо": 1607,
      "первоочередных": 1608,
      "сделок": 1609,
      "специфи": 1610,
      "компа": 1611,
      "план": 1612,
      "определяет": 1613,
      "вери": 1614,
      "чённость": 1615,
      "хуйнёй": 1616,
      "вовлечения": 1617,
      "высокое": 1618,
      "опыт": 1619,
      "поняти": 1620,
      "точка": 1621,
      "ложно": 1622,
      "разум": 1623,
      "следова": 1624,
      "чув": 1625,
      "процесса": 1626,
      "отношения": 1627,
      "требований": 1628,
      "Наше": 1629,
      "Например": 1630,
      "крайне": 1631,
      "технологичная": 1632,
      "ограничений": 1633,
      "соответствующих": 1634,
      "соответствующими": 1635,
      "that": 1636,
      "шениям": 1637,
      "щая": 1638,
      "соверш": 1639,
      "технической": 1640,
      "очередь": 1641,
      "Разно": 1642,
      "Там": 1643,
      "груп": 1644,
      "емого": 1645,
      "зрения": 1646,
      "явление": 1647,
      "малоценное": 1648,
      "торговли": 1649,
      "дене": 1650,
      "лые": 1651,
      "делом": 1652,
      "сторонни": 1653,
      "следую": 1654,
      "компле": 1655,
      "дальнейших": 1656,
      "профессионалов": 1657,
      "стандартов": 1658,
      "Задача": 1659,
      "этих": 1660,
      "рациональных": 1661,
      "провер": 1662,
      "ризма": 1663,
      "свершениям": 1664,
      "факта": 1665,
      "четким": 1666,
      "подоз": 1667,
      "городе": 1668,
      "машина": 1669,
      "гадкое": 1670,
      "представлены": 1671,
      "концепция": 1672,
      "ненужное": 1673,
      "Высокий": 1674,
      "показаться": 1675,
      "науке": 1676,
      "неутеши": 1677,
      "недостой": 1678,
      "происходит": 1679,
      "частью": 1680,
      "значительное": 1681,
      "подготовке": 1682,
      "высокотехнологичная": 1683,
      "likes": 1684,
      "Внезап": 1685,
      "Однозначно": 1686,
      "взгля": 1687,
      "очень": 1688,
      "свежий": 1689,
      "смысле": 1690,
      "свете": 1691,
      "связей": 1692,
      "победы": 1693,
      "решений": 1694,
      "заблоки": 1695,
      "вызывающее": 1696,
      "внешних": 1697,
      "объективно": 1698,
      "проблем": 1699,
      "Значимость": 1700,
      "Предваритель": 1701,
      "Являясь": 1702,
      "аудитории": 1703,
      "сплочённость": 1704,
      "тяжё": 1705,
      "уклада": 1706,
      "почему": 1707,
      "положительном": 1708,
      "последстви": 1709,
      "неправи": 1710,
      "тоталита": 1711,
      "команды": 1712,
      "обстанов": 1713,
      "горизонты": 1714,
      "еръёз": 1715,
      "простого": 1716,
      "противодействий": 1717,
      "доказательством": 1718,
      "инструмен": 1719,
      "предполагает": 1720,
      "семантический": 1721,
      "паттернов": 1722,
      "богатый": 1723,
      "спецификации": 1724,
      "Разнообразный": 1725,
      "сторонники": 1726,
      "неутешительны": 1727,
      "Внезапно": 1728,
      "взгляд": 1729,
      "заблокированы": 1730,
      "Предварительные": 1731,
      "тоталитаризма": 1732,
      "250": 1733,
      "En": 1734,
      "He": 1735,
      "Ky": 1736,
      "The": 1737,
      "av": 1738,
      "cs": 1739,
      "den": 1740,
      "day": 1741,
      "ex": 1742,
      "for": 1743,
      "ge": 1744,
      "gl": 1745,
      "gy": 1746,
      "goo": 1747,
      "has": 1748,
      "ics": 1749,
      "lun": 1750,
      "on": 1751,
      "ou": 1752,
      "sci": 1753,
      "ti": 1754,
      "ul": 1755,
      "uden": 1756,
      "Вон": 1757,
      "Ес": 1758,
      "Есть": 1759,
      "Имеется": 1760,
      "Ну": 1761,
      "Си": 1762,
      "Сложно": 1763,
      "Тре": 1764,
      "Хуй": 1765,
      "ал": 1766,
      "абра": 1767,
      "адек": 1768,
      "би": 1769,
      "бер": 1770,
      "бод": 1771,
      "бред": 1772,
      "вного": 1773,
      "вклю": 1774,
      "вёр": 1775,
      "гл": 1776,
      "гно": 1777,
      "гли": 1778,
      "гну": 1779,
      "гуют": 1780,
      "дях": 1781,
      "ел": 1782,
      "ех": 1783,
      "её": 1784,
      "емы": 1785,
      "ему": 1786,
      "жу": 1787,
      "ждут": 1788,
      "зде": 1789,
      "ине": 1790,
      "иное": 1791,
      "исто": 1792,
      "иного": 1793,
      "ическое": 1794,
      "игно": 1795,
      "йно": 1796,
      "кни": 1797,
      "кви": 1798,
      "кро": 1799,
      "кса": 1800,
      "ктери": 1801,
      "лле": 1802,
      "мно": 1803,
      "мпа": 1804,
      "много": 1805,
      "нг": 1806,
      "нки": 1807,
      "нского": 1808,
      "ощ": 1809,
      "они": 1810,
      "окру": 1811,
      "пиз": 1812,
      "пного": 1813,
      "пус": 1814,
      "роб": 1815,
      "рга": 1816,
      "рная": 1817,
      "рши": 1818,
      "ск": 1819,
      "сс": 1820,
      "сло": 1821,
      "слу": 1822,
      "сказа": 1823,
      "сери": 1824,
      "снить": 1825,
      "тные": 1826,
      "унда": 1827,
      "управл": 1828,
      "уделом": 1829,
      "ху": 1830,
      "хер": 1831,
      "хара": 1832,
      "чка": 1833,
      "чни": 1834,
      "чрез": 1835,
      "щным": 1836,
      "ычно": 1837,
      "эмо": 1838,
      "эмпа": 1839,
      "эсс": 1840,
      "ющиеся": 1841,
      "яга": 1842,
      "ятий": 1843,
      "стско": 1844,
      "новой": 1845,
      "нотехнологии": 1846,
      "енцию": 1847,
      "енеб": 1848,
      "ральная": 1849,
      "ражаю": 1850,
      "понен": 1851,
      "повест": 1852,
      "поэта": 1853,
      "погру": 1854,
      "последова": 1855,
      "напр": 1856,
      "нами": 1857,
      "наро": 1858,
      "насе": 1859,
      "нату": 1860,
      "насу": 1861,
      "назва": 1862,
      "нанотехнологии": 1863,
      "ресу": 1864,
      "решения": 1865,
      "ова": 1866,
      "непред": 1867,
      "нечно": 1868,
      "некоторы": 1869,
      "непос": 1870,
      "непрост": 1871,
      "неразум": 1872,
      "ток": 1873,
      "того": 1874,
      "торов": 1875,
      "точно": 1876,
      "каль": 1877,
      "када": 1878,
      "каса": 1879,
      "какую": 1880,
      "какое": 1881,
      "комы": 1882,
      "конечно": 1883,
      "нибу": 1884,
      "ница": 1885,
      "етическое": 1886,
      "льную": 1887,
      "тии": 1888,
      "тизации": 1889,
      "пренеб": 1890,
      "цированы": 1891,
      "тести": 1892,
      "теги": 1893,
      "терес": 1894,
      "теснить": 1895,
      "забу": 1896,
      "закры": 1897,
      "задума": 1898,
      "обли": 1899,
      "обычно": 1900,
      "госу": 1901,
      "годня": 1902,
      "лия": 1903,
      "либера": 1904,
      "либер": 1905,
      "вон": 1906,
      "ват": 1907,
      "вающиеся": 1908,
      "через": 1909,
      "дар": 1910,
      "даны": 1911,
      "дера": 1912,
      "виды": 1913,
      "вый": 1914,
      "выча": 1915,
      "выбо": 1916,
      "вытеснить": 1917,
      "такого": 1918,
      "разд": 1919,
      "разба": 1920,
      "тьего": 1921,
      "мога": 1922,
      "превоз": 1923,
      "ерунда": 1924,
      "мально": 1925,
      "пропа": 1926,
      "сящая": 1927,
      "сор": 1928,
      "соста": 1929,
      "созна": 1930,
      "ениях": 1931,
      "стика": 1932,
      "стигли": 1933,
      "стает": 1934,
      "стати": 1935,
      "статоч": 1936,
      "док": 1937,
      "долей": 1938,
      "допус": 1939,
      "достигли": 1940,
      "достаточ": 1941,
      "акции": 1942,
      "прибы": 1943,
      "призва": 1944,
      "приоре": 1945,
      "час": 1946,
      "веща": 1947,
      "сила": 1948,
      "синт": 1949,
      "риру": 1950,
      "куп": 1951,
      "ганди": 1952,
      "чить": 1953,
      "информа": 1954,
      "мел": 1955,
      "сегодня": 1956,
      "изряд": 1957,
      "парши": 1958,
      "тивная": 1959,
      "собственные": 1960,
      "третьего": 1961,
      "людях": 1962,
      "сужд": 1963,
      "вленное": 1964,
      "граница": 1965,
      "развивающиеся": 1966,
      "дур": 1967,
      "пил": 1968,
      "пиров": 1969,
      "ются": 1970,
      "ческом": 1971,
      "подвер": 1972,
      "дицион": 1973,
      "использ": 1974,
      "ременные": 1975,
      "белибер": 1976,
      "представляет": 1977,
      "муть": 1978,
      "успе": 1979,
      "рассужд": 1980,
      "мери": 1981,
      "меропри": 1982,
      "фических": 1983,
      "фицированы": 1984,
      "чном": 1985,
      "ish": 1986,
      "конкре": 1987,
      "кончиться": 1988,
      "зависимых": 1989,
      "her": 1990,
      "hemat": 1991,
      "спорная": 1992,
      "общем": 1993,
      "базы": 1994,
      "всех": 1995,
      "торгу": 1996,
      "торгуют": 1997,
      "современного": 1998,
      "внеочередных": 1999,
      "дови": 2000,
      "своей": 2001,
      "своём": 2002,
      "гово": 2003,
      "ходя": 2004,
      "редственные": 2005,
      "енью": 2006,
      "существенных": 2007,
      "жаждут": 2008,
      "активно": 2009,
      "формирования": 2010,
      "можно": 2011,
      "стоящее": 2012,
      "ционно": 2013,
      "способы": 2014,
      "способного": 2015,
      "ряда": 2016,
      "стран": 2017,
      "страны": 2018,
      "стратеги": 2019,
      "актива": 2020,
      "примерно": 2021,
      "широком": 2022,
      "пурга": 2023,
      "чём": 2024,
      "поведение": 2025,
      "неизвестный": 2026,
      "логично": 2027,
      "методов": 2028,
      "ографических": 2029,
      "всякую": 2030,
      "всякой": 2031,
      "оппозиции": 2032,
      "сленных": 2033,
      "независимых": 2034,
      "разума": 2035,
      "разумеется": 2036,
      "разумом": 2037,
      "туальных": 2038,
      "остаются": 2039,
      "плох": 2040,
      "чушь": 2041,
      "терми": 2042,
      "процесс": 2043,
      "процессов": 2044,
      "процессами": 2045,
      "сложившую": 2046,
      "крати": 2047,
      "объяс": 2048,
      "финансовом": 2049,
      "целой": 2050,
      "целого": 2051,
      "соответствующей": 2052,
      "мящиеся": 2053,
      "освеща": 2054,
      "шнего": 2055,
      "произвед": 2056,
      "вещей": 2057,
      "мышление": 2058,
      "участники": 2059,
      "трейдинга": 2060,
      "технического": 2061,
      "груз": 2062,
      "ьюче": 2063,
      "явлений": 2064,
      "постоянное": 2065,
      "кадровой": 2066,
      "малозначительное": 2067,
      "ситуации": 2068,
      "ситуацию": 2069,
      "самом": 2070,
      "самодостаточ": 2071,
      "исследования": 2072,
      "торговля": 2073,
      "интересные": 2074,
      "интересный": 2075,
      "интересная": 2076,
      "экономическая": 2077,
      "повышение": 2078,
      "обеспечение": 2079,
      "ence": 2080,
      "ямую": 2081,
      "стремящиеся": 2082,
      "проекта": 2083,
      "стороны": 2084,
      "сделанное": 2085,
      "art": 2086,
      "mathemat": 2087,
      "studen": 2088,
      "Какая": 2089,
      "рациональное": 2090,
      "прово": 2091,
      "принимать": 2092,
      "мысли": 2093,
      "гражданского": 2094,
      "факторов": 2095,
      "потребност": 2096,
      "машины": 2097,
      "музыка": 2098,
      "музыки": 2099,
      "концептуальных": 2100,
      "производство": 2101,
      "производственный": 2102,
      "acher": 2103,
      "all": 2104,
      "нтэсс": 2105,
      "сроч": 2106,
      "традицион": 2107,
      "ностях": 2108,
      "массово": 2109,
      "состояние": 2110,
      "ройства": 2111,
      "событий": 2112,
      "результат": 2113,
      "качественно": 2114,
      "качественное": 2115,
      "Интерес": 2116,
      "Лишь": 2117,
      "ахине": 2118,
      "гласящая": 2119,
      "сеть": 2120,
      "валютой": 2121,
      "инновационных": 2122,
      "возможностях": 2123,
      "компьютер": 2124,
      "глубокомы": 2125,
      "тенденций": 2126,
      "маркетинга": 2127,
      "эксперимент": 2128,
      "своевременно": 2129,
      "teacher": 2130,
      "which": 2131,
      "Современные": 2132,
      "географических": 2133,
      "именова": 2134,
      "краска": 2135,
      "плыла": 2136,
      "тропи": 2137,
      "устройства": 2138,
      "ступенью": 2139,
      "неприятное": 2140,
      "косми": 2141,
      "запах": 2142,
      "принципов": 2143,
      "механиз": 2144,
      "фильм": 2145,
      "компаний": 2146,
      "верифицированы": 2147,
      "совершен": 2148,
      "группиров": 2149,
      "денег": 2150,
      "следующее": 2151,
      "комплекса": 2152,
      "проверки": 2153,
      "подозритель": 2154,
      "последствия": 2155,
      "неправильное": 2156,
      "обстановки": 2157,
      "инструментами": 2158,
      "Engl": 2159,
      "Kyle": 2160,
      "gym": 2161,
      "good": 2162,
      "lunch": 2163,
      "science": 2164,
      "Если": 2165,
      "Трей": 2166,
      "Хуйня": 2167,
      "абракада": 2168,
      "бодяга": 2169,
      "включения": 2170,
      "глоба": 2171,
      "гнуты": 2172,
      "емый": 2173,
      "здесь": 2174,
      "источни": 2175,
      "игнориру": 2176,
      "квинтэсс": 2177,
      "кроме": 2178,
      "ктеристика": 2179,
      "ощу": 2180,
      "окружаю": 2181,
      "сказать": 2182,
      "серии": 2183,
      "управления": 2184,
      "характеристика": 2185,
      "чрезвыча": 2186,
      "эмоциями": 2187,
      "эмпатии": 2188,
      "стское": 2189,
      "повестка": 2190,
      "поэтапного": 2191,
      "последовательного": 2192,
      "напрямую": 2193,
      "натуральная": 2194,
      "насущным": 2195,
      "ресур": 2196,
      "некоторых": 2197,
      "непосредственные": 2198,
      "непростую": 2199,
      "касаемо": 2200,
      "нибудь": 2201,
      "пренебре": 2202,
      "тестирование": 2203,
      "забуб": 2204,
      "задуматься": 2205,
      "государ": 2206,
      "либералов": 2207,
      "выбора": 2208,
      "разбавленное": 2209,
      "могая": 2210,
      "превозмогая": 2211,
      "пропаганди": 2212,
      "сознания": 2213,
      "допуска": 2214,
      "прибыль": 2215,
      "приоретизации": 2216,
      "синтетическое": 2217,
      "информационно": 2218,
      "сегодняшнего": 2219,
      "изрядной": 2220,
      "подвергнуты": 2221,
      "белиберда": 2222,
      "рассуждений": 2223,
      "мероприятий": 2224,
      "конкретные": 2225,
      "торгует": 2226,
      "сложившуюся": 2227,
      "освещают": 2228,
      "самодостаточных": 2229,
      "mathematics": 2230,
      "потребностям": 2231,
      "традиционное": 2232,
      "массового": 2233,
      "Интересно": 2234,
      "ахинея": 2235,
      "глубокомысленных": 2236,
      "English": 2237,
      "абракадабра": 2238,
      "квинтэссенцию": 2239,
      "чрезвычайно": 2240,
      "пропагандистское": 2241,
      ".!,": 2242,
      "00": 2243,
      "It": 2244,
      "Lin": 2245,
      "Win": 2246,
      "ad": 2247,
      "ak": 2248,
      "bu": 2249,
      "call": 2250,
      "fi": 2251,
      "ful": 2252,
      "go": 2253,
      "har": 2254,
      "hav": 2255,
      "ju": 2256,
      "mo": 2257,
      "nex": 2258,
      "ome": 2259,
      "pac": 2260,
      "ri": 2261,
      "ry": 2262,
      "sch": 2263,
      "some": 2264,
      "ter": 2265,
      "ux": 2266,
      "wor": 2267,
      "Амери": 2268,
      "Бля": 2269,
      "Ве": 2270,
      "Дей": 2271,
      "Ещё": 2272,
      "Кстати": 2273,
      "Мы": 2274,
      "Мет": 2275,
      "Про": 2276,
      "Пах": 2277,
      "Сле": 2278,
      "Смотри": 2279,
      "Ты": 2280,
      "Фра": 2281,
      "Яс": 2282,
      "ам": 2283,
      "ая": 2284,
      "ави": 2285,
      "ами": 2286,
      "бя": 2287,
      "бности": 2288,
      "вра": 2289,
      "вче": 2290,
      "вле": 2291,
      "впе": 2292,
      "вши": 2293,
      "вной": 2294,
      "гро": 2295,
      "гков": 2296,
      "дка": 2297,
      "дной": 2298,
      "дней": 2299,
      "доба": 2300,
      "ела": 2301,
      "един": 2302,
      "жна": 2303,
      "жду": 2304,
      "жды": 2305,
      "ждь": 2306,
      "жании": 2307,
      "зла": 2308,
      "зме": 2309,
      "зности": 2310,
      "зкое": 2311,
      "зел": 2312,
      "ини": 2313,
      "ить": 2314,
      "имость": 2315,
      "имя": 2316,
      "йка": 2317,
      "кционных": 2318,
      "лё": 2319,
      "лти": 2320,
      "ллю": 2321,
      "лке": 2322,
      "мне": 2323,
      "мма": 2324,
      "мения": 2325,
      "нд": 2326,
      "нс": 2327,
      "нст": 2328,
      "нно": 2329,
      "нра": 2330,
      "нка": 2331,
      "нений": 2332,
      "нении": 2333,
      "нём": 2334,
      "оне": 2335,
      "ожи": 2336,
      "опи": 2337,
      "озности": 2338,
      "пен": 2339,
      "пли": 2340,
      "пак": 2341,
      "пин": 2342,
      "пней": 2343,
      "рен": 2344,
      "рпи": 2345,
      "рсами": 2346,
      "ски": 2347,
      "сла": 2348,
      "сства": 2349,
      "ские": 2350,
      "смыс": 2351,
      "серъёз": 2352,
      "тка": 2353,
      "тру": 2354,
      "тный": 2355,
      "тления": 2356,
      "ут": 2357,
      "уни": 2358,
      "убо": 2359,
      "ужа": 2360,
      "уваж": 2361,
      "указа": 2362,
      "убеж": 2363,
      "учить": 2364,
      "угро": 2365,
      "умения": 2366,
      "фра": 2367,
      "фьюче": 2368,
      "хзада": 2369,
      "хит": 2370,
      "хими": 2371,
      "шко": 2372,
      "шта": 2373,
      "шла": 2374,
      "шин": 2375,
      "шности": 2376,
      "щь": 2377,
      "ъём": 2378,
      "ые": 2379,
      "ься": 2380,
      "эн": 2381,
      "ющих": 2382,
      "ющие": 2383,
      "ющем": 2384,
      "язы": 2385,
      "являет": 2386,
      "ён": 2387,
      "носте": 2388,
      "ночная": 2389,
      "ногла": 2390,
      "рая": 2391,
      "ради": 2392,
      "ранда": 2393,
      "растает": 2394,
      "равной": 2395,
      "пой": 2396,
      "помо": 2397,
      "пога": 2398,
      "попол": 2399,
      "полож": 2400,
      "похо": 2401,
      "потом": 2402,
      "поех": 2403,
      "поражаю": 2404,
      "поплыла": 2405,
      "нах": 2406,
      "напол": 2407,
      "например": 2408,
      "наименова": 2409,
      "рест": 2410,
      "репли": 2411,
      "овка": 2412,
      "непри": 2413,
      "неры": 2414,
      "неадек": 2415,
      "необъяс": 2416,
      "тоже": 2417,
      "тому": 2418,
      "кате": 2419,
      "каким": 2420,
      "каранда": 2421,
      "кость": 2422,
      "колле": 2423,
      "кокачественное": 2424,
      "ник": 2425,
      "ничто": 2426,
      "ническое": 2427,
      "нирование": 2428,
      "нимое": 2429,
      "еться": 2430,
      "тит": 2431,
      "пря": 2432,
      "цина": 2433,
      "цирован": 2434,
      "тепер": 2435,
      "телей": 2436,
      "зара": 2437,
      "зару": 2438,
      "заклю": 2439,
      "залу": 2440,
      "запу": 2441,
      "закончиться": 2442,
      "гого": 2443,
      "лит": 2444,
      "вах": 2445,
      "вари": 2446,
      "вают": 2447,
      "ваться": 2448,
      "вающее": 2449,
      "ваемо": 2450,
      "чей": 2451,
      "даже": 2452,
      "део": 2453,
      "дец": 2454,
      "деля": 2455,
      "демо": 2456,
      "дела": 2457,
      "винг": 2458,
      "видео": 2459,
      "вые": 2460,
      "выну": 2461,
      "выбра": 2462,
      "выпил": 2463,
      "выявляет": 2464,
      "тан": 2465,
      "тах": 2466,
      "табу": 2467,
      "такую": 2468,
      "талки": 2469,
      "лоди": 2470,
      "лось": 2471,
      "разные": 2472,
      "разрез": 2473,
      "разногла": 2474,
      "лежи": 2475,
      "легков": 2476,
      "лях": 2477,
      "ляющее": 2478,
      "мора": 2479,
      "монст": 2480,
      "претенден": 2481,
      "преданы": 2482,
      "минима": 2483,
      "мистики": 2484,
      "еры": 2485,
      "магни": 2486,
      "машин": 2487,
      "прода": 2488,
      "проду": 2489,
      "сят": 2490,
      "сос": 2491,
      "сомы": 2492,
      "содер": 2493,
      "стический": 2494,
      "лая": 2495,
      "стату": 2496,
      "ставляет": 2497,
      "ставка": 2498,
      "доро": 2499,
      "доже": 2500,
      "дождь": 2501,
      "отри": 2502,
      "отень": 2503,
      "отмет": 2504,
      "отталки": 2505,
      "акцио": 2506,
      "ром": 2507,
      "рости": 2508,
      "призна": 2509,
      "привести": 2510,
      "нятие": 2511,
      "часов": 2512,
      "часто": 2513,
      "чатления": 2514,
      "чаеться": 2515,
      "весто": 2516,
      "весь": 2517,
      "вещь": 2518,
      "весомы": 2519,
      "сий": 2520,
      "сивного": 2521,
      "руют": 2522,
      "льной": 2523,
      "льном": 2524,
      "кунд": 2525,
      "кусства": 2526,
      "гающее": 2527,
      "галлю": 2528,
      "ческая": 2529,
      "ческие": 2530,
      "место": 2531,
      "между": 2532,
      "предпринима": 2533,
      "одной": 2534,
      "секунд": 2535,
      "измен": 2536,
      "стоимость": 2537,
      "пакость": 2538,
      "значения": 2539,
      "знаваемо": 2540,
      "ловой": 2541,
      "самых": 2542,
      "сумма": 2543,
      "болез": 2544,
      "было": 2545,
      "тыся": 2546,
      "гранди": 2547,
      "дурости": 2548,
      "пита": 2549,
      "пила": 2550,
      "писк": 2551,
      "ственной": 2552,
      "буты": 2553,
      "подце": 2554,
      "подъём": 2555,
      "циях": 2556,
      "искусства": 2557,
      "бере": 2558,
      "мура": 2559,
      "расы": 2560,
      "раскраска": 2561,
      "мерзкое": 2562,
      "целые": 2563,
      "нимая": 2564,
      "нул": 2565,
      "нужна": 2566,
      "тельные": 2567,
      "101": 2568,
      "современные": 2569,
      "довери": 2570,
      "своим": 2571,
      "ствие": 2572,
      "позицию": 2573,
      "говор": 2574,
      "говых": 2575,
      "трейдера": 2576,
      "това": 2577,
      "которой": 2578,
      "200": 2579,
      "анафе": 2580,
      "аналогично": 2581,
      "ценности": 2582,
      "263": 2583,
      "ском": 2584,
      "полет": 2585,
      "получить": 2586,
      "ционами": 2587,
      "формируют": 2588,
      "300": 2589,
      "шаю": 2590,
      "шаны": 2591,
      "шари": 2592,
      "качественный": 2593,
      "жается": 2594,
      "ненности": 2595,
      "шься": 2596,
      "этой": 2597,
      "ционный": 2598,
      "ционная": 2599,
      "действие": 2600,
      "политик": 2601,
      "определяющее": 2602,
      "активы": 2603,
      "широкие": 2604,
      "путь": 2605,
      "чёвка": 2606,
      "поведении": 2607,
      "неизвестные": 2608,
      "ответу": 2609,
      "класси": 2610,
      "полезла": 2611,
      "всякая": 2612,
      "круто": 2613,
      "крупней": 2614,
      "оппонен": 2615,
      "опционами": 2616,
      "шёл": 2617,
      "посё": 2618,
      "понятие": 2619,
      "точках": 2620,
      "виден": 2621,
      "экономическое": 2622,
      "осталось": 2623,
      "чудови": 2624,
      "возрастает": 2625,
      "ставлены": 2626,
      "относят": 2627,
      "требуют": 2628,
      "шейся": 2629,
      "сложившейся": 2630,
      "any": 2631,
      "Принимая": 2632,
      "холоди": 2633,
      "объедин": 2634,
      "дешёвое": 2635,
      "дешёвый": 2636,
      "технологий": 2637,
      "tory": 2638,
      "осмыс": 2639,
      "щаемого": 2640,
      "вещество": 2641,
      "вещества": 2642,
      "вещественного": 2643,
      "существующее": 2644,
      "существующего": 2645,
      "базовые": 2646,
      "бесполезности": 2647,
      "бесполезность": 2648,
      "брать": 2649,
      "внутри": 2650,
      "ктивах": 2651,
      "постоянно": 2652,
      "несеръёз": 2653,
      "выполнения": 2654,
      "предоставляет": 2655,
      "предоставлены": 2656,
      "прогрессивного": 2657,
      "созда": 2658,
      "ситуаций": 2659,
      "предмета": 2660,
      "предметов": 2661,
      "предметного": 2662,
      "торговле": 2663,
      "экономических": 2664,
      "сказ": 2665,
      "сказо": 2666,
      "сторож": 2667,
      "ключевых": 2668,
      "функцио": 2669,
      "are": 2670,
      "they": 2671,
      "Занятие": 2672,
      "Кажды": 2673,
      "внимание": 2674,
      "опасная": 2675,
      "тием": 2676,
      "выраст": 2677,
      "могущие": 2678,
      "принимаемого": 2679,
      "очевидную": 2680,
      "внутренних": 2681,
      "материального": 2682,
      "глупо": 2683,
      "дённость": 2684,
      "ебини": 2685,
      "сверхзада": 2686,
      "потребность": 2687,
      "негативно": 2688,
      "негативная": 2689,
      "город": 2690,
      "переосмыс": 2691,
      "представлении": 2692,
      "распределения": 2693,
      "кластеры": 2694,
      "предпосылок": 2695,
      "alk": 2696,
      "ool": 2697,
      "срочном": 2698,
      "упак": 2699,
      "повлия": 2700,
      "показатели": 2701,
      "пользова": 2702,
      "науки": 2703,
      "неузнаваемо": 2704,
      "недоумения": 2705,
      "низкокачественное": 2706,
      "вампи": 2707,
      "презрения": 2708,
      "презренное": 2709,
      "масшта": 2710,
      "происходя": 2711,
      "состояний": 2712,
      "событие": 2713,
      "пидорасы": 2714,
      "подобных": 2715,
      "подобным": 2716,
      "подготовки": 2717,
      "результатам": 2718,
      "внешнеэкономических": 2719,
      "пустое": 2720,
      "пустота": 2721,
      "аппарат": 2722,
      "аппаратов": 2723,
      "фантази": 2724,
      "фантастики": 2725,
      "фантастический": 2726,
      "Линей": 2727,
      "всё": 2728,
      "другой": 2729,
      "другого": 2730,
      "ждены": 2731,
      "имита": 2732,
      "лета": 2733,
      "сети": 2734,
      "словес": 2735,
      "район": 2736,
      "районе": 2737,
      "тонкий": 2738,
      "данной": 2739,
      "данными": 2740,
      "инновационный": 2741,
      "....,": 2742,
      "возможности": 2743,
      "компьюте": 2744,
      "глубокий": 2745,
      "маркетинговых": 2746,
      "экспериментов": 2747,
      "эффектов": 2748,
      "своевременного": 2749,
      "dows": 2750,
      "движения": 2751,
      "итое": 2752,
      "смешаны": 2753,
      "ублюд": 2754,
      "ублюдок": 2755,
      "нормально": 2756,
      "новост": 2757,
      "растения": 2758,
      "растение": 2759,
      "понимает": 2760,
      "телеви": 2761,
      "воспринимаемого": 2762,
      "молодёж": 2763,
      "молодёжи": 2764,
      "сомнений": 2765,
      "мелочь": 2766,
      "мелочёвка": 2767,
      "бежных": 2768,
      "конструкции": 2769,
      "конструкций": 2770,
      "существов": 2771,
      "понятия": 2772,
      "понятиям": 2773,
      "чувств": 2774,
      "недостойное": 2775,
      "недостойный": 2776,
      "тяжёло": 2777,
      "тяжёлые": 2778,
      "gets": 2779,
      "ons": 2780,
      "алл": 2781,
      "книг": 2782,
      "пиздец": 2783,
      "робот": 2784,
      "случиться": 2785,
      "художе": 2786,
      "херотень": 2787,
      "погружения": 2788,
      "народной": 2789,
      "насеко": 2790,
      "непредус": 2791,
      "кальными": 2792,
      "закрывает": 2793,
      "облига": 2794,
      "раздражения": 2795,
      "призваны": 2796,
      "мелкое": 2797,
      "паршивое": 2798,
      "успешности": 2799,
      "говоры": 2800,
      "стратегия": 2801,
      "активами": 2802,
      "плохой": 2803,
      "кратической": 2804,
      "students": 2805,
      "срочную": 2806,
      "компьютерная": 2807,
      "тропиках": 2808,
      "фильмов": 2809,
      "совершенной": 2810,
      "группировках": 2811,
      "подозрительная": 2812,
      "Трейдер": 2813,
      "глобальную": 2814,
      "источников": 2815,
      "игнорируемый": 2816,
      "ощущаемого": 2817,
      "окружающей": 2818,
      "ресурсов": 2819,
      "пренебрежения": 2820,
      "государства": 2821,
      "допускает": 2822,
      "Linux": 2823,
      "Windows": 2824,
      "but": 2825,
      "hard": 2826,
      "just": 2827,
      "next": 2828,
      "school": 2829,
      "Металл": 2830,
      "Пахнет": 2831,
      "Следует": 2832,
      "Фран": 2833,
      "Ясность": 2834,
      "вчера": 2835,
      "впечатления": 2836,
      "добавляют": 2837,
      "нравя": 2838,
      "описа": 2839,
      "пакет": 2840,
      "пинг": 2841,
      "смысловой": 2842,
      "серъёзного": 2843,
      "труда": 2844,
      "уникальными": 2845,
      "убожество": 2846,
      "ужасов": 2847,
      "уважения": 2848,
      "указаны": 2849,
      "убеждённость": 2850,
      "угрозы": 2851,
      "фракционных": 2852,
      "фьючерсами": 2853,
      "ностей": 2854,
      "поползла": 2855,
      "поражающих": 2856,
      "наполненности": 2857,
      "наименование": 2858,
      "реплицирован": 2859,
      "необъяснимое": 2860,
      "катего": 2861,
      "коллективах": 2862,
      "ничтожество": 2863,
      "теперь": 2864,
      "зарубежных": 2865,
      "заключаеться": 2866,
      "запутан": 2867,
      "деляют": 2868,
      "демократической": 2869,
      "вынуждены": 2870,
      "выбранный": 2871,
      "разрезе": 2872,
      "разногласий": 2873,
      "лежит": 2874,
      "легковес": 2875,
      "претенденты": 2876,
      "минимальном": 2877,
      "магнито": 2878,
      "продук": 2879,
      "содержании": 2880,
      "статус": 2881,
      "отрица": 2882,
      "отметить": 2883,
      "отталкиваться": 2884,
      "акционеры": 2885,
      "весомым": 2886,
      "галлюцина": 2887,
      "международной": 2888,
      "предприниматели": 2889,
      "грандиозности": 2890,
      "доверия": 2891,
      "анафеме": 2892,
      "классическом": 2893,
      "крупнейших": 2894,
      "оппонентов": 2895,
      "чудовище": 2896,
      "холодильни": 2897,
      "объединены": 2898,
      "несеръёзное": 2899,
      "сказок": 2900,
      "Каждый": 2901,
      "сверхзадачи": 2902,
      "переосмысления": 2903,
      "пользователей": 2904,
      "неузнаваемости": 2905,
      "масштабности": 2906,
      "происходящего": 2907,
      "художественной": 2908,
      "реплицированные": 2909
    },
    "merges": [
      [
        "с",
        "т"
      ],
      [
        "н",
        "о"
      ],
      [
        "е",
        "н"
      ],
      [
        "р",
        "а"
      ],
      [
        "п",
        "о"
      ],
      [
        "н",
        "а"
      ],
      [
        "р",
        "е"
      ],
      [
        "о",
        "в"
      ],
      [
        "н",
        "ы"
      ],
      [
        "н",
        "е"
      ],
      [
        "т",
        "о"
      ],
      [
        "к",
        "а"
      ],
      [
        "к",
        "о"
      ],
      [
        "н",
        "и"
      ],
      [
        "е",
        "т"
      ],
      [
        "л",
        "ь"
      ],
      [
        "ен",
        "и"
      ],
      [
        "т",
        "и"
      ],
      [
        "п",
        "р"
      ],
      [
        "ц",
        "и"
      ],
      [
        "т",
        "е"
      ],
      [
        "з",
        "а"
      ],
      [
        "о",
        "б"
      ],
      [
        "г",
        "о"
      ],
      [
        "л",
        "и"
      ],
      [
        "в",
        "о"
      ],
      [
        "в",
        "а"
      ],
      [
        "ч",
        "е"
      ],
      [
        "д",
        "а"
      ],
      [
        "д",
        "е"
      ],
      [
        "в",
        "и"
      ],
      [
        "в",
        "ы"
      ],
      [
        "т",
        "а"
      ],
      [
        "к",
        "и"
      ],
      [
        "л",
        "о"
      ],
      [
        "ра",
        "з"
      ],
      [
        "ны",
        "х"
      ],
      [
        "л",
        "е"
      ],
      [
        "т",
        "ь"
      ],
      [
        "л",
        "я"
      ],
      [
        "м",
        "о"
      ],
      [
        "п",
        "ре"
      ],
      [
        "м",
        "и"
      ],
      [
        "е",
        "р"
      ],
      [
        "м",
        "а"
      ],
      [
        "пр",
        "о"
      ],
      [
        "с",
        "я"
      ],
      [
        "с",
        "о"
      ],
      [
        "щ",
        "е"
      ],
      [
        "ени",
        "я"
      ],
      [
        "ст",
        "и"
      ],
      [
        "л",
        "а"
      ],
      [
        "ст",
        "а"
      ],
      [
        "д",
        "о"
      ],
      [
        "о",
        "т"
      ],
      [
        "но",
        "е"
      ],
      [
        "а",
        "к"
      ],
      [
        "р",
        "о"
      ],
      [
        "пр",
        "и"
      ],
      [
        "н",
        "я"
      ],
      [
        "ч",
        "а"
      ],
      [
        "в",
        "е"
      ],
      [
        "с",
        "и"
      ],
      [
        "р",
        "и"
      ],
      [
        "р",
        "у"
      ],
      [
        "ст",
        "в"
      ],
      [
        "ль",
        "но"
      ],
      [
        "к",
        "у"
      ],
      [
        "ст",
        "ь"
      ],
      [
        "р",
        "ы"
      ],
      [
        "р",
        "ов"
      ],
      [
        "ч",
        "то"
      ],
      [
        "м",
        "ы"
      ],
      [
        "г",
        "а"
      ],
      [
        "ны",
        "е"
      ],
      [
        "с",
        "ов"
      ],
      [
        "ч",
        "и"
      ],
      [
        "че",
        "с"
      ],
      [
        "и",
        "н"
      ],
      [
        "ци",
        "и"
      ],
      [
        "у",
        "й"
      ],
      [
        "м",
        "е"
      ],
      [
        "ны",
        "й"
      ],
      [
        "пре",
        "д"
      ],
      [
        "о",
        "д"
      ],
      [
        "с",
        "е"
      ],
      [
        "х",
        "уй"
      ],
      [
        "и",
        "з"
      ],
      [
        "ст",
        "о"
      ],
      [
        "п",
        "а"
      ],
      [
        "т",
        "у"
      ],
      [
        "ени",
        "е"
      ],
      [
        "м",
        "ен"
      ],
      [
        "з",
        "на"
      ],
      [
        "л",
        "ов"
      ],
      [
        "у",
        "ю"
      ],
      [
        "ти",
        "в"
      ],
      [
        "о",
        "р"
      ],
      [
        "е",
        "с"
      ],
      [
        "с",
        "об"
      ],
      [
        "щ",
        "и"
      ],
      [
        "а",
        "ни"
      ],
      [
        "т",
        "ре"
      ],
      [
        "ж",
        "е"
      ],
      [
        "п",
        "е"
      ],
      [
        "на",
        "я"
      ],
      [
        "л",
        "ю"
      ],
      [
        "с",
        "а"
      ],
      [
        "с",
        "у"
      ],
      [
        "ен",
        "ы"
      ],
      [
        "хуй",
        "ня"
      ],
      [
        "б",
        "о"
      ],
      [
        "ш",
        "и"
      ],
      [
        "ци",
        "о"
      ],
      [
        "б",
        "ы"
      ],
      [
        "в",
        "л"
      ],
      [
        "ж",
        "и"
      ],
      [
        "т",
        "ы"
      ],
      [
        "г",
        "ра"
      ],
      [
        "раз",
        "ви"
      ],
      [
        "в",
        "ля"
      ],
      [
        "те",
        "льно"
      ],
      [
        "д",
        "у"
      ],
      [
        "п",
        "и"
      ],
      [
        "ю",
        "т"
      ],
      [
        "но",
        "сти"
      ],
      [
        "но",
        "сть"
      ],
      [
        "ств",
        "ен"
      ],
      [
        "разви",
        "ти"
      ],
      [
        "!",
        ","
      ],
      [
        "чес",
        "ко"
      ],
      [
        "б",
        "у"
      ],
      [
        "по",
        "д"
      ],
      [
        "за",
        "ции"
      ],
      [
        "з",
        "ы"
      ],
      [
        "по",
        "з"
      ],
      [
        "ци",
        "я"
      ],
      [
        "д",
        "и"
      ],
      [
        "у",
        "ча"
      ],
      [
        "ка",
        "я"
      ],
      [
        "и",
        "с"
      ],
      [
        "ре",
        "мен"
      ],
      [
        "б",
        "е"
      ],
      [
        "ф",
        "ор"
      ],
      [
        "но",
        "го"
      ],
      [
        "ци",
        "а"
      ],
      [
        "пред",
        "ста"
      ],
      [
        "д",
        "ля"
      ],
      [
        "м",
        "у"
      ],
      [
        "с",
        "ле"
      ],
      [
        "у",
        "с"
      ],
      [
        "ш",
        "е"
      ],
      [
        "ра",
        "с"
      ],
      [
        "ва",
        "ет"
      ],
      [
        "м",
        "ер"
      ],
      [
        "ф",
        "и"
      ],
      [
        "ч",
        "но"
      ],
      [
        "ст",
        "во"
      ],
      [
        "i",
        "s"
      ],
      [
        "К",
        "ак"
      ],
      [
        "ц",
        "е"
      ],
      [
        "ни",
        "ма"
      ],
      [
        "н",
        "у"
      ],
      [
        "ени",
        "й"
      ],
      [
        "д",
        "ы"
      ],
      [
        "к",
        "лю"
      ],
      [
        "но",
        "й"
      ],
      [
        "ре",
        "з"
      ],
      [
        "ка",
        "к"
      ],
      [
        "ко",
        "н"
      ],
      [
        "те",
        "ль"
      ],
      [
        "за",
        "ви"
      ],
      [
        "та",
        "к"
      ],
      [
        "ки",
        "й"
      ],
      [
        "пре",
        "де"
      ],
      [
        "зави",
        "си"
      ],
      [
        "h",
        "e"
      ],
      [
        "с",
        "по"
      ],
      [
        "ст",
        "ва"
      ],
      [
        "об",
        "ще"
      ],
      [
        "1",
        "0"
      ],
      [
        "а",
        "н"
      ],
      [
        "б",
        "а"
      ],
      [
        "в",
        "се"
      ],
      [
        "к",
        "е"
      ],
      [
        "ст",
        "ру"
      ],
      [
        "то",
        "р"
      ],
      [
        "об",
        "раз"
      ],
      [
        "ров",
        "ани"
      ],
      [
        "сов",
        "ремен"
      ],
      [
        "в",
        "не"
      ],
      [
        "г",
        "и"
      ],
      [
        "д",
        "ов"
      ],
      [
        "с",
        "во"
      ],
      [
        "ст",
        "ви"
      ],
      [
        "но",
        "вы"
      ],
      [
        "ны",
        "м"
      ],
      [
        "за",
        "да"
      ],
      [
        "де",
        "й"
      ],
      [
        "поз",
        "и"
      ],
      [
        "5",
        "0"
      ],
      [
        "г",
        "ов"
      ],
      [
        "е",
        "к"
      ],
      [
        "л",
        "ения"
      ],
      [
        "о",
        "н"
      ],
      [
        "ен",
        "ных"
      ],
      [
        "тре",
        "й"
      ],
      [
        "развити",
        "я"
      ],
      [
        "a",
        "s"
      ],
      [
        "в",
        "ет"
      ],
      [
        "п",
        "ра"
      ],
      [
        "т",
        "ов"
      ],
      [
        "х",
        "од"
      ],
      [
        "ре",
        "д"
      ],
      [
        "ко",
        "то"
      ],
      [
        "те",
        "х"
      ],
      [
        "ли",
        "ти"
      ],
      [
        "со",
        "циа"
      ],
      [
        "ще",
        "е"
      ],
      [
        "ств",
        "ую"
      ],
      [
        "ин",
        "те"
      ],
      [
        "ус",
        "лов"
      ],
      [
        "2",
        "0"
      ],
      [
        "а",
        "на"
      ],
      [
        "о",
        "м"
      ],
      [
        "ц",
        "ен"
      ],
      [
        "ен",
        "ь"
      ],
      [
        "ре",
        "с"
      ],
      [
        "ча",
        "ст"
      ],
      [
        "щи",
        "х"
      ],
      [
        "стру",
        "к"
      ],
      [
        "2",
        "6"
      ],
      [
        "с",
        "ко"
      ],
      [
        "по",
        "л"
      ],
      [
        "ве",
        "д"
      ],
      [
        "су",
        "ще"
      ],
      [
        "цио",
        "на"
      ],
      [
        "фор",
        "ми"
      ],
      [
        "2",
        "4"
      ],
      [
        "3",
        "0"
      ],
      [
        "г",
        "у"
      ],
      [
        "п",
        "ер"
      ],
      [
        "с",
        "де"
      ],
      [
        "с",
        "пе"
      ],
      [
        "ш",
        "а"
      ],
      [
        "я",
        "т"
      ],
      [
        "не",
        "й"
      ],
      [
        "ка",
        "че"
      ],
      [
        "ет",
        "ся"
      ],
      [
        "вы",
        "во"
      ],
      [
        "ть",
        "ся"
      ],
      [
        "чи",
        "тельно"
      ],
      [
        "современ",
        "ных"
      ],
      [
        ".",
        "."
      ],
      [
        "1",
        "4"
      ],
      [
        "1",
        "6"
      ],
      [
        "1",
        "7"
      ],
      [
        "1",
        "8"
      ],
      [
        "1",
        "9"
      ],
      [
        "2",
        "7"
      ],
      [
        "2",
        "8"
      ],
      [
        "2",
        "9"
      ],
      [
        "3",
        "4"
      ],
      [
        "3",
        "6"
      ],
      [
        "3",
        "7"
      ],
      [
        "3",
        "8"
      ],
      [
        "3",
        "9"
      ],
      [
        "5",
        "4"
      ],
      [
        "5",
        "6"
      ],
      [
        "5",
        "7"
      ],
      [
        "5",
        "8"
      ],
      [
        "5",
        "9"
      ],
      [
        "а",
        "ли"
      ],
      [
        "ж",
        "а"
      ],
      [
        "и",
        "х"
      ],
      [
        "н",
        "ен"
      ],
      [
        "о",
        "й"
      ],
      [
        "с",
        "ь"
      ],
      [
        "ш",
        "ь"
      ],
      [
        "э",
        "то"
      ],
      [
        "ко",
        "м"
      ],
      [
        "ле",
        "й"
      ],
      [
        "ля",
        "ет"
      ],
      [
        "ак",
        "тив"
      ],
      [
        "ве",
        "ст"
      ],
      [
        "ку",
        "ю"
      ],
      [
        "бы",
        "ть"
      ],
      [
        "форми",
        "ровани"
      ],
      [
        "о",
        "че"
      ],
      [
        "п",
        "ла"
      ],
      [
        "ё",
        "т"
      ],
      [
        "ст",
        "е"
      ],
      [
        "ре",
        "али"
      ],
      [
        "ни",
        "я"
      ],
      [
        "ль",
        "ко"
      ],
      [
        "ло",
        "жи"
      ],
      [
        "мо",
        "ж"
      ],
      [
        "сто",
        "я"
      ],
      [
        "цио",
        "н"
      ],
      [
        "спо",
        "соб"
      ],
      [
        "дей",
        "стви"
      ],
      [
        "кото",
        "ры"
      ],
      [
        "по",
        "лити"
      ],
      [
        "ко",
        "е"
      ],
      [
        "ль",
        "ных"
      ],
      [
        "ци",
        "й"
      ],
      [
        "че",
        "лов"
      ],
      [
        "де",
        "р"
      ],
      [
        "ле",
        "з"
      ],
      [
        "мы",
        "х"
      ],
      [
        "од",
        "но"
      ],
      [
        "так",
        "же"
      ],
      [
        "образ",
        "ом"
      ],
      [
        "струк",
        "ту"
      ],
      [
        "г",
        "да"
      ],
      [
        "л",
        "у"
      ],
      [
        "о",
        "преде"
      ],
      [
        "р",
        "я"
      ],
      [
        "т",
        "р"
      ],
      [
        "ст",
        "ра"
      ],
      [
        "ка",
        "х"
      ],
      [
        "ка",
        "кая"
      ],
      [
        "ва",
        "ж"
      ],
      [
        "ак",
        "ти"
      ],
      [
        "при",
        "мер"
      ],
      [
        "из",
        "вест"
      ],
      [
        "ши",
        "ро"
      ],
      [
        "ба",
        "з"
      ],
      [
        "новы",
        "х"
      ],
      [
        "4",
        "0"
      ],
      [
        "4",
        "6"
      ],
      [
        "4",
        "7"
      ],
      [
        "4",
        "8"
      ],
      [
        "4",
        "9"
      ],
      [
        "в",
        "ер"
      ],
      [
        "п",
        "у"
      ],
      [
        "у",
        "ров"
      ],
      [
        "ч",
        "ё"
      ],
      [
        "ч",
        "ения"
      ],
      [
        "э",
        "та"
      ],
      [
        "по",
        "вед"
      ],
      [
        "не",
        "т"
      ],
      [
        "не",
        "извест"
      ],
      [
        "ени",
        "и"
      ],
      [
        "да",
        "ёт"
      ],
      [
        "ви",
        "те"
      ],
      [
        "ки",
        "м"
      ],
      [
        "ло",
        "ги"
      ],
      [
        "от",
        "вет"
      ],
      [
        "ме",
        "то"
      ],
      [
        "хуй",
        "н"
      ],
      [
        "зна",
        "чно"
      ],
      [
        "вля",
        "ют"
      ],
      [
        "зы",
        "ва"
      ],
      [
        "предста",
        "вите"
      ],
      [
        "2",
        "2"
      ],
      [
        "6",
        "0"
      ],
      [
        "6",
        "7"
      ],
      [
        "6",
        "8"
      ],
      [
        "6",
        "9"
      ],
      [
        "i",
        "n"
      ],
      [
        "в",
        "ов"
      ],
      [
        "к",
        "ла"
      ],
      [
        "о",
        "гра"
      ],
      [
        "у",
        "ет"
      ],
      [
        "ра",
        "б"
      ],
      [
        "по",
        "лез"
      ],
      [
        "ка",
        "за"
      ],
      [
        "ко",
        "но"
      ],
      [
        "ни",
        "й"
      ],
      [
        "вы",
        "со"
      ],
      [
        "ки",
        "х"
      ],
      [
        "мо",
        "сть"
      ],
      [
        "до",
        "л"
      ],
      [
        "развити",
        "е"
      ],
      [
        "уча",
        "сти"
      ],
      [
        "все",
        "го"
      ],
      [
        "которы",
        "е"
      ],
      [
        "!",
        "."
      ],
      [
        "1",
        "1"
      ],
      [
        "3",
        "3"
      ],
      [
        "5",
        "5"
      ],
      [
        "7",
        "0"
      ],
      [
        "7",
        "8"
      ],
      [
        "7",
        "9"
      ],
      [
        "Н",
        "е"
      ],
      [
        "в",
        "ся"
      ],
      [
        "д",
        "не"
      ],
      [
        "д",
        "ин"
      ],
      [
        "к",
        "ру"
      ],
      [
        "к",
        "тив"
      ],
      [
        "м",
        "ет"
      ],
      [
        "н",
        "да"
      ],
      [
        "н",
        "ное"
      ],
      [
        "о",
        "п"
      ],
      [
        "с",
        "л"
      ],
      [
        "ш",
        "ё"
      ],
      [
        "ы",
        "й"
      ],
      [
        "э",
        "коно"
      ],
      [
        "по",
        "с"
      ],
      [
        "по",
        "ня"
      ],
      [
        "не",
        "зависи"
      ],
      [
        "то",
        "ч"
      ],
      [
        "ни",
        "зации"
      ],
      [
        "ви",
        "д"
      ],
      [
        "ло",
        "ж"
      ],
      [
        "раз",
        "у"
      ],
      [
        "ств",
        "ует"
      ],
      [
        "ту",
        "а"
      ],
      [
        "ор",
        "га"
      ],
      [
        "вля",
        "ет"
      ],
      [
        "ис",
        "клю"
      ],
      [
        "сле",
        "дов"
      ],
      [
        "пози",
        "ции"
      ],
      [
        "ход",
        "и"
      ],
      [
        "выво",
        "ды"
      ],
      [
        "полити",
        "ческо"
      ],
      [
        "раб",
        "от"
      ],
      [
        "дне",
        "в"
      ],
      [
        "эконо",
        "ми"
      ],
      [
        "исклю",
        "чительно"
      ],
      [
        ".",
        "!"
      ],
      [
        "8",
        "0"
      ],
      [
        "8",
        "9"
      ],
      [
        "a",
        "t"
      ],
      [
        "б",
        "ес"
      ],
      [
        "ж",
        "ения"
      ],
      [
        "к",
        "ры"
      ],
      [
        "л",
        "ки"
      ],
      [
        "л",
        "ение"
      ],
      [
        "н",
        "сов"
      ],
      [
        "н",
        "ую"
      ],
      [
        "о",
        "ста"
      ],
      [
        "п",
        "ло"
      ],
      [
        "с",
        "ложи"
      ],
      [
        "ц",
        "ес"
      ],
      [
        "ч",
        "у"
      ],
      [
        "ч",
        "ение"
      ],
      [
        "ч",
        "ены"
      ],
      [
        "ю",
        "щее"
      ],
      [
        "на",
        "нсов"
      ],
      [
        "те",
        "р"
      ],
      [
        "те",
        "ри"
      ],
      [
        "во",
        "з"
      ],
      [
        "во",
        "т"
      ],
      [
        "ва",
        "я"
      ],
      [
        "про",
        "цес"
      ],
      [
        "со",
        "ответ"
      ],
      [
        "ста",
        "вл"
      ],
      [
        "от",
        "но"
      ],
      [
        "ри",
        "и"
      ],
      [
        "мы",
        "е"
      ],
      [
        "щи",
        "е"
      ],
      [
        "тре",
        "б"
      ],
      [
        "ция",
        "ми"
      ],
      [
        "ше",
        "й"
      ],
      [
        "способ",
        "ствует"
      ],
      [
        "челов",
        "е"
      ],
      [
        "орга",
        "низации"
      ],
      [
        "сложи",
        "в"
      ],
      [
        "1",
        "2"
      ],
      [
        "1",
        "3"
      ],
      [
        "1",
        "5"
      ],
      [
        "9",
        "0"
      ],
      [
        "a",
        "n"
      ],
      [
        "Н",
        "а"
      ],
      [
        "П",
        "ри"
      ],
      [
        "ж",
        "ны"
      ],
      [
        "к",
        "ра"
      ],
      [
        "к",
        "ре"
      ],
      [
        "о",
        "на"
      ],
      [
        "о",
        "ри"
      ],
      [
        "х",
        "о"
      ],
      [
        "но",
        "логи"
      ],
      [
        "не",
        "о"
      ],
      [
        "не",
        "что"
      ],
      [
        "об",
        "ъ"
      ],
      [
        "че",
        "го"
      ],
      [
        "да",
        "ть"
      ],
      [
        "де",
        "шё"
      ],
      [
        "при",
        "ят"
      ],
      [
        "од",
        "на"
      ],
      [
        "соб",
        "ой"
      ],
      [
        "фи",
        "нансов"
      ],
      [
        "це",
        "ло"
      ],
      [
        "тех",
        "нологи"
      ],
      [
        "ана",
        "ли"
      ],
      [
        "одно",
        "значно"
      ],
      [
        "хуйн",
        "ю"
      ],
      [
        "огра",
        "ни"
      ],
      [
        "дол",
        "жны"
      ],
      [
        "соответ",
        "ствую"
      ],
      [
        "2",
        "3"
      ],
      [
        "2",
        "5"
      ],
      [
        "4",
        "4"
      ],
      [
        "6",
        "6"
      ],
      [
        "7",
        "7"
      ],
      [
        "8",
        "8"
      ],
      [
        "9",
        "9"
      ],
      [
        "?",
        "!"
      ],
      [
        "l",
        "as"
      ],
      [
        "t",
        "h"
      ],
      [
        "t",
        "o"
      ],
      [
        "Д",
        "а"
      ],
      [
        "е",
        "в"
      ],
      [
        "и",
        "й"
      ],
      [
        "м",
        "я"
      ],
      [
        "о",
        "с"
      ],
      [
        "п",
        "ени"
      ],
      [
        "ш",
        "не"
      ],
      [
        "ш",
        "ения"
      ],
      [
        "щ",
        "а"
      ],
      [
        "ы",
        "х"
      ],
      [
        "ст",
        "ни"
      ],
      [
        "ен",
        "ности"
      ],
      [
        "ра",
        "м"
      ],
      [
        "ра",
        "бо"
      ],
      [
        "по",
        "вы"
      ],
      [
        "по",
        "ставл"
      ],
      [
        "на",
        "с"
      ],
      [
        "ко",
        "гда"
      ],
      [
        "ни",
        "е"
      ],
      [
        "ль",
        "та"
      ],
      [
        "ли",
        "бо"
      ],
      [
        "во",
        "ляет"
      ],
      [
        "ер",
        "и"
      ],
      [
        "ер",
        "вов"
      ],
      [
        "про",
        "из"
      ],
      [
        "ве",
        "ще"
      ],
      [
        "мы",
        "ш"
      ],
      [
        "сов",
        "ер"
      ],
      [
        "тив",
        "но"
      ],
      [
        "ани",
        "й"
      ],
      [
        "ду",
        "т"
      ],
      [
        "ческо",
        "е"
      ],
      [
        "поз",
        "воляет"
      ],
      [
        "уча",
        "стни"
      ],
      [
        "рез",
        "ервов"
      ],
      [
        "зада",
        "ч"
      ],
      [
        "трей",
        "дер"
      ],
      [
        "трей",
        "дин"
      ],
      [
        "пра",
        "вл"
      ],
      [
        "тех",
        "ни"
      ],
      [
        "цен",
        "а"
      ],
      [
        "суще",
        "ствую"
      ],
      [
        "формировани",
        "и"
      ],
      [
        "оче",
        "ред"
      ],
      [
        "сте",
        "пени"
      ],
      [
        "мож",
        "ет"
      ],
      [
        "баз",
        "ов"
      ],
      [
        "повед",
        "ения"
      ],
      [
        "независи",
        "мые"
      ],
      [
        "бес",
        "полез"
      ],
      [
        "анали",
        "за"
      ],
      [
        "поставл",
        "енных"
      ],
      [
        "3",
        "5"
      ],
      [
        "c",
        "h"
      ],
      [
        "c",
        "las"
      ],
      [
        "e",
        "r"
      ],
      [
        "Р",
        "а"
      ],
      [
        "Т",
        "а"
      ],
      [
        "б",
        "ра"
      ],
      [
        "в",
        "ка"
      ],
      [
        "в",
        "ну"
      ],
      [
        "г",
        "ру"
      ],
      [
        "г",
        "рес"
      ],
      [
        "д",
        "ров"
      ],
      [
        "е",
        "й"
      ],
      [
        "е",
        "мо"
      ],
      [
        "з",
        "р"
      ],
      [
        "к",
        "ов"
      ],
      [
        "к",
        "ти"
      ],
      [
        "о",
        "соб"
      ],
      [
        "у",
        "н"
      ],
      [
        "ь",
        "ю"
      ],
      [
        "э",
        "ле"
      ],
      [
        "я",
        "х"
      ],
      [
        "я",
        "вл"
      ],
      [
        "но",
        "в"
      ],
      [
        "по",
        "стоя"
      ],
      [
        "на",
        "д"
      ],
      [
        "на",
        "шей"
      ],
      [
        "не",
        "с"
      ],
      [
        "то",
        "м"
      ],
      [
        "ка",
        "дров"
      ],
      [
        "об",
        "ес"
      ],
      [
        "во",
        "д"
      ],
      [
        "че",
        "м"
      ],
      [
        "да",
        "ль"
      ],
      [
        "вы",
        "пол"
      ],
      [
        "пре",
        "до"
      ],
      [
        "ма",
        "ло"
      ],
      [
        "ма",
        "тери"
      ],
      [
        "про",
        "грес"
      ],
      [
        "со",
        "з"
      ],
      [
        "си",
        "туа"
      ],
      [
        "пред",
        "мет"
      ],
      [
        "тре",
        "бу"
      ],
      [
        "са",
        "мо"
      ],
      [
        "тельно",
        "сти"
      ],
      [
        "ствен",
        "ный"
      ],
      [
        "ис",
        "следов"
      ],
      [
        "ство",
        "м"
      ],
      [
        "тор",
        "гов"
      ],
      [
        "социа",
        "льно"
      ],
      [
        "инте",
        "рес"
      ],
      [
        "услов",
        "ий"
      ],
      [
        "част",
        "ность"
      ],
      [
        "реали",
        "зации"
      ],
      [
        "структу",
        "ры"
      ],
      [
        "уров",
        "ня"
      ],
      [
        "экономи",
        "чес"
      ],
      [
        "повы",
        "ш"
      ],
      [
        "clas",
        "s"
      ],
      [
        "особ",
        "енности"
      ],
      [
        "обес",
        "пе"
      ],
      [
        "требу",
        "ет"
      ],
      [
        "e",
        "n"
      ],
      [
        "e",
        "s"
      ],
      [
        "Н",
        "о"
      ],
      [
        "П",
        "ре"
      ],
      [
        "б",
        "лю"
      ],
      [
        "д",
        "ь"
      ],
      [
        "д",
        "ен"
      ],
      [
        "ж",
        "де"
      ],
      [
        "з",
        "услов"
      ],
      [
        "к",
        "тор"
      ],
      [
        "л",
        "ы"
      ],
      [
        "с",
        "ка"
      ],
      [
        "с",
        "мо"
      ],
      [
        "у",
        "кре"
      ],
      [
        "ф",
        "ес"
      ],
      [
        "ф",
        "ун"
      ],
      [
        "я",
        "м"
      ],
      [
        "ё",
        "м"
      ],
      [
        "ст",
        "ре"
      ],
      [
        "по",
        "ку"
      ],
      [
        "по",
        "зна"
      ],
      [
        "то",
        "лько"
      ],
      [
        "ко",
        "й"
      ],
      [
        "ль",
        "ный"
      ],
      [
        "ци",
        "ю"
      ],
      [
        "че",
        "вы"
      ],
      [
        "де",
        "ло"
      ],
      [
        "мо",
        "де"
      ],
      [
        "ма",
        "н"
      ],
      [
        "про",
        "ек"
      ],
      [
        "про",
        "фес"
      ],
      [
        "ста",
        "нда"
      ],
      [
        "от",
        "кры"
      ],
      [
        "ве",
        "ктор"
      ],
      [
        "си",
        "она"
      ],
      [
        "чес",
        "кий"
      ],
      [
        "сто",
        "ро"
      ],
      [
        "па",
        "с"
      ],
      [
        "мен",
        "ты"
      ],
      [
        "ствен",
        "ных"
      ],
      [
        "сле",
        "д"
      ],
      [
        "клю",
        "чевы"
      ],
      [
        "социа",
        "льных"
      ],
      [
        "сде",
        "ла"
      ],
      [
        "спе",
        "циа"
      ],
      [
        "ком",
        "п"
      ],
      [
        "цион",
        "ных"
      ],
      [
        "действи",
        "й"
      ],
      [
        "ря",
        "д"
      ],
      [
        "тр",
        "ен"
      ],
      [
        "зыва",
        "ют"
      ],
      [
        "представите",
        "ли"
      ],
      [
        "участи",
        "я"
      ],
      [
        "политическо",
        "го"
      ],
      [
        "челове",
        "ка"
      ],
      [
        "an",
        "d"
      ],
      [
        "нео",
        "позна"
      ],
      [
        "одна",
        "ко"
      ],
      [
        "рам",
        "ках"
      ],
      [
        "рабо",
        "та"
      ],
      [
        "базов",
        "ый"
      ],
      [
        "эле",
        "менты"
      ],
      [
        "даль",
        "ней"
      ],
      [
        "Пре",
        "жде"
      ],
      [
        "зуслов",
        "но"
      ],
      [
        "укре",
        "п"
      ],
      [
        "фун",
        "к"
      ],
      [
        "профес",
        "сиона"
      ],
      [
        "станда",
        "р"
      ],
      [
        "2",
        "1"
      ],
      [
        "4",
        "5"
      ],
      [
        "7",
        "6"
      ],
      [
        "9",
        "8"
      ],
      [
        "?",
        "!,"
      ],
      [
        "H",
        "is"
      ],
      [
        "L",
        "u"
      ],
      [
        "a",
        "r"
      ],
      [
        "c",
        "as"
      ],
      [
        "m",
        "at"
      ],
      [
        "o",
        "r"
      ],
      [
        "s",
        "t"
      ],
      [
        "t",
        "he"
      ],
      [
        "Г",
        "о"
      ],
      [
        "З",
        "а"
      ],
      [
        "К",
        "а"
      ],
      [
        "а",
        "п"
      ],
      [
        "а",
        "ны"
      ],
      [
        "б",
        "ла"
      ],
      [
        "в",
        "нима"
      ],
      [
        "д",
        "р"
      ],
      [
        "д",
        "ень"
      ],
      [
        "е",
        "го"
      ],
      [
        "е",
        "мых"
      ],
      [
        "ж",
        "да"
      ],
      [
        "и",
        "т"
      ],
      [
        "и",
        "но"
      ],
      [
        "и",
        "гра"
      ],
      [
        "л",
        "ка"
      ],
      [
        "н",
        "ения"
      ],
      [
        "н",
        "ные"
      ],
      [
        "н",
        "ный"
      ],
      [
        "о",
        "пас"
      ],
      [
        "р",
        "с"
      ],
      [
        "р",
        "кий"
      ],
      [
        "р",
        "нет"
      ],
      [
        "т",
        "ри"
      ],
      [
        "у",
        "же"
      ],
      [
        "ф",
        "е"
      ],
      [
        "ч",
        "енных"
      ],
      [
        "щ",
        "ё"
      ],
      [
        "э",
        "ти"
      ],
      [
        "э",
        "ту"
      ],
      [
        "я",
        "ся"
      ],
      [
        "я",
        "тельности"
      ],
      [
        "я",
        "ркий"
      ],
      [
        "но",
        "м"
      ],
      [
        "но",
        "ва"
      ],
      [
        "ра",
        "циона"
      ],
      [
        "на",
        "м"
      ],
      [
        "на",
        "ме"
      ],
      [
        "на",
        "правл"
      ],
      [
        "не",
        "об"
      ],
      [
        "ка",
        "р"
      ],
      [
        "ни",
        "х"
      ],
      [
        "ни",
        "ть"
      ],
      [
        "ль",
        "з"
      ],
      [
        "ль",
        "ное"
      ],
      [
        "ени",
        "ю"
      ],
      [
        "ти",
        "е"
      ],
      [
        "пр",
        "ов"
      ],
      [
        "те",
        "ку"
      ],
      [
        "за",
        "ция"
      ],
      [
        "го",
        "прият"
      ],
      [
        "ли",
        "ч"
      ],
      [
        "во",
        "й"
      ],
      [
        "ва",
        "ть"
      ],
      [
        "де",
        "ятельности"
      ],
      [
        "вы",
        "ра"
      ],
      [
        "та",
        "м"
      ],
      [
        "ки",
        "е"
      ],
      [
        "мо",
        "гу"
      ],
      [
        "про",
        "ч"
      ],
      [
        "при",
        "нима"
      ],
      [
        "ри",
        "з"
      ],
      [
        "ку",
        "пи"
      ],
      [
        "ров",
        "ан"
      ],
      [
        "мы",
        "с"
      ],
      [
        "зна",
        "чение"
      ],
      [
        "гра",
        "жда"
      ],
      [
        "ду",
        "ет"
      ],
      [
        "уча",
        "й"
      ],
      [
        "предста",
        "вляют"
      ],
      [
        "обще",
        "ства"
      ],
      [
        "вне",
        "др"
      ],
      [
        "зада",
        "ний"
      ],
      [
        "пра",
        "кти"
      ],
      [
        "инте",
        "рнет"
      ],
      [
        "част",
        "ный"
      ],
      [
        "ско",
        "го"
      ],
      [
        "пер",
        "спе"
      ],
      [
        "ша",
        "яся"
      ],
      [
        "оче",
        "вид"
      ],
      [
        "пла",
        "новых"
      ],
      [
        "реали",
        "зация"
      ],
      [
        "структу",
        "ра"
      ],
      [
        "опреде",
        "ления"
      ],
      [
        "сл",
        "учай"
      ],
      [
        "ходи",
        "мость"
      ],
      [
        "сложив",
        "шаяся"
      ],
      [
        "ограни",
        "чены"
      ],
      [
        "мыш",
        "ления"
      ],
      [
        "участни",
        "ка"
      ],
      [
        "вну",
        "трен"
      ],
      [
        "матери",
        "а"
      ],
      [
        "прогрес",
        "са"
      ],
      [
        "соз",
        "даёт"
      ],
      [
        "поку",
        "па"
      ],
      [
        "укреп",
        "ление"
      ],
      [
        "Lu",
        "cas"
      ],
      [
        "бла",
        "гоприят"
      ],
      [
        "наме",
        "ченных"
      ],
      [
        "необ",
        "ходимость"
      ],
      [
        "перспе",
        "ктив"
      ],
      [
        "3",
        "1"
      ],
      [
        "3",
        "2"
      ],
      [
        "П",
        "ов"
      ],
      [
        "Ч",
        "то"
      ],
      [
        "б",
        "лей"
      ],
      [
        "в",
        "я"
      ],
      [
        "г",
        "лу"
      ],
      [
        "д",
        "ё"
      ],
      [
        "д",
        "ня"
      ],
      [
        "е",
        "б"
      ],
      [
        "з",
        "и"
      ],
      [
        "с",
        "вер"
      ],
      [
        "с",
        "цена"
      ],
      [
        "т",
        "ен"
      ],
      [
        "т",
        "ное"
      ],
      [
        "у",
        "ж"
      ],
      [
        "у",
        "чения"
      ],
      [
        "ф",
        "ак"
      ],
      [
        "ф",
        "ан"
      ],
      [
        "ч",
        "ет"
      ],
      [
        "я",
        "вля"
      ],
      [
        "но",
        "к"
      ],
      [
        "ен",
        "ное"
      ],
      [
        "ра",
        "жения"
      ],
      [
        "по",
        "ка"
      ],
      [
        "по",
        "до"
      ],
      [
        "по",
        "треб"
      ],
      [
        "на",
        "ча"
      ],
      [
        "не",
        "га"
      ],
      [
        "не",
        "поня"
      ],
      [
        "то",
        "ти"
      ],
      [
        "ни",
        "м"
      ],
      [
        "ти",
        "ны"
      ],
      [
        "за",
        "бы"
      ],
      [
        "за",
        "нима"
      ],
      [
        "об",
        "а"
      ],
      [
        "об",
        "учения"
      ],
      [
        "го",
        "ро"
      ],
      [
        "го",
        "тов"
      ],
      [
        "ли",
        "вает"
      ],
      [
        "та",
        "кая"
      ],
      [
        "ло",
        "к"
      ],
      [
        "ми",
        "ра"
      ],
      [
        "ма",
        "ши"
      ],
      [
        "про",
        "тоти"
      ],
      [
        "ще",
        "го"
      ],
      [
        "до",
        "м"
      ],
      [
        "ро",
        "ль"
      ],
      [
        "при",
        "ня"
      ],
      [
        "ри",
        "тель"
      ],
      [
        "ру",
        "блей"
      ],
      [
        "льно",
        "го"
      ],
      [
        "ров",
        "аны"
      ],
      [
        "га",
        "д"
      ],
      [
        "чи",
        "вает"
      ],
      [
        "пред",
        "пос"
      ],
      [
        "се",
        "днев"
      ],
      [
        "па",
        "ра"
      ],
      [
        "зна",
        "чительно"
      ],
      [
        "пе",
        "ре"
      ],
      [
        "са",
        "ми"
      ],
      [
        "ду",
        "ма"
      ],
      [
        "ческо",
        "й"
      ],
      [
        "бу",
        "дут"
      ],
      [
        "зы",
        "вает"
      ],
      [
        "фор",
        "м"
      ],
      [
        "предста",
        "вл"
      ],
      [
        "му",
        "зы"
      ],
      [
        "рас",
        "преде"
      ],
      [
        "це",
        "п"
      ],
      [
        "кон",
        "цеп"
      ],
      [
        "каче",
        "ства"
      ],
      [
        "выво",
        "да"
      ],
      [
        "нен",
        "уж"
      ],
      [
        "актив",
        "ов"
      ],
      [
        "неизвест",
        "ное"
      ],
      [
        "представите",
        "лей"
      ],
      [
        "in",
        "g"
      ],
      [
        "кла",
        "ст"
      ],
      [
        "работ",
        "ы"
      ],
      [
        "щие",
        "ся"
      ],
      [
        "финансов",
        "ых"
      ],
      [
        "произ",
        "вод"
      ],
      [
        "очеред",
        "ных"
      ],
      [
        "исследов",
        "аний"
      ],
      [
        "повыш",
        "ению"
      ],
      [
        "обеспе",
        "чивает"
      ],
      [
        "моде",
        "ли"
      ],
      [
        "откры",
        "вает"
      ],
      [
        "ключевы",
        "е"
      ],
      [
        "игра",
        "ет"
      ],
      [
        "кар",
        "тины"
      ],
      [
        "теку",
        "щих"
      ],
      [
        "внедр",
        "ение"
      ],
      [
        "практи",
        "ка"
      ],
      [
        "благоприят",
        "ных"
      ],
      [
        "Пов",
        "седнев"
      ],
      [
        "сцена",
        "рии"
      ],
      [
        "явля",
        "ется"
      ],
      [
        "пока",
        "зывает"
      ],
      [
        "прототи",
        "п"
      ],
      [
        "предпос",
        "ы"
      ],
      [
        "Повседнев",
        "ная"
      ],
      [
        ".",
        ","
      ],
      [
        "6",
        "4"
      ],
      [
        "6",
        "5"
      ],
      [
        "7",
        "4"
      ],
      [
        "7",
        "5"
      ],
      [
        "a",
        "c"
      ],
      [
        "a",
        "l"
      ],
      [
        "a",
        "y"
      ],
      [
        "h",
        "is"
      ],
      [
        "o",
        "o"
      ],
      [
        "t",
        "s"
      ],
      [
        "В",
        "ы"
      ],
      [
        "О",
        "н"
      ],
      [
        "Э",
        "то"
      ],
      [
        "а",
        "ра"
      ],
      [
        "д",
        "но"
      ],
      [
        "е",
        "щё"
      ],
      [
        "ж",
        "до"
      ],
      [
        "ж",
        "из"
      ],
      [
        "з",
        "о"
      ],
      [
        "з",
        "ва"
      ],
      [
        "и",
        "м"
      ],
      [
        "к",
        "с"
      ],
      [
        "к",
        "ет"
      ],
      [
        "к",
        "си"
      ],
      [
        "н",
        "т"
      ],
      [
        "н",
        "ность"
      ],
      [
        "н",
        "ке"
      ],
      [
        "р",
        "да"
      ],
      [
        "с",
        "ро"
      ],
      [
        "с",
        "чи"
      ],
      [
        "с",
        "фе"
      ],
      [
        "т",
        "ра"
      ],
      [
        "у",
        "п"
      ],
      [
        "у",
        "льта"
      ],
      [
        "ч",
        "ная"
      ],
      [
        "ш",
        "ан"
      ],
      [
        "я",
        "вляют"
      ],
      [
        "ст",
        "ов"
      ],
      [
        "но",
        "ст"
      ],
      [
        "ра",
        "ктив"
      ],
      [
        "по",
        "в"
      ],
      [
        "по",
        "все"
      ],
      [
        "по",
        "каза"
      ],
      [
        "по",
        "льз"
      ],
      [
        "на",
        "у"
      ],
      [
        "ны",
        "ми"
      ],
      [
        "не",
        "у"
      ],
      [
        "не",
        "до"
      ],
      [
        "не",
        "одно"
      ],
      [
        "ка",
        "ждо"
      ],
      [
        "ко",
        "ли"
      ],
      [
        "ко",
        "му"
      ],
      [
        "ни",
        "з"
      ],
      [
        "ль",
        "ту"
      ],
      [
        "ль",
        "ная"
      ],
      [
        "ти",
        "й"
      ],
      [
        "ти",
        "па"
      ],
      [
        "ли",
        "й"
      ],
      [
        "ли",
        "шь"
      ],
      [
        "ли",
        "стов"
      ],
      [
        "ва",
        "й"
      ],
      [
        "ва",
        "м"
      ],
      [
        "вы",
        "с"
      ],
      [
        "та",
        "ть"
      ],
      [
        "раз",
        "работ"
      ],
      [
        "раз",
        "нес"
      ],
      [
        "раз",
        "лич"
      ],
      [
        "мо",
        "сти"
      ],
      [
        "пре",
        "зр"
      ],
      [
        "ма",
        "р"
      ],
      [
        "ма",
        "с"
      ],
      [
        "про",
        "ис"
      ],
      [
        "про",
        "дать"
      ],
      [
        "со",
        "стоя"
      ],
      [
        "ще",
        "й"
      ],
      [
        "ро",
        "й"
      ],
      [
        "ча",
        "сть"
      ],
      [
        "ве",
        "щи"
      ],
      [
        "си",
        "сте"
      ],
      [
        "ку",
        "рс"
      ],
      [
        "ку",
        "льту"
      ],
      [
        "ры",
        "нке"
      ],
      [
        "чи",
        "ться"
      ],
      [
        "ме",
        "ется"
      ],
      [
        "пред",
        "лож"
      ],
      [
        "се",
        "бе"
      ],
      [
        "зна",
        "чи"
      ],
      [
        "ую",
        "т"
      ],
      [
        "тив",
        "ных"
      ],
      [
        "соб",
        "ы"
      ],
      [
        "ши",
        "х"
      ],
      [
        "жи",
        "вот"
      ],
      [
        "пи",
        "до"
      ],
      [
        "ствен",
        "ные"
      ],
      [
        "ствен",
        "ного"
      ],
      [
        "под",
        "об"
      ],
      [
        "под",
        "готов"
      ],
      [
        "сле",
        "дует"
      ],
      [
        "рас",
        "смо"
      ],
      [
        "рез",
        "ульта"
      ],
      [
        "тель",
        "ное"
      ],
      [
        "зависи",
        "мости"
      ],
      [
        "спо",
        "да"
      ],
      [
        "обще",
        "ством"
      ],
      [
        "вне",
        "шне"
      ],
      [
        "гов",
        "ори"
      ],
      [
        "лити",
        "ки"
      ],
      [
        "инте",
        "рактив"
      ],
      [
        "ана",
        "литики"
      ],
      [
        "циона",
        "льно"
      ],
      [
        "сде",
        "лки"
      ],
      [
        "каче",
        "ствен"
      ],
      [
        "каче",
        "ство"
      ],
      [
        "жа",
        "ю"
      ],
      [
        "формировани",
        "ю"
      ],
      [
        "тр",
        "ены"
      ],
      [
        "акти",
        "ви"
      ],
      [
        "широ",
        "кому"
      ],
      [
        "баз",
        "е"
      ],
      [
        "пу",
        "сто"
      ],
      [
        "уров",
        "ень"
      ],
      [
        "мето",
        "дом"
      ],
      [
        "высо",
        "ко"
      ],
      [
        "участи",
        "е"
      ],
      [
        "кру",
        "гу"
      ],
      [
        "днев",
        "ной"
      ],
      [
        "оста",
        "вляет"
      ],
      [
        "отно",
        "ш"
      ],
      [
        "дешё",
        "вка"
      ],
      [
        "цело",
        "м"
      ],
      [
        "технологи",
        "и"
      ],
      [
        "совер",
        "ша"
      ],
      [
        "трейдин",
        "г"
      ],
      [
        "существую",
        "щих"
      ],
      [
        "сдела",
        "нные"
      ],
      [
        "специа",
        "листов"
      ],
      [
        "неопозна",
        "нное"
      ],
      [
        "функ",
        "ционально"
      ],
      [
        "Го",
        "спода"
      ],
      [
        "ап",
        "пара"
      ],
      [
        "внима",
        "ния"
      ],
      [
        "ино",
        "гда"
      ],
      [
        "направл",
        "ений"
      ],
      [
        "купи",
        "ть"
      ],
      [
        "очевид",
        "на"
      ],
      [
        "внутрен",
        "ней"
      ],
      [
        "фан",
        "та"
      ],
      [
        "нача",
        "ло"
      ],
      [
        "забы",
        "вать"
      ],
      [
        "приня",
        "то"
      ],
      [
        "значительно",
        "й"
      ],
      [
        "прототип",
        "ы"
      ],
      [
        "счи",
        "тать"
      ],
      [
        "шан",
        "са"
      ],
      [
        "являют",
        "ся"
      ],
      [
        "повсе",
        "дневной"
      ],
      [
        "коли",
        "че"
      ],
      [
        "разнес",
        "ены"
      ],
      [
        "различ",
        "ных"
      ],
      [
        "предлож",
        "ений"
      ],
      [
        "рассмо",
        "трены"
      ],
      [
        "говори",
        "т"
      ],
      [
        "интерактив",
        "ные"
      ],
      [
        "c",
        "i"
      ],
      [
        "h",
        "i"
      ],
      [
        "l",
        "e"
      ],
      [
        "l",
        "i"
      ],
      [
        "u",
        "n"
      ],
      [
        "v",
        "er"
      ],
      [
        "Б",
        "е"
      ],
      [
        "В",
        "не"
      ],
      [
        "В",
        "от"
      ],
      [
        "И",
        "н"
      ],
      [
        "И",
        "дей"
      ],
      [
        "Л",
        "и"
      ],
      [
        "О",
        "дно"
      ],
      [
        "У",
        "чи"
      ],
      [
        "а",
        "д"
      ],
      [
        "а",
        "с"
      ],
      [
        "а",
        "х"
      ],
      [
        "б",
        "ов"
      ],
      [
        "б",
        "ор"
      ],
      [
        "в",
        "з"
      ],
      [
        "в",
        "с"
      ],
      [
        "в",
        "ным"
      ],
      [
        "г",
        "ла"
      ],
      [
        "д",
        "ру"
      ],
      [
        "ж",
        "д"
      ],
      [
        "ж",
        "ение"
      ],
      [
        "и",
        "ли"
      ],
      [
        "и",
        "ми"
      ],
      [
        "и",
        "мен"
      ],
      [
        "й",
        "ского"
      ],
      [
        "л",
        "ет"
      ],
      [
        "л",
        "ся"
      ],
      [
        "л",
        "ены"
      ],
      [
        "м",
        "мы"
      ],
      [
        "н",
        "ь"
      ],
      [
        "н",
        "ди"
      ],
      [
        "о",
        "ц"
      ],
      [
        "о",
        "ч"
      ],
      [
        "с",
        "ет"
      ],
      [
        "с",
        "ве"
      ],
      [
        "с",
        "мы"
      ],
      [
        "с",
        "лов"
      ],
      [
        "с",
        "вет"
      ],
      [
        "с",
        "вя"
      ],
      [
        "т",
        "но"
      ],
      [
        "т",
        "ных"
      ],
      [
        "у",
        "по"
      ],
      [
        "у",
        "си"
      ],
      [
        "у",
        "чё"
      ],
      [
        "у",
        "точ"
      ],
      [
        "ф",
        "ф"
      ],
      [
        "ц",
        "а"
      ],
      [
        "ч",
        "ь"
      ],
      [
        "э",
        "кс"
      ],
      [
        "э",
        "фф"
      ],
      [
        "я",
        "с"
      ],
      [
        "ен",
        "ти"
      ],
      [
        "ра",
        "й"
      ],
      [
        "по",
        "бе"
      ],
      [
        "по",
        "ряд"
      ],
      [
        "на",
        "циона"
      ],
      [
        "на",
        "блю"
      ],
      [
        "на",
        "зывают"
      ],
      [
        "ре",
        "ш"
      ],
      [
        "то",
        "н"
      ],
      [
        "то",
        "рии"
      ],
      [
        "ко",
        "го"
      ],
      [
        "ни",
        "стра"
      ],
      [
        "ль",
        "ные"
      ],
      [
        "ени",
        "ть"
      ],
      [
        "ти",
        "во"
      ],
      [
        "ти",
        "нен"
      ],
      [
        "пр",
        "об"
      ],
      [
        "за",
        "б"
      ],
      [
        "за",
        "п"
      ],
      [
        "об",
        "ла"
      ],
      [
        "об",
        "услов"
      ],
      [
        "об",
        "ражения"
      ],
      [
        "во",
        "е"
      ],
      [
        "во",
        "м"
      ],
      [
        "во",
        "стре"
      ],
      [
        "ва",
        "лю"
      ],
      [
        "да",
        "н"
      ],
      [
        "вы",
        "зыва"
      ],
      [
        "та",
        "льно"
      ],
      [
        "ло",
        "ки"
      ],
      [
        "раз",
        "обла"
      ],
      [
        "ле",
        "вой"
      ],
      [
        "ля",
        "м"
      ],
      [
        "ми",
        "нистра"
      ],
      [
        "про",
        "даёт"
      ],
      [
        "со",
        "общества"
      ],
      [
        "со",
        "ображения"
      ],
      [
        "от",
        "рас"
      ],
      [
        "ак",
        "циями"
      ],
      [
        "ро",
        "ст"
      ],
      [
        "ро",
        "пе"
      ],
      [
        "ру",
        "ет"
      ],
      [
        "ры",
        "нок"
      ],
      [
        "что",
        "бы"
      ],
      [
        "сов",
        "о"
      ],
      [
        "чес",
        "ких"
      ],
      [
        "ин",
        "нова"
      ],
      [
        "се",
        "м"
      ],
      [
        "сто",
        "лько"
      ],
      [
        "ес",
        "ли"
      ],
      [
        "щи",
        "й"
      ],
      [
        "щи",
        "ми"
      ],
      [
        "су",
        "льта"
      ],
      [
        "ты",
        "вая"
      ],
      [
        "гра",
        "ммы"
      ],
      [
        "под",
        "ход"
      ],
      [
        "ди",
        "к"
      ],
      [
        "ше",
        "е"
      ],
      [
        "ше",
        "го"
      ],
      [
        "фи",
        "кси"
      ],
      [
        "ну",
        "то"
      ],
      [
        "кон",
        "тинен"
      ],
      [
        "кон",
        "сульта"
      ],
      [
        "преде",
        "ляет"
      ],
      [
        "зависи",
        "т"
      ],
      [
        "10",
        "0"
      ],
      [
        "ан",
        "ность"
      ],
      [
        "ровани",
        "е"
      ],
      [
        "вне",
        "ш"
      ],
      [
        "сво",
        "ев"
      ],
      [
        "зада",
        "ния"
      ],
      [
        "пози",
        "ций"
      ],
      [
        "социа",
        "тивно"
      ],
      [
        "ско",
        "лько"
      ],
      [
        "пер",
        "имен"
      ],
      [
        "ят",
        "но"
      ],
      [
        "..",
        ".."
      ],
      [
        "это",
        "м"
      ],
      [
        "актив",
        "ности"
      ],
      [
        "действи",
        "я"
      ],
      [
        "челов",
        "ек"
      ],
      [
        "важ",
        "ные"
      ],
      [
        "важ",
        "ность"
      ],
      [
        "важ",
        "ную"
      ],
      [
        "акти",
        "вом"
      ],
      [
        "широ",
        "ким"
      ],
      [
        "мето",
        "дик"
      ],
      [
        "высо",
        "кую"
      ],
      [
        "Не",
        "что"
      ],
      [
        "ходи",
        "т"
      ],
      [
        "политическо",
        "й"
      ],
      [
        "пло",
        "хо"
      ],
      [
        "воз",
        "мож"
      ],
      [
        "При",
        "ятно"
      ],
      [
        "кра",
        "тно"
      ],
      [
        "ори",
        "енти"
      ],
      [
        "объ",
        "ек"
      ],
      [
        "ев",
        "ропе"
      ],
      [
        "мя",
        "нуто"
      ],
      [
        "ери",
        "зации"
      ],
      [
        "бесполез",
        "ное"
      ],
      [
        "Ра",
        "вным"
      ],
      [
        "Та",
        "ким"
      ],
      [
        "постоя",
        "нный"
      ],
      [
        "выпол",
        "нить"
      ],
      [
        "предо",
        "пределяет"
      ],
      [
        "экономичес",
        "кую"
      ],
      [
        "проек",
        "т"
      ],
      [
        "комп",
        "ью"
      ],
      [
        "работа",
        "ет"
      ],
      [
        "дальней",
        "шее"
      ],
      [
        "профессиона",
        "льного"
      ],
      [
        "стандар",
        "тных"
      ],
      [
        "опас",
        "ное"
      ],
      [
        "выра",
        "жение"
      ],
      [
        "могу",
        "т"
      ],
      [
        "рован",
        "ный"
      ],
      [
        "гражда",
        "не"
      ],
      [
        "участника",
        "ми"
      ],
      [
        "материа",
        "льно"
      ],
      [
        "покупа",
        "ет"
      ],
      [
        "глу",
        "бо"
      ],
      [
        "тен",
        "ден"
      ],
      [
        "непоня",
        "тное"
      ],
      [
        "занима",
        "емых"
      ],
      [
        "распреде",
        "лены"
      ],
      [
        "класт",
        "еризации"
      ],
      [
        "предпосы",
        "лки"
      ],
      [
        "жиз",
        "ни"
      ],
      [
        "кет",
        "ин"
      ],
      [
        "сфе",
        "ра"
      ],
      [
        "неодно",
        "кратно"
      ],
      [
        "каждо",
        "го"
      ],
      [
        "выс",
        "шего"
      ],
      [
        "разработ",
        "ке"
      ],
      [
        "мар",
        "кетин"
      ],
      [
        "систе",
        "мы"
      ],
      [
        "культу",
        "ры"
      ],
      [
        "живот",
        "ное"
      ],
      [
        "активи",
        "зации"
      ],
      [
        "отнош",
        "ении"
      ],
      [
        "соверша",
        "ет"
      ],
      [
        "количе",
        "ственный"
      ],
      [
        "ver",
        "y"
      ],
      [
        "Бе",
        "зусловно"
      ],
      [
        "Идей",
        "ные"
      ],
      [
        "Учи",
        "тывая"
      ],
      [
        "ад",
        "министра"
      ],
      [
        "ас",
        "социативно"
      ],
      [
        "бов",
        "анность"
      ],
      [
        "оц",
        "енить"
      ],
      [
        "упо",
        "мянуто"
      ],
      [
        "уси",
        "лий"
      ],
      [
        "учё",
        "том"
      ],
      [
        "уточ",
        "нения"
      ],
      [
        "экс",
        "перимен"
      ],
      [
        "эфф",
        "ек"
      ],
      [
        "поряд",
        "ка"
      ],
      [
        "национа",
        "льный"
      ],
      [
        "наблю",
        "дать"
      ],
      [
        "проб",
        "ле"
      ],
      [
        "обуслов",
        "ливает"
      ],
      [
        "востре",
        "бованность"
      ],
      [
        "разобла",
        "чены"
      ],
      [
        "отрас",
        "лям"
      ],
      [
        "подход",
        "ов"
      ],
      [
        "фикси",
        "рует"
      ],
      [
        "континен",
        "тально"
      ],
      [
        "консульта",
        "ция"
      ],
      [
        "своев",
        "ремен"
      ],
      [
        "ориенти",
        "рованный"
      ],
      [
        "европе",
        "йского"
      ],
      [
        "администра",
        "тивных"
      ],
      [
        ")",
        ","
      ],
      [
        "8",
        "4"
      ],
      [
        "8",
        "5"
      ],
      [
        "8",
        "6"
      ],
      [
        "8",
        "7"
      ],
      [
        "9",
        "4"
      ],
      [
        "9",
        "5"
      ],
      [
        "9",
        "6"
      ],
      [
        "9",
        "7"
      ],
      [
        "c",
        "e"
      ],
      [
        "d",
        "o"
      ],
      [
        "i",
        "th"
      ],
      [
        "k",
        "s"
      ],
      [
        "k",
        "es"
      ],
      [
        "m",
        "e"
      ],
      [
        "o",
        "f"
      ],
      [
        "r",
        "e"
      ],
      [
        "t",
        "e"
      ],
      [
        "w",
        "s"
      ],
      [
        "w",
        "hi"
      ],
      [
        "w",
        "ith"
      ],
      [
        "Д",
        "ля"
      ],
      [
        "З",
        "на"
      ],
      [
        "П",
        "о"
      ],
      [
        "П",
        "ред"
      ],
      [
        "С",
        "ов"
      ],
      [
        "Я",
        "вля"
      ],
      [
        "а",
        "у"
      ],
      [
        "а",
        "граммы"
      ],
      [
        "в",
        "у"
      ],
      [
        "г",
        "е"
      ],
      [
        "г",
        "ни"
      ],
      [
        "г",
        "ля"
      ],
      [
        "д",
        "ви"
      ],
      [
        "е",
        "сть"
      ],
      [
        "е",
        "шь"
      ],
      [
        "ж",
        "ё"
      ],
      [
        "з",
        "но"
      ],
      [
        "з",
        "ей"
      ],
      [
        "и",
        "то"
      ],
      [
        "и",
        "ме"
      ],
      [
        "й",
        "не"
      ],
      [
        "к",
        "рас"
      ],
      [
        "н",
        "ни"
      ],
      [
        "н",
        "ци"
      ],
      [
        "н",
        "циями"
      ],
      [
        "о",
        "ре"
      ],
      [
        "о",
        "при"
      ],
      [
        "п",
        "лы"
      ],
      [
        "р",
        "ь"
      ],
      [
        "с",
        "си"
      ],
      [
        "с",
        "ме"
      ],
      [
        "с",
        "пло"
      ],
      [
        "т",
        "я"
      ],
      [
        "т",
        "ро"
      ],
      [
        "т",
        "тер"
      ],
      [
        "у",
        "ст"
      ],
      [
        "у",
        "кла"
      ],
      [
        "у",
        "блю"
      ],
      [
        "ф",
        "он"
      ],
      [
        "х",
        "ани"
      ],
      [
        "ц",
        "ены"
      ],
      [
        "ч",
        "ные"
      ],
      [
        "ч",
        "ений"
      ],
      [
        "ш",
        "у"
      ],
      [
        "ш",
        "ую"
      ],
      [
        "ъ",
        "ё"
      ],
      [
        "ы",
        "т"
      ],
      [
        "я",
        "сь"
      ],
      [
        "ё",
        "й"
      ],
      [
        "ё",
        "р"
      ],
      [
        "ст",
        "уп"
      ],
      [
        "но",
        "р"
      ],
      [
        "но",
        "во"
      ],
      [
        "но",
        "вая"
      ],
      [
        "ра",
        "ст"
      ],
      [
        "по",
        "че"
      ],
      [
        "по",
        "ла"
      ],
      [
        "по",
        "нима"
      ],
      [
        "по",
        "ложи"
      ],
      [
        "по",
        "след"
      ],
      [
        "на",
        "столько"
      ],
      [
        "ов",
        "аний"
      ],
      [
        "не",
        "си"
      ],
      [
        "не",
        "пра"
      ],
      [
        "не",
        "прият"
      ],
      [
        "не",
        "сколько"
      ],
      [
        "то",
        "й"
      ],
      [
        "то",
        "та"
      ],
      [
        "ка",
        "ции"
      ],
      [
        "ка",
        "ких"
      ],
      [
        "ка",
        "кой"
      ],
      [
        "ко",
        "с"
      ],
      [
        "ко",
        "ман"
      ],
      [
        "ль",
        "ни"
      ],
      [
        "ти",
        "ческий"
      ],
      [
        "ци",
        "фи"
      ],
      [
        "те",
        "ли"
      ],
      [
        "те",
        "ле"
      ],
      [
        "те",
        "ши"
      ],
      [
        "за",
        "па"
      ],
      [
        "об",
        "ста"
      ],
      [
        "го",
        "й"
      ],
      [
        "го",
        "риз"
      ],
      [
        "ли",
        "та"
      ],
      [
        "во",
        "с"
      ],
      [
        "во",
        "очередных"
      ],
      [
        "ва",
        "ритель"
      ],
      [
        "да",
        "ча"
      ],
      [
        "де",
        "к"
      ],
      [
        "вы",
        "чные"
      ],
      [
        "та",
        "ми"
      ],
      [
        "ло",
        "дё"
      ],
      [
        "раз",
        "бор"
      ],
      [
        "ле",
        "чения"
      ],
      [
        "мо",
        "е"
      ],
      [
        "мо",
        "м"
      ],
      [
        "мо",
        "три"
      ],
      [
        "мо",
        "лодё"
      ],
      [
        "ер",
        "ъё"
      ],
      [
        "про",
        "ст"
      ],
      [
        "про",
        "сто"
      ],
      [
        "про",
        "тиво"
      ],
      [
        "со",
        "м"
      ],
      [
        "со",
        "кий"
      ],
      [
        "ще",
        "м"
      ],
      [
        "сти",
        "ки"
      ],
      [
        "ла",
        "сь"
      ],
      [
        "ста",
        "нциями"
      ],
      [
        "до",
        "каза"
      ],
      [
        "ак",
        "ций"
      ],
      [
        "при",
        "зывают"
      ],
      [
        "при",
        "нци"
      ],
      [
        "при",
        "вычные"
      ],
      [
        "ве",
        "сти"
      ],
      [
        "га",
        "ет"
      ],
      [
        "га",
        "ты"
      ],
      [
        "сов",
        "сем"
      ],
      [
        "чи",
        "мость"
      ],
      [
        "ин",
        "стру"
      ],
      [
        "ин",
        "станциями"
      ],
      [
        "ме",
        "ло"
      ],
      [
        "ме",
        "хани"
      ],
      [
        "пред",
        "пола"
      ],
      [
        "се",
        "й"
      ],
      [
        "се",
        "ман"
      ],
      [
        "сто",
        "й"
      ],
      [
        "сто",
        "ит"
      ],
      [
        "па",
        "ттер"
      ],
      [
        "соб",
        "ственных"
      ],
      [
        "ани",
        "и"
      ],
      [
        "ани",
        "я"
      ],
      [
        "же",
        "ство"
      ],
      [
        "бо",
        "гаты"
      ],
      [
        "жи",
        "й"
      ],
      [
        "тельно",
        "м"
      ],
      [
        "тельно",
        "го"
      ],
      [
        "ческо",
        "го"
      ],
      [
        "бу",
        "рда"
      ],
      [
        "ди",
        "т"
      ],
      [
        "ди",
        "тории"
      ],
      [
        "ди",
        "аграммы"
      ],
      [
        "бе",
        "ж"
      ],
      [
        "бе",
        "ра"
      ],
      [
        "бе",
        "зусловно"
      ],
      [
        "фор",
        "ма"
      ],
      [
        "фи",
        "ль"
      ],
      [
        "це",
        "левой"
      ],
      [
        "рез",
        "ко"
      ],
      [
        "кон",
        "струк"
      ],
      [
        "тель",
        "ны"
      ],
      [
        "тель",
        "ством"
      ],
      [
        "обще",
        "й"
      ],
      [
        "обще",
        "ственного"
      ],
      [
        "образ",
        "ный"
      ],
      [
        "сво",
        "ю"
      ],
      [
        "сво",
        "их"
      ],
      [
        "новы",
        "е"
      ],
      [
        "новы",
        "м"
      ],
      [
        "пози",
        "ционных"
      ],
      [
        "он",
        "ты"
      ],
      [
        "цен",
        "ное"
      ],
      [
        "част",
        "ности"
      ],
      [
        "суще",
        "ств"
      ],
      [
        "суще",
        "ство"
      ],
      [
        "пер",
        "воочередных"
      ],
      [
        "сде",
        "лок"
      ],
      [
        "спе",
        "цифи"
      ],
      [
        "ком",
        "па"
      ],
      [
        "пла",
        "н"
      ],
      [
        "опреде",
        "ляет"
      ],
      [
        "вер",
        "и"
      ],
      [
        "чё",
        "нность"
      ],
      [
        "хуйн",
        "ёй"
      ],
      [
        "вов",
        "лечения"
      ],
      [
        "высо",
        "кое"
      ],
      [
        "оп",
        "ыт"
      ],
      [
        "поня",
        "ти"
      ],
      [
        "точ",
        "ка"
      ],
      [
        "лож",
        "но"
      ],
      [
        "разу",
        "м"
      ],
      [
        "следов",
        "а"
      ],
      [
        "чу",
        "в"
      ],
      [
        "процес",
        "са"
      ],
      [
        "отно",
        "шения"
      ],
      [
        "треб",
        "ований"
      ],
      [
        "На",
        "ше"
      ],
      [
        "На",
        "пример"
      ],
      [
        "кра",
        "йне"
      ],
      [
        "технологи",
        "чная"
      ],
      [
        "ограни",
        "чений"
      ],
      [
        "соответствую",
        "щих"
      ],
      [
        "соответствую",
        "щими"
      ],
      [
        "th",
        "at"
      ],
      [
        "шения",
        "м"
      ],
      [
        "ща",
        "я"
      ],
      [
        "совер",
        "ш"
      ],
      [
        "техни",
        "ческой"
      ],
      [
        "очеред",
        "ь"
      ],
      [
        "Ра",
        "зно"
      ],
      [
        "Та",
        "м"
      ],
      [
        "гру",
        "п"
      ],
      [
        "емо",
        "го"
      ],
      [
        "зр",
        "ения"
      ],
      [
        "явл",
        "ение"
      ],
      [
        "мало",
        "ценное"
      ],
      [
        "торгов",
        "ли"
      ],
      [
        "ден",
        "е"
      ],
      [
        "лы",
        "е"
      ],
      [
        "дело",
        "м"
      ],
      [
        "сторо",
        "нни"
      ],
      [
        "след",
        "ую"
      ],
      [
        "комп",
        "ле"
      ],
      [
        "дальней",
        "ших"
      ],
      [
        "профессиона",
        "лов"
      ],
      [
        "стандар",
        "тов"
      ],
      [
        "За",
        "дача"
      ],
      [
        "эти",
        "х"
      ],
      [
        "рациона",
        "льных"
      ],
      [
        "пров",
        "ер"
      ],
      [
        "риз",
        "ма"
      ],
      [
        "свер",
        "шениям"
      ],
      [
        "фак",
        "та"
      ],
      [
        "чет",
        "ким"
      ],
      [
        "подо",
        "з"
      ],
      [
        "горо",
        "де"
      ],
      [
        "маши",
        "на"
      ],
      [
        "гад",
        "кое"
      ],
      [
        "представл",
        "ены"
      ],
      [
        "концеп",
        "ция"
      ],
      [
        "ненуж",
        "ное"
      ],
      [
        "Вы",
        "сокий"
      ],
      [
        "показа",
        "ться"
      ],
      [
        "нау",
        "ке"
      ],
      [
        "неу",
        "теши"
      ],
      [
        "недо",
        "стой"
      ],
      [
        "проис",
        "ходит"
      ],
      [
        "часть",
        "ю"
      ],
      [
        "значи",
        "тельное"
      ],
      [
        "подготов",
        "ке"
      ],
      [
        "высоко",
        "технологичная"
      ],
      [
        "li",
        "kes"
      ],
      [
        "Вне",
        "зап"
      ],
      [
        "Одно",
        "значно"
      ],
      [
        "вз",
        "гля"
      ],
      [
        "оч",
        "ень"
      ],
      [
        "све",
        "жий"
      ],
      [
        "смы",
        "сле"
      ],
      [
        "свет",
        "е"
      ],
      [
        "свя",
        "зей"
      ],
      [
        "побе",
        "ды"
      ],
      [
        "реш",
        "ений"
      ],
      [
        "заб",
        "локи"
      ],
      [
        "вызыва",
        "ющее"
      ],
      [
        "внеш",
        "них"
      ],
      [
        "объек",
        "тивно"
      ],
      [
        "пробле",
        "м"
      ],
      [
        "Зна",
        "чимость"
      ],
      [
        "Пред",
        "варитель"
      ],
      [
        "Явля",
        "ясь"
      ],
      [
        "ау",
        "дитории"
      ],
      [
        "спло",
        "чённость"
      ],
      [
        "тя",
        "жё"
      ],
      [
        "укла",
        "да"
      ],
      [
        "поче",
        "му"
      ],
      [
        "положи",
        "тельном"
      ],
      [
        "послед",
        "стви"
      ],
      [
        "непра",
        "ви"
      ],
      [
        "тота",
        "лита"
      ],
      [
        "коман",
        "ды"
      ],
      [
        "обста",
        "нов"
      ],
      [
        "гориз",
        "онты"
      ],
      [
        "еръё",
        "з"
      ],
      [
        "просто",
        "го"
      ],
      [
        "противо",
        "действий"
      ],
      [
        "доказа",
        "тельством"
      ],
      [
        "инстру",
        "мен"
      ],
      [
        "предпола",
        "гает"
      ],
      [
        "семан",
        "тический"
      ],
      [
        "паттер",
        "нов"
      ],
      [
        "богаты",
        "й"
      ],
      [
        "специфи",
        "кации"
      ],
      [
        "Разно",
        "образный"
      ],
      [
        "сторонни",
        "ки"
      ],
      [
        "неутеши",
        "тельны"
      ],
      [
        "Внезап",
        "но"
      ],
      [
        "взгля",
        "д"
      ],
      [
        "заблоки",
        "рованы"
      ],
      [
        "Предваритель",
        "ные"
      ],
      [
        "тоталита",
        "ризма"
      ],
      [
        "2",
        "50"
      ],
      [
        "E",
        "n"
      ],
      [
        "H",
        "e"
      ],
      [
        "K",
        "y"
      ],
      [
        "T",
        "he"
      ],
      [
        "a",
        "v"
      ],
      [
        "c",
        "s"
      ],
      [
        "d",
        "en"
      ],
      [
        "d",
        "ay"
      ],
      [
        "e",
        "x"
      ],
      [
        "f",
        "or"
      ],
      [
        "g",
        "e"
      ],
      [
        "g",
        "l"
      ],
      [
        "g",
        "y"
      ],
      [
        "g",
        "oo"
      ],
      [
        "h",
        "as"
      ],
      [
        "i",
        "cs"
      ],
      [
        "l",
        "un"
      ],
      [
        "o",
        "n"
      ],
      [
        "o",
        "u"
      ],
      [
        "s",
        "ci"
      ],
      [
        "t",
        "i"
      ],
      [
        "u",
        "l"
      ],
      [
        "u",
        "den"
      ],
      [
        "В",
        "он"
      ],
      [
        "Е",
        "с"
      ],
      [
        "Е",
        "сть"
      ],
      [
        "И",
        "меется"
      ],
      [
        "Н",
        "у"
      ],
      [
        "С",
        "и"
      ],
      [
        "С",
        "ложно"
      ],
      [
        "Т",
        "ре"
      ],
      [
        "Х",
        "уй"
      ],
      [
        "а",
        "л"
      ],
      [
        "а",
        "бра"
      ],
      [
        "а",
        "дек"
      ],
      [
        "б",
        "и"
      ],
      [
        "б",
        "ер"
      ],
      [
        "б",
        "од"
      ],
      [
        "б",
        "ред"
      ],
      [
        "в",
        "ного"
      ],
      [
        "в",
        "клю"
      ],
      [
        "в",
        "ёр"
      ],
      [
        "г",
        "л"
      ],
      [
        "г",
        "но"
      ],
      [
        "г",
        "ли"
      ],
      [
        "г",
        "ну"
      ],
      [
        "г",
        "уют"
      ],
      [
        "д",
        "ях"
      ],
      [
        "е",
        "л"
      ],
      [
        "е",
        "х"
      ],
      [
        "е",
        "ё"
      ],
      [
        "е",
        "мы"
      ],
      [
        "е",
        "му"
      ],
      [
        "ж",
        "у"
      ],
      [
        "ж",
        "дут"
      ],
      [
        "з",
        "де"
      ],
      [
        "и",
        "не"
      ],
      [
        "и",
        "ное"
      ],
      [
        "и",
        "сто"
      ],
      [
        "и",
        "ного"
      ],
      [
        "и",
        "ческое"
      ],
      [
        "и",
        "гно"
      ],
      [
        "й",
        "но"
      ],
      [
        "к",
        "ни"
      ],
      [
        "к",
        "ви"
      ],
      [
        "к",
        "ро"
      ],
      [
        "к",
        "са"
      ],
      [
        "к",
        "тери"
      ],
      [
        "л",
        "ле"
      ],
      [
        "м",
        "но"
      ],
      [
        "м",
        "па"
      ],
      [
        "м",
        "ного"
      ],
      [
        "н",
        "г"
      ],
      [
        "н",
        "ки"
      ],
      [
        "н",
        "ского"
      ],
      [
        "о",
        "щ"
      ],
      [
        "о",
        "ни"
      ],
      [
        "о",
        "кру"
      ],
      [
        "п",
        "из"
      ],
      [
        "п",
        "ного"
      ],
      [
        "п",
        "ус"
      ],
      [
        "р",
        "об"
      ],
      [
        "р",
        "га"
      ],
      [
        "р",
        "ная"
      ],
      [
        "р",
        "ши"
      ],
      [
        "с",
        "к"
      ],
      [
        "с",
        "с"
      ],
      [
        "с",
        "ло"
      ],
      [
        "с",
        "лу"
      ],
      [
        "с",
        "каза"
      ],
      [
        "с",
        "ери"
      ],
      [
        "с",
        "нить"
      ],
      [
        "т",
        "ные"
      ],
      [
        "у",
        "нда"
      ],
      [
        "у",
        "правл"
      ],
      [
        "у",
        "делом"
      ],
      [
        "х",
        "у"
      ],
      [
        "х",
        "ер"
      ],
      [
        "х",
        "ара"
      ],
      [
        "ч",
        "ка"
      ],
      [
        "ч",
        "ни"
      ],
      [
        "ч",
        "рез"
      ],
      [
        "щ",
        "ным"
      ],
      [
        "ы",
        "чно"
      ],
      [
        "э",
        "мо"
      ],
      [
        "э",
        "мпа"
      ],
      [
        "э",
        "сс"
      ],
      [
        "ю",
        "щиеся"
      ],
      [
        "я",
        "га"
      ],
      [
        "я",
        "тий"
      ],
      [
        "ст",
        "ско"
      ],
      [
        "но",
        "вой"
      ],
      [
        "но",
        "технологии"
      ],
      [
        "ен",
        "цию"
      ],
      [
        "ен",
        "еб"
      ],
      [
        "ра",
        "льная"
      ],
      [
        "ра",
        "жаю"
      ],
      [
        "по",
        "нен"
      ],
      [
        "по",
        "вест"
      ],
      [
        "по",
        "эта"
      ],
      [
        "по",
        "гру"
      ],
      [
        "по",
        "следова"
      ],
      [
        "на",
        "пр"
      ],
      [
        "на",
        "ми"
      ],
      [
        "на",
        "ро"
      ],
      [
        "на",
        "се"
      ],
      [
        "на",
        "ту"
      ],
      [
        "на",
        "су"
      ],
      [
        "на",
        "зва"
      ],
      [
        "на",
        "нотехнологии"
      ],
      [
        "ре",
        "су"
      ],
      [
        "ре",
        "шения"
      ],
      [
        "ов",
        "а"
      ],
      [
        "не",
        "пред"
      ],
      [
        "не",
        "чно"
      ],
      [
        "не",
        "которы"
      ],
      [
        "не",
        "пос"
      ],
      [
        "не",
        "прост"
      ],
      [
        "не",
        "разум"
      ],
      [
        "то",
        "к"
      ],
      [
        "то",
        "го"
      ],
      [
        "то",
        "ров"
      ],
      [
        "то",
        "чно"
      ],
      [
        "ка",
        "ль"
      ],
      [
        "ка",
        "да"
      ],
      [
        "ка",
        "са"
      ],
      [
        "ка",
        "кую"
      ],
      [
        "ка",
        "кое"
      ],
      [
        "ко",
        "мы"
      ],
      [
        "ко",
        "нечно"
      ],
      [
        "ни",
        "бу"
      ],
      [
        "ни",
        "ца"
      ],
      [
        "ет",
        "ическое"
      ],
      [
        "ль",
        "ную"
      ],
      [
        "ти",
        "и"
      ],
      [
        "ти",
        "зации"
      ],
      [
        "пр",
        "енеб"
      ],
      [
        "ци",
        "рованы"
      ],
      [
        "те",
        "сти"
      ],
      [
        "те",
        "ги"
      ],
      [
        "те",
        "рес"
      ],
      [
        "те",
        "снить"
      ],
      [
        "за",
        "бу"
      ],
      [
        "за",
        "кры"
      ],
      [
        "за",
        "дума"
      ],
      [
        "об",
        "ли"
      ],
      [
        "об",
        "ычно"
      ],
      [
        "го",
        "су"
      ],
      [
        "го",
        "дня"
      ],
      [
        "ли",
        "я"
      ],
      [
        "ли",
        "бера"
      ],
      [
        "ли",
        "бер"
      ],
      [
        "во",
        "н"
      ],
      [
        "ва",
        "т"
      ],
      [
        "ва",
        "ющиеся"
      ],
      [
        "че",
        "рез"
      ],
      [
        "да",
        "р"
      ],
      [
        "да",
        "ны"
      ],
      [
        "де",
        "ра"
      ],
      [
        "ви",
        "ды"
      ],
      [
        "вы",
        "й"
      ],
      [
        "вы",
        "ча"
      ],
      [
        "вы",
        "бо"
      ],
      [
        "вы",
        "теснить"
      ],
      [
        "та",
        "кого"
      ],
      [
        "раз",
        "д"
      ],
      [
        "раз",
        "ба"
      ],
      [
        "ть",
        "его"
      ],
      [
        "мо",
        "га"
      ],
      [
        "пре",
        "воз"
      ],
      [
        "ер",
        "унда"
      ],
      [
        "ма",
        "льно"
      ],
      [
        "про",
        "па"
      ],
      [
        "ся",
        "щая"
      ],
      [
        "со",
        "р"
      ],
      [
        "со",
        "ста"
      ],
      [
        "со",
        "зна"
      ],
      [
        "ения",
        "х"
      ],
      [
        "сти",
        "ка"
      ],
      [
        "сти",
        "гли"
      ],
      [
        "ста",
        "ет"
      ],
      [
        "ста",
        "ти"
      ],
      [
        "ста",
        "точ"
      ],
      [
        "до",
        "к"
      ],
      [
        "до",
        "лей"
      ],
      [
        "до",
        "пус"
      ],
      [
        "до",
        "стигли"
      ],
      [
        "до",
        "статоч"
      ],
      [
        "ак",
        "ции"
      ],
      [
        "при",
        "бы"
      ],
      [
        "при",
        "зва"
      ],
      [
        "при",
        "оре"
      ],
      [
        "ча",
        "с"
      ],
      [
        "ве",
        "ща"
      ],
      [
        "си",
        "ла"
      ],
      [
        "си",
        "нт"
      ],
      [
        "ри",
        "ру"
      ],
      [
        "ку",
        "п"
      ],
      [
        "га",
        "нди"
      ],
      [
        "чи",
        "ть"
      ],
      [
        "ин",
        "форма"
      ],
      [
        "ме",
        "л"
      ],
      [
        "се",
        "годня"
      ],
      [
        "из",
        "ряд"
      ],
      [
        "па",
        "рши"
      ],
      [
        "тив",
        "ная"
      ],
      [
        "соб",
        "ственные"
      ],
      [
        "тре",
        "тьего"
      ],
      [
        "лю",
        "дях"
      ],
      [
        "су",
        "жд"
      ],
      [
        "вл",
        "енное"
      ],
      [
        "гра",
        "ница"
      ],
      [
        "разви",
        "вающиеся"
      ],
      [
        "ду",
        "р"
      ],
      [
        "пи",
        "л"
      ],
      [
        "пи",
        "ров"
      ],
      [
        "ют",
        "ся"
      ],
      [
        "ческо",
        "м"
      ],
      [
        "под",
        "вер"
      ],
      [
        "ди",
        "цион"
      ],
      [
        "ис",
        "польз"
      ],
      [
        "ремен",
        "ные"
      ],
      [
        "бе",
        "либер"
      ],
      [
        "предста",
        "вляет"
      ],
      [
        "му",
        "ть"
      ],
      [
        "ус",
        "пе"
      ],
      [
        "рас",
        "сужд"
      ],
      [
        "мер",
        "и"
      ],
      [
        "мер",
        "опри"
      ],
      [
        "фи",
        "ческих"
      ],
      [
        "фи",
        "цированы"
      ],
      [
        "чно",
        "м"
      ],
      [
        "is",
        "h"
      ],
      [
        "кон",
        "кре"
      ],
      [
        "кон",
        "читься"
      ],
      [
        "зависи",
        "мых"
      ],
      [
        "he",
        "r"
      ],
      [
        "he",
        "mat"
      ],
      [
        "спо",
        "рная"
      ],
      [
        "обще",
        "м"
      ],
      [
        "ба",
        "зы"
      ],
      [
        "все",
        "х"
      ],
      [
        "тор",
        "гу"
      ],
      [
        "тор",
        "гуют"
      ],
      [
        "современ",
        "ного"
      ],
      [
        "вне",
        "очередных"
      ],
      [
        "дов",
        "и"
      ],
      [
        "сво",
        "ей"
      ],
      [
        "сво",
        "ём"
      ],
      [
        "гов",
        "о"
      ],
      [
        "ход",
        "я"
      ],
      [
        "ред",
        "ственные"
      ],
      [
        "ень",
        "ю"
      ],
      [
        "суще",
        "ственных"
      ],
      [
        "жа",
        "ждут"
      ],
      [
        "актив",
        "но"
      ],
      [
        "формировани",
        "я"
      ],
      [
        "мож",
        "но"
      ],
      [
        "стоя",
        "щее"
      ],
      [
        "цион",
        "но"
      ],
      [
        "способ",
        "ы"
      ],
      [
        "способ",
        "ного"
      ],
      [
        "ря",
        "да"
      ],
      [
        "стра",
        "н"
      ],
      [
        "стра",
        "ны"
      ],
      [
        "стра",
        "теги"
      ],
      [
        "акти",
        "ва"
      ],
      [
        "пример",
        "но"
      ],
      [
        "широ",
        "ком"
      ],
      [
        "пу",
        "рга"
      ],
      [
        "чё",
        "м"
      ],
      [
        "повед",
        "ение"
      ],
      [
        "неизвест",
        "ный"
      ],
      [
        "логи",
        "чно"
      ],
      [
        "мето",
        "дов"
      ],
      [
        "огра",
        "фических"
      ],
      [
        "вся",
        "кую"
      ],
      [
        "вся",
        "кой"
      ],
      [
        "оп",
        "позиции"
      ],
      [
        "сл",
        "енных"
      ],
      [
        "независи",
        "мых"
      ],
      [
        "разу",
        "ма"
      ],
      [
        "разу",
        "меется"
      ],
      [
        "разу",
        "мом"
      ],
      [
        "туа",
        "льных"
      ],
      [
        "оста",
        "ются"
      ],
      [
        "пло",
        "х"
      ],
      [
        "чу",
        "шь"
      ],
      [
        "тер",
        "ми"
      ],
      [
        "процес",
        "с"
      ],
      [
        "процес",
        "сов"
      ],
      [
        "процес",
        "сами"
      ],
      [
        "сложив",
        "шую"
      ],
      [
        "кра",
        "ти"
      ],
      [
        "объ",
        "яс"
      ],
      [
        "финансов",
        "ом"
      ],
      [
        "цело",
        "й"
      ],
      [
        "цело",
        "го"
      ],
      [
        "соответствую",
        "щей"
      ],
      [
        "мя",
        "щиеся"
      ],
      [
        "ос",
        "веща"
      ],
      [
        "шне",
        "го"
      ],
      [
        "произ",
        "вед"
      ],
      [
        "веще",
        "й"
      ],
      [
        "мыш",
        "ление"
      ],
      [
        "участни",
        "ки"
      ],
      [
        "трейдин",
        "га"
      ],
      [
        "техни",
        "ческого"
      ],
      [
        "гру",
        "з"
      ],
      [
        "ью",
        "че"
      ],
      [
        "явл",
        "ений"
      ],
      [
        "постоя",
        "нное"
      ],
      [
        "кадров",
        "ой"
      ],
      [
        "мало",
        "значительное"
      ],
      [
        "ситуа",
        "ции"
      ],
      [
        "ситуа",
        "цию"
      ],
      [
        "само",
        "м"
      ],
      [
        "само",
        "достаточ"
      ],
      [
        "исследов",
        "ания"
      ],
      [
        "торгов",
        "ля"
      ],
      [
        "интерес",
        "ные"
      ],
      [
        "интерес",
        "ный"
      ],
      [
        "интерес",
        "ная"
      ],
      [
        "экономичес",
        "кая"
      ],
      [
        "повыш",
        "ение"
      ],
      [
        "обеспе",
        "чение"
      ],
      [
        "en",
        "ce"
      ],
      [
        "ям",
        "ую"
      ],
      [
        "стре",
        "мящиеся"
      ],
      [
        "проек",
        "та"
      ],
      [
        "сторо",
        "ны"
      ],
      [
        "сдела",
        "нное"
      ],
      [
        "ar",
        "t"
      ],
      [
        "mat",
        "hemat"
      ],
      [
        "st",
        "uden"
      ],
      [
        "Ка",
        "кая"
      ],
      [
        "рациона",
        "льное"
      ],
      [
        "пров",
        "о"
      ],
      [
        "принима",
        "ть"
      ],
      [
        "мыс",
        "ли"
      ],
      [
        "гражда",
        "нского"
      ],
      [
        "фак",
        "торов"
      ],
      [
        "потреб",
        "ност"
      ],
      [
        "маши",
        "ны"
      ],
      [
        "музы",
        "ка"
      ],
      [
        "музы",
        "ки"
      ],
      [
        "концеп",
        "туальных"
      ],
      [
        "производ",
        "ство"
      ],
      [
        "производ",
        "ственный"
      ],
      [
        "ac",
        "her"
      ],
      [
        "al",
        "l"
      ],
      [
        "нт",
        "эсс"
      ],
      [
        "сро",
        "ч"
      ],
      [
        "тра",
        "дицион"
      ],
      [
        "ност",
        "ях"
      ],
      [
        "мас",
        "сово"
      ],
      [
        "состоя",
        "ние"
      ],
      [
        "рой",
        "ства"
      ],
      [
        "собы",
        "тий"
      ],
      [
        "результа",
        "т"
      ],
      [
        "качествен",
        "но"
      ],
      [
        "качествен",
        "ное"
      ],
      [
        "Ин",
        "терес"
      ],
      [
        "Ли",
        "шь"
      ],
      [
        "ах",
        "ине"
      ],
      [
        "гла",
        "сящая"
      ],
      [
        "сет",
        "ь"
      ],
      [
        "валю",
        "той"
      ],
      [
        "иннова",
        "ционных"
      ],
      [
        "возмож",
        "ностях"
      ],
      [
        "компью",
        "тер"
      ],
      [
        "глубо",
        "комы"
      ],
      [
        "тенден",
        "ций"
      ],
      [
        "маркетин",
        "га"
      ],
      [
        "эксперимен",
        "т"
      ],
      [
        "своевремен",
        "но"
      ],
      [
        "te",
        "acher"
      ],
      [
        "whi",
        "ch"
      ],
      [
        "Сов",
        "ременные"
      ],
      [
        "ге",
        "ографических"
      ],
      [
        "име",
        "нова"
      ],
      [
        "крас",
        "ка"
      ],
      [
        "плы",
        "ла"
      ],
      [
        "тро",
        "пи"
      ],
      [
        "уст",
        "ройства"
      ],
      [
        "ступ",
        "енью"
      ],
      [
        "неприят",
        "ное"
      ],
      [
        "кос",
        "ми"
      ],
      [
        "запа",
        "х"
      ],
      [
        "принци",
        "пов"
      ],
      [
        "механи",
        "з"
      ],
      [
        "филь",
        "м"
      ],
      [
        "компа",
        "ний"
      ],
      [
        "вери",
        "фицированы"
      ],
      [
        "соверш",
        "ен"
      ],
      [
        "груп",
        "пиров"
      ],
      [
        "дене",
        "г"
      ],
      [
        "следую",
        "щее"
      ],
      [
        "компле",
        "кса"
      ],
      [
        "провер",
        "ки"
      ],
      [
        "подоз",
        "ритель"
      ],
      [
        "последстви",
        "я"
      ],
      [
        "неправи",
        "льное"
      ],
      [
        "обстанов",
        "ки"
      ],
      [
        "инструмен",
        "тами"
      ],
      [
        "En",
        "gl"
      ],
      [
        "Ky",
        "le"
      ],
      [
        "gy",
        "m"
      ],
      [
        "goo",
        "d"
      ],
      [
        "lun",
        "ch"
      ],
      [
        "sci",
        "ence"
      ],
      [
        "Ес",
        "ли"
      ],
      [
        "Тре",
        "й"
      ],
      [
        "Хуй",
        "ня"
      ],
      [
        "абра",
        "када"
      ],
      [
        "бод",
        "яга"
      ],
      [
        "вклю",
        "чения"
      ],
      [
        "гл",
        "оба"
      ],
      [
        "гну",
        "ты"
      ],
      [
        "емы",
        "й"
      ],
      [
        "зде",
        "сь"
      ],
      [
        "исто",
        "чни"
      ],
      [
        "игно",
        "риру"
      ],
      [
        "кви",
        "нтэсс"
      ],
      [
        "кро",
        "ме"
      ],
      [
        "ктери",
        "стика"
      ],
      [
        "ощ",
        "у"
      ],
      [
        "окру",
        "жаю"
      ],
      [
        "сказа",
        "ть"
      ],
      [
        "сери",
        "и"
      ],
      [
        "управл",
        "ения"
      ],
      [
        "хара",
        "ктеристика"
      ],
      [
        "чрез",
        "выча"
      ],
      [
        "эмо",
        "циями"
      ],
      [
        "эмпа",
        "тии"
      ],
      [
        "стско",
        "е"
      ],
      [
        "повест",
        "ка"
      ],
      [
        "поэта",
        "пного"
      ],
      [
        "последова",
        "тельного"
      ],
      [
        "напр",
        "ямую"
      ],
      [
        "нату",
        "ральная"
      ],
      [
        "насу",
        "щным"
      ],
      [
        "ресу",
        "р"
      ],
      [
        "некоторы",
        "х"
      ],
      [
        "непос",
        "редственные"
      ],
      [
        "непрост",
        "ую"
      ],
      [
        "каса",
        "емо"
      ],
      [
        "нибу",
        "дь"
      ],
      [
        "пренеб",
        "ре"
      ],
      [
        "тести",
        "рование"
      ],
      [
        "забу",
        "б"
      ],
      [
        "задума",
        "ться"
      ],
      [
        "госу",
        "дар"
      ],
      [
        "либера",
        "лов"
      ],
      [
        "выбо",
        "ра"
      ],
      [
        "разба",
        "вленное"
      ],
      [
        "мога",
        "я"
      ],
      [
        "превоз",
        "могая"
      ],
      [
        "пропа",
        "ганди"
      ],
      [
        "созна",
        "ния"
      ],
      [
        "допус",
        "ка"
      ],
      [
        "прибы",
        "ль"
      ],
      [
        "приоре",
        "тизации"
      ],
      [
        "синт",
        "етическое"
      ],
      [
        "информа",
        "ционно"
      ],
      [
        "сегодня",
        "шнего"
      ],
      [
        "изряд",
        "ной"
      ],
      [
        "подвер",
        "гнуты"
      ],
      [
        "белибер",
        "да"
      ],
      [
        "рассужд",
        "ений"
      ],
      [
        "меропри",
        "ятий"
      ],
      [
        "конкре",
        "тные"
      ],
      [
        "торгу",
        "ет"
      ],
      [
        "сложившую",
        "ся"
      ],
      [
        "освеща",
        "ют"
      ],
      [
        "самодостаточ",
        "ных"
      ],
      [
        "mathemat",
        "ics"
      ],
      [
        "потребност",
        "ям"
      ],
      [
        "традицион",
        "ное"
      ],
      [
        "массово",
        "го"
      ],
      [
        "Интерес",
        "но"
      ],
      [
        "ахине",
        "я"
      ],
      [
        "глубокомы",
        "сленных"
      ],
      [
        "Engl",
        "ish"
      ],
      [
        "абракада",
        "бра"
      ],
      [
        "квинтэсс",
        "енцию"
      ],
      [
        "чрезвыча",
        "йно"
      ],
      [
        "пропаганди",
        "стское"
      ],
      [
        ".",
        "!,"
      ],
      [
        "0",
        "0"
      ],
      [
        "I",
        "t"
      ],
      [
        "L",
        "in"
      ],
      [
        "W",
        "in"
      ],
      [
        "a",
        "d"
      ],
      [
        "a",
        "k"
      ],
      [
        "b",
        "u"
      ],
      [
        "c",
        "all"
      ],
      [
        "f",
        "i"
      ],
      [
        "f",
        "ul"
      ],
      [
        "g",
        "o"
      ],
      [
        "h",
        "ar"
      ],
      [
        "h",
        "av"
      ],
      [
        "j",
        "u"
      ],
      [
        "m",
        "o"
      ],
      [
        "n",
        "ex"
      ],
      [
        "o",
        "me"
      ],
      [
        "p",
        "ac"
      ],
      [
        "r",
        "i"
      ],
      [
        "r",
        "y"
      ],
      [
        "s",
        "ch"
      ],
      [
        "s",
        "ome"
      ],
      [
        "t",
        "er"
      ],
      [
        "u",
        "x"
      ],
      [
        "w",
        "or"
      ],
      [
        "А",
        "мери"
      ],
      [
        "Б",
        "ля"
      ],
      [
        "В",
        "е"
      ],
      [
        "Д",
        "ей"
      ],
      [
        "Е",
        "щё"
      ],
      [
        "К",
        "стати"
      ],
      [
        "М",
        "ы"
      ],
      [
        "М",
        "ет"
      ],
      [
        "П",
        "ро"
      ],
      [
        "П",
        "ах"
      ],
      [
        "С",
        "ле"
      ],
      [
        "С",
        "мотри"
      ],
      [
        "Т",
        "ы"
      ],
      [
        "Ф",
        "ра"
      ],
      [
        "Я",
        "с"
      ],
      [
        "а",
        "м"
      ],
      [
        "а",
        "я"
      ],
      [
        "а",
        "ви"
      ],
      [
        "а",
        "ми"
      ],
      [
        "б",
        "я"
      ],
      [
        "б",
        "ности"
      ],
      [
        "в",
        "ра"
      ],
      [
        "в",
        "че"
      ],
      [
        "в",
        "ле"
      ],
      [
        "в",
        "пе"
      ],
      [
        "в",
        "ши"
      ],
      [
        "в",
        "ной"
      ],
      [
        "г",
        "ро"
      ],
      [
        "г",
        "ков"
      ],
      [
        "д",
        "ка"
      ],
      [
        "д",
        "ной"
      ],
      [
        "д",
        "ней"
      ],
      [
        "д",
        "оба"
      ],
      [
        "е",
        "ла"
      ],
      [
        "е",
        "дин"
      ],
      [
        "ж",
        "на"
      ],
      [
        "ж",
        "ду"
      ],
      [
        "ж",
        "ды"
      ],
      [
        "ж",
        "дь"
      ],
      [
        "ж",
        "ании"
      ],
      [
        "з",
        "ла"
      ],
      [
        "з",
        "ме"
      ],
      [
        "з",
        "ности"
      ],
      [
        "з",
        "кое"
      ],
      [
        "з",
        "ел"
      ],
      [
        "и",
        "ни"
      ],
      [
        "и",
        "ть"
      ],
      [
        "и",
        "мость"
      ],
      [
        "и",
        "мя"
      ],
      [
        "й",
        "ка"
      ],
      [
        "к",
        "ционных"
      ],
      [
        "л",
        "ё"
      ],
      [
        "л",
        "ти"
      ],
      [
        "л",
        "лю"
      ],
      [
        "л",
        "ке"
      ],
      [
        "м",
        "не"
      ],
      [
        "м",
        "ма"
      ],
      [
        "м",
        "ения"
      ],
      [
        "н",
        "д"
      ],
      [
        "н",
        "с"
      ],
      [
        "н",
        "ст"
      ],
      [
        "н",
        "но"
      ],
      [
        "н",
        "ра"
      ],
      [
        "н",
        "ка"
      ],
      [
        "н",
        "ений"
      ],
      [
        "н",
        "ении"
      ],
      [
        "н",
        "ём"
      ],
      [
        "о",
        "не"
      ],
      [
        "о",
        "жи"
      ],
      [
        "о",
        "пи"
      ],
      [
        "о",
        "зности"
      ],
      [
        "п",
        "ен"
      ],
      [
        "п",
        "ли"
      ],
      [
        "п",
        "ак"
      ],
      [
        "п",
        "ин"
      ],
      [
        "п",
        "ней"
      ],
      [
        "р",
        "ен"
      ],
      [
        "р",
        "пи"
      ],
      [
        "р",
        "сами"
      ],
      [
        "с",
        "ки"
      ],
      [
        "с",
        "ла"
      ],
      [
        "с",
        "ства"
      ],
      [
        "с",
        "кие"
      ],
      [
        "с",
        "мыс"
      ],
      [
        "с",
        "еръёз"
      ],
      [
        "т",
        "ка"
      ],
      [
        "т",
        "ру"
      ],
      [
        "т",
        "ный"
      ],
      [
        "т",
        "ления"
      ],
      [
        "у",
        "т"
      ],
      [
        "у",
        "ни"
      ],
      [
        "у",
        "бо"
      ],
      [
        "у",
        "жа"
      ],
      [
        "у",
        "важ"
      ],
      [
        "у",
        "каза"
      ],
      [
        "у",
        "беж"
      ],
      [
        "у",
        "чить"
      ],
      [
        "у",
        "гро"
      ],
      [
        "у",
        "мения"
      ],
      [
        "ф",
        "ра"
      ],
      [
        "ф",
        "ьюче"
      ],
      [
        "х",
        "зада"
      ],
      [
        "х",
        "ит"
      ],
      [
        "х",
        "ими"
      ],
      [
        "ш",
        "ко"
      ],
      [
        "ш",
        "та"
      ],
      [
        "ш",
        "ла"
      ],
      [
        "ш",
        "ин"
      ],
      [
        "ш",
        "ности"
      ],
      [
        "щ",
        "ь"
      ],
      [
        "ъ",
        "ём"
      ],
      [
        "ы",
        "е"
      ],
      [
        "ь",
        "ся"
      ],
      [
        "э",
        "н"
      ],
      [
        "ю",
        "щих"
      ],
      [
        "ю",
        "щие"
      ],
      [
        "ю",
        "щем"
      ],
      [
        "я",
        "зы"
      ],
      [
        "я",
        "вляет"
      ],
      [
        "ё",
        "н"
      ],
      [
        "но",
        "сте"
      ],
      [
        "но",
        "чная"
      ],
      [
        "но",
        "гла"
      ],
      [
        "ра",
        "я"
      ],
      [
        "ра",
        "ди"
      ],
      [
        "ра",
        "нда"
      ],
      [
        "ра",
        "стает"
      ],
      [
        "ра",
        "вной"
      ],
      [
        "по",
        "й"
      ],
      [
        "по",
        "мо"
      ],
      [
        "по",
        "га"
      ],
      [
        "по",
        "пол"
      ],
      [
        "по",
        "лож"
      ],
      [
        "по",
        "хо"
      ],
      [
        "по",
        "том"
      ],
      [
        "по",
        "ех"
      ],
      [
        "по",
        "ражаю"
      ],
      [
        "по",
        "плыла"
      ],
      [
        "на",
        "х"
      ],
      [
        "на",
        "пол"
      ],
      [
        "на",
        "пример"
      ],
      [
        "на",
        "именова"
      ],
      [
        "ре",
        "ст"
      ],
      [
        "ре",
        "пли"
      ],
      [
        "ов",
        "ка"
      ],
      [
        "не",
        "при"
      ],
      [
        "не",
        "ры"
      ],
      [
        "не",
        "адек"
      ],
      [
        "не",
        "объяс"
      ],
      [
        "то",
        "же"
      ],
      [
        "то",
        "му"
      ],
      [
        "ка",
        "те"
      ],
      [
        "ка",
        "ким"
      ],
      [
        "ка",
        "ранда"
      ],
      [
        "ко",
        "сть"
      ],
      [
        "ко",
        "лле"
      ],
      [
        "ко",
        "качественное"
      ],
      [
        "ни",
        "к"
      ],
      [
        "ни",
        "что"
      ],
      [
        "ни",
        "ческое"
      ],
      [
        "ни",
        "рование"
      ],
      [
        "ни",
        "мое"
      ],
      [
        "ет",
        "ься"
      ],
      [
        "ти",
        "т"
      ],
      [
        "пр",
        "я"
      ],
      [
        "ци",
        "на"
      ],
      [
        "ци",
        "рован"
      ],
      [
        "те",
        "пер"
      ],
      [
        "те",
        "лей"
      ],
      [
        "за",
        "ра"
      ],
      [
        "за",
        "ру"
      ],
      [
        "за",
        "клю"
      ],
      [
        "за",
        "лу"
      ],
      [
        "за",
        "пу"
      ],
      [
        "за",
        "кончиться"
      ],
      [
        "го",
        "го"
      ],
      [
        "ли",
        "т"
      ],
      [
        "ва",
        "х"
      ],
      [
        "ва",
        "ри"
      ],
      [
        "ва",
        "ют"
      ],
      [
        "ва",
        "ться"
      ],
      [
        "ва",
        "ющее"
      ],
      [
        "ва",
        "емо"
      ],
      [
        "че",
        "й"
      ],
      [
        "да",
        "же"
      ],
      [
        "де",
        "о"
      ],
      [
        "де",
        "ц"
      ],
      [
        "де",
        "ля"
      ],
      [
        "де",
        "мо"
      ],
      [
        "де",
        "ла"
      ],
      [
        "ви",
        "нг"
      ],
      [
        "ви",
        "део"
      ],
      [
        "вы",
        "е"
      ],
      [
        "вы",
        "ну"
      ],
      [
        "вы",
        "бра"
      ],
      [
        "вы",
        "пил"
      ],
      [
        "вы",
        "являет"
      ],
      [
        "та",
        "н"
      ],
      [
        "та",
        "х"
      ],
      [
        "та",
        "бу"
      ],
      [
        "та",
        "кую"
      ],
      [
        "та",
        "лки"
      ],
      [
        "ло",
        "ди"
      ],
      [
        "ло",
        "сь"
      ],
      [
        "раз",
        "ные"
      ],
      [
        "раз",
        "рез"
      ],
      [
        "раз",
        "ногла"
      ],
      [
        "ле",
        "жи"
      ],
      [
        "ле",
        "гков"
      ],
      [
        "ля",
        "х"
      ],
      [
        "ля",
        "ющее"
      ],
      [
        "мо",
        "ра"
      ],
      [
        "мо",
        "нст"
      ],
      [
        "пре",
        "тенден"
      ],
      [
        "пре",
        "даны"
      ],
      [
        "ми",
        "нима"
      ],
      [
        "ми",
        "стики"
      ],
      [
        "ер",
        "ы"
      ],
      [
        "ма",
        "гни"
      ],
      [
        "ма",
        "шин"
      ],
      [
        "про",
        "да"
      ],
      [
        "про",
        "ду"
      ],
      [
        "ся",
        "т"
      ],
      [
        "со",
        "с"
      ],
      [
        "со",
        "мы"
      ],
      [
        "со",
        "дер"
      ],
      [
        "сти",
        "ческий"
      ],
      [
        "ла",
        "я"
      ],
      [
        "ста",
        "ту"
      ],
      [
        "ста",
        "вляет"
      ],
      [
        "ста",
        "вка"
      ],
      [
        "до",
        "ро"
      ],
      [
        "до",
        "же"
      ],
      [
        "до",
        "ждь"
      ],
      [
        "от",
        "ри"
      ],
      [
        "от",
        "ень"
      ],
      [
        "от",
        "мет"
      ],
      [
        "от",
        "талки"
      ],
      [
        "ак",
        "цио"
      ],
      [
        "ро",
        "м"
      ],
      [
        "ро",
        "сти"
      ],
      [
        "при",
        "зна"
      ],
      [
        "при",
        "вести"
      ],
      [
        "ня",
        "тие"
      ],
      [
        "ча",
        "сов"
      ],
      [
        "ча",
        "сто"
      ],
      [
        "ча",
        "тления"
      ],
      [
        "ча",
        "еться"
      ],
      [
        "ве",
        "сто"
      ],
      [
        "ве",
        "сь"
      ],
      [
        "ве",
        "щь"
      ],
      [
        "ве",
        "сомы"
      ],
      [
        "си",
        "й"
      ],
      [
        "си",
        "вного"
      ],
      [
        "ру",
        "ют"
      ],
      [
        "льно",
        "й"
      ],
      [
        "льно",
        "м"
      ],
      [
        "ку",
        "нд"
      ],
      [
        "ку",
        "сства"
      ],
      [
        "га",
        "ющее"
      ],
      [
        "га",
        "ллю"
      ],
      [
        "чес",
        "кая"
      ],
      [
        "чес",
        "кие"
      ],
      [
        "ме",
        "сто"
      ],
      [
        "ме",
        "жду"
      ],
      [
        "пред",
        "принима"
      ],
      [
        "од",
        "ной"
      ],
      [
        "се",
        "кунд"
      ],
      [
        "из",
        "мен"
      ],
      [
        "сто",
        "имость"
      ],
      [
        "па",
        "кость"
      ],
      [
        "зна",
        "чения"
      ],
      [
        "зна",
        "ваемо"
      ],
      [
        "лов",
        "ой"
      ],
      [
        "са",
        "мых"
      ],
      [
        "су",
        "мма"
      ],
      [
        "бо",
        "лез"
      ],
      [
        "бы",
        "ло"
      ],
      [
        "ты",
        "ся"
      ],
      [
        "гра",
        "нди"
      ],
      [
        "ду",
        "рости"
      ],
      [
        "пи",
        "та"
      ],
      [
        "пи",
        "ла"
      ],
      [
        "пи",
        "ск"
      ],
      [
        "ствен",
        "ной"
      ],
      [
        "бу",
        "ты"
      ],
      [
        "под",
        "це"
      ],
      [
        "под",
        "ъём"
      ],
      [
        "ция",
        "х"
      ],
      [
        "ис",
        "кусства"
      ],
      [
        "бе",
        "ре"
      ],
      [
        "му",
        "ра"
      ],
      [
        "рас",
        "ы"
      ],
      [
        "рас",
        "краска"
      ],
      [
        "мер",
        "зкое"
      ],
      [
        "це",
        "лые"
      ],
      [
        "нима",
        "я"
      ],
      [
        "ну",
        "л"
      ],
      [
        "ну",
        "жна"
      ],
      [
        "тель",
        "ные"
      ],
      [
        "10",
        "1"
      ],
      [
        "современ",
        "ные"
      ],
      [
        "дов",
        "ери"
      ],
      [
        "сво",
        "им"
      ],
      [
        "стви",
        "е"
      ],
      [
        "пози",
        "цию"
      ],
      [
        "гов",
        "ор"
      ],
      [
        "гов",
        "ых"
      ],
      [
        "трей",
        "дера"
      ],
      [
        "тов",
        "а"
      ],
      [
        "кото",
        "рой"
      ],
      [
        "20",
        "0"
      ],
      [
        "ана",
        "фе"
      ],
      [
        "ана",
        "логично"
      ],
      [
        "цен",
        "ности"
      ],
      [
        "26",
        "3"
      ],
      [
        "ско",
        "м"
      ],
      [
        "пол",
        "ет"
      ],
      [
        "пол",
        "учить"
      ],
      [
        "циона",
        "ми"
      ],
      [
        "форми",
        "руют"
      ],
      [
        "30",
        "0"
      ],
      [
        "ша",
        "ю"
      ],
      [
        "ша",
        "ны"
      ],
      [
        "ша",
        "ри"
      ],
      [
        "каче",
        "ственный"
      ],
      [
        "жа",
        "ется"
      ],
      [
        "нен",
        "ности"
      ],
      [
        "шь",
        "ся"
      ],
      [
        "это",
        "й"
      ],
      [
        "цион",
        "ный"
      ],
      [
        "цион",
        "ная"
      ],
      [
        "действи",
        "е"
      ],
      [
        "полити",
        "к"
      ],
      [
        "опреде",
        "ляющее"
      ],
      [
        "акти",
        "вы"
      ],
      [
        "широ",
        "кие"
      ],
      [
        "пу",
        "ть"
      ],
      [
        "чё",
        "вка"
      ],
      [
        "повед",
        "ении"
      ],
      [
        "неизвест",
        "ные"
      ],
      [
        "ответ",
        "у"
      ],
      [
        "кла",
        "сси"
      ],
      [
        "полез",
        "ла"
      ],
      [
        "вся",
        "кая"
      ],
      [
        "кру",
        "то"
      ],
      [
        "кру",
        "пней"
      ],
      [
        "оп",
        "понен"
      ],
      [
        "оп",
        "ционами"
      ],
      [
        "шё",
        "л"
      ],
      [
        "пос",
        "ё"
      ],
      [
        "поня",
        "тие"
      ],
      [
        "точ",
        "ках"
      ],
      [
        "вид",
        "ен"
      ],
      [
        "экономи",
        "ческое"
      ],
      [
        "оста",
        "лось"
      ],
      [
        "чу",
        "дови"
      ],
      [
        "воз",
        "растает"
      ],
      [
        "ставл",
        "ены"
      ],
      [
        "отно",
        "сят"
      ],
      [
        "треб",
        "уют"
      ],
      [
        "шей",
        "ся"
      ],
      [
        "сложив",
        "шейся"
      ],
      [
        "an",
        "y"
      ],
      [
        "При",
        "нимая"
      ],
      [
        "хо",
        "лоди"
      ],
      [
        "объ",
        "един"
      ],
      [
        "дешё",
        "вое"
      ],
      [
        "дешё",
        "вый"
      ],
      [
        "технологи",
        "й"
      ],
      [
        "to",
        "ry"
      ],
      [
        "ос",
        "мыс"
      ],
      [
        "ща",
        "емого"
      ],
      [
        "веще",
        "ство"
      ],
      [
        "веще",
        "ства"
      ],
      [
        "веще",
        "ственного"
      ],
      [
        "существую",
        "щее"
      ],
      [
        "существую",
        "щего"
      ],
      [
        "базов",
        "ые"
      ],
      [
        "бесполез",
        "ности"
      ],
      [
        "бесполез",
        "ность"
      ],
      [
        "бра",
        "ть"
      ],
      [
        "вну",
        "три"
      ],
      [
        "кти",
        "вах"
      ],
      [
        "постоя",
        "нно"
      ],
      [
        "нес",
        "еръёз"
      ],
      [
        "выпол",
        "нения"
      ],
      [
        "предо",
        "ставляет"
      ],
      [
        "предо",
        "ставлены"
      ],
      [
        "прогрес",
        "сивного"
      ],
      [
        "соз",
        "да"
      ],
      [
        "ситуа",
        "ций"
      ],
      [
        "предмет",
        "а"
      ],
      [
        "предмет",
        "ов"
      ],
      [
        "предмет",
        "ного"
      ],
      [
        "торгов",
        "ле"
      ],
      [
        "экономичес",
        "ких"
      ],
      [
        "ска",
        "з"
      ],
      [
        "ска",
        "зо"
      ],
      [
        "сторо",
        "ж"
      ],
      [
        "ключевы",
        "х"
      ],
      [
        "функ",
        "цио"
      ],
      [
        "ar",
        "e"
      ],
      [
        "the",
        "y"
      ],
      [
        "За",
        "нятие"
      ],
      [
        "Ка",
        "жды"
      ],
      [
        "внима",
        "ние"
      ],
      [
        "опас",
        "ная"
      ],
      [
        "тие",
        "м"
      ],
      [
        "выра",
        "ст"
      ],
      [
        "могу",
        "щие"
      ],
      [
        "принима",
        "емого"
      ],
      [
        "очевид",
        "ную"
      ],
      [
        "внутрен",
        "них"
      ],
      [
        "материа",
        "льного"
      ],
      [
        "глу",
        "по"
      ],
      [
        "дё",
        "нность"
      ],
      [
        "еб",
        "ини"
      ],
      [
        "свер",
        "хзада"
      ],
      [
        "потреб",
        "ность"
      ],
      [
        "нега",
        "тивно"
      ],
      [
        "нега",
        "тивная"
      ],
      [
        "горо",
        "д"
      ],
      [
        "пере",
        "осмыс"
      ],
      [
        "представл",
        "ении"
      ],
      [
        "распреде",
        "ления"
      ],
      [
        "класт",
        "еры"
      ],
      [
        "предпосы",
        "лок"
      ],
      [
        "al",
        "k"
      ],
      [
        "oo",
        "l"
      ],
      [
        "сро",
        "чном"
      ],
      [
        "уп",
        "ак"
      ],
      [
        "пов",
        "лия"
      ],
      [
        "показа",
        "тели"
      ],
      [
        "польз",
        "ова"
      ],
      [
        "нау",
        "ки"
      ],
      [
        "неу",
        "знаваемо"
      ],
      [
        "недо",
        "умения"
      ],
      [
        "низ",
        "кокачественное"
      ],
      [
        "вам",
        "пи"
      ],
      [
        "презр",
        "ения"
      ],
      [
        "презр",
        "енное"
      ],
      [
        "мас",
        "шта"
      ],
      [
        "проис",
        "ходя"
      ],
      [
        "состоя",
        "ний"
      ],
      [
        "собы",
        "тие"
      ],
      [
        "пидо",
        "расы"
      ],
      [
        "подоб",
        "ных"
      ],
      [
        "подоб",
        "ным"
      ],
      [
        "подготов",
        "ки"
      ],
      [
        "результа",
        "там"
      ],
      [
        "внешне",
        "экономических"
      ],
      [
        "пусто",
        "е"
      ],
      [
        "пусто",
        "та"
      ],
      [
        "аппара",
        "т"
      ],
      [
        "аппара",
        "тов"
      ],
      [
        "фанта",
        "зи"
      ],
      [
        "фанта",
        "стики"
      ],
      [
        "фанта",
        "стический"
      ],
      [
        "Ли",
        "ней"
      ],
      [
        "вс",
        "ё"
      ],
      [
        "дру",
        "гой"
      ],
      [
        "дру",
        "гого"
      ],
      [
        "жд",
        "ены"
      ],
      [
        "ими",
        "та"
      ],
      [
        "лет",
        "а"
      ],
      [
        "сет",
        "и"
      ],
      [
        "слов",
        "ес"
      ],
      [
        "рай",
        "он"
      ],
      [
        "рай",
        "оне"
      ],
      [
        "тон",
        "кий"
      ],
      [
        "дан",
        "ной"
      ],
      [
        "дан",
        "ными"
      ],
      [
        "иннова",
        "ционный"
      ],
      [
        "....",
        ","
      ],
      [
        "возмож",
        "ности"
      ],
      [
        "компью",
        "те"
      ],
      [
        "глубо",
        "кий"
      ],
      [
        "маркетин",
        "говых"
      ],
      [
        "эксперимен",
        "тов"
      ],
      [
        "эффек",
        "тов"
      ],
      [
        "своевремен",
        "ного"
      ],
      [
        "do",
        "ws"
      ],
      [
        "дви",
        "жения"
      ],
      [
        "ито",
        "е"
      ],
      [
        "сме",
        "шаны"
      ],
      [
        "ублю",
        "д"
      ],
      [
        "ублю",
        "док"
      ],
      [
        "нор",
        "мально"
      ],
      [
        "ново",
        "ст"
      ],
      [
        "раст",
        "ения"
      ],
      [
        "раст",
        "ение"
      ],
      [
        "понима",
        "ет"
      ],
      [
        "теле",
        "ви"
      ],
      [
        "вос",
        "принимаемого"
      ],
      [
        "молодё",
        "ж"
      ],
      [
        "молодё",
        "жи"
      ],
      [
        "сом",
        "нений"
      ],
      [
        "мело",
        "чь"
      ],
      [
        "мело",
        "чёвка"
      ],
      [
        "беж",
        "ных"
      ],
      [
        "конструк",
        "ции"
      ],
      [
        "конструк",
        "ций"
      ],
      [
        "существ",
        "ов"
      ],
      [
        "поняти",
        "я"
      ],
      [
        "поняти",
        "ям"
      ],
      [
        "чув",
        "ств"
      ],
      [
        "недостой",
        "ное"
      ],
      [
        "недостой",
        "ный"
      ],
      [
        "тяжё",
        "ло"
      ],
      [
        "тяжё",
        "лые"
      ],
      [
        "ge",
        "ts"
      ],
      [
        "on",
        "s"
      ],
      [
        "ал",
        "л"
      ],
      [
        "кни",
        "г"
      ],
      [
        "пиз",
        "дец"
      ],
      [
        "роб",
        "от"
      ],
      [
        "слу",
        "читься"
      ],
      [
        "ху",
        "доже"
      ],
      [
        "хер",
        "отень"
      ],
      [
        "погру",
        "жения"
      ],
      [
        "наро",
        "дной"
      ],
      [
        "насе",
        "ко"
      ],
      [
        "непред",
        "ус"
      ],
      [
        "каль",
        "ными"
      ],
      [
        "закры",
        "вает"
      ],
      [
        "обли",
        "га"
      ],
      [
        "разд",
        "ражения"
      ],
      [
        "призва",
        "ны"
      ],
      [
        "мел",
        "кое"
      ],
      [
        "парши",
        "вое"
      ],
      [
        "успе",
        "шности"
      ],
      [
        "гово",
        "ры"
      ],
      [
        "стратеги",
        "я"
      ],
      [
        "актива",
        "ми"
      ],
      [
        "плох",
        "ой"
      ],
      [
        "крати",
        "ческой"
      ],
      [
        "studen",
        "ts"
      ],
      [
        "сроч",
        "ную"
      ],
      [
        "компьютер",
        "ная"
      ],
      [
        "тропи",
        "ках"
      ],
      [
        "фильм",
        "ов"
      ],
      [
        "совершен",
        "ной"
      ],
      [
        "группиров",
        "ках"
      ],
      [
        "подозритель",
        "ная"
      ],
      [
        "Трей",
        "дер"
      ],
      [
        "глоба",
        "льную"
      ],
      [
        "источни",
        "ков"
      ],
      [
        "игнориру",
        "емый"
      ],
      [
        "ощу",
        "щаемого"
      ],
      [
        "окружаю",
        "щей"
      ],
      [
        "ресур",
        "сов"
      ],
      [
        "пренебре",
        "жения"
      ],
      [
        "государ",
        "ства"
      ],
      [
        "допуска",
        "ет"
      ],
      [
        "Lin",
        "ux"
      ],
      [
        "Win",
        "dows"
      ],
      [
        "bu",
        "t"
      ],
      [
        "har",
        "d"
      ],
      [
        "ju",
        "st"
      ],
      [
        "nex",
        "t"
      ],
      [
        "sch",
        "ool"
      ],
      [
        "Мет",
        "алл"
      ],
      [
        "Пах",
        "нет"
      ],
      [
        "Сле",
        "дует"
      ],
      [
        "Фра",
        "н"
      ],
      [
        "Яс",
        "ность"
      ],
      [
        "вче",
        "ра"
      ],
      [
        "впе",
        "чатления"
      ],
      [
        "доба",
        "вляют"
      ],
      [
        "нра",
        "вя"
      ],
      [
        "опи",
        "са"
      ],
      [
        "пак",
        "ет"
      ],
      [
        "пин",
        "г"
      ],
      [
        "смыс",
        "ловой"
      ],
      [
        "серъёз",
        "ного"
      ],
      [
        "тру",
        "да"
      ],
      [
        "уни",
        "кальными"
      ],
      [
        "убо",
        "жество"
      ],
      [
        "ужа",
        "сов"
      ],
      [
        "уваж",
        "ения"
      ],
      [
        "указа",
        "ны"
      ],
      [
        "убеж",
        "дённость"
      ],
      [
        "угро",
        "зы"
      ],
      [
        "фра",
        "кционных"
      ],
      [
        "фьюче",
        "рсами"
      ],
      [
        "носте",
        "й"
      ],
      [
        "попол",
        "зла"
      ],
      [
        "поражаю",
        "щих"
      ],
      [
        "напол",
        "ненности"
      ],
      [
        "наименова",
        "ние"
      ],
      [
        "репли",
        "цирован"
      ],
      [
        "необъяс",
        "нимое"
      ],
      [
        "кате",
        "го"
      ],
      [
        "колле",
        "ктивах"
      ],
      [
        "ничто",
        "жество"
      ],
      [
        "тепер",
        "ь"
      ],
      [
        "зару",
        "бежных"
      ],
      [
        "заклю",
        "чаеться"
      ],
      [
        "запу",
        "тан"
      ],
      [
        "деля",
        "ют"
      ],
      [
        "демо",
        "кратической"
      ],
      [
        "выну",
        "ждены"
      ],
      [
        "выбра",
        "нный"
      ],
      [
        "разрез",
        "е"
      ],
      [
        "разногла",
        "сий"
      ],
      [
        "лежи",
        "т"
      ],
      [
        "легков",
        "ес"
      ],
      [
        "претенден",
        "ты"
      ],
      [
        "минима",
        "льном"
      ],
      [
        "магни",
        "то"
      ],
      [
        "проду",
        "к"
      ],
      [
        "содер",
        "жании"
      ],
      [
        "стату",
        "с"
      ],
      [
        "отри",
        "ца"
      ],
      [
        "отмет",
        "ить"
      ],
      [
        "отталки",
        "ваться"
      ],
      [
        "акцио",
        "неры"
      ],
      [
        "весомы",
        "м"
      ],
      [
        "галлю",
        "цина"
      ],
      [
        "между",
        "народной"
      ],
      [
        "предпринима",
        "тели"
      ],
      [
        "гранди",
        "озности"
      ],
      [
        "довери",
        "я"
      ],
      [
        "анафе",
        "ме"
      ],
      [
        "класси",
        "ческом"
      ],
      [
        "крупней",
        "ших"
      ],
      [
        "оппонен",
        "тов"
      ],
      [
        "чудови",
        "ще"
      ],
      [
        "холоди",
        "льни"
      ],
      [
        "объедин",
        "ены"
      ],
      [
        "несеръёз",
        "ное"
      ],
      [
        "сказо",
        "к"
      ],
      [
        "Кажды",
        "й"
      ],
      [
        "сверхзада",
        "чи"
      ],
      [
        "переосмыс",
        "ления"
      ],
      [
        "пользова",
        "телей"
      ],
      [
        "неузнаваемо",
        "сти"
      ],
      [
        "масшта",
        "бности"
      ],
      [
        "происходя",
        "щего"
      ],
      [
        "художе",
        "ственной"
      ],
      [
        "реплицирован",
        "ные"
      ]
    ]
  }
}