{
  "version": "1.0",
  "truncation": {
    "direction": "Right",
    "max_length": 256,
    "strategy": "LongestFirst",
    "stride": 0
  },
  "padding": {
    "strategy": {
      "Fixed": 256
    },
    "direction": "Right",
    "pad_to_multiple_of": null,
    "pad_id": 0,
    "pad_type_id": 0,
    "pad_token": "[PAD]"
  },
  "added_tokens": [
    {
      "id": 0,
      "content": "[PAD]",
      "single_word": false,
      "lstrip": false,
      "rstrip": false,
      "normalized": false,
      "special": true
    },
    {
      "id": 1,
      "content": "[UNK]",
      "single_word": false,
      "lstrip": false,
      "rstrip": false,
      "normalized": false,
      "special": true
    },
    {
      "id": 2,
      "content": "[SOS]",
      "single_word": false,
      "lstrip": false,
      "rstrip": false,
      "normalized": false,
      "special": true
    },
    {
      "id": 3,
      "content": "[EOS]",
      "single_word": false,
      "lstrip": false,
      "rstrip": false,
      "normalized": false,
      "special": true
    },
    {
      "id": 4,
      "content": "[NEWS]",
      "single_word": false,
      "lstrip": false,
      "rstrip": false,
      "normalized": false,
      "special": true
    },
    {
      "id": 5,
      "content": "[MESSAGE]",
      "single_word": false,
      "lstrip": false,
      "rstrip": false,
      "normalized": false,
      "special": true
    },
    {
      "id": 6,
      "content": "[ENDOFTEXT]",
      "single_word": false,
      "lstrip": false,
      "rstrip": false,
      "normalized": false,
      "special": true
    }
  ],
  "normalizer": null,
  "pre_tokenizer": {
    "type": "ByteLevel",
    "add_prefix_space": false,
    "trim_offsets": true,
    "use_regex": true
  },
  "post_processor": null,
  "decoder": {
    "type": "ByteLevel",
    "add_prefix_space": true,
    "trim_offsets": true,
    "use_regex": true
  },
  "model": {
    "type": "BPE",
    "dropout": null,
    "unk_token": "[UNK]",
    "continuing_subword_prefix": null,
    "end_of_word_suffix": null,
    "fuse_unk": false,
    "byte_fallback": false,
    "ignore_merges": false,
    "vocab": {
      "[PAD]": 0,
      "[UNK]": 1,
      "[SOS]": 2,
      "[EOS]": 3,
      "[NEWS]": 4,
      "[MESSAGE]": 5,
      "[ENDOFTEXT]": 6,
      "!": 7,
      "\"": 8,
      "#": 9,
      "$": 10,
      "%": 11,
      "&": 12,
      "'": 13,
      "(": 14,
      ")": 15,
      "*": 16,
      "+": 17,
      ",": 18,
      "-": 19,
      ".": 20,
      "/": 21,
      "0": 22,
      "1": 23,
      "2": 24,
      "3": 25,
      "4": 26,
      "5": 27,
      "6": 28,
      "7": 29,
      "8": 30,
      "9": 31,
      ":": 32,
      ";": 33,
      "=": 34,
      ">": 35,
      "?": 36,
      "@": 37,
      "A": 38,
      "B": 39,
      "C": 40,
      "D": 41,
      "E": 42,
      "F": 43,
      "G": 44,
      "H": 45,
      "I": 46,
      "J": 47,
      "K": 48,
      "L": 49,
      "M": 50,
      "N": 51,
      "O": 52,
      "P": 53,
      "Q": 54,
      "R": 55,
      "S": 56,
      "T": 57,
      "U": 58,
      "V": 59,
      "W": 60,
      "X": 61,
      "Y": 62,
      "Z": 63,
      "[": 64,
      "\\": 65,
      "]": 66,
      "_": 67,
      "a": 68,
      "b": 69,
      "c": 70,
      "d": 71,
      "e": 72,
      "f": 73,
      "g": 74,
      "h": 75,
      "i": 76,
      "j": 77,
      "k": 78,
      "l": 79,
      "m": 80,
      "n": 81,
      "o": 82,
      "p": 83,
      "q": 84,
      "r": 85,
      "s": 86,
      "t": 87,
      "u": 88,
      "v": 89,
      "w": 90,
      "x": 91,
      "y": 92,
      "z": 93,
      "{": 94,
      "|": 95,
      "}": 96,
      "~": 97,
      "¡": 98,
      "¢": 99,
      "£": 100,
      "¤": 101,
      "¥": 102,
      "¦": 103,
      "§": 104,
      "¨": 105,
      "©": 106,
      "ª": 107,
      "«": 108,
      "¬": 109,
      "®": 110,
      "¯": 111,
      "°": 112,
      "±": 113,
      "²": 114,
      "³": 115,
      "´": 116,
      "µ": 117,
      "¶": 118,
      "·": 119,
      "¸": 120,
      "¹": 121,
      "º": 122,
      "»": 123,
      "¼": 124,
      "½": 125,
      "¾": 126,
      "¿": 127,
      "Â": 128,
      "Ã": 129,
      "Ä": 130,
      "Å": 131,
      "Ð": 132,
      "Ñ": 133,
      "à": 134,
      "â": 135,
      "ï": 136,
      "Ċ": 137,
      "č": 138,
      "Ġ": 139,
      "Ģ": 140,
      "ģ": 141,
      "Ĥ": 142,
      "ĥ": 143,
      "Ħ": 144,
      "ħ": 145,
      "Ĩ": 146,
      "ĩ": 147,
      "Ī": 148,
      "ī": 149,
      "Ĭ": 150,
      "ĭ": 151,
      "Į": 152,
      "į": 153,
      "İ": 154,
      "ı": 155,
      "Ĳ": 156,
      "ĳ": 157,
      "Ĵ": 158,
      "ĵ": 159,
      "Ķ": 160,
      "ķ": 161,
      "ĸ": 162,
      "Ĺ": 163,
      "ĺ": 164,
      "Ļ": 165,
      "ļ": 166,
      "Ľ": 167,
      "ľ": 168,
      "Ŀ": 169,
      "ŀ": 170,
      "Ł": 171,
      "ł": 172,
      "Ń": 173,
      "ĠÐ": 174,
      "Ð¾": 175,
      "Ðµ": 176,
      "Ð°": 177,
      "ÑĤ": 178,
      "ÑĢ": 179,
      "Ð¾Ð": 180,
      "Ñģ": 181,
      "Ð½": 182,
      "Ð¸": 183,
      "Ñĥ": 184,
      "čĊ": 185,
      "Ð»": 186,
      "Ðº": 187,
      "ĠÐ¿": 188,
      "Ñĭ": 189,
      "Ñı": 190,
      "Ð²": 191,
      "ĠÐ½": 192,
      "FT": 193,
      "ND": 194,
      "EX": 195,
      "NDO": 196,
      "ENDO": 197,
      "FTEX": 198,
      "ENDOFTEX": 199,
      "ENDOFTEXT": 200,
      "ĠÑģ": 201,
      "ÐµÐ": 202,
      "ÑĢÐ¾Ð": 203,
      "in": 204,
      "ÑĮ": 205,
      "Ġ[": 206,
      "Ð¼": 207,
      "Ñĩ": 208,
      "Ñħ": 209,
      "Ð´": 210,
      "ĠÐ¾": 211,
      "ĠÐ´": 212,
      "ÑģÑĤ": 213,
      "Ġt": 214,
      "es": 215,
      "ÑĪ": 216,
      "Ñİ": 217,
      "ĠÐ²": 218,
      "an": 219,
      "er": 220,
      "ÐµÐ½": 221,
      "ĠÐº": 222,
      "on": 223,
      "ÑĢÐ°": 224,
      "ar": 225,
      "Ġs": 226,
      "or": 227,
      "Ð¿": 228,
      "Ð·": 229,
      "ÐµÑĢ": 230,
      "ÑĤÐ¾": 231,
      "at": 232,
      "ĠÐ¸": 233,
      "Ð¾Ð¼": 234,
      "ÑĤÐ°": 235,
      "Ð½Ñĭ": 236,
      "Ġc": 237,
      "en": 238,
      "al": 239,
      "âĢ": 240,
      "ĠÐŁ": 241,
      "ĠÐ½Ðµ": 242,
      "ĠÐ¿Ð¾": 243,
      "ÑĤÐµ": 244,
      "Ġf": 245,
      "ĠÐ¼": 246,
      "Ð¶": 247,
      "Ġp": 248,
      "ĠâĢ": 249,
      "ĠÐ¾ÑĤ": 250,
      "Ð¹": 251,
      "Ð³": 252,
      "ĠÐ¿Ð¾Ð": 253,
      "ĠÐ½Ð°": 254,
      "Ġto": 255,
      "Ġr": 256,
      "Ġin": 257,
      "Ð½Ð¾": 258,
      "ME": 259,
      "ÑĢÐ¸": 260,
      "ÐºÐ°": 261,
      "Ð»Ñı": 262,
      "SA": 263,
      "GE": 264,
      "ÐµÑĤ": 265,
      "SSA": 266,
      "MESSA": 267,
      "MESSAGE": 268,
      "it": 269,
      "Ð²Ð°": 270,
      "Ġb": 271,
      "Ð¢": 272,
      "Ġa": 273,
      "Ð»Ð¸": 274,
      "Ð½Ð°": 275,
      "³Ð¾": 276,
      "ÑĦ": 277,
      "NE": 278,
      "WS": 279,
      "NEWS": 280,
      "ĠÐ·": 281,
      "Ð¾Ð²": 282,
      "is": 283,
      "Ð±": 284,
      "ĠS": 285,
      "ĠÑĢ": 286,
      "Ġo": 287,
      "Ġd": 288,
      "ĠR": 289,
      "Ġ2": 290,
      "et": 291,
      "Ġm": 292,
      "ĠÐ¿ÑĢÐ¾Ð": 293,
      "Ñī": 294,
      "ĠÐĿ": 295,
      "ĠÑĤ": 296,
      "Ðŀ": 297,
      "ing": 298,
      "ĠâĢĶ": 299,
      "Ġ,": 300,
      "ĠÐ±": 301,
      "Ð¾Ð´": 302,
      "ĠI": 303,
      "Ñĳ": 304,
      "ÐĲ": 305,
      "ĠÐŁÑĢÐ¾Ð": 306,
      "ec": 307,
      "Ð¡": 308,
      "ro": 309,
      "ÐµÐº": 310,
      "Ðķ": 311,
      "ĠÐ·Ð°": 312,
      "ĠÐĶ": 313,
      "ic": 314,
      "ÐµÐ»": 315,
      "Ġ:": 316,
      "Ġw": 317,
      "ÐµÑħ": 318,
      "Ð°ÑĢ": 319,
      "Ġl": 320,
      "el": 321,
      "Ð°Ð½": 322,
      "ion": 323,
      "ĠÐ»": 324,
      "ed": 325,
      "Ð¸ÑĤ": 326,
      "Ð»ÑĮ": 327,
      "ĠÐ¿ÑĢÐ¾Ð´": 328,
      "ÑĢÐ¾": 329,
      "Ġ1": 330,
      "Ð°ÑĤ": 331,
      "ÐµÐ¹": 332,
      "ÑĥÐº": 333,
      "Ð½ÑĭÐ¹": 334,
      "¼Ð¢": 335,
      "¼Ð¢ÐµÑħ": 336,
      "ĠÐ³": 337,
      "ĠC": 338,
      "Ġh": 339,
      "ĠÐŁÑĢÐ¾Ð¼Ð¢ÐµÑħ": 340,
      "Ð¾Ð¹": 341,
      "ÐµÐ³": 342,
      "ÐµÐ²": 343,
      "il": 344,
      "Ð¾Ð½": 345,
      "ÐºÑĥ": 346,
      "ÑĢÑĥ": 347,
      "Ð¸Ðµ": 348,
      "ÐµÐ¼": 349,
      "ĠM": 350,
      "Ñį": 351,
      "Ð¾Ð³Ð¾": 352,
      "Ð¸Ð½": 353,
      "ÐĿ": 354,
      "ĠÐ¡": 355,
      "ÑģÑĤÑĮ": 356,
      "SO": 357,
      "SOS": 358,
      "ĠB": 359,
      "ay": 360,
      "st": 361,
      "ĠÐ¿ÑĢÐ¾Ð´ÑĥÐº": 362,
      "ĠÑı": 363,
      "ur": 364,
      "Ġg": 365,
      "Ð¾Ð»": 366,
      "ĠÐļ": 367,
      "nd": 368,
      "ĠÐ¶": 369,
      "ut": 370,
      "Ðĺ": 371,
      "ÑĢÐ°Ñģ": 372,
      "Ð¸Ð¼": 373,
      "ĠÑĥ": 374,
      "ex": 375,
      "ĠÐ´Ð»Ñı": 376,
      "ĠA": 377,
      "Ġof": 378,
      "ÑĨ": 379,
      "ol": 380,
      "ÑĥÐ»Ñı": 381,
      "ÑĭÐ½": 382,
      "ra": 383,
      "Ġon": 384,
      "Ġfor": 385,
      "Ð²Ñĭ": 386,
      "Ð¾Ñĩ": 387,
      "Ġn": 388,
      "Ð¾Ð¶": 389,
      "ÐµÐ´": 390,
      "Ġst": 391,
      "ĠÐĴ": 392,
      "ĠÑĢÑĭÐ½": 393,
      "ÑĥÐ´": 394,
      "ĠÐ£": 395,
      "ÐŀÐ": 396,
      "ĠâĢ¦": 397,
      "ow": 398,
      "ts": 399,
      "Ġth": 400,
      "Ð½Ðµ": 401,
      "ÑģÑı": 402,
      "Ð»Ð°": 403,
      "ÑĥÑĪ": 404,
      "ĠÐ½Ð¾Ð²": 405,
      "Ð¸Ð²": 406,
      "ÐŁ": 407,
      "up": 408,
      "id": 409,
      "ĠÑħ": 410,
      "Ð¾ÑĦ": 411,
      "Ð½ÑĭÐµ": 412,
      "ĠN": 413,
      "ĠF": 414,
      "ĠÑĩ": 415,
      "ĠT": 416,
      "ÑĤÐ°Ð»": 417,
      "Ð°Ðº": 418,
      "Ġ3": 419,
      "Ð·Ñĭ": 420,
      "om": 421,
      "Ð¾ÑĤ": 422,
      "and": 423,
      "Ð¾ÑģÑĤ": 424,
      "ÐµÐ¹ÑĢÐ¾Ð": 425,
      "¡Ð¾ÑĦ": 426,
      "ÐµÐ¹ÑĢÐ¾Ð¡Ð¾ÑĦ": 427,
      "ÐµÐ¹ÑĢÐ¾Ð¡Ð¾ÑĦÑĤ": 428,
      "ĠP": 429,
      "as": 430,
      "ent": 431,
      "ÐºÐµ": 432,
      "ĠÐĿÐµÐ¹ÑĢÐ¾Ð¡Ð¾ÑĦÑĤ": 433,
      "Ð»ÐµÐ½": 434,
      "Ð²Ð°ÑĢ": 435,
      "ĠÐºÐ²Ð°ÑĢ": 436,
      "ig": 437,
      "ĠÐ¾ÑĤÐ·Ñĭ": 438,
      "ĠÐ¿ÑĢÐ¾Ð´ÑĥÐºÑĤÐµ": 439,
      "ĠÐ¾ÑĤÐ·ÑĭÐ²Ñĭ": 440,
      "ÑħÐ¾Ð´": 441,
      "ck": 442,
      "Ð°Ñİ": 443,
      "ÑĢÐ¾Ð¹": 444,
      "ir": 445,
      "ĠÐºÐ²Ð°ÑĢÑĤÐ°Ð»": 446,
      "est": 447,
      "ul": 448,
      "ĠÐ½Ð¾": 449,
      "Ð°Ð»ÑĮ": 450,
      "ĴÐµÐº": 451,
      "BI": 452,
      "ĠÐĲ": 453,
      "ia": 454,
      "Ð»Ñİ": 455,
      "ank": 456,
      "Ð¾Ðº": 457,
      "em": 458,
      "ĠÐ¿Ð¾Ð·": 459,
      "ÐķÐ": 460,
      "ÐµÑģ": 461,
      "Ð¶Ñĥ": 462,
      "ĠÑį": 463,
      "ÐµÐ²ÑĥÑĪ": 464,
      "th": 465,
      "ĠÐł": 466,
      "ĠÐ¿ÑĢÐ¸": 467,
      "Ð£": 468,
      "Ðļ": 469,
      "ov": 470,
      "ĠÐľ": 471,
      "ĠÐ½Ð¾Ð²Ð¾Ð³Ð¾": 472,
      "00": 473,
      "Ð°Ð¼": 474,
      "ee": 475,
      "ÑĤÑĢÐ¾Ð¹": 476,
      "ÑģÑĤÐ¸": 477,
      "Ġ-": 478,
      "ĠÐ°": 479,
      "ak": 480,
      "ens": 481,
      "ter": 482,
      "ĠInd": 483,
      "iv": 484,
      "un": 485,
      "har": 486,
      "ĠÐ¿Ð°ÑĢ": 487,
      "us": 488,
      "ÑĭÑĪ": 489,
      "Ðľ": 490,
      "ÑģÑĮ": 491,
      "Ð¸ÑĤÐµ": 492,
      "ÐµÐ±": 493,
      "ÐµÑĪ": 494,
      "ĠÐ¿Ð¾Ðº": 495,
      "ce": 496,
      "Ð¶Ðµ": 497,
      "Ð¡ÑĤÑĢÐ¾Ð¹": 498,
      "Ð¾Ð¼Ð¡ÑĤÑĢÐ¾Ð¹": 499,
      "ĠÐ¿Ð¾ÐºÐ°": 500,
      "ÐºÐ¸": 501,
      "Ð´Ñĥ": 502,
      "Ð½Ð¸": 503,
      "ers": 504,
      "ĠÐĶÐ¾Ð¼Ð¡ÑĤÑĢÐ¾Ð¹": 505,
      "ĠRs": 506,
      "Ġcr": 507,
      "Ġ0": 508,
      "ĠÑģÐ¿": 509,
      "ĠG": 510,
      "ock": 511,
      "ĠÐ¿Ð¾Ð¿": 512,
      "Ðł": 513,
      "im": 514,
      "if": 515,
      "ĠD": 516,
      "ĠÐ³Ð¾": 517,
      "ĠH": 518,
      "all": 519,
      "Ġ4": 520,
      "ation": 521,
      "Ġre": 522,
      "ĠÐ´ÐµÐ²ÑĥÑĪ": 523,
      "Ð¸Ñģ": 524,
      "Ð¸Ð³": 525,
      "ÐĽ": 526,
      "..": 527,
      "ĠÑĢÑĭÐ½ÐºÐµ": 528,
      "ÑĢÐ½Ð¾": 529,
      "ÑĤÑĢÐ°": 530,
      "ĠÐ¿Ð¾Ñģ": 531,
      "ate": 532,
      "Ð°Ð²": 533,
      "ore": 534,
      "Ð¾Ñı": 535,
      "um": 536,
      "ain": 537,
      "Ð½ÑĭÑħ": 538,
      "Ð»Ðµ": 539,
      "os": 540,
      "Ð¸Ð»": 541,
      "ot": 542,
      "Ġthe": 543,
      "ÐºÐ¾Ð¼": 544,
      "ĠÐ²Ñģ": 545,
      "ÐµÐ·": 546,
      "ÑĥÐ»ÑıÑĢÐ½Ð¾": 547,
      "ĠÐ¾ÑĤÑĢÐ°Ñģ": 548,
      "ĠÐ¿Ð¾Ð¿ÑĥÐ»ÑıÑĢÐ½Ð¾": 549,
      "ĠÐ¾ÑĤÑĢÐ°ÑģÐ»Ð¸": 550,
      "ĠÐ¿Ð¾Ð¿ÑĥÐ»ÑıÑĢÐ½Ð¾ÑģÑĤÐ¸": 551,
      "ad": 552,
      "Ð¾Ð³": 553,
      "ĠÐ¸Ñī": 554,
      "Ġ5": 555,
      "ÐµÐ½ÑĮ": 556,
      "ÐĶ": 557,
      "Ð¼Ð¾ÑĤ": 558,
      "ct": 559,
      "Ð¾Ð±": 560,
      "ĠÐ¨": 561,
      "à¤": 562,
      "ÑĢÐµÐ½": 563,
      "Ð°ÑĤÐ¸Ð²": 564,
      "ÐµÐ³Ð°ÑĤÐ¸Ð²": 565,
      "ÐµÐ³Ð°ÑĤÐ¸Ð²Ð½ÑĭÐµ": 566,
      "ĠÐłÐ¾ÑģÑĤ": 567,
      "Ġpr": 568,
      "Ð½Ñĥ": 569,
      "ĠU": 570,
      "ĠÐĲÐ³": 571,
      "ect": 572,
      "ch": 573,
      "ÑĤÐ¾ÑĢÐ°": 574,
      "ark": 575,
      "Ð¾Ð¿": 576,
      "ĠÐºÐ¾Ð½": 577,
      "Ð¯": 578,
      "ÑĤÑĮ": 579,
      "ĠÑĤÐ°": 580,
      "ÑĤÐ¾Ð¼": 581,
      "ÑĩÐºÐ°": 582,
      "ÑĩÐ°": 583,
      "ĠE": 584,
      "ensex": 585,
      "ÑĢÐ¸Ð·": 586,
      "ÑĢÐ¾ÐĴÐµÐº": 587,
      "ĠÐĲÐ³ÑĢÐ¾ÐĴÐµÐº": 588,
      "ear": 589,
      "ies": 590,
      "ĠIndia": 591,
      "ÑıÐ»": 592,
      "Ġas": 593,
      "ĠÐ¢": 594,
      "ĠÐ¿ÐµÑĢ": 595,
      "ÐĴ": 596,
      "ew": 597,
      "ÑĢÐ¸Ð·Ð¸Ñģ": 598,
      "igh": 599,
      "ĠÐĹ": 600,
      "ĠÐºÐ°Ðº": 601,
      "Ð¸Ð½Ñĥ": 602,
      "ÑĪÐµ": 603,
      "Ð½Ð°ÐºÐ¾Ð¼": 604,
      "ĠÐµ": 605,
      "ĠÐĿÐµÐ³Ð°ÑĤÐ¸Ð²Ð½ÑĭÐµ": 606,
      "Ġ;": 607,
      "ĠÐ¸Ð½": 608,
      "arket": 609,
      "Ġand": 610,
      "Ð¼ÐµÐ½": 611,
      "ÑĨÐ¸": 612,
      "Ð¥": 613,
      "ĠÐ²Ñĭ": 614,
      "Ġpro": 615,
      "Ð²Ð°Ñİ": 616,
      "Ð°Ð½Ð½ÑĭÑħ": 617,
      "Ġ20": 618,
      "ĠÐ´Ð°Ð½Ð½ÑĭÑħ": 619,
      "ill": 620,
      "ĠL": 621,
      "ÑĢÑĭ": 622,
      "Ð´Ð°": 623,
      "ĠÑģÐµÐº": 624,
      "ĠÑģÐµÐºÑĤÐ¾": 625,
      "ÑĤÐµÑĩÐºÐ°": 626,
      "Ð´Ð½Ð¾": 627,
      "ĠBank": 628,
      "od": 629,
      "!!": 630,
      "ĠÑĢÐµÐ³": 631,
      "ÐºÐ¾": 632,
      "ĠÑĢÐµÐ³ÑĥÐ»Ñı": 633,
      "ĠÑĢÐµÐ³ÑĥÐ»ÑıÑĤÐ¾ÑĢÐ°": 634,
      "ÑģÐ¿": 635,
      "ĠRBI": 636,
      "Ð°Ð»ÑĮÐ½ÑĭÐ¹": 637,
      "ĠÐ¿Ð°ÑĢÐ½": 638,
      "le": 639,
      "ÑĥÐ¶": 640,
      "ĠÐ¾Ð±": 641,
      "Ð¸Ðº": 642,
      "por": 643,
      "ÑĤÑĢÐ°ÑĦ": 644,
      "²Ð°Ð»ÑĮÐ½ÑĭÐ¹": 645,
      "ÐµÐ½Ñı": 646,
      "ĠÑįÑĤÐ¾": 647,
      "Ð¾Ð·": 648,
      "ÑĳÑĤ": 649,
      "re": 650,
      "ÑıÑĤ": 651,
      "ĠÐļÑĢÐ¸Ð·Ð¸Ñģ": 652,
      "ÐµÐ³Ð¾": 653,
      "Ġup": 654,
      "ĠÐĺ": 655,
      "ĠÐ¿Ð¾ÑģÐ¼Ð¾ÑĤ": 656,
      "ĠÐ´Ð°": 657,
      "ty": 658,
      "ĠÐ¡Ð»Ð¸": 659,
      "Ð»Ð¾": 660,
      "Ġat": 661,
      "Ð½Ð°Ñı": 662,
      "ĠÐ¼ÐµÐ½Ñı": 663,
      "Ð°ÐµÑĤ": 664,
      "ĠW": 665,
      "ian": 666,
      "ÑĤÐµÑĢ": 667,
      "ap": 668,
      "ĠÑĦ": 669,
      "Ġv": 670,
      "ĠÐºÑĢÐ°Ñģ": 671,
      "Ġ@": 672,
      "ĠÐĳ": 673,
      "ÐµÑĢÐ¶Ñĥ": 674,
      "Ġ7": 675,
      "Ð¸Ð¹": 676,
      "ĠÑģÐµÐºÑĤÐ¾ÑĢÑĥ": 677,
      "ĠÐ¸Ð·": 678,
      "Ð¬": 679,
      "ess": 680,
      "Ġex": 681,
      "Ð°Ñģ": 682,
      "ĠÐ£ÑĤÐµÑĩÐºÐ°": 683,
      "ÑİÐ±": 684,
      "ith": 685,
      "ĠÐ´Ð¾": 686,
      "ip": 687,
      "Ð»ÐµÐ½Ð¸Ðµ": 688,
      "ĠÐºÐ¾Ð½ÐºÑĥ": 689,
      "ÐµÑĢÐ³": 690,
      "ÑıÐ½": 691,
      "ÑĢÐµÐ½ÑĤÐ°": 692,
      "ĠÐºÐ¾Ð½ÐºÑĥÑĢÐµÐ½ÑĤÐ°": 693,
      "Ġ6": 694,
      "ĠÑĩÑĤÐ¾": 695,
      "ĠJ": 696,
      "Ð¾ÑĢ": 697,
      "ĠÐºÑį": 698,
      "Ð½Ð¾ÑģÑĤÑĮ": 699,
      "ive": 700,
      "ĠÐŀ": 701,
      "Ð²Ð»ÐµÐ½Ð¸Ðµ": 702,
      "end": 703,
      "ÑĤÐµÑĢÐµÑģ": 704,
      "ĠÐ¨ÑĤÑĢÐ°ÑĦ": 705,
      "ÑģÐº": 706,
      "ÑĥÐ¿": 707,
      "ĠÐ±Ñĭ": 708,
      "ĠÐŁÑĢÐ¾Ð²Ð°Ð»ÑĮÐ½ÑĭÐ¹": 709,
      "Ð°Ð½ÑĤÐ¾Ð¼": 710,
      "ĠSensex": 711,
      "ĠÐ³Ð¸Ð³": 712,
      "ĠÑĢÑĭÐ½ÐºÐ°": 713,
      "ĠÐ³Ð¸Ð³Ð°Ð½ÑĤÐ¾Ð¼": 714,
      "Ð°ÑĤÑĮ": 715,
      "ĠÐ¿ÑĢÐ¾Ð´ÑĥÐºÑĤÐ°": 716,
      "ÑıÐ½Ð¸Ðµ": 717,
      "oll": 718,
      "ĠÑģÑĤÐ¾": 719,
      "ÐºÐ°Ð·": 720,
      "ĠÐ¯": 721,
      "Ð¸Ð½ÑĥÑģ": 722,
      "ĠQ": 723,
      "Ġpric": 724,
      "Ġwith": 725,
      "Ð½ÐµÑĢÐ³": 726,
      "ĠÐ´ÐµÑĢÐ¶Ñĥ": 727,
      "ÑģÑĤÐ²Ð°": 728,
      "ud": 729,
      "ĠÐ¿Ñĥ": 730,
      "ĠÑģÐ°Ð¼": 731,
      "ĠÑģÐ²": 732,
      "ĠÑĤÑĭ": 733,
      "ÑģÐ¿ÐµÑĪ": 734,
      "ays": 735,
      "Ð£Ð": 736,
      "ÐµÑĩ": 737,
      "ĠÐĴÑĭ": 738,
      "ocks": 739,
      "ver": 740,
      "Ð¾ÑĢÐ¾": 741,
      "ĠÐ»ÑİÐ±": 742,
      "ĠÐ±ÑĥÐ´": 743,
      "ÑģÐ¿ÐµÑĪÐ½ÑĭÐ¹": 744,
      "Ð¾ÑıÐ²Ð»ÐµÐ½Ð¸Ðµ": 745,
      "ik": 746,
      "ifty": 747,
      "Ġde": 748,
      "Ð·Ð°": 749,
      "ĠÐ¿ÑĢ": 750,
      "Ð¸Ñĩ": 751,
      "Ð¸Ð½Ð°": 752,
      "und": 753,
      "ÑĢÑĥÐ¿": 754,
      "Ġy": 755,
      "Ð¸ÑĤÑģÑı": 756,
      "ĠÐ¸ÑīÐµÑĤ": 757,
      "ĠÐ´ÐµÐ»": 758,
      "Ð¸ÑĤÐµÐ»ÑĮ": 759,
      "ĠÐĴÑĭÑħÐ¾Ð´": 760,
      "ÑģÑĥÐ´": 761,
      "ÑīÑĥ": 762,
      "ÑģÑĥÐ´Ð°ÑĢ": 763,
      "ĠÐ³Ð¾ÑģÑĥÐ´Ð°ÑĢ": 764,
      "Ð¾Ñģ": 765,
      "ĠÑĢÐ°": 766,
      "qu": 767,
      "ĠÐ·Ð°ÐºÐ°Ð·": 768,
      "ĠÐ³Ð¾ÑģÑĥÐ´Ð°ÑĢÑģÑĤÐ²Ð°": 769,
      "'s": 770,
      "ÑĢÑĥÐ¿Ð½ÑĭÐ¹": 771,
      "ĠÑģÐ»Ð¸": 772,
      "ors": 773,
      "ĠÐ¡Ð»Ð¸ÑıÐ½Ð¸Ðµ": 774,
      "ĠÑĤÐ°Ðº": 775,
      "Ġcrore": 776,
      "ĠÐŃ": 777,
      "rad": 778,
      "ĠÐ¿Ð¾Ð´": 779,
      "ĠSt": 780,
      "ĠÐ³Ð¾Ð²": 781,
      "ĠÐºÑĤÐ¾": 782,
      "Ð¼Ñģ": 783,
      "Ð¼ÐµÐ½ÐµÐ´": 784,
      "ĠÐ£ÑģÐ¿ÐµÑĪÐ½ÑĭÐ¹": 785,
      "Ġ.": 786,
      "ĠÐŁÐ¾ÑıÐ²Ð»ÐµÐ½Ð¸Ðµ": 787,
      "Ð¾ÑĩÑĥ": 788,
      "Ġis": 789,
      "ity": 790,
      "ĠNifty": 791,
      "ĠÐ¶Ðµ": 792,
      "Ġris": 793,
      "ĠÐ¼Ð½Ðµ": 794,
      "ÑĢÐ¸Ð¼": 795,
      "ĠÑĤÐ¾Ð¿": 796,
      "ĠUS": 797,
      "Ð¶ÐµÑĢÐ°": 798,
      "Ð¼ÐµÐ½ÐµÐ´Ð¶ÐµÑĢÐ°": 799,
      "Ġbe": 800,
      "PO": 801,
      "Ð²Ð¾Ð½": 802,
      "Ġ%": 803,
      "Ġcon": 804,
      "Ġ25": 805,
      "Ðĳ": 806,
      "Ð¸ÑĤÐµÐ»ÑĮÐ½ÑĭÐµ": 807,
      "ÑĭÑĪÐ»ÐµÐ½": 808,
      "¼ÑĭÑĪÐ»ÐµÐ½": 809,
      "ĠÐĸ": 810,
      "¼ÑĭÑĪÐ»ÐµÐ½Ð½Ð¾ÑģÑĤÑĮ": 811,
      "Ð¾Ð¶Ð¸ÑĤÐµÐ»ÑĮÐ½ÑĭÐµ": 812,
      "ÐµÑĢÑĥ": 813,
      "ÑĢÑİ": 814,
      "ĠK": 815,
      "ĠO": 816,
      "row": 817,
      "am": 818,
      "he": 819,
      "Ð¾ÐĴÐµÐº": 820,
      "Ð½ÐµÑĢÐ³Ð¾ÐĴÐµÐº": 821,
      "Ð¾ÑĢÐ¸": 822,
      "ĠIPO": 823,
      "ag": 824,
      "ĠÐļÑĢÑĥÐ¿Ð½ÑĭÐ¹": 825,
      "Ġcom": 826,
      "ÐºÐ¾Ð¹": 827,
      "upee": 828,
      "ĠIn": 829,
      "ĠÑģÐ¿Ð¸Ð¼": 830,
      "get": 831,
      "ĠÐŃÐ½ÐµÑĢÐ³Ð¾ÐĴÐµÐº": 832,
      "??": 833,
      "Ð°Ð±": 834,
      "ĠÐ¶Ð´Ñĥ": 835,
      "port": 836,
      "Ð¸ÑĪ": 837,
      "eb": 838,
      "av": 839,
      "rom": 840,
      "ĠÐ¸Ð½ÑĤÐµÑĢÐµÑģ": 841,
      "ÑĢÐ¾Ñģ": 842,
      "lo": 843,
      "Ð¾Ð»Ð¾Ð¶Ð¸ÑĤÐµÐ»ÑĮÐ½ÑĭÐµ": 844,
      "ĠÐ¼Ð¸Ð½ÑĥÑģ": 845,
      "Ġmarket": 846,
      "ÑģÑĤÐ²": 847,
      "Ġe": 848,
      "Ð¾Ð¶Ñĥ": 849,
      "Ġhigh": 850,
      "ĠÐ¿ÑĢÐ¾Ð¼ÑĭÑĪÐ»ÐµÐ½Ð½Ð¾ÑģÑĤÑĮ": 851,
      "Ð¾ÐºÑĥÐ¿": 852,
      "Ġinf": 853,
      "Ð²ÐµÑĤ": 854,
      "ĠÐ½Ñĥ": 855,
      "ĠÐ½Ð°ÑģÑĤ": 856,
      "ÑĢÐ¼": 857,
      "Ġ8": 858,
      "ÑħÐ¾Ð¶Ñĥ": 859,
      "Ð±Ð¾": 860,
      "ust": 861,
      "ÐµÐ½Ð¸Ðµ": 862,
      "Ġsh": 863,
      "ial": 864,
      "ĠÐŁÐ¾Ð»Ð¾Ð¶Ð¸ÑĤÐµÐ»ÑĮÐ½ÑĭÐµ": 865,
      "ÑĨÐ°": 866,
      "Ð²ÐµÑĢ": 867,
      "Ġby": 868,
      "Ð´ÐµÑĢ": 869,
      "ÐķÐĿ": 870,
      "Ð¸ÑĤÑĮ": 871,
      "Ð¸ÐºÐ°": 872,
      "ĠCh": 873,
      "ÑĤÑĢ": 874,
      "Ġpo": 875,
      "ĠÑĤÐµÐ±": 876,
      "ata": 877,
      "?.": 878,
      "ÐµÐļ": 879,
      "ĠÐ¿Ð¾Ð·Ð½Ð°ÐºÐ¾Ð¼": 880,
      "Ġfrom": 881,
      "ĠÐ»Ñĥ": 882,
      "ment": 883,
      "Ð½Ð¾Ð³Ð¾": 884,
      "vest": 885,
      "ÑĢÐ¾Ð²": 886,
      "ĠÐ¾Ðº": 887,
      "ÐµÐ¶": 888,
      "ÐºÑĢÑĭ": 889,
      "Ġ19": 890,
      "ĠÐ£ÑħÐ¾Ð´": 891,
      "ollar": 892,
      "ÑĢÐ¾Ð³": 893,
      "ab": 894,
      "Ġbank": 895,
      "ĠÑĢÐµÐ±": 896,
      "ÑĢÐ°Ð²": 897,
      "ÐµÐļÐ¾Ð¼": 898,
      "Ð°Ð´Ð½Ð¾": 899,
      "ly": 900,
      "ĠÐºÑįÑĪ": 901,
      "ÐµÐ»ÐµÐļÐ¾Ð¼": 902,
      "Ð°Ð»": 903,
      "ind": 904,
      "ĠÐ¤": 905,
      "uy": 906,
      "ĠÐ¢ÐµÐ»ÐµÐļÐ¾Ð¼": 907,
      "ÑĭÑĪÐµÐ»": 908,
      "ÑĩÐµÐ¼": 909,
      "Ġover": 910,
      "ates": 911,
      "Ġtrad": 912,
      "ĠÐ·Ð°ÐºÑĢÑĭ": 913,
      "ub": 914,
      "ĠÐ¼ÑĥÐ¶": 915,
      "Ġ09": 916,
      "Ġ9": 917,
      "ÐķÐĴ": 918,
      "Ð°ÑĪ": 919,
      "Ð¾ÑģÑĤÑĮ": 920,
      "Ð©": 921,
      "ong": 922,
      "50": 923,
      "ĠÐĽ": 924,
      "ue": 925,
      "Ð«": 926,
      "Ġstocks": 927,
      "ans": 928,
      "ÑĥÑĤ": 929,
      "Ġpl": 930,
      "inan": 931,
      "old": 932,
      "Ġgrow": 933,
      "Ġlo": 934,
      "Ġsays": 935,
      "Ġop": 936,
      "ump": 937,
      "Ġshar": 938,
      "Ġnew": 939,
      "ĠÐ»ÐµÑĤ": 940,
      "ell": 941,
      "Ðĸ": 942,
      "Ð¸Ñı": 943,
      "ok": 944,
      "its": 945,
      "CI": 946,
      "ebi": 947,
      "Ð¡Ð¢": 948,
      "Ð¾Ð»ÑĮ": 949,
      "ÑĥÑİ": 950,
      "Ð¾Ð¶ÐµÑĤ": 951,
      "ÑĳÐ»": 952,
      "are": 953,
      "Ð²Ð°ÑĤ": 954,
      "Ġinvest": 955,
      "Ð°Ð¹": 956,
      "...": 957,
      "Ġj": 958,
      "Ð¸Ð½Ð¥": 959,
      "Ð¸Ð½Ð¥Ð°Ð±": 960,
      "over": 961,
      "ĠÐ´Ð¾ÐºÑĥÐ¿": 962,
      "ake": 963,
      "Ð¾Ðµ": 964,
      "Ġrec": 965,
      "Ġch": 966,
      "Ð³Ð°ÐµÑĤ": 967,
      "Ð®": 968,
      "Ġprice": 969,
      "Ġtar": 970,
      "ĠÑģÑĤÐ¾Ñİ": 971,
      "ĠÐ³Ð¾Ð²Ð¾ÑĢÐ¸": 972,
      "ĠÐ¿ÑĥÐ³Ð°ÐµÑĤ": 973,
      "Ġag": 974,
      "ĠÐ¿Ð¾ÑģÐ¼Ð¾ÑĤÑĢÐ¸Ð¼": 975,
      "**": 976,
      "Ð°Ð²Ð¾Ð´": 977,
      "ÐĲÐŀ": 978,
      "Ð½Ð¾Ð¹": 979,
      "ĠÐ¿Ð°Ð½": 980,
      "ĠÐ¤Ð¸Ð½Ð¥Ð°Ð±": 981,
      "fter": 982,
      "ĠÐ·Ð²Ð¾Ð½": 983,
      "own": 984,
      "Ġres": 985,
      "Ġam": 986,
      "Ġco": 987,
      "Ð°Ð²Ð¾Ð´ÐĲÐŀ": 988,
      "Ġrate": 989,
      "ĠÐ¿Ð°ÑĢÐ½Ñı": 990,
      "lation": 991,
      "ĠÐĹÐ°Ð²Ð¾Ð´ÐĲÐŀ": 992,
      "ĠÐ¿ÑĢÐ¾Ð´Ð°Ñİ": 993,
      "ĠÑģÐºÑĥ": 994,
      "Ð¾ÑĢÐ¾ÑĪ": 995,
      "ĠÑĤÐµ": 996,
      "Ġdollar": 997,
      "ĠÐ²Ð·": 998,
      "ĠÐ½Ð°ÑģÑĤÑĢÐ¾": 999,
      "Ġ10": 1000,
      "ais": 1001,
      "ÐµÑģÑĤ": 1002,
      "ĠÐ»Ð°Ð´Ð½Ð¾": 1003,
      "ovid": 1004,
      "ail": 1005,
      "ĠÐ½Ð°ÑģÑĤÑĢÐ¾ÐµÐ½Ð¸Ðµ": 1006,
      "ĠÐ¸ÑīÑĥ": 1007,
      "aj": 1008,
      "Ġout": 1009,
      "ĠÐ´ÐµÐ²ÑĥÑĪÐºÐ¾Ð¹": 1010,
      "Ð°ÑĢÐµÐ½ÑĮ": 1011,
      "Ġmay": 1012,
      "op": 1013,
      "ist": 1014,
      "ĠÐ²ÑĢ": 1015,
      "ĠÐ»ÑĥÑĩ": 1016,
      "Ð²Ð¸": 1017,
      "Ð»ÑİÑģÑĮ": 1018,
      "ĠÐ´ÐµÐ²ÑĥÑĪÐºÑĥ": 1019,
      "act": 1020,
      "ĠÐĶÐķÐĴ": 1021,
      "Ð¾Ð¼Ñĥ": 1022,
      "Ġk": 1023,
      "ĠÐ¸Ð»Ð¸": 1024,
      "Ð¶Ð¸Ð¼": 1025,
      "ine": 1026,
      "Ġim": 1027,
      "ĠÐ½Ð¸Ñĩ": 1028,
      "Ð½Ð°Ð»": 1029,
      "fit": 1030,
      "Ġexp": 1031,
      "ĠÐ½ÑĢÐ°Ð²": 1032,
      "ĠÐ±ÑĥÐ´Ñĥ": 1033,
      "Ġgrowth": 1034,
      "ĠÐ²ÑĭÑĪÐµÐ»": 1035,
      "uld": 1036,
      "Ð°Ñı": 1037,
      "Ð½Ñı": 1038,
      "Ð»Ð¸Ð½": 1039,
      "uct": 1040,
      "ĠV": 1041,
      "ĠÐ¿Ð¾ÑģÐ¼Ð¾ÑĤÑĢÑİ": 1042,
      "Ð¼Ð¾": 1043,
      "Ġan": 1044,
      "ĠÑĢÐ¸": 1045,
      "ech": 1046,
      "ma": 1047,
      "ĠÐ§": 1048,
      "Ð¸Ð¶Ñĥ": 1049,
      "ĠÑĢÐ¸ÑģÐº": 1050,
      "ĠÑĢÐµÐ±ÑıÑĤ": 1051,
      "ĠÐ½Ð¸ÑĩÐµÐ³Ð¾": 1052,
      "FC": 1053,
      "ÑıÑħ": 1054,
      "ÑĩÑĥ": 1055,
      "ĠÐµÑģÑĤÑĮ": 1056,
      "ĠÐ¸Ð½ÑĤÐµÑĢÐµÑģÐ½Ð¾": 1057,
      "ĠÐ¿Ð¾Ð·Ð´Ð½Ð¾": 1058,
      "ÑģÑĤÑĢ": 1059,
      "Ð°ÐºÑĤ": 1060,
      "ks": 1061,
      "Ġafter": 1062,
      "Ð¸Ð¼Ð¿": 1063,
      "ID": 1064,
      "ĠÐ·Ð°ÐºÑĢÑĭÐ²Ð°Ñİ": 1065,
      "ĠÐ½Ð¾ÑĢÐ¼": 1066,
      "ast": 1067,
      "ge": 1068,
      "ĠÑĪ": 1069,
      "ĠÐ¿ÑĢÐ¸Ð²ÐµÑĤ": 1070,
      "ord": 1071,
      "ĠÑįÐ¼Ð¾": 1072,
      "ĠÑįÐ¼Ð¾ÑĨÐ¸": 1073,
      "ĠÑģÐ¼Ñģ": 1074,
      "ĠÐ¿Ð¾ÑĢ": 1075,
      "))": 1076,
      "ure": 1077,
      "Ð²Ð°ÑĤÐ¸ÑĤ": 1078,
      "ÑĤÐ¸": 1079,
      "ĠÐ½ÑĢÐ°Ð²Ð¸ÑĤÑģÑı": 1080,
      "ĠÐ¿Ð°ÑĢÐ½ÐµÐ¼": 1081,
      "Ð°Ð»ÑĮÐ½Ð¾": 1082,
      "ĠÐ·Ð°ÑħÐ¾Ð¶Ñĥ": 1083,
      "Ġ&": 1084,
      "art": 1085,
      "ĠÐ¾Ð±Ñī": 1086,
      "OV": 1087,
      "ĠÑĥÐ¶Ðµ": 1088,
      "ults": 1089,
      "ĠÑħÐ²Ð°ÑĤÐ¸ÑĤ": 1090,
      "ĠÐ½Ð¾Ð¼": 1091,
      "Ġinflation": 1092,
      "ions": 1093,
      "OVID": 1094,
      "ÑĩÐ½Ð¾": 1095,
      "ÑĥÐ¹": 1096,
      "ĠÐ»ÑĥÑĩÑĪÐµ": 1097,
      "ĠÑĢÐ°Ð·": 1098,
      "Ð§": 1099,
      "Ġ30": 1100,
      "Ġsp": 1101,
      "ÑĢÐ¾Ð¶": 1102,
      "eal": 1103,
      "Ġwar": 1104,
      "Ð´Ð°Ð¼": 1105,
      "Ġtrade": 1106,
      "¨Ðļ": 1107,
      "Ð¶Ð¸": 1108,
      "Ġà¤": 1109,
      "ÐµÐ½Ð¸Ñı": 1110,
      "ant": 1111,
      "ond": 1112,
      "Ġwh": 1113,
      "ĠÐ¿ÑĢÐµÐ´": 1114,
      "âĢĻ": 1115,
      "000": 1116,
      "ÐķÐ¢": 1117,
      "Ġfall": 1118,
      "ĠÐ¾Ð´": 1119,
      "Ð°Ð´": 1120,
      "Ġagain": 1121,
      "Ġsl": 1122,
      "Ðĵ": 1123,
      "Ġgain": 1124,
      "Ġ06": 1125,
      "Ð²ÐµÑĢÐµÐ½": 1126,
      "ĠÐĴÑģ": 1127,
      "Ġcl": 1128,
      "ĠÐ²ÑģÑĤÑĢ": 1129,
      "ÑĢÐ¾ÑģÐ¸Ð»": 1130,
      "Ġmon": 1131,
      "Ġinter": 1132,
      "30": 1133,
      "ĠÐµÑī": 1134,
      "ard": 1135,
      "pr": 1136,
      "Ġun": 1137,
      "Ġcut": 1138,
      "ĠÐ³Ð¾Ð´": 1139,
      "ints": 1140,
      "à¥": 1141,
      "Ġrev": 1142,
      "ac": 1143,
      "Ð¸ÑĨÐ¸": 1144,
      "ÐĹ": 1145,
      "Ð¸Ð¸": 1146,
      "ĠÑĥÐ²ÐµÑĢÐµÐ½": 1147,
      "ey": 1148,
      "ack": 1149,
      "harma": 1150,
      "Ġ40": 1151,
      "ÐµÑĪÑĮ": 1152,
      "Ð±ÑĢÐ¾ÑģÐ¸Ð»": 1153,
      "Ġcomp": 1154,
      "ĠÐ¼Ð¾": 1155,
      "Ġtarget": 1156,
      "ĠÐ±ÐµÑĢÑĥ": 1157,
      "Ġ202": 1158,
      "ÐµÐ¿": 1159,
      "Ð»ÐµÑĤ": 1160,
      "ĠSebi": 1161,
      "ÑĤÑĥ": 1162,
      "erg": 1163,
      "ĠÐºÐ¾": 1164,
      "ÑĪÑĳÐ»": 1165,
      "ings": 1166,
      "Ġyear": 1167,
      "Ġlow": 1168,
      "Ð£Ð¨Ðļ": 1169,
      "Ġoff": 1170,
      "ĠÐºÑĢÐ°ÑģÐ¸Ð²": 1171,
      "Ġ$": 1172,
      "ÐĿÐĲ": 1173,
      "ÑĥÐ¼": 1174,
      "ĠFinan": 1175,
      "day": 1176,
      "ĠÐ¿ÑĢÐ¾": 1177,
      "ug": 1178,
      "ĠÑħÐ¾ÑĢÐ¾ÑĪ": 1179,
      "ÐĽÐ¯": 1180,
      "ĠÐ´ÐµÐ²": 1181,
      "ĠÐ¿ÑĢÐ¸ÑıÑĤ": 1182,
      "ĠCOVID": 1183,
      "Ġwill": 1184,
      "Ð¼Ð¸": 1185,
      "ĠMot": 1186,
      "cial": 1187,
      "ĠÐ²ÑģÐµ": 1188,
      "Ġfir": 1189,
      "onom": 1190,
      "orm": 1191,
      "Ġ22": 1192,
      "ĠCovid": 1193,
      "ÑģÐ¸": 1194,
      "ĠÑħÐ¾Ñĩ": 1195,
      "Ġbo": 1196,
      "ĠÐ´ÐµÐ»Ð°Ñİ": 1197,
      "ĠÐ¾Ñĩ": 1198,
      "ĠÐ´ÑĢÑĥ": 1199,
      "ÐµÐ½Ð¸Ð¹": 1200,
      "Ġ24": 1201,
      "ĠÑģÑĤÐ°": 1202,
      "ĠÑģÐ»Ð¸Ð²Ð°": 1203,
      "ĠÑģÐ»Ð¸Ð²Ð°Ñİ": 1204,
      "ĠY": 1205,
      "illion": 1206,
      "ĠÐ½Ð¾Ñĩ": 1207,
      "Ð´ÑĥÐ½": 1208,
      "ĠÐ¿ÐµÑĢÐ´ÑĥÐ½": 1209,
      "ĠÐ¼ÑĥÐ¶Ñĩ": 1210,
      "ities": 1211,
      "ĠÐ½ÐµÑĤ": 1212,
      "Ġagainst": 1213,
      "Ġcas": 1214,
      "ĠÐ²ÑĤÐ¾": 1215,
      "Ġac": 1216,
      "Ð¾Ð·Ð½Ð°ÐºÐ¾Ð¼": 1217,
      "ĠÐĶÐ°": 1218,
      "Ð´Ðµ": 1219,
      "Ġwor": 1220,
      "ÐŀÐĻ": 1221,
      "Ġle": 1222,
      "Ġprofit": 1223,
      "erv": 1224,
      "Ð¾Ð»Ð¾Ð³": 1225,
      "Ġtr": 1226,
      "ĠÐĶÐķÐĴÐ£Ð¨Ðļ": 1227,
      "ĠÑĦÐ°ÐºÑĤ": 1228,
      "lob": 1229,
      "Ð¸Ð±Ð¾": 1230,
      "ÑħÐ½": 1231,
      "Ġstr": 1232,
      "Ġnot": 1233,
      "ĠÐĵ": 1234,
      "ib": 1235,
      "Ð¾Ð»Ð¾Ð³Ð¸Ð¸": 1236,
      "ÑħÐ½Ð¾Ð»Ð¾Ð³Ð¸Ð¸": 1237,
      "ĠWh": 1238,
      "ets": 1239,
      "ĠÐ²Ð·ÑıÐ»": 1240,
      "ĠÑģÐ±ÑĢÐ¾ÑģÐ¸Ð»": 1241,
      "Ð°Ð·Ð°": 1242,
      "Ġpoints": 1243,
      "ĠÑĤÐµÐ±Ðµ": 1244,
      "aise": 1245,
      "ĠÑĤÑĢÐ¾Ð³": 1246,
      "ary": 1247,
      "Ġbuy": 1248,
      "iance": 1249,
      "ĠÑĤÐµÑħÐ½Ð¾Ð»Ð¾Ð³Ð¸Ð¸": 1250,
      "ĠÑĤÑĢÐ¾Ð³Ð°Ñİ": 1251,
      "Ð¸ÑĪÐ¸ÑĤÐµ": 1252,
      "Ð½ÑĥÑİ": 1253,
      "Ġall": 1254,
      "ĠÐ°Ð³": 1255,
      "ĠÐ´Ð½Ðµ": 1256,
      "ĠÑħÐ¾ÑĩÐµÑĤ": 1257,
      "io": 1258,
      "Ġind": 1259,
      "ely": 1260,
      "ĠÐ´Ð¾ÐºÑĥÐ¿Ð¸Ð»": 1261,
      "olic": 1262,
      "pp": 1263,
      "ital": 1264,
      "Ġshares": 1265,
      "Ð²ÑģÑĤÐ²": 1266,
      "ÑĢÐ¾Ðµ": 1267,
      "Ð»ÐµÑĩ": 1268,
      "ÑĩÐµÐ¼Ñĥ": 1269,
      "ere": 1270,
      "ĠÐ²ÑģÑĤÑĢÐµÑĩ": 1271,
      "ÑİÑħ": 1272,
      "ÑĩÐ°Ð»Ð°": 1273,
      "Ð¸ÐºÐµ": 1274,
      "ĠSBI": 1275,
      "ÐµÐ³Ð¾Ð´": 1276,
      "ĠÑĥÐ¼": 1277,
      "ĠÐºÐ°": 1278,
      "ÑģÑĤÐ°Ð²": 1279,
      "ĠÐ¼Ð¾Ð¶ÐµÑĤ": 1280,
      "Ð»Ð°Ñģ": 1281,
      "ÑĢÐ°ÑĤÑĮ": 1282,
      "ĠÐ¿Ð¾ÑĩÐµÐ¼Ñĥ": 1283,
      "our": 1284,
      "ĠÐ¿Ð°Ð½Ð¸ÐºÐµ": 1285,
      "ĠTata": 1286,
      "Ð°ÑģÐ¸Ð±Ð¾": 1287,
      "ĠÐ²ÑĤÐ¾ÑĢÐ¾Ðµ": 1288,
      "lobal": 1289,
      "eek": 1290,
      "Ð¨": 1291,
      "Ð¸Ð³Ð½Ð°Ð»": 1292,
      "ĠÑģÐºÑĥÑĩÐ½Ð¾": 1293,
      "ance": 1294,
      "ĠInf": 1295,
      "ÑĢÐµÐ¹": 1296,
      "ĠÐ·Ð°ÑĪÑĳÐ»": 1297,
      "ĠÑģÐ»": 1298,
      "ĠÑģÐµÐ³Ð¾Ð´": 1299,
      "Ġ27": 1300,
      "Ġrates": 1301,
      "ÐºÐ¸Ð¹": 1302,
      "ina": 1303,
      "ÑıÑģ": 1304,
      "eliance": 1305,
      "Ð¿ÐµÑĩ": 1306,
      "Ð³Ð¾": 1307,
      "Ġinterest": 1308,
      "Ġtop": 1309,
      "ÐĺÑīÑĥ": 1310,
      "ÑĢÐ¾Ð¼": 1311,
      "ÑĩÑĥÐ²ÑģÑĤÐ²": 1312,
      "ani": 1313,
      "ĠÐ¿ÑĢÐµÐ´ÑĩÑĥÐ²ÑģÑĤÐ²": 1314,
      "ber": 1315,
      "Ð¾Ð·Ð½Ð°ÐºÐ¾Ð¼Ð»ÑİÑģÑĮ": 1316,
      "ĠÐ¿ÑĢÐµÐ´ÑĩÑĥÐ²ÑģÑĤÐ²Ð¸Ðµ": 1317,
      "ĠÐ½ÑİÑħ": 1318,
      "ĠSh": 1319,
      "ector": 1320,
      "ĠÐ¼Ð¾Ñı": 1321,
      "ĠÐ¼Ñĭ": 1322,
      "overn": 1323,
      "ĠÑģÐ¸Ð³Ð½Ð°Ð»": 1324,
      "ĠÐ´Ð¾Ð±": 1325,
      "ÑĩÐµ": 1326,
      "Ð¾Ð»ÑĮÐºÐ¾": 1327,
      "Ġimp": 1328,
      "Ð»ÑİÑģ": 1329,
      "ĠRes": 1330,
      "ĠÑģÐ²Ð¾": 1331,
      "ĠÐµÑīÑĳ": 1332,
      "19": 1333,
      "Ð¸ÑīÑĥ": 1334,
      "ĠÐ¶ÐµÐ½": 1335,
      "DFC": 1336,
      "ĠRupee": 1337,
      "Ġ23": 1338,
      "ÐĲÐł": 1339,
      "etail": 1340,
      "ff": 1341,
      "Ð¸Ñħ": 1342,
      "ÐŀÐĹ": 1343,
      "Ġ+": 1344,
      "ĠThe": 1345,
      "ÑĢÐ°ÑĤ": 1346,
      "ĠÑģÐµÐ³Ð¾Ð´Ð½Ñı": 1347,
      "ÑĥÐ¹ÐºÐ°": 1348,
      "olicy": 1349,
      "ood": 1350,
      "ĠÐ¿Ð»ÐµÑĩ": 1351,
      "Ġ28": 1352,
      "ther": 1353,
      "ĠÐ±ÑĭÑĤÑĮ": 1354,
      "Ġprices": 1355,
      "ould": 1356,
      "ĠÐ¿Ð°ÑĢÐµÐ½ÑĮ": 1357,
      "ĠÐ¿Ð»ÐµÑĩÐ¾Ð¼": 1358,
      "Ġec": 1359,
      "ĠÐ·Ð½Ð°": 1360,
      "Ġ11": 1361,
      "ah": 1362,
      "oun": 1363,
      "ĠFY": 1364,
      "ĠÑģÑĤ": 1365,
      "Ġme": 1366,
      "ement": 1367,
      "esh": 1368,
      "Ġ?": 1369,
      "Ġse": 1370,
      "ĠAs": 1371,
      "ĠÑĤÐµÐ±Ñı": 1372,
      "ÑĢÑĥÑİ": 1373,
      "ĠÐ¿ÑĥÑģÑĤÑĮ": 1374,
      "emic": 1375,
      "ĠÂ": 1376,
      "ĠÑįÐ¼Ð¾ÑĨÐ¸ÑıÑħ": 1377,
      "Ð³Ð»Ñı": 1378,
      "ight": 1379,
      "ustr": 1380,
      "ĠÐ¿Ð¾Ð·Ð½Ð°ÐºÐ¾Ð¼Ð¸ÑĤÑģÑı": 1381,
      "Ġab": 1382,
      "ome": 1383,
      "ovt": 1384,
      "out": 1385,
      "ÑĭÐµ": 1386,
      "Ð¸Ð·": 1387,
      "ost": 1388,
      "ĠÐ¥": 1389,
      "ÐºÑĥÐ¿": 1390,
      "Ġsal": 1391,
      "ĠÐ±ÐµÐ·": 1392,
      "ÐºÐ¾Ðµ": 1393,
      "Ð³Ð»ÑıÐ´": 1394,
      "Ð°Ð¿": 1395,
      "ĠÐ½ÐµÐ´": 1396,
      "ĠÑģÑĢÐ°": 1397,
      "ĠÂ«": 1398,
      "Â»": 1399,
      "ÐŀÐľ": 1400,
      "Ð½Ð¾ÑĪ": 1401,
      "ĠÐ¿Ð¾Ð»": 1402,
      "ĠÐºÑįÑĪÐµ": 1403,
      "Ġdo": 1404,
      "Ð´ÐµÐ»": 1405,
      "Ġfund": 1406,
      "ÐŀÐł": 1407,
      "ĠÑħÐ¾ÑĩÑĥ": 1408,
      "ĠÐ¿Ð¾Ð·Ð½": 1409,
      "ĠÐ¿ÐµÑĢÐµÑģ": 1410,
      "ĠMarket": 1411,
      "ÐĺÐ¢": 1412,
      "ric": 1413,
      "ealth": 1414,
      "Ð½Ð¸Ð·": 1415,
      "ĠÐ¿Ð»ÑİÑģ": 1416,
      "ÑħÐ»": 1417,
      "ĠÐ¼Ð¾Ð¹": 1418,
      "ign": 1419,
      "Ġrises": 1420,
      "Ind": 1421,
      "ĠÐ²Ð½Ð¸Ð·": 1422,
      "ĠÑĤÐ¾": 1423,
      "ĠÐ¿Ð¾ÑģÐ»Ðµ": 1424,
      "ĠÐ´ÑĢÑĥÐ³": 1425,
      "ep": 1426,
      "Ġeconom": 1427,
      "09": 1428,
      "Ð½ÐµÑĤ": 1429,
      "ÑģÑĭ": 1430,
      "ĠÑģÐ¾": 1431,
      "Ñĸ": 1432,
      "Ġmore": 1433,
      "ide": 1434,
      "!!!": 1435,
      "udget": 1436,
      "ÐĻ": 1437,
      "Ġad": 1438,
      "Ġoil": 1439,
      "ally": 1440,
      "ĠÐ²ÑĭÐ³Ð»ÑıÐ´": 1441,
      "Ð²Ð¸Ð¶Ð¸Ð¼": 1442,
      "Ð²Ð¸Ð¶Ð¸Ð¼Ð¾ÑģÑĤÑĮ": 1443,
      "ĠÐ·Ð°Ð²": 1444,
      "ĠÐ²ÑĭÐ³Ð»ÑıÐ´Ð¸ÑĤ": 1445,
      "RBI": 1446,
      "ĠÐ²ÐµÑĢ": 1447,
      "ÑĢÐ¸ÑĤ": 1448,
      "Ġlik": 1449,
      "ĠÑģÑĤÑĢ": 1450,
      "ĠÐ¡Ð¿": 1451,
      "Ð¾ÑĢÑı": 1452,
      "ĠÐ¼Ð¾Ñĳ": 1453,
      "ges": 1454,
      "ĠÐļÐ°Ðº": 1455,
      "ĠÐĳÐµÐ·": 1456,
      "ĠÐ½ÐµÐ´Ð²Ð¸Ð¶Ð¸Ð¼Ð¾ÑģÑĤÑĮ": 1457,
      "Ġ|": 1458,
      "Ġear": 1459,
      "ĠÑģÐ¸Ð¼Ð¿": 1460,
      "Ġper": 1461,
      "ĠEx": 1462,
      "ĠÐ½Ð¾Ð²Ð¾ÑģÑĤÑĮ": 1463,
      "ull": 1464,
      "Ð¿ÑĢÐ¸": 1465,
      "ĠÐ²ÑĢÐµÐ¼": 1466,
      "Ġtim": 1467,
      "ĠÐ¾ÑħÐ»": 1468,
      "Ġthis": 1469,
      "Ð¾Ð±ÑĭÑĪ": 1470,
      "ĠÐ¾ÑħÐ»Ð¾Ð±ÑĭÑĪ": 1471,
      "Ġqu": 1472,
      "Ð¸Ñİ": 1473,
      "enc": 1474,
      "Ġ18": 1475,
      "ÑĭÐ¹": 1476,
      "ÐķÐĿÐ¬": 1477,
      "Ġpolicy": 1478,
      "ĠÐ¾Ð±ÑīÐµÐ½Ð¸Ñı": 1479,
      "ÑĥÐ½": 1480,
      "ĠÐ¿Ð¾ÑĤÐ¾Ð¼": 1481,
      "ÑĢÐµÐ¹Ð´ÐµÑĢ": 1482,
      "ĠÐĶÐĽÐ¯": 1483,
      "Ġsur": 1484,
      "ĠÐ½Ð¾Ð¼ÐµÑĢ": 1485,
      "ish": 1486,
      "Ġtoday": 1487,
      "ĠIT": 1488,
      "Ġ35": 1489,
      "ĠÐ¿Ð¾Ð·Ð¸ÑĨÐ¸": 1490,
      "ÐµÐµ": 1491,
      "ĠÑģÐµÐ±": 1492,
      "ĠÐ¼Ð¼Ñģ": 1493,
      "ÐĲÐ¡": 1494,
      "ĠChina": 1495,
      "Ġbanks": 1496,
      "ĠÐºÐ¾Ð¼": 1497,
      "ĠÑĢÐ¾ÑģÑĤ": 1498,
      "ÐµÑĤÐµ": 1499,
      "oc": 1500,
      "Ġapp": 1501,
      "ĠÐºÑĢÐ°ÑģÐ¸": 1502,
      "ĠIndian": 1503,
      "ĠÑĤÐ°ÐºÐ¾Ðµ": 1504,
      "ĠÑģÑĢÐ°Ð±Ð¾": 1505,
      "Ġsector": 1506,
      "Ð¾Ð±Ñī": 1507,
      "ĠÐ³Ð¾Ð²Ð¾ÑĢÐ¸Ð»": 1508,
      "cr": 1509,
      "ÑĢÐ°ÑģÑĤ": 1510,
      "Ġcap": 1511,
      "ÑģÐ¸ÑĢÑĥÑİ": 1512,
      "Ġrise": 1513,
      "ys": 1514,
      "Ð¿Ð°ÑĢÐµÐ½ÑĮ": 1515,
      "Ġjump": 1516,
      "Ġit": 1517,
      "ĠÐ°Ð³ÑĢÐ¾": 1518,
      "ĠÐ¿Ð¾ÑĢÑĤ": 1519,
      "ÐķÐł": 1520,
      "ÐµÐ°Ð»ÑĮÐ½Ð¾": 1521,
      "ÑĦÐµÐ»": 1522,
      "Ð¸ÐºÑģÐ¸ÑĢÑĥÑİ": 1523,
      "ĠAir": 1524,
      "ĠÐ¿Ð¾ÑĢÑĤÑĦÐµÐ»": 1525,
      "25": 1526,
      "ĠÐ¾ÑĤÐ½Ð¾ÑĪ": 1527,
      "ĠÐ³Ð¾Ð´Ñĭ": 1528,
      "ues": 1529,
      "Ġsub": 1530,
      "Ġdec": 1531,
      "Ð»Ð¾Ñħ": 1532,
      "ĠÑĤÐµÑĢ": 1533,
      "Ġso": 1534,
      "Ġcont": 1535,
      "ĠÐ²ÑĢÐµÐ¼Ñı": 1536,
      "Ð¾Ð³Ð»Ð°Ñģ": 1537,
      "ĠÐ¶ÐµÐ»": 1538,
      "Ġwe": 1539,
      "ĠÐ´ÐµÐ²ÑĥÑĪÐºÐ°": 1540,
      "ĠÐ¼Ð¾Ð»": 1541,
      "Ð°ÑĤÐ¸": 1542,
      "ĠMar": 1543,
      "ÑĢÐ¾Ð´": 1544,
      "Ġdown": 1545,
      "ĠFed": 1546,
      "Ð¸ÑĤÑĮÑģÑı": 1547,
      "ĠÑģÑĥÐ´": 1548,
      "Ð¾Ð´Ð¸ÑĤ": 1549,
      "isc": 1550,
      "Ġare": 1551,
      "Ġcan": 1552,
      "CICI": 1553,
      "ÐĺÐĿ": 1554,
      "ÐŀÐ§": 1555,
      "ĠÐ¿Ð¾ÐºÐ°Ð¶Ñĥ": 1556,
      "ĠHDFC": 1557,
      "Ð¸ÐºÑĳ": 1558,
      "Ġset": 1559,
      "CL": 1560,
      "ĠÑĨ": 1561,
      "ents": 1562,
      "Ġamid": 1563,
      "ĠÐ¿ÐµÑĢÐ²": 1564,
      "ĠÐ´ÐµÐ»Ð¾": 1565,
      "Ð¼Ð¸Ð½Ð°": 1566,
      "eel": 1567,
      "Ġstock": 1568,
      "ĠÐ³Ð¾ÑĢÐ¸ÑĤ": 1569,
      "Ð¥Ð¾ÑĩÑĥ": 1570,
      "Ġhik": 1571,
      "Ġcompan": 1572,
      "ĠÑĤÐµÑĢÐ¼Ð¸Ð½Ð°": 1573,
      "ĠÐ¿Ð¾ÐºÐ°Ð¶ÑĥÑĤ": 1574,
      "ĠÑĤÐµÑĢÐ¼Ð¸Ð½Ð°Ð»": 1575,
      "ĠÐ¾Ð½Ð°": 1576,
      "down": 1577,
      "Ð¾Ð½ÑıÐ»": 1578,
      "Ġ50": 1579,
      "ĠÐ´Ð°Ð¶Ðµ": 1580,
      "Ġlos": 1581,
      "ÑĢÐ¾Ð³Ð°": 1582,
      "ecur": 1583,
      "Ġend": 1584,
      "Ġne": 1585,
      "ĠÐ²Ð¿ÐµÑĩ": 1586,
      "ĠÐ²Ð¿ÐµÑĩÐ°ÑĤ": 1587,
      "ax": 1588,
      "ÑĥÑĪÐ°Ð¹": 1589,
      "akh": 1590,
      "Ð´Ð°Ð¼ÐµÐ½": 1591,
      "ÑĥÐ½Ð´Ð°Ð¼ÐµÐ½": 1592,
      "ĠÑģÑĥÐ´Ð¸": 1593,
      "ĠÐ¿ÐµÑĢÐ²Ð¾Ð¼Ñĥ": 1594,
      "Ð»ÐµÐ½Ð¸Ñİ": 1595,
      "ÐµÑģÑĤÐ½Ð¾": 1596,
      "ĠÐ²Ð¿ÐµÑĩÐ°ÑĤÐ»ÐµÐ½Ð¸Ñİ": 1597,
      "ef": 1598,
      "head": 1599,
      "ÐµÑĢÐ°": 1600,
      "ĠÑģÐ¿Ð»Ñİ": 1601,
      "ĠÐ¼ÑĭÑģ": 1602,
      "ĠÐ·Ð°Ð²ÑĤÑĢÐ°": 1603,
      "ĠÐ³ÑĢÑĥ": 1604,
      "ave": 1605,
      "ĠÐ³Ð¾Ð²Ð¾ÑĢÑı": 1606,
      "Ġbut": 1607,
      "ĠÑĢÐ¾Ð³Ð°": 1608,
      "ÑģÑĤÐ°ÑĤÐ¸": 1609,
      "Ð¾Ð³Ð»Ð°ÑģÐµÐ½": 1610,
      "ĠÐŁÐł": 1611,
      "ÑĪÐ°": 1612,
      "Ð´ÐµÑĢÐ¶Ð¸": 1613,
      "ĠÐ·Ð½Ð°Ñİ": 1614,
      "Ð¸Ð½Ð¾Ðº": 1615,
      "Ġhigher": 1616,
      "ĠÐ¿ÑĢÑĳÑĤ": 1617,
      "ĠÐ¿Ð¾ÑĢÑĤÑĦÐµÐ»Ñİ": 1618,
      "ÑĪÑĮ": 1619,
      "Sensex": 1620,
      "ĠÑĩÐ°": 1621,
      "ĠÐ¼ÑĭÑģÐ»ÑĮ": 1622,
      "ĠÑģÐ¾Ð¼": 1623,
      "eck": 1624,
      "ÐµÐ³Ð´Ð°": 1625,
      "ruct": 1626,
      "ĠÐ±Ð¾Ð³": 1627,
      "ĠTr": 1628,
      "ĠÑģÐµÑĢ": 1629,
      "Ġlikely": 1630,
      "Ġest": 1631,
      "Ġweek": 1632,
      "???": 1633,
      "Ġinvestors": 1634,
      "Ġfl": 1635,
      "Ġiss": 1636,
      "Ġhit": 1637,
      "ĠÐ°Ð´": 1638,
      "ĠReliance": 1639,
      "ÐĿÐ«": 1640,
      "ĠÐĴÑģÑĳ": 1641,
      "Ð²Ð°Ñı": 1642,
      "Ð¾ÑĩÐµÐº": 1643,
      "ĠÐ°Ð²": 1644,
      "ĠÐ¿Ð»Ð¾Ñħ": 1645,
      "Ġpost": 1646,
      "ĠÐ°Ð²ÑĤÐ¾": 1647,
      "Ġla": 1648,
      "Ġdem": 1649,
      "Ġlakh": 1650,
      "ĠÐ¾ÑĤÑģÐº": 1651,
      "Ġmonth": 1652,
      "ÑĳÑĪÑĮ": 1653,
      "Ð½Ð¸Ð´": 1654,
      "als": 1655,
      "ase": 1656,
      "ude": 1657,
      "Ð»Ð¸ÑģÑĮ": 1658,
      "Ġgains": 1659,
      "ĠAd": 1660,
      "ĠÐ²ÑģÐµÐ³Ð´Ð°": 1661,
      "Ġmarkets": 1662,
      "ĠÐ´Ð°ÑĳÑĪÑĮ": 1663,
      "ÑĤÐ¾Ð¿": 1664,
      "ĠICICI": 1665,
      "PI": 1666,
      "vel": 1667,
      "Ġrupee": 1668,
      "ĠÑĢÑĥÐº": 1669,
      "ĠPharma": 1670,
      "ĠÐŀÑĤ": 1671,
      "ĠÑģÐ»Ð°": 1672,
      "Ġnet": 1673,
      "ĠÐºÐµÐº": 1674,
      "ĠÐºÐ¾ÑĤ": 1675,
      "ations": 1676,
      "ĠResults": 1677,
      "Ġahead": 1678,
      "ÑĢÐµÐ½Ð´": 1679,
      "hi": 1680,
      "ÑĦÐ¸Ð³": 1681,
      "Ġglobal": 1682,
      "ĠMotors": 1683,
      "ou": 1684,
      "ÑĥÑģÑĤ": 1685,
      "ĠÐ²ÑģÐµÑħ": 1686,
      "St": 1687,
      "ÐºÐ°Ñı": 1688,
      "ÑħÐ¾ÑĩÑĥ": 1689,
      "Ġrecord": 1690,
      "Ð¾Ð¼Ð°Ð½": 1691,
      "ove": 1692,
      "18": 1693,
      "Ġpaise": 1694,
      "struct": 1695,
      "ext": 1696,
      "ps": 1697,
      "ĠÐ²ÑģÑĳ": 1698,
      "ĠÐĿÑĥ": 1699,
      "ĠÐ½Ð°Ð´": 1700,
      "osys": 1701,
      "ĠÐ³ÑĢÑĥÐ¶Ñĥ": 1702,
      "Ð¾Ð²Ð°ÑĤÑĮ": 1703,
      "Ġamong": 1704,
      "ĠÐķ": 1705,
      "Ð¾ÑĢÐ¾Ð¶": 1706,
      "Ġ050": 1707,
      "ĠEn": 1708,
      "Ġcons": 1709,
      "Ð¸ÑĨÐ°": 1710,
      "ÑĤÐ°Ñİ": 1711,
      "Ġ12": 1712,
      "Ð¾ÑĤÐ°": 1713,
      "ons": 1714,
      "Ð»Ð¾Ð½": 1715,
      "eh": 1716,
      "ĠÐ±Ð¾Ð³Ð°ÑĤ": 1717,
      "Ġ26": 1718,
      "ĠÐ¿Ð¾Ð´ÑĤ": 1719,
      "ÑĩÐ¸": 1720,
      "Ð½ÑĭÐ¼": 1721,
      "Ġsales": 1722,
      "ÑģÐ°": 1723,
      "ĠÐ¾ÑĤÐ½Ð¾ÑĪÐµÐ½Ð¸Ð¹": 1724,
      "Ġfirm": 1725,
      "ĠÐ¿Ð¾Ð´ÑĤÐ²ÐµÑĢ": 1726,
      "ob": 1727,
      "ÑģÐµÐ¼": 1728,
      "ĠÐ¿Ð¾Ð´ÑĤÐ²ÐµÑĢÐ¶": 1729,
      "ower": 1730,
      "ĠFinancial": 1731,
      "ÐŁÐ°ÑĢÐµÐ½ÑĮ": 1732,
      "urn": 1733,
      "Ġreal": 1734,
      "ĠÐ·Ð²Ð¾Ð½Ð¸ÑĤÐµ": 1735,
      "Ġresults": 1736,
      "les": 1737,
      "ort": 1738,
      "ports": 1739,
      "age": 1740,
      "unch": 1741,
      "Ġhas": 1742,
      "Ð´ÐµÐ²ÑĥÑĪ": 1743,
      "ĠÑĥÐ´": 1744,
      "ÐµÐ¶Ñĥ": 1745,
      "irus": 1746,
      "ĠÐ¿ÑĢÐ¸ÐµÐ´": 1747,
      "ĠÐ¡Ð¿Ð°ÑģÐ¸Ð±Ð¾": 1748,
      "uto": 1749,
      "ÐĲÐłÐķÐĿÐ¬": 1750,
      "form": 1751,
      "Ð°ÑĪÐ°": 1752,
      "Ġ'": 1753,
      "ember": 1754,
      "ĠÐ²ÑĭÑħÐ¾Ð¶Ñĥ": 1755,
      "Ġopen": 1756,
      "ĠÐºÑĢÐ°ÑģÐ¾ÑĤÐ°": 1757,
      "ines": 1758,
      "ĠÐ¾ÑĢ": 1759,
      "35": 1760,
      "ĠÐ¿Ð¾ÑĦÐ¸Ð³": 1761,
      "ĠÐ´ÐµÑĪ": 1762,
      "ĠLive": 1763,
      "Ġsubs": 1764,
      "Ð°ÑĢÐ¸": 1765,
      "Ġsee": 1766,
      "ÐµÐ²Ð»Ðµ": 1767,
      "able": 1768,
      "ÐºÑĥÐ¿Ð»Ñİ": 1769,
      "Ð¾ÑĢÐ¾Ð¶ÑĮ": 1770,
      "ĠÐ´ÐµÑĪÐµÐ²Ð»Ðµ": 1771,
      "Ð¼Ð¸Ð½": 1772,
      "ĠÐ¾ÑĤÑĢÐ°ÑģÑĤ": 1773,
      "Ġinc": 1774,
      "Ġday": 1775,
      "ices": 1776,
      "ĠÑĥÐ»Ð¸": 1777,
      "Ð¾ÑĩÐ¸ÑĤ": 1778,
      "ĠÐ²ÑĭÑħÐ¾Ð´": 1779,
      "ĠÐ¾ÑĤÑģÐºÐ¾ÑĩÐ¸ÑĤ": 1780,
      "ĠÐŀÑĤÐºÑĥÐ¿Ð»Ñİ": 1781,
      "ĠÐ¾ÑĤÑĢÐ°ÑģÑĤÐ°ÐµÑĤ": 1782,
      "tel": 1783,
      "ĠÐ¿Ð¸ÑĪÐ¸ÑĤÐµ": 1784,
      "andemic": 1785,
      "ile": 1786,
      "ĠÑģÐ¼": 1787,
      "iz": 1788,
      "ĠÐ¿Ð¾Ð½": 1789,
      "Ġyou": 1790,
      "Ġair": 1791,
      "uk": 1792,
      "ÐłÐķÐ": 1793,
      "ÑĢÐ¾Ð²ÑĮ": 1794,
      "Ġits": 1795,
      "Ð´Ð»Ñı": 1796,
      "Ð¿Ð¾Ñģ": 1797,
      "ĠÐ¿Ð¾ÑģÑĤÐ°Ð²": 1798,
      "ition": 1799,
      "iness": 1800,
      "ath": 1801,
      "ĠÑĢÐ°Ð·Ð²": 1802,
      "ÐĿÐĲÐļ": 1803,
      "ÑĨÐ°Ñħ": 1804,
      "Ð½Ð°ÑĩÐ°Ð»Ð°": 1805,
      "IL": 1806,
      "ĠÑģÐ´ÐµÐ»": 1807,
      "Ġdef": 1808,
      "ĠÐ¡Ð»Ð¸Ð²Ð°Ñİ": 1809,
      "ĠÑģÐ°Ð¼Ð¾Ðµ": 1810,
      "ĠÐ±ÑĥÐ´ÑĮ": 1811,
      "ÑĳÐ½": 1812,
      "Ġcases": 1813,
      "ĠÐ¿Ð»Ð¾ÑħÐ¾Ðµ": 1814,
      "Ð¸Ð½ÑĤÐµÑĢÐµÑģ": 1815,
      "Ð°ÑİÑī": 1816,
      "ÑĤÐ¾Ð²": 1817,
      "Ġlaunch": 1818,
      "ĠÐ§ÑĥÐ¹ÐºÐ°": 1819,
      "ĠÐ·Ð²Ð¾Ð½Ð¾ÑĩÐµÐº": 1820,
      "ĠÐ²ÑĢÑĳÑĤ": 1821,
      "og": 1822,
      "Ġ29": 1823,
      "ĠÐ±ÑĢÐ°ÑĤÑĮ": 1824,
      "Ġshould": 1825,
      "Ð¾Ð²Ð¸": 1826,
      "ĠÑĥÐ»Ð¸ÑĨÐ°Ñħ": 1827,
      "ÑĤÑĢÐµÐ½Ð´": 1828,
      "ĠÐļÑĢÐ¾Ð²ÑĮ": 1829,
      "ĠÐ¶Ð¸Ð¼": 1830,
      "usiness": 1831,
      "iff": 1832,
      "ĠÐºÐ¾Ð½ÑĤÑĢ": 1833,
      "ĠÐ¾ÑĩÐºÐ¾": 1834,
      "ĠÐºÐ¾Ð½ÑĤÑĢÑĤÑĢÐµÐ½Ð´": 1835,
      "ĠÐŁÐŀÐĹ": 1836,
      "Ð´ÐµÐ²": 1837,
      "Ġint": 1838,
      "ult": 1839,
      "ÐµÑģÑĤÑĮ": 1840,
      "Ð·Ð´": 1841,
      "ÐµÐ»ÑĮ": 1842,
      "ĠBudget": 1843,
      "oron": 1844,
      "ĠRe": 1845,
      "ĠÑģÑĤÐ¾ÑıÐ»": 1846,
      "ĠÑĤÑĢ": 1847,
      "ĠÑĤÐ¾Ð»ÑĮÐºÐ¾": 1848,
      "ĠÐ¿Ð¾Ð¼": 1849,
      "Ð³Ð¾Ð´": 1850,
      "ĠWhat": 1851,
      "ach": 1852,
      "CS": 1853,
      "rov": 1854,
      "Ð¾Ð¹Ð´Ñĥ": 1855,
      "ĠÐ½ÑĥÐ¶": 1856,
      "Ġfr": 1857,
      "ĠÑĤÑĥÑĤ": 1858,
      "ĠÑħÐ°": 1859,
      "Ġdemand": 1860,
      "Ð¼Ð¾Ð¶ÐµÑĤ": 1861,
      "ĠÐ³Ð½Ð¸Ð´": 1862,
      "ÐŀÐĴ": 1863,
      "reet": 1864,
      "ĠÑģÐ»Ð¸Ð²Ð°Ð¹": 1865,
      "ĠÐ³Ð½Ð¸Ð´Ð¾Ð¹": 1866,
      "iew": 1867,
      "Ġbillion": 1868,
      "Ð£Ðĸ": 1869,
      "Ġnext": 1870,
      "Ð¾ÑĢÑĤ": 1871,
      "ency": 1872,
      "ĠYo": 1873,
      "ang": 1874,
      "ĠÑĥÐ´Ð¸Ð²": 1875,
      "uc": 1876,
      "Ġother": 1877,
      "Ð¾ÑĢÐ¼": 1878,
      "ĠÐ»ÑİÐ±Ð»Ñİ": 1879,
      "Ð¤": 1880,
      "ĠMah": 1881,
      "ÑĩÐ°Ñģ": 1882,
      "ĠÐ½Ð¾Ð¹": 1883,
      "ÑĤÐ¾ÑĢÐ¼": 1884,
      "ĠÐľÐ¸Ð½ÑĥÑģ": 1885,
      "ĠÐĳÐµÑĢÑĥ": 1886,
      "under": 1887,
      "ĠÐ¨ÑĤÐ¾ÑĢÐ¼": 1888,
      "ĠÑĥÐ´Ð¸Ð²Ð¸ÑĤ": 1889,
      "Ġdr": 1890,
      "Ġ48": 1891,
      "Ġnews": 1892,
      "ĠÑģÐ»Ð¸Ð²Ð°ÐµÑĪÑĮ": 1893,
      "ĠÐ¿Ð¾Ð¶": 1894,
      "Ġgovern": 1895,
      "Ġcomm": 1896,
      "ĠÑģÐ½Ð°ÑĩÐ°Ð»Ð°": 1897,
      "Ġ000": 1898,
      "Ð¿Ð¾ÑģÐ¼Ð¾ÑĤ": 1899,
      "Ġel": 1900,
      "ÑİÑģÑĮ": 1901,
      "Ġsup": 1902,
      "Ġcent": 1903,
      "Ð¿Ð¾ÑģÐ¼Ð¾ÑĤÑĢÐ¸Ð¼": 1904,
      "MC": 1905,
      "ÑĢÐµÐ¿": 1906,
      "Ġfalls": 1907,
      "ockdown": 1908,
      "ĠÑĢÐ°Ñģ": 1909,
      "Ġins": 1910,
      "ush": 1911,
      "ÑĥÐ´Ð°": 1912,
      "pos": 1913,
      "ĠÑģÐ¸Ð½": 1914,
      "ĠYoY": 1915,
      "Ġen": 1916,
      "ash": 1917,
      "ĠÑĢÑĥÐºÐµ": 1918,
      "Ġ15": 1919,
      "ÑĤÐ¾ÑĢ": 1920,
      "ĠÐłÐµÐ¶Ñĥ": 1921,
      "ĠÐ¾Ð±Ð¾Ð¹Ð´Ñĥ": 1922,
      "ĠÑģÐ¸Ð½Ð¸ÑĨÐ°": 1923,
      "ĠÐ¾Ð±Ð¾Ð¹Ð´ÑĥÑģÑĮ": 1924,
      "40": 1925,
      "ÑĢÐ¾Ð½": 1926,
      "ips": 1927,
      "ace": 1928,
      "arg": 1929,
      "Ġnear": 1930,
      "Ġman": 1931,
      "Ð¾ÑĤÐµ": 1932,
      "ĠÐ½ÐµÑģ": 1933,
      "ĠÐ¿Ð°ÑĢÐ½Ð¸": 1934,
      "%,": 1935,
      "ĠNew": 1936,
      "ĠÑģÐ²Ð¾ÐµÐ³Ð¾": 1937,
      "edit": 1938,
      "ĠÐ¡ÑĤÐ¾Ð¿": 1939,
      "ix": 1940,
      "ĠÐ´ÐµÐ²ÑĥÑĪÐºÐ¸": 1941,
      "indra": 1942,
      "ÑĤÑģÑı": 1943,
      "ĠÐ¶Ð¸Ð·": 1944,
      "Ġneed": 1945,
      "SE": 1946,
      "Ġgovt": 1947,
      "enue": 1948,
      "ĠTech": 1949,
      "ocus": 1950,
      "man": 1951,
      "Ð¹ÑĤÐµ": 1952,
      "ĠTh": 1953,
      "Ġsell": 1954,
      "Ð½Ð°Ðº": 1955,
      "ĠÐĿÐĲ": 1956,
      "ual": 1957,
      "one": 1958,
      "06": 1959,
      "umb": 1960,
      "ĠÑģÐµÐ¼": 1961,
      "uti": 1962,
      "ĠÑģÐ¸": 1963,
      "avirus": 1964,
      "oronavirus": 1965,
      ":)": 1966,
      "Ġtw": 1967,
      "Ġ21": 1968,
      "ry": 1969,
      "ĠÑĨÐµÐ»": 1970,
      "Rupee": 1971,
      "ĠÐ¿Ð¾Ð¾Ð±Ñī": 1972,
      "ĠÐ»ÑİÐ±Ð¾Ð²": 1973,
      "ĠÐ¿ÑĢÐ¾Ð±": 1974,
      "ĠÐ±Ð»Ð¸Ð½": 1975,
      "ĠÐ·Ð°Ð»Ðµ": 1976,
      "ĠInfosys": 1977,
      "ĠFinance": 1978,
      "yst": 1979,
      "Ġimpact": 1980,
      "Ġeconomy": 1981,
      "iss": 1982,
      "Ġlower": 1983,
      "India": 1984,
      "ÑıÐ·": 1985,
      "ating": 1986,
      "ows": 1987,
      "ĠStocks": 1988,
      "ĠTrump": 1989,
      "ÑĢÐ¾Ð¸": 1990,
      "Ġpandemic": 1991,
      "ite": 1992,
      "Ð²Ð°ÑĤÑĮ": 1993,
      "ects": 1994,
      "Ġcompanies": 1995,
      "Ġtake": 1996,
      "Ð²Ð°Ð»": 1997,
      "Ġmeet": 1998,
      "ĠÐ¾ÑĩÐµÐ½ÑĮ": 1999,
      "ÐµÐ¹ÑĩÐ°Ñģ": 2000,
      "Ġbig": 2001,
      "Ð»Ð°Ð½": 2002,
      "Ð°Ð¿Ð¾ÑĢÐ¾Ð¶ÑĮ": 2003,
      "Ġdata": 2004,
      "Ġ33": 2005,
      "ĠÑģÐµÐ±Ðµ": 2006,
      "Ġor": 2007,
      "eep": 2008,
      "Ġyears": 2009,
      "Ð¸ÐºÑĳÑĢÑĭ": 2010,
      "ÑģÐºÐ¸Ð¹": 2011,
      "ÑĢÐ¾Ð¶Ðµ": 2012,
      "ĠÐ½Ð¾ÑĩÑĮ": 2013,
      "Ġestate": 2014,
      "Ð¡Ð¯": 2015,
      "ĠÐ¿ÐµÑĢÐµÐ¶": 2016,
      "ĠÐ¿Ð¾ÑģÑĤÐ°Ð²ÑĮ": 2017,
      "ĠÐºÑĢÐµÐ¿": 2018,
      "ĠÑģÑĤÑĢÐ¾Ð¹": 2019,
      "ĠAn": 2020,
      "ÑģÑĤÐ²Ð¾Ð²Ð°ÑĤÑĮ": 2021,
      "ĠÐ¿ÑĢÐ¾ÑģÑĤ": 2022,
      "roup": 2023,
      "Ġ17": 2024,
      "Ġacc": 2025,
      "Ð»Ð¾ÑģÑĮ": 2026,
      "ound": 2027,
      "ÐŀÐĿ": 2028,
      "la": 2029,
      "ence": 2030,
      "ergy": 2031,
      "Ð¾ÑĩÐºÐ¸": 2032,
      "Ġcould": 2033,
      "Ġjumps": 2034,
      "ĠÐ½ÐµÑĢ": 2035,
      "ĠÑĩÑĥ": 2036,
      "Ð»Ð¾Ð½Ð´": 2037,
      "Ġtime": 2038,
      "Ð½ÐµÐ¼": 2039,
      "ĠÑģÐºÑĥÑĩÐ°": 2040,
      "int": 2041,
      "ĠÑĥÐ¼Ð½ÑĭÐ¹": 2042,
      "Ð¾Ð¸": 2043,
      "ĠÐ²ÑģÑİ": 2044,
      "ĠÐ³Ðµ": 2045,
      "Ð¸ÑĪÑĮ": 2046,
      "Ġpos": 2047,
      "ass": 2048,
      "ead": 2049,
      "Ġfocus": 2050,
      "Ġrem": 2051,
      "ĠHow": 2052,
      "ÑģÐ¾Ð²": 2053,
      "ures": 2054,
      "ÐķÐĽ": 2055,
      "ĠÐ²ÐµÑĢÑİ": 2056,
      "ĠÐ½ÐµÑĢÐ²Ñĭ": 2057,
      "ĠÐ³ÐµÑĢÐ¾Ð¹": 2058,
      "20": 2059,
      "ĠÑģÐµÐ¹ÑĩÐ°Ñģ": 2060,
      "ÐľÐ¡": 2061,
      "ĠUn": 2062,
      "Ð¸ÑĢ": 2063,
      "Ð»Ð°Ð´": 2064,
      "ĠSteel": 2065,
      "ÑĤÑĢÑıÑģ": 2066,
      "ĠÐŁÐłÐĺ": 2067,
      "ins": 2068,
      "ĠÐ´Ð°Ð»ÑĮ": 2069,
      "Ġfinan": 2070,
      "Ð£Ð®": 2071,
      "Ġclos": 2072,
      "ÑĤÑĢÑıÑģÐ»Ð¾": 2073,
      "ĠÐ·Ð°ÑĤÑĢÑıÑģÐ»Ð¾": 2074,
      "Ġhave": 2075,
      "ĠÐ¨ÑĥÐ¼": 2076,
      "ĠÐ´Ð¾ÑĢÐ¾Ð¶Ðµ": 2077,
      "ĠÐ³ÐµÑĢÐ¾Ð¹ÑģÑĤÐ²Ð¾Ð²Ð°ÑĤÑĮ": 2078,
      "ĠÑģÐ¸Ð¶Ñĥ": 2079,
      "Ġ38": 2080,
      "ĠÐ¶ÐµÑģÑĤÑĮ": 2081,
      "ecurities": 2082,
      "ÑıÑī": 2083,
      "eng": 2084,
      "ss": 2085,
      "ĠÐ½ÐµÑĳ": 2086,
      "ĠMahindra": 2087,
      "Ġrevenue": 2088,
      "?!": 2089,
      "ĠÐ¾ÑĤÐ´Ð°Ð¼": 2090,
      "Ġexpect": 2091,
      "ĠAirtel": 2092,
      "uz": 2093,
      "Ġunder": 2094,
      "ÐŀÐ¢": 2095,
      "ÑĤÐ°ÑĢÐ¸": 2096,
      "Ġgo": 2097,
      "Ð¸Ð»ÐµÑĤ": 2098,
      "Ġdeal": 2099,
      "ĠÐ´Ð°Ð»ÑĮÑĪÐµ": 2100,
      "ĠÑĤÑĢÐµÐ½": 2101,
      "Ð¸Ð²ÑĳÑĤ": 2102,
      "Ġrally": 2103,
      "Ð°Ð²Ð½Ð¾": 2104,
      "ĠÐ´Ð¾ÐºÑĥÐ¿Ð»Ñİ": 2105,
      "ĠÐ¿ÐµÑĢÐµÐ¶Ð¸Ð²ÑĳÑĤ": 2106,
      "ĠÐĿÐµ": 2107,
      "Ð¼ÐµÐ½ÑĤÐ°ÑĢÐ¸": 2108,
      "Ġann": 2109,
      "ĠÐºÐ¾Ð¼Ð¼ÐµÐ½ÑĤÐ°ÑĢÐ¸": 2110,
      "Market": 2111,
      "per": 2112,
      "ÐµÑĤÑģÑı": 2113,
      "ĠÑĢÐµÐ°Ð»ÑĮÐ½Ð¾": 2114,
      "ĠÐ±Ð¸Ð»ÐµÑĤ": 2115,
      "ĠÐ»ÐµÐ·": 2116,
      "ĠÑģÐµÐºÑĤÐ¾ÑĢ": 2117,
      "Ġ066": 2118,
      "care": 2119,
      "ĠÐ¡Ð¾Ðº": 2120,
      "ÐĽÐ®": 2121,
      "ÑĢÐ°ÑĤÐ¸Ð»": 2122,
      "ĠÐ¿Ð¾Ð½ÑıÐ»": 2123,
      "ility": 2124,
      "ĠÑĦÑĥÐ½Ð´Ð°Ð¼ÐµÐ½": 2125,
      "ĠÐ¿ÐµÑĢÐµÑģÐ¸Ð¶Ñĥ": 2126,
      "ĠÑĨÐµÐ»ÐµÐµ": 2127,
      "ĠÐ»ÐµÐ·ÐµÑĪÑĮ": 2128,
      "ĠÐºÑĢÐ°ÑģÐ¸Ð²Ð¾Ð¹": 2129,
      "ĠÐºÐ¾Ð¼Ð¼ÐµÐ½ÑĤÐ°ÑĢÐ¸ÐµÐ²": 2130,
      "ĠÐ¡Ð¾ÐºÑĢÐ°ÑĤÐ¸Ð»": 2131,
      "ĠÐ¾ÑģÑĤ": 2132,
      "45": 2133,
      "Ġthat": 2134,
      "ĠÐ³Ð¾ÑģÑĤÐ¸": 2135,
      "ÐĶÐµÐ²ÑĥÑĪ": 2136,
      "Ð°ÑĤÑĮÑģÑı": 2137,
      "Ġshare": 2138,
      "Ġkey": 2139,
      "ĠÐºÐ¾ÑĤÐ¾": 2140,
      "Ġmin": 2141,
      "ĠTCS": 2142,
      "hare": 2143,
      "ÑĢÐ¾Ðº": 2144,
      "ĠÐ¿ÑĢÐ¸ÑĩÐµÐ¼": 2145,
      "ĠÑģÑĤÑĢÐ¾Ð¸": 2146,
      "Ġweak": 2147,
      "Ġbet": 2148,
      "Ð¾Ð²Ð°": 2149,
      "ĠÐ½Ð¾Ð²Ð¾ÑģÑĤ": 2150,
      "ĠÑģÐ°Ð¼Ð¸": 2151,
      "ĠÑĤÑĢÑıÑģ": 2152,
      "ĠÐ½Ð¾Ð²Ð¾ÑģÑĤÑıÑħ": 2153,
      "ces": 2154,
      "ĠCE": 2155,
      "Ġstake": 2156,
      "ĠÑĩÐµÑģÑĤÐ½Ð¾": 2157,
      "odi": 2158,
      "ÐºÐ½Ñĥ": 2159,
      "Ð»Ð¾Ñģ": 2160,
      "ĠÐ¾Ð´Ð¸Ð½Ð¾Ðº": 2161,
      "ĠÑĥÐ²ÐµÑĢÐµÐ½Ð½Ð¾ÑģÑĤÑĮ": 2162,
      "ĠÑģÑĤÑĢÐ¾Ð¸ÑĤÑģÑı": 2163,
      "ĠÑĤÑĢÑıÑģÑĳÑĤ": 2164,
      "ÐºÑĤÐµ": 2165,
      "Ġ099": 2166,
      "ĠÐ½ÐµÐ¼": 2167,
      "Ð³Ð¸": 2168,
      "ÑĢÑı": 2169,
      "Ġhits": 2170,
      "ĠÐ·Ð°ÐºÑĢÑĭÐ»": 2171,
      "ĠÐ¿Ð°Ð½Ð¸ÐºÑĳÑĢÑĭ": 2172,
      "ÑĩÐµÐ³Ð¾": 2173,
      "Ġtax": 2174,
      "ĠÐ±ÐµÐ³": 2175,
      "Ð°ÐºÐ¾Ð²": 2176,
      "ÑģÐ»Ð¸": 2177,
      "Ð´Ð¾": 2178,
      "ĠÐºÑģÑĤÐ°ÑĤÐ¸": 2179,
      "ĠÐŁÐ¾Ð½ÑıÐ»": 2180,
      "ĠAdani": 2181,
      "ÑģÐºÐ°": 2182,
      "Ġbond": 2183,
      "Ġgets": 2184,
      "Ð¸Ð¼Ð¾": 2185,
      "ĠAm": 2186,
      "ÐŀÐĸ": 2187,
      "ĠPro": 2188,
      "ĠÑģÐ°Ð¼Ð¾Ð³Ð¾": 2189,
      "iscal": 2190,
      "ĠÑģÐ»Ð°Ð±": 2191,
      "DP": 2192,
      "ai": 2193,
      "xis": 2194,
      "Ġpts": 2195,
      "Ġloan": 2196,
      "ĠÐºÐ¾ÑĢÐ¾": 2197,
      "ĠÐ¿ÑĢÐ¸ÑıÑĤÐ½Ð¾": 2198,
      "Ġfirst": 2199,
      "ĠÐĶÐķÐĴÐ£Ð¨ÐļÐŀÐĻ": 2200,
      "ĠÐ±ÐµÐ³ÑĥÑĤ": 2201,
      "ĠÑĤÐµÐ¼": 2202,
      "Ġsubscr": 2203,
      "ĠÐºÑĢÐµÐ¿ÐºÐ¸Ð¹": 2204,
      "34": 2205,
      "ĠÐ¼Ð¾Ð¶": 2206,
      "Ġbr": 2207,
      "elhi": 2208,
      "Ð°ÑĤÐ¸Ñĩ": 2209,
      "ĠBhar": 2210,
      "ĠÑĦÑĥÐ½Ð´Ð°Ð¼ÐµÐ½ÑĤ": 2211,
      "ĠÑģÐ»Ð°Ð±Ð°ÐºÐ¾Ð²": 2212,
      "ĠÐ´Ð°Ð²Ð½Ð¾": 2213,
      "Ġact": 2214,
      "Ġhealth": 2215,
      "ĠÐºÑĢÐ°ÑģÐ¸Ð²Ñĭ": 2216,
      "ĠÐ¾Ð³Ð¾": 2217,
      "ick": 2218,
      "Ġreg": 2219,
      "ĠÑģÑĤÐ¾ÑĢÐ¾Ð½": 2220,
      "ÐºÐ°Ðº": 2221,
      "Ġ095": 2222,
      "Ġopens": 2223,
      "Ġwhat": 2224,
      "erger": 2225,
      "ief": 2226,
      "Ġearn": 2227,
      "wal": 2228,
      "ĠÐ±Ð¾Ð»ÑĮ": 2229,
      "ÐķÐľ": 2230,
      "ÐľÐĲ": 2231,
      "ĠÑģÐ¾Ð³Ð»Ð°ÑģÐµÐ½": 2232,
      "ice": 2233,
      "ĠÐ¸Ð½ÑĤÐµÑĢÐµÑģÐ½Ð°Ñı": 2234,
      "Ġacqu": 2235,
      "ĠÐ´ÐµÐ½ÑĮ": 2236,
      "ÑĤÐ°Ð»Ð¸": 2237,
      "Ġcur": 2238,
      "ĠÑħÐ·": 2239,
      "ĠÑģÐ²Ð¾Ð¹": 2240,
      "ĠÐ»ÑİÐ±Ð¸Ð¼": 2241,
      "ĠÐĴÑģÐµÐ¼": 2242,
      "line": 2243,
      "Ġplans": 2244,
      "ĠÑģÐ»ÑĥÑĪÐ°Ð¹": 2245,
      "ĠÐºÐ¾ÑĢÐ¾ÑĩÐµ": 2246,
      "ÑĥÑĩÐ°": 2247,
      "ĠÐºÐ°Ñģ": 2248,
      "ĠÐ¼Ð¸Ð¼Ð¾": 2249,
      "ĠÐ»Ð¾Ð¼": 2250,
      "Ġhold": 2251,
      "à¤¾": 2252,
      "cer": 2253,
      "Ġbel": 2254,
      "ĠÐ³Ð´Ðµ": 2255,
      "ÐŁÐ¾Ð·": 2256,
      "Ġboost": 2257,
      "PC": 2258,
      "ĠÐ¿Ð°Ð´": 2259,
      "ĠÐ»Ð¾Ð²Ð¸": 2260,
      "Ġhel": 2261,
      "ĠÐ¸Ð½Ð´": 2262,
      "Ð¿Ð¾Ð·": 2263,
      "ĠÐ¼Ð´Ð°": 2264,
      "ÐŁÑĢÐ¾": 2265,
      "Ð¾ÑģÑĤÐ°Ð²": 2266,
      "ÐķÐĻ": 2267,
      "Ð¾ÑĢÐ¾ÑĤÐ°": 2268,
      "ĠÑĦÐ°ÐºÑĤÑĭ": 2269,
      "ĠÐ½Ð¾Ð¶": 2270,
      "Ð½ÐµÑĢÐ³ÐµÑĤ": 2271,
      "ajaj": 2272,
      "ĠÑįÐ¼Ð¾ÑĨÐ¸Ð¸": 2273,
      "ÑĤÑĥÑĢÑĥ": 2274,
      "ÑĥÐºÑĤÑĥÑĢÑĥ": 2275,
      "ĠÑĦÐ¸ÐºÑģÐ¸ÑĢÑĥÑİ": 2276,
      "ĠÑģÑĤÑĢÑĥÐºÑĤÑĥÑĢÑĥ": 2277,
      "ĠÑģÑĢÐ°Ð±Ð¾ÑĤÐ°Ð»": 2278,
      "Ð°ÑİÑīÐ¸Ð¹": 2279,
      "Ð»Ð¾ÑģÑģ": 2280,
      "ĠÐºÐ°ÑģÑģÑĭ": 2281,
      "ĠÐ»Ð¾Ð¼Ð°ÐµÑĤ": 2282,
      "Ð½ÐµÑĢÐ³ÐµÑĤÐ¸ÐºÐ°": 2283,
      "61": 2284,
      "air": 2285,
      "Ġ14": 2286,
      "ĠGDP": 2287,
      "ĠÐ³Ð¾ÑĤÐ¾Ð²": 2288,
      "ĠÐ´ÐµÐ²Ñĩ": 2289,
      "ld": 2290,
      "Ð´ÐµÐ½Ð¸Ðµ": 2291,
      "ĠBuy": 2292,
      "ÐºÐµÑĤÐ°": 2293,
      "ĠÐ³Ð¾Ð²Ð¾ÑĢÐ¸ÑĤ": 2294,
      "Ġhike": 2295,
      "ĠÑģÑĤÐ¾ÑĢÐ¾Ð½Ðµ": 2296,
      "po": 2297,
      "Ġlockdown": 2298,
      "ĠÑĢÑĭÐ½ÐºÑĥ": 2299,
      "ĠÐ¿Ð°ÑĢÑİÑģÑĮ": 2300,
      "ÑĤÐ¾ÑĢÐ°Ð¼": 2301,
      "ĠÐ¼Ð¸Ð½ÑĥÑģÐµ": 2302,
      "Ð¸ÐºÐ°ÑĤÐ¾ÑĢÐ°Ð¼": 2303,
      "ĠÐ»ÑĥÐ½Ñĥ": 2304,
      "ĠÑĢÐ°Ð·Ð²Ð¾ÑĢÐ¾ÑĤÐ°": 2305,
      "ĠÐ¿Ð°Ð´Ð°ÑİÑīÐ¸Ð¹": 2306,
      "ĠÐ¸Ð½Ð´Ð¸ÐºÐ°ÑĤÐ¾ÑĢÐ°Ð¼": 2307,
      "Ð²Ñĳ": 2308,
      "ĠÐ¾Ð¿": 2309,
      "ĠCr": 2310,
      "ĠÑĢÐ°ÐºÐµÑĤÐ°": 2311,
      "Ġplan": 2312,
      "Ġcuts": 2313,
      "ĠÐ·Ð°Ð»ÐµÑĤÐ°Ñİ": 2314,
      "ÐŁÑĢÐ¸": 2315,
      "Ġreport": 2316,
      "ĠCEO": 2317,
      "Ð²ÑĳÐ·Ð´": 2318,
      "ĠÐ¶ÐµÐ½Ñī": 2319,
      "ĠÐ¿Ð»Ð°Ð½": 2320,
      "ÐĿÐµ": 2321,
      "Ð½Ð¸ÐºÐ°": 2322,
      "ree": 2323,
      "Ð°ÑĤÐ°": 2324,
      "ĠÐ¼ÑĥÐ¶ÑĩÐ¸Ð½Ñĥ": 2325,
      "Ġabove": 2326,
      "han": 2327,
      "ĠÐ²ÑħÐ¾Ð´": 2328,
      "ĠÐ½Ð°ÑĩÐ°Ð»Ð°": 2329,
      "ÐķÐ¡": 2330,
      "ĠIndustr": 2331,
      "Ġass": 2332,
      "Ġext": 2333,
      "ugh": 2334,
      "Ð½ÑĥÐ»": 2335,
      "Ġret": 2336,
      "Ġbusiness": 2337,
      "ÐĿÐĲÐļÐŀÐľ": 2338,
      "ÐŁÐ°ÑĢ": 2339,
      "Ġtariff": 2340,
      "ĠÐ¼Ð¾Ð»ÑĩÐ°": 2341,
      "ĠÐ·Ð½Ð°Ð»": 2342,
      "etary": 2343,
      "ĠÐ»Ð¸ÑĪÑĮ": 2344,
      "press": 2345,
      "ĠÑģÐºÑĥÑĩÐ°ÐµÑĤ": 2346,
      "ĠÐ²ÑģÐµÐ¼": 2347,
      "ÐµÑī": 2348,
      "ÑĳÑĤÐµ": 2349,
      "ĠModi": 2350,
      "ĠÐĺÐ©": 2351,
      "Ġ++": 2352,
      "ÐŁÐ¾Ð·Ð½Ð°ÐºÐ¾Ð¼Ð»ÑİÑģÑĮ": 2353,
      "ĠGold": 2354,
      "Ð¼Ð¾ÑĤÑĢÑİ": 2355,
      "99": 2356,
      "Ð¸Ð»Ð°": 2357,
      "Ġpharma": 2358,
      "Ð¢ÑĢÐµÐ¹Ð´ÐµÑĢ": 2359,
      "ĠÐĴÑĭÑĪÐµÐ»": 2360,
      "ĠÐĺÑīÑĥ": 2361,
      "ĠÐ¾ÑĢÑĳÑĤÐµ": 2362,
      "ĠÑįÐ½ÐµÑĢÐ³ÐµÑĤÐ¸ÐºÐ°": 2363,
      "ĠHere": 2364,
      "ĠÐ¶ÐµÐ»ÐµÐ·": 2365,
      "ous": 2366,
      "ĠÐ²Ð¸Ð¶Ñĥ": 2367,
      "ÐºÑĢÐ°Ñģ": 2368,
      "Ġdis": 2369,
      "omm": 2370,
      "Ġloans": 2371,
      "ĠÑģÐ´ÐµÐ»ÐºÑĥ": 2372,
      "ĠÑĤÑĢÐµÐ½Ð´Ñĥ": 2373,
      "ĠÐ¿Ð»Ð°Ð½Ñĥ": 2374,
      "Ð¢Ðŀ": 2375,
      "ĠÐ·Ð°Ð½": 2376,
      "ÑģÐ»": 2377,
      "ĠÐ²Ð¾Ð½": 2378,
      "ĠÐ¿Ð¾Ð·Ð¸ÑĨÐ¸Ñı": 2379,
      "ĠÐ¿Ð¾Ð´ÑĤÐ²ÐµÑĢÐ¶Ð´ÐµÐ½Ð¸Ðµ": 2380,
      "Ġelect": 2381,
      "ĠÐ¶ÐµÐ»ÐµÐ·Ð½Ð°Ñı": 2382,
      "Ġstart": 2383,
      "Ġannoun": 2384,
      "sh": 2385,
      "Ġ13": 2386,
      "ĠÐ¿Ð¾Ð´Ð²": 2387,
      "Ð¿ÐµÑĢ": 2388,
      "ĠÐ¿ÑĢÐ¸Ð´": 2389,
      "Ġ100": 2390,
      "ĠÑģÐ¿Ð¾ÑĤÐµ": 2391,
      "ĠÐ¿ÐµÑĢÐµÑģÐ¼Ð¾ÑĤÑĢÑİ": 2392,
      "ĠÐ¿ÑĢÐ¾Ð±Ð¾Ð¹": 2393,
      "ĠÑĳ": 2394,
      "Ġtra": 2395,
      "Ġfact": 2396,
      "ÐĿÐĺ": 2397,
      "ĠÐĶÐķÐĴÐ£Ð¨ÐļÐ£": 2398,
      "iqu": 2399,
      "Ġback": 2400,
      "ÐºÐ½ÑĥÐ»Ð¾": 2401,
      "Ġindustr": 2402,
      "Ð¾ÑĩÐºÐ°": 2403,
      "ĠÐ¿Ð¾Ð´Ð²Ð¾Ð´Ð¸ÑĤ": 2404,
      "ĠÑĳÐºÐ½ÑĥÐ»Ð¾": 2405,
      "Ġcredit": 2406,
      "Ġloss": 2407,
      "ĠÐ´Ð°Ð¼": 2408,
      "arter": 2409,
      "ĠSecurities": 2410,
      "Ġlist": 2411,
      "co": 2412,
      "ium": 2413,
      "Ġhow": 2414,
      "ives": 2415,
      "ÐłÐķÐ§": 2416,
      "ev": 2417,
      "Ð±ÐµÑĢÑĥ": 2418,
      "Ð¡Ð¢ÐłÐķÐ§": 2419,
      "ĠFD": 2420,
      "ĠÑģÐ»ÑĥÑĩÐ°": 2421,
      "tion": 2422,
      "Ð¿Ð°ÑĢ": 2423,
      "ĠÐ±Ð°Ð·Ð°": 2424,
      "ÐĺÐ©": 2425,
      "ĠÐĹÐĲ": 2426,
      "Ġ34": 2427,
      "Ð¸ÑĨÐ¸Ð¸": 2428,
      "ĠÐ´Ð¾Ð±Ð°Ð²": 2429,
      "Ġem": 2430,
      "Ġus": 2431,
      "ÑĭÐ¼Ð¸": 2432,
      "Ġrais": 2433,
      "Ġraise": 2434,
      "uring": 2435,
      "ÐŁÐĲÐłÐķÐĿÐ¬": 2436,
      "ervices": 2437,
      "ory": 2438,
      "ĠÑģÐ¾ÑĪ": 2439,
      "Ġent": 2440,
      "ÑĢÐ°ÑĦ": 2441,
      "Ġ16": 2442,
      "Ð½Ð¸ÑĩÐµÐ³Ð¾": 2443,
      "ĠÐ¸Ð½ÑĤÑĥ": 2444,
      "Ð°Ð¿Ð¾ÑĢÐ¾Ð¶ÑĮÐµ": 2445,
      "ĠÐ´ÐµÐ½ÑĮÐ³Ð¸": 2446,
      "ĠÑģÐ¾ÑĪÐ»Ð¸ÑģÑĮ": 2447,
      "ĠÐ¸Ð½ÑĤÑĥÐ¸ÑĨÐ¸Ð¸": 2448,
      "ĠÐ´Ð¾Ð»": 2449,
      "Ð»ÑıÑİ": 2450,
      "Ġget": 2451,
      "ÐĴÑģÐµÐ¼": 2452,
      "ends": 2453,
      "Ġbelow": 2454,
      "ÑģÑĤÐ°": 2455,
      "Ġfiscal": 2456,
      "ĠÐ·Ð°Ð´ÐµÑĢÐ¶Ð¸": 2457,
      "Ġtwo": 2458,
      "ning": 2459,
      "irect": 2460,
      "ife": 2461,
      "ated": 2462,
      "ĠNet": 2463,
      "ĠÐ½ÑİÑħÐ¾Ð¼": 2464,
      "ĠÑģÑĤÑĢÐµÐ»ÑĮ": 2465,
      "ĠÐ¿Ð¾Ð·Ð¸ÑĨÐ¸Ð¸": 2466,
      "ĠÑĩÑĥÑıÐ»": 2467,
      "ĠÑģÑĤÑĢÐµÐ»ÑĮÐ½ÐµÑĤ": 2468,
      "Ð¿Ð¾Ð·Ð½Ð°ÐºÐ¾Ð¼Ð»ÑİÑģÑĮ": 2469,
      "ises": 2470,
      "ÐµÐ¹Ðº": 2471,
      "ĠStreet": 2472,
      "à¥ĩ": 2473,
      "ĠMaruti": 2474,
      "ical": 2475,
      "rastruct": 2476,
      "ÑĤÑĮÑģÑı": 2477,
      "Ġissue": 2478,
      "ĠÑĤÐ¾ÑĤ": 2479,
      "Ð¼Ð¾Ñģ": 2480,
      "ĠÐ²ÐµÑģ": 2481,
      "Ġar": 2482,
      "?,": 2483,
      "ns": 2484,
      "ĠÐºÐ¾Ñģ": 2485,
      "Ġsign": 2486,
      "ÑĳÐ¶": 2487,
      "rok": 2488,
      "rastructure": 2489,
      "17": 2490,
      "Ġthan": 2491,
      "ĠÐ¿Ð¾Ð»ÐµÑĤÐµ": 2492,
      "ĠÐºÐ¾ÑĤÐ»ÐµÑĤ": 2493,
      "ÑĢÐ°Ð¼": 2494,
      "ĠJio": 2495,
      "ÑıÐ·ÑĮ": 2496,
      "ĠÐºÐ¾ÑĤÐ¾ÑĢÑĭ": 2497,
      "ĠÐ·Ð°Ð½ÑĥÐ´Ð°": 2498,
      "ĠÑĢÐ¸ÑģÐºÐ½ÑĥÐ»": 2499,
      "ĠÐ¿Ð¾Ð»ÐµÑĤÐµÐ»": 2500,
      "ĠÐºÐ¾ÑĤÐ»ÐµÑĤÑĥ": 2501,
      "24": 2502,
      "ĠÐ¿Ð¾Ð·Ð½Ð°ÐºÐ¾Ð¼Ð¸ÑĤÑĮÑģÑı": 2503,
      "ÑĮÐµÐ·": 2504,
      "ĠLI": 2505,
      "ÐĲÐ¢": 2506,
      "ĠÐĶÐµÐ²": 2507,
      "eral": 2508,
      "Ġretail": 2509,
      "Ġquarter": 2510,
      "ehic": 2511,
      "iquid": 2512,
      "ÑĤÐµÐ»ÑĮ": 2513,
      "ĠCheck": 2514,
      "ĠÐ»ÑĥÑĩÑĪÐµÐµ": 2515,
      "Ġtrans": 2516,
      "ÐŀÐ¡Ð¢": 2517,
      "ĠAxis": 2518,
      "Ð¾Ð³Ð´Ð°": 2519,
      "ĠÐ¿Ð¾Ð·Ð½Ð°ÐºÐ¾Ð¼Ð»ÑİÑģÑĮ": 2520,
      "anta": 2521,
      "ĠÐºÐ¾ÑģÐ¼Ð¾Ñģ": 2522,
      "Ð·ÑıÐ»": 2523,
      "Ġstrong": 2524,
      "ÐŀÐĽ": 2525,
      "ĠÑģÐ»ÑĥÑĩÐ°Ð»Ð¾ÑģÑĮ": 2526,
      "23": 2527,
      "ĠÐ¼Ð°Ñģ": 2528,
      "ĠÑģÑĤÐ°Ð½ÐµÐ¼": 2529,
      "Ð³Ð»Ð°": 2530,
      "Ġlead": 2531,
      "ĠÐ±Ð¾Ð³Ð°ÑĤÑĭÐ¼Ð¸": 2532,
      "erm": 2533,
      "ÑĤÐ°Ð»Ð°": 2534,
      "Ġpart": 2535,
      "ross": 2536,
      "Ġinto": 2537,
      "ero": 2538,
      "29": 2539,
      "Ġcontin": 2540,
      "ĠÐ´Ð¾Ð±ÑĢÐ°": 2541,
      "ĠExpress": 2542,
      "Ġearnings": 2543,
      "ÐµÐ½Ñī": 2544,
      "Ġdra": 2545,
      "une": 2546,
      "ĠZ": 2547,
      "Ġbl": 2548,
      "Ġnow": 2549,
      "Ġairport": 2550,
      "Ġ!": 2551,
      "igital": 2552,
      "ÑĨÐ¸Ñİ": 2553,
      "ĠÑģÐ²ÑıÐ·ÑĮ": 2554,
      "ĠÐ´Ð¾Ð²": 2555,
      "ĠÐ´Ð¾Ð¿": 2556,
      "uss": 2557,
      "Ð»ÐµÐº": 2558,
      "ĠÑģÐº": 2559,
      "ution": 2560,
      "ational": 2561,
      "Ġ70": 2562,
      "ÑĥÐ¼Ð°": 2563,
      "ÑĳÐ¼": 2564,
      "ĠGovern": 2565,
      "Ġhelp": 2566,
      "ÑĥÑĢÑĥ": 2567,
      "ĠÑģÑĤÑĢÐ°": 2568,
      "ĠÐ³Ð°Ð»": 2569,
      "ĠÑģÐ¿ÐµÑĪ": 2570,
      "ĠÐ¿Ð¾Ð¿ÑĢ": 2571,
      "ĠDelhi": 2572,
      "Ġproj": 2573,
      "ÐµÐ½Ð°": 2574,
      "ĠÑĩÑĥÑİ": 2575,
      "ĠÑĩÑĥÐ¹ÐºÐ°": 2576,
      "ĠÑģÑĢÐ°Ð±Ð¾ÑĤÐ°Ð»Ð°": 2577,
      "ĠÐ³Ð°Ð»Ð¾ÑĩÐºÐ¸": 2578,
      "ĠÐ¿Ð¾Ð¿ÑĢÑĳÑĤ": 2579,
      "ress": 2580,
      "Ġmerger": 2581,
      "ĠÐ¶Ð¸Ð·Ð½Ð¸": 2582,
      "ÑįÑĪ": 2583,
      "ram": 2584,
      "ĠÑįÑĤÐ¾Ð¼": 2585,
      "Ġdeb": 2586,
      "Ð»Ð¸Ð½ÑģÐºÐ¸Ð¹": 2587,
      "ĠÐ´Ð¾Ð¿ÑĥÑģÑĤ": 2588,
      "ĠÐ¼Ð¾Ð¶Ð½Ð¾": 2589,
      "Ġpay": 2590,
      "Ġ36": 2591,
      "ĠÑĩÐ°ÑģÑĤÑĮ": 2592,
      "Ð²Ð°Ð»ÑģÑı": 2593,
      "ÐĺÐĽ": 2594,
      "ĠIndustries": 2595,
      "ĠÐ´Ð¾Ð¿ÑĥÑģÑĤÐ¸Ð¼": 2596,
      "ise": 2597,
      "Ġmillion": 2598,
      "ĠÐ¿Ð¾Ð´ÑĢÐ¾Ñģ": 2599,
      "ĠÐ³Ð¾Ð²Ð¾ÑĢÐ¸ÑĤÐµ": 2600,
      "ĠÑģÐ¿ÐµÑĪÐ¸ÑĤÑĮ": 2601,
      "Sebi": 2602,
      "lic": 2603,
      "Ġord": 2604,
      "Ð½ÑĤ": 2605,
      "ÑĥÐ²Ð°": 2606,
      "ĠÐ»ÑİÐ±Ð²Ð¸": 2607,
      "****": 2608,
      "tra": 2609,
      "Ġ(": 2610,
      "ĠÑĨÐ¸": 2611,
      "ĠÑĢÐ°ÑģÐ¿": 2612,
      "Ġfresh": 2613,
      "ÐµÑĤÐ°": 2614,
      "ĠÐ´Ð¾Ðº": 2615,
      "olv": 2616,
      "ÑħÐ¾Ð´ÑıÑī": 2617,
      "Ġlook": 2618,
      "BFC": 2619,
      "iel": 2620,
      "ĠÐ¿Ð°": 2621,
      "ĠÐ²Ð¾Ñģ": 2622,
      "ÑĦÐ¸ÐºÑģÐ¸ÑĢÑĥÑİ": 2623,
      "ĠÐ·Ð°ÑĦÐ¸ÐºÑģÐ¸ÑĢÑĥÑİ": 2624,
      "ĠÐºÐ¾Ð½ÑĨÐ°": 2625,
      "ĠÐĸÐ°Ð´Ð½Ð¾": 2626,
      "ĠÐ´Ð¾Ð²Ð¾Ð´Ð¸ÑĤ": 2627,
      "ĠÑĨÐ¸ÑĦ": 2628,
      "ĠÐĸÐ°Ð´Ð½Ð¾ÑģÑĤÑĮ": 2629,
      "ĠSE": 2630,
      "ĠÐŀÐ¢": 2631,
      ").": 2632,
      "ments": 2633,
      "ting": 2634,
      "Ð²ÐµÐ·": 2635,
      "ft": 2636,
      "ĠÐºÐ°Ð½Ð°": 2637,
      "ĠÑģÐ¾Ð¼Ð½Ðµ": 2638,
      "iquidity": 2639,
      "ÑĥÑĢ": 2640,
      "ĠÐ·ÑĢÑı": 2641,
      "Ġdro": 2642,
      "ĠÐľÐ¾Ð»": 2643,
      "Ġremain": 2644,
      "ĠÐĶÐ¾ÐºÑĥÐ¿": 2645,
      "Ð·Ð°ÑĤÐ¾ÑĢ": 2646,
      "ĠÐ¿Ð¾ÑĢÑĨÐ¸Ñİ": 2647,
      "Ð°Ð·Ð°Ð»": 2648,
      "ĠÐºÐ°ÑĤÐ°Ð»Ð¸": 2649,
      "ÑħÐ¾Ð´ÑıÑīÐµÐ¼": 2650,
      "ĠÐ²Ð¾ÑģÑħÐ¾Ð´ÑıÑīÐµÐ¼": 2651,
      "ĠÑĨÐ¸ÑĦÑĢÐ°Ð¼": 2652,
      "ĠÐºÐ°Ð½Ð°Ð»Ðµ": 2653,
      "ĠÑģÐ¾Ð¼Ð½ÐµÐ²Ð°Ð»ÑģÑı": 2654,
      "ĠÐĶÐ¾ÐºÑĥÐ¿Ð°Ñİ": 2655,
      "ĠÐºÐ°ÑĤÐ°Ð»Ð¸Ð·Ð°ÑĤÐ¾ÑĢ": 2656,
      "Ġal": 2657,
      "ĠSuz": 2658,
      "Ð¡Ð¢Ð¬": 2659,
      "ĠÐ´Ð¾ÐºÐ°Ð·Ð°Ð»": 2660,
      "Ġsc": 2661,
      "ĠÐ±Ð¾Ð»ÑĮÑĪÐµ": 2662,
      "Ð»ÑİÐ±": 2663,
      "reat": 2664,
      "Ġrecover": 2665,
      "ards": 2666,
      "Ġfunds": 2667,
      "ĠÑģÐµÐ¼ÑĮ": 2668,
      "ich": 2669,
      "ĠÐ½Ð¾Ð²ÑĭÐµ": 2670,
      "ĠÐ³Ð¾ÑĢÐ¾Ð´": 2671,
      "ipro": 2672,
      "Ġey": 2673,
      "Ġbull": 2674,
      "ĠÑĤÐ²": 2675,
      "ÐŀÐĳ": 2676,
      "In": 2677,
      "ÐĺÐľ": 2678,
      "Ġoffer": 2679,
      "Ġabout": 2680,
      "ĠÐºÑĢÐ°ÑģÐ¸Ð²Ð°Ñı": 2681,
      "ĠÐ½Ð°Ð´ÑĳÐ¶": 2682,
      "Ð³Ð»Ð°ÑĪ": 2683,
      "ĠÐŀÐĳ": 2684,
      "ĠÑĪÑĥÐ¼Ð°": 2685,
      "etails": 2686,
      "uki": 2687,
      "orpor": 2688,
      "otak": 2689,
      "Ġprod": 2690,
      "ĠÐ½ÐµÐ¼Ð½Ð¾Ð³Ð¾": 2691,
      "ĠÐľÐ¾Ð»ÑĩÐ°": 2692,
      "ĠÐ®": 2693,
      "Ð²ÐµÑģÑĤ": 2694,
      "isis": 2695,
      "22": 2696,
      "ĠÐľÐ½Ðµ": 2697,
      "à¤°": 2698,
      "Ġinvestment": 2699,
      "MCG": 2700,
      "aw": 2701,
      "mall": 2702,
      "ri": 2703,
      "ÑįÐºÑĤÐµ": 2704,
      "ĠBajaj": 2705,
      "Ġvehic": 2706,
      "ĠAsian": 2707,
      "ÑįÐºÑĤÐµÑģÑĤ": 2708,
      "ĠÐ²Ð¾Ð·": 2709,
      "ÑĢÐ¸Ð¿": 2710,
      ")))": 2711,
      "ister": 2712,
      "ĠÐ¿Ð¾ÑģÑĤ": 2713,
      "ĠÐ¼Ñĥ": 2714,
      "Ġrel": 2715,
      "icit": 2716,
      "Ð°ÑĪÐ¸Ð½Ð°": 2717,
      "ars": 2718,
      "ĠÐ¾Ð±ÐµÑī": 2719,
      "ield": 2720,
      "Ð¿Ðµ": 2721,
      "ÐĲÐĽ": 2722,
      "Ð¾ÐºÐĵ": 2723,
      "ÑģÐ°Ð¶": 2724,
      "ĠÐ¿Ð¾Ð¶Ð°Ð»": 2725,
      "Ð¾ÐºÐĵÑĥÑĢÑĥ": 2726,
      "ĠITC": 2727,
      "ĠÐ¿ÑĢÐ¾ÑģÑĤÐ¾": 2728,
      "Ð²ÐºÐ°": 2729,
      "Ġdetails": 2730,
      "ural": 2731,
      "ÐŁÑĢÐ¾ÑĦ": 2732,
      "AT": 2733,
      "Ġsay": 2734,
      "Ġred": 2735,
      "Ġsubscrib": 2736,
      "ÑĭÑĤ": 2737,
      "ĠÐ±Ð»Ð¾Ð½Ð´": 2738,
      "ĠMS": 2739,
      "095": 2740,
      "look": 2741,
      "acc": 2742,
      "ply": 2743,
      "Ġauto": 2744,
      "ÐºÐ¾ÑĢÐ¾": 2745,
      "Ġgovernment": 2746,
      "ÑģÐµÑĢ": 2747,
      "ÐºÑĤÐ¾": 2748,
      "ÑĭÐ²Ð°ÑĤÑĮ": 2749,
      "Ġnorm": 2750,
      "ĠÑħÐ°Ð¹": 2751,
      "ĠPr": 2752,
      "ĠÐ½Ð¾Ð¼ÐµÑĢÐ°": 2753,
      "Ð¾ÑģÑĤÐ°Ð²ÑĮ": 2754,
      "II": 2755,
      "ĠÑĤÐ¸Ñħ": 2756,
      "ĠÐ¼Ð°ÑģÑģÐ°Ð¶": 2757,
      "ĠRIL": 2758,
      "ĠÐ³Ð¾Ð´Ð°": 2759,
      "Ġends": 2760,
      "ĠSuzuki": 2761,
      "ÐļÑĤÐ¾": 2762,
      "Ġcrude": 2763,
      "reak": 2764,
      "Ð¾ÑĢÐ¾ÑĪÐ¾": 2765,
      "Ġadd": 2766,
      "ĠÐ¼Ð¾Ð»Ð¾Ð´": 2767,
      "ÑħÐ°": 2768,
      "ÐĲÐĴ": 2769,
      "ĠAr": 2770,
      "ages": 2771,
      "Ð°Ð½Ñı": 2772,
      "Ġcrisis": 2773,
      "ĠÑĪÑĤÐ°": 2774,
      "Ð³Ð°": 2775,
      "Ġdel": 2776,
      "Ġmak": 2777,
      "ount": 2778,
      "PA": 2779,
      "ĠÐ¿Ð¾Ð³": 2780,
      "Ġliquidity": 2781,
      "utual": 2782,
      "ÑĢÐ¾Ð²Ð½Ð¾": 2783,
      "ĠÐĽÐ®": 2784,
      "ĠÐ½ÐµÑģÑĥ": 2785,
      "Buy": 2786,
      "now": 2787,
      "Ð»ÐµÑĤÐµ": 2788,
      "ĠÐ½Ð°ÑģÑĤÑĢÐ°ÑĤÑĮ": 2789,
      "Ġcost": 2790,
      "ĠÑħÐ°Ð¹Ð¿Ðµ": 2791,
      "ĠÑĪÑĤÐ°Ð½Ñĭ": 2792,
      "ĠÑĢÐ¾Ð²Ð½Ð¾": 2793,
      "ÐŀÐļ": 2794,
      "ĠReport": 2795,
      "42": 2796,
      "Ġlend": 2797,
      "Ġgood": 2798,
      "ÐļÐĺ": 2799,
      "ĠÐ§ÑĤÐ¾": 2800,
      "Ġlevel": 2801,
      "Ġdeficit": 2802,
      "Ġterm": 2803,
      "ĠÑģÐ¿Ð°ÑģÐ¸Ð±Ð¾": 2804,
      "ÐķÐĿÐĺ": 2805,
      "Ġtrading": 2806,
      "pl": 2807,
      "ti": 2808,
      "ÑĥÑģ": 2809,
      "ative": 2810,
      "iles": 2811,
      "ĠNBFC": 2812,
      "ÑĭÑĩ": 2813,
      "overs": 2814,
      "uction": 2815,
      "Ð½ÐµÐ½Ð¸Ð¹": 2816,
      "ese": 2817,
      "ĠÐ¶Ð´": 2818,
      "ÑĭÐ½Ð¾ÐºÐĵÑĥÑĢÑĥ": 2819,
      "ĠÐĴÐ¾ÑĤ": 2820,
      "Ð»Ð¸Ð½Ð°": 2821,
      "ĠNews": 2822,
      "itan": 2823,
      "ĠÐ´Ð°Ð²Ð°": 2824,
      "aps": 2825,
      "ĠÐ²Ð·Ð»ÐµÑĤÐµ": 2826,
      "ĠÑģÑĤÐ°Ð²ÐºÐ°": 2827,
      "ĠÑģÐ¾Ð¼Ð½ÐµÐ½Ð¸Ð¹": 2828,
      "ĠÐ´Ð¾Ð±Ð°Ð²Ð»ÑıÑİ": 2829,
      "ĠÐ¾Ð±ÐµÑīÐ°Ð»": 2830,
      "ĠÐ²Ð·Ð»ÐµÑĤÐµÐ»Ð°": 2831,
      "ÑĢÐµ": 2832,
      "Ð½ÑģÑĭ": 2833,
      "ÐĲÐĲ": 2834,
      "eme": 2835,
      "Ð¸Ð½Ð°Ð½ÑģÑĭ": 2836,
      "***": 2837,
      "Ġfirms": 2838,
      "Ġincre": 2839,
      "ÑĢÐµÐ°Ð»ÑĮÐ½Ð¾": 2840,
      "orp": 2841,
      "ĠKore": 2842,
      "Ġ...": 2843,
      "Ġpe": 2844,
      "ĠÑĩÐ°ÑĤ": 2845,
      "Ð°ÐºÑģ": 2846,
      "ĠGroup": 2847,
      "Ġfactors": 2848,
      "21": 2849,
      "atch": 2850,
      "urance": 2851,
      "Ð²ÑĳÐ·Ð´Ñĭ": 2852,
      "orth": 2853,
      "Ġmake": 2854,
      "Ġlong": 2855,
      "Ð¾ÑĢÐ¸ÑģÑĤ": 2856,
      "ĠÑģÐ¸Ð»ÑĮ": 2857,
      "Ġindustry": 2858,
      "Ġval": 2859,
      "ĠÐĸÐķÐĿ": 2860,
      "Ð¾ÑĢÐ¸ÑģÑĤÑĥÐ²Ð°": 2861,
      "ÐºÐµÐº": 2862,
      "ĠÐ¼Ð¸Ð»": 2863,
      "ĠFMCG": 2864,
      "ÑĤÐ¸ÑģÑĤ": 2865,
      "Ġapprov": 2866,
      "ĠÐ¿Ð¾Ð¾Ð±ÑīÐ°ÑĤÑĮÑģÑı": 2867,
      "ĠShare": 2868,
      "ĠÐ¡ÐľÐ¡": 2869,
      "ĠÐ±ÑĥÐ´ÐµÑĤ": 2870,
      "Ġcheck": 2871,
      "Ġimport": 2872,
      "Ð°Ð»ÑĮÐ½Ð¾Ðµ": 2873,
      "tain": 2874,
      "Ġpush": 2875,
      "Ġmarg": 2876,
      "ÐļÐĲ": 2877,
      "ĠÐĹÐ°ÑĪ": 2878,
      "ĠÐĹÐ°ÑĪÑĳÐ»": 2879,
      "ĠApr": 2880,
      "ÐµÐ´Ð²": 2881,
      "007": 2882,
      "Ġvs": 2883,
      "ĠÐĳÐ»Ð¸Ð½ÑģÐºÐ¸Ð¹": 2884,
      "Ġoutlook": 2885,
      "Ġwhy": 2886,
      "ÐµÐ¹ÐºÐŁÑĢÐ¾ÑĦ": 2887,
      "ÐµÐ¹ÐºÐŁÑĢÐ¾ÑĦÐ¸ÑĤ": 2888,
      "ÑĦÐ°ÐºÑĤ": 2889,
      "ĠÐ¾ÑģÑĤÐ°Ð»ÑĮÐ½Ð¾Ðµ": 2890,
      "ĠÐĽÐ®Ðĳ": 2891,
      "ÑĦÐ°ÐºÑĤÑĭ": 2892,
      "77": 2893,
      "pt": 2894,
      "uch": 2895,
      "Ð°ÑĢÑĤÐ¸ÑģÑĤ": 2896,
      "Ð¸Ð½Ðµ": 2897,
      "ÐķÐĶ": 2898,
      "ĠÐĺÐ½": 2899,
      "ĠÑĢÐ°ÑģÑĤ": 2900,
      "Ð¸Ð½ÑĤÐµÑĢÐµÑģÐ½Ð°Ñı": 2901,
      "Ġposit": 2902,
      "ĠÐ¾Ð¶Ð¸": 2903,
      "Ð±Ð°Ð·Ð°": 2904,
      "ÑīÑİ": 2905,
      "Ġcase": 2906,
      "ya": 2907,
      "Ð²Ð¾Ð½Ñİ": 2908,
      "onok": 2909,
      "ÐµÐ¶onok": 2910,
      "ÑģÐºÐ°Ð·Ñĭ": 2911,
      "ÐµÐ´Ð²ÐµÐ¶onok": 2912,
      "ĠÐ´Ð¾Ð¼": 2913,
      "ĠÐ·Ð½Ð°ÐºÐ¾Ð¼": 2914,
      "isation": 2915,
      "Ð¡Ð¬": 2916,
      "ÑĥÐ´Ð¾Ð¼Ð°Ð½": 2917,
      "ĠÐ¸Ð¾": 2918,
      "ÐºÐ¸Ñħ": 2919,
      "ĠWhy": 2920,
      "ĠÐ½Ð°Ð´ÑĳÐ¶Ð½ÑĭÐ¹": 2921,
      "ĠÑĤÐ¸ÑħÐ¾": 2922,
      "Ġsch": 2923,
      "Ð¸Ð½Ð¾Ð¹": 2924,
      "Ġ45": 2925,
      "ĠÑĦÐ¸Ð½Ð°Ð½ÑģÑĭ": 2926,
      "ĠÐ¿ÑĢÐ¸Ð´ÐµÑĢÐ¶Ñĥ": 2927,
      "ĠÐ´Ð¾Ð»Ñİ": 2928,
      "ĠÐ¾Ð¶Ð¸Ð»Ð°": 2929,
      "Ð¸Ð¿": 2930,
      "Ġ063": 2931,
      "Ġflat": 2932,
      "ĠDec": 2933,
      "ĠStock": 2934,
      "uary": 2935,
      "ink": 2936,
      "Ġno": 2937,
      "Ġsees": 2938,
      "ÑĢÐ°ÑĦÐ¾Ð¼Ð°Ð½": 2939,
      "26": 2940,
      "ÐļÐ¸ÑĤ": 2941,
      "ĠHealth": 2942,
      "Ð¥Ð¾Ð»": 2943,
      "Ð¸Ð¹ÐļÐ¸ÑĤ": 2944,
      "++": 2945,
      "Ġrul": 2946,
      "ĠÐĴÐ·ÑıÐ»": 2947,
      "Ð¸ÑģÑĭÐ²Ð°ÑĤÑĮ": 2948,
      "Ġequ": 2949,
      "ĠÑģÐµÐ±Ñı": 2950,
      "ĠÑĢÐ°ÑģÐ¿Ð¸ÑģÑĭÐ²Ð°ÑĤÑĮ": 2951,
      "ĠÑĢÐ°ÑģÑĤÑĳÑĤ": 2952,
      "ran": 2953,
      "Ġdiv": 2954,
      "Ġhere": 2955,
      "Ð¾Ð½Ð³": 2956,
      "ĠMarch": 2957,
      "Ð°ÑĢÐ¸Ð½Ð°": 2958,
      "Ð½Ð¾Ðº": 2959,
      "ÐµÐºÑĥÐ»Ñı": 2960,
      "ÐµÑħÐ°": 2961,
      "Ð¾Ð»Ðº": 2962,
      "Ġeconomic": 2963,
      "ĠÑĤÐµÐ¼Ñĭ": 2964,
      "Ð¥Ð¾Ð»Ð´ÐµÑĢ": 2965,
      "Ð¾Ð½Ð³Ð¥Ð¾Ð»Ð´ÐµÑĢ": 2966,
      "ÐµÐºÑĥÐ»ÑıÐ½ÑĤ": 2967,
      "IT": 2968,
      "ST": 2969,
      "rid": 2970,
      "Ġro": 2971,
      "ĠSun": 2972,
      "ĠÐ»Ð°Ñģ": 2973,
      "Ġvia": 2974,
      "ÐĿÐ«ÐĻ": 2975,
      "uel": 2976,
      "ÐºÐ°Ð»ÑĮ": 2977,
      "Ð½Ð°Ð»Ð¸": 2978,
      "ection": 2979,
      "ĠSEBI": 2980,
      "!!!!": 2981,
      "Ġsurge": 2982,
      "ÑģÐ»ÑĥÑĪÐ°Ð¹": 2983,
      "10": 2984,
      "ases": 2985,
      "Ð°Ð¼Ð¸": 2986,
      "ĠJune": 2987,
      "ÐºÐ°Ð»ÑĮÐ¿ÐµÑĢ": 2988,
      "gest": 2989,
      "ĠBr": 2990,
      "velop": 2991,
      "we": 2992,
      "Ð°ÑģÑĤ": 2993,
      "ÑĤÐ¾Ð": 2994,
      "Ð»Ñģ": 2995,
      "Ð¿Ð¾Ð½ÑıÐ»": 2996,
      "ĠÐ½Ð°Ð¿": 2997,
      "Ð¸Ð½ÐºÐ°": 2998,
      "ÐĿÐķ": 2999,
      "ĠOil": 3000,
      "Ġearly": 3001,
      "Ð½ÑĮ": 3002,
      "alyst": 3003,
      "ĠÐĿÑĥÑĤ": 3004,
      "Ġ093": 3005,
      "CLT": 3006,
      "Ġcurr": 3007,
      "ÐĺÐ½": 3008,
      "ÑĨÑĥ": 3009,
      "ĠPower": 3010,
      "ÐĴÐŀÐĿ": 3011,
      "Ġwork": 3012,
      "Ġmonths": 3013,
      "ange": 3014,
      "ĠGlobal": 3015,
      "ĠLife": 3016,
      "ÐºÐ¾ÑĢÐ¾ÑĩÐµ": 3017,
      "ĳÑĢÐ°ÑĤ": 3018,
      "Ġvacc": 3019,
      "ĠÐ´ÐµÐ»Ðµ": 3020,
      "ÐºÑĥÐ¿Ð°Ñİ": 3021,
      "ÑĢÐ¸Ð¿ÑĤÐ¾Ð": 3022,
      "ÑĢÐ¸Ð¿ÑĤÐ¾ÐĳÑĢÐ°ÑĤ": 3023,
      "Ġraises": 3024,
      "aid": 3025,
      "ision": 3026,
      "ĠÐĶÐ»Ñı": 3027,
      "ics": 3028,
      "ÐµÐ´Ñĥ": 3029,
      "Ġ32": 3030,
      "Ġ37": 3031,
      "umer": 3032,
      "ÐĶÐµÐ²": 3033,
      "Ð¸Ð¹Ðĳ": 3034,
      "Ð¸Ð¹ÐĳÐ¾Ð±": 3035,
      "itch": 3036,
      "Ð»ÐµÐ½Ð°": 3037,
      "Ġlaunches": 3038,
      "Ð³Ð¾Ð´Ñĭ": 3039,
      "ners": 3040,
      "ĠÐ¿ÑĢÐ¾Ñģ": 3041,
      "Ġfar": 3042,
      "Ð±ÐµÑĢ": 3043,
      "ÐĺÐĴ": 3044,
      "Ġ47": 3045,
      "ĠKotak": 3046,
      "Ġslips": 3047,
      "ÑģÐ¾Ð³Ð»Ð°ÑģÐµÐ½": 3048,
      "Ġtech": 3049,
      "ĠMin": 3050,
      "Ð¼Ð´Ð°": 3051,
      "onal": 3052,
      "Ð²Ð°ÐµÑĤ": 3053,
      "ĠÐ½Ð¾ÑĢÐ¼Ð°Ð»ÑĮ": 3054,
      "ĠÐŁÐŀÐĹÐĿÐĲÐļÐŀÐľ": 3055,
      "Ġacquis": 3056,
      "ĠKorea": 3057,
      "put": 3058,
      "Ġturn": 3059,
      "Ġmet": 3060,
      "ĠÐ¿ÑĢÐ¸ÐµÐ´Ñĥ": 3061,
      "ÐĶÐµÐ²ÑĥÑĪÐºÐ°": 3062,
      "ĠMSME": 3063,
      "Ġ?.": 3064,
      "ĠÐ¼Ð°Ð»ÑĮ": 3065,
      "ild": 3066,
      "ĠPM": 3067,
      "ÑĤÐ¸Ðº": 3068,
      "ÑħÐ·": 3069,
      "Ġ200": 3070,
      "ĠÐ³Ð¾Ð»": 3071,
      "Ġenergy": 3072,
      "Ġnorms": 3073,
      "oy": 3074,
      "Ġdue": 3075,
      "ĠCap": 3076,
      "ÑĤÐ¾ÑĢÐ°Ñı": 3077,
      "ears": 3078,
      "Ġev": 3079,
      "ĠApril": 3080,
      "back": 3081,
      "Ġprov": 3082,
      "ĠÐ¥ÐŀÐ§": 3083,
      "Ġfinancial": 3084,
      "Ġsensex": 3085,
      "Ġdisc": 3086,
      "Ð¾Ð³Ñĥ": 3087,
      "King": 3088,
      "Ð±ÑĥÐ´": 3089,
      "ĠÐºÑĢÐ°ÑģÐ¸Ð²ÑĥÑİ": 3090,
      "Ġtimes": 3091,
      "ÑĥÑĪÐºÐ°": 3092,
      "ased": 3093,
      "Ð¸ÑħÐ¸Ð¹ÐļÐ¸ÑĤ": 3094,
      "Ð¾ÑĢÑĤKing": 3095,
      "Ġtak": 3096,
      "ĠAl": 3097,
      "olog": 3098,
      "Ð¸Ð½Ð¾": 3099,
      "Ð»ÑĥÐ¿": 3100,
      "Ġfac": 3101,
      "ĠRaj": 3102,
      "Ð¡Ð¸Ð¼Ð¿": 3103,
      "ateg": 3104,
      "ÑĢÑİÐ½ÐµÑĤ": 3105,
      "Ġhikes": 3106,
      "76": 3107,
      "ĠÐ½ÐµÐ³Ð°ÑĤÐ¸Ð²Ð½ÑĭÐµ": 3108,
      "Ġchar": 3109,
      "ĠCo": 3110,
      "ĠÐµÐ³Ð¾": 3111,
      "Ġvol": 3112,
      "Ð¨ÐĲ": 3113,
      "ÐĺÐ©Ð£": 3114,
      "ÑĥÐ±": 3115,
      "Ð¼Ð½Ðµ": 3116,
      "Ġtal": 3117,
      "ening": 3118,
      "ĠÐ¡ÐĲ": 3119,
      "ÐľÐ°ÑĪÐ¸Ð½Ð°": 3120,
      "Ð¶ÐµÑģÑĤÑĮ": 3121,
      "Ġrepo": 3122,
      "Ġslow": 3123,
      "ĠÐµÑīÐµ": 3124,
      "Ġworth": 3125,
      "ims": 3126,
      "Ġ2018": 3127,
      "ĠÑĢÐµÐ±ÑĳÐ½": 3128,
      "Ġca": 3129,
      "ific": 3130,
      "Ġreturn": 3131,
      "ÑĭÑĩÐ¸Ð¹ÐĳÐ¾Ð±": 3132,
      "Ġlast": 3133,
      "ĠGM": 3134,
      "ÑģÐ¾Ð²Ð¸Ðº": 3135,
      "Ð»Ð°Ð´Ð½Ð¾Ðº": 3136,
      "Ð¸Ð¿ÑģÐ¾Ð²Ð¸Ðº": 3137,
      "Ð»Ð°Ð´Ð½Ð¾ÐºÑĢÐ¾Ð²": 3138,
      "ÑģÐ²": 3139,
      "ÐµÐ¢": 3140,
      "ÐĿÐŀ": 3141,
      "ĠÐĴÐ¡Ð¢ÐłÐķÐ§": 3142,
      "Ġoper": 3143,
      "Ð»Ð°Ð´Ð½Ð¾ÐºÑĢÐ¾Ð²Ð½ÑĭÐ¹": 3144,
      "esp": 3145,
      "ÐŁÐŀÐĹ": 3146,
      "ters": 3147,
      "ĠWipro": 3148,
      "ĠÐ°Ð´Ð¼": 3149,
      "Ð¸Ð½ÑĤÐµÑĢÐµÑģÐ½Ð¾": 3150,
      "ait": 3151,
      "Ð¾ÑĦÐµÐ¢": 3152,
      "Ð½Ð¾Ð¹Ð¢ÑĢÐµÐ¹Ð´ÐµÑĢ": 3153,
      "Ġ2020": 3154,
      "Ð»ÐµÐºÑģ": 3155,
      "Ð¾ÑĦÐµÐ¢ÑĢÐµÐ¹Ð´ÐµÑĢ": 3156,
      "Ð¶ÐµÐ²": 3157,
      "Ġnod": 3158,
      "ĠÑħÑĥÐ´": 3159,
      "ime": 3160,
      "Ġ55": 3161,
      "Ġ%.": 3162,
      "Ġinfrastructure": 3163,
      "ÐŁÐ¾Ð·Ð½Ð°Ðº": 3164,
      "ÐºÑģÑĤÐ°ÑĤÐ¸": 3165,
      "ÑĩÐµÑģÑĤÐ½Ð¾": 3166,
      "itt": 3167,
      "ÐµÑħÐ°ÑĤÑĮ": 3168,
      "Ġgu": 3169,
      "ÑĥÐ½Ð´Ð°Ð¼ÐµÐ½ÑĤÐ°Ð»": 3170,
      "ĠÐĴÐ°": 3171,
      "ÐĶÐķÐĴ": 3172,
      "oday": 3173,
      "Ð¸ÐºÑĳÑĢ": 3174,
      "olvency": 3175,
      "EC": 3176,
      "Wh": 3177,
      "rol": 3178,
      "ĠAuto": 3179,
      "ĠJan": 3180,
      "Ð°Ð±ÑĥÑĪÐºÐ°": 3181,
      "Ð¿ÑĢÐ¸ÑĩÐµÐ¼": 3182,
      "ĠProfit": 3183,
      "ĠÐŀÐĳÐ©": 3184,
      "ential": 3185,
      "reen": 3186,
      "Ġcoun": 3187,
      "erve": 3188,
      "ĠÐºÑĢÐ¸Ð·Ð¸Ñģ": 3189,
      "Ġsec": 3190,
      "Ð¡Ð¿": 3191,
      "ĠGovt": 3192,
      "ĠÐºÐ¾ÑĤÐ¾ÑĢÐ°Ñı": 3193,
      "ÐŀÐĶ": 3194,
      "Ġdoub": 3195,
      "Ð´ÐµÐ²ÑĥÑĪÐºÐ¸": 3196,
      "eg": 3197,
      "uro": 3198,
      "ÐµÐ»Ð¸": 3199,
      "ÐºÐ¾Ð³Ð¾": 3200,
      "Ð±Ð»Ð¸Ð½": 3201,
      "ept": 3202,
      "ÐµÑģÐ¿ÐµÑĩ": 3203,
      "Ġ500": 3204,
      "ights": 3205,
      "à¥Ģ": 3206,
      "-)": 3207,
      "ral": 3208,
      "Ð½ÑĨ": 3209,
      "Ð¸Ð²Ð°Ñı": 3210,
      "Ġrisk": 3211,
      "ĠÑģÑĤÐ°ÑĢ": 3212,
      "Ġseeks": 3213,
      "ÑģÐ¸Ð¼Ð¿": 3214,
      "ĠCons": 3215,
      "Ġbanking": 3216,
      "ĠÑĩÐ°ÑĤÐµ": 3217,
      "ÐĺÐ½Ð²ÐµÑģÑĤ": 3218,
      "Ð°Ð±ÑĥÑĪÐºÐ°ÐĺÐ½Ð²ÐµÑģÑĤ": 3219,
      "af": 3220,
      "ÑĥÑĩ": 3221,
      "Ð»Ð¸Ð·": 3222,
      "ĠÑĤÐµÐ¿": 3223,
      "ĠÑĥÑĤÐµÑĩÐºÐ°": 3224,
      "ĠÐ¿ÑĢÐ¸ÐµÐ´ÐµÑĤ": 3225,
      "ĠÑįÐº": 3226,
      "ike": 3227,
      "Ð½Ð°Ð»Ð¸ÑĤÐ¸Ðº": 3228,
      "Ġhome": 3229,
      "Ġcapital": 3230,
      "roker": 3231,
      "SBI": 3232,
      "Ð¸Ð½Ñĭ": 3233,
      "ĠPS": 3234,
      "ĠÐ¿ÑĢÐ¾ÑģÑĤÐ¸": 3235,
      "Ġbonds": 3236,
      "alysts": 3237,
      "ĠÐ¢Ð«": 3238,
      "\\\\": 3239,
      "ÑĢÐ¾Ð·": 3240,
      "ĠCent": 3241,
      "Ġstat": 3242,
      "Ġ03": 3243,
      "ÐĽÐ¾Ñģ": 3244,
      "Ġplay": 3245,
      "Ð§ÐĲÐ¡": 3246,
      "ÐķÐĻÐ§ÐĲÐ¡": 3247,
      "Ð¶ÐµÐ²Ð¸Ðº": 3248,
      "ÐĽÐ¾ÑģÑģÐµÑĢ": 3249,
      "ger": 3250,
      "Ġsin": 3251,
      "ĠUnion": 3252,
      "Ð¸ÑĢÐ¶ÐµÐ²Ð¸Ðº": 3253,
      "ĠÐĺÐ©ÐķÐ¢": 3254,
      "NG": 3255,
      "Ġfiles": 3256,
      "Ġbps": 3257,
      "ĠHind": 3258,
      "Ġconcer": 3259,
      "ĠInter": 3260,
      "ÐĺÐ¢Ð¡Ð¯": 3261,
      "Ġissues": 3262,
      "ÐŁÐł": 3263,
      "ÑĥÐ¶Ñĩ": 3264,
      "ĠÐĳÑįÐºÑĤÐµÑģÑĤ": 3265,
      "Ġz": 3266,
      "ÑĩÐ¸ÐºÐ°": 3267,
      "Ð¿ÑĢÐ¾Ð": 3268,
      "Ġcall": 3269,
      "Ð¾ÑĩÐ½Ð¾Ð¹Ð¢ÑĢÐµÐ¹Ð´ÐµÑĢ": 3270,
      "ĠFund": 3271,
      "ÑĢÐ¾Ð¼Ð°Ð½": 3272,
      "ĠÐ¿Ð¾Ð¼ÐµÑħÐ°": 3273,
      "ÐĲÐĿ": 3274,
      "ĠFPI": 3275,
      "à¤Ĥ": 3276,
      "ĠÐ³Ð¾ÑĢÐ¾Ð´Ñĥ": 3277,
      "Ð½Ñİ": 3278,
      "Ġdigital": 3279,
      "ĠToday": 3280,
      "Ġrecovery": 3281,
      "ÐĲÐĻ": 3282,
      "Ð½Ð¸ÑĨÑĥ": 3283,
      "ĠDas": 3284,
      "Ġregul": 3285,
      "ork": 3286,
      "ession": 3287,
      "Ġkeep": 3288,
      "Ð¯ÐĶ": 3289,
      "Ġprom": 3290,
      "27": 3291,
      "Ġpc": 3292,
      "Ð°Ð½Ð¸ÐºÑĳÑĢ": 3293,
      "ĠNPA": 3294,
      "ĠNorth": 3295,
      "ĠPAT": 3296,
      "ĠÐľÐ£Ðĸ": 3297,
      "ĠÑģÐ°Ð¼Ð°": 3298,
      "Ġsupply": 3299,
      "ĠÑģÐµÐ¼ÑĮÐ¸": 3300,
      "ĠÐĿÑĥÑĤÑĢÐ¾Ð¼": 3301,
      "Ð´Ð°Ð½": 3302,
      "Ð¿Ð¾": 3303,
      "ecom": 3304,
      "ĠÐ¡ÐķÐĻÐ§ÐĲÐ¡": 3305,
      "irm": 3306,
      "ĠGST": 3307,
      "ĠDollar": 3308,
      "Ġpriv": 3309,
      "ĠÐ¸Ð½ÑĤÐµ": 3310,
      "Ġcompany": 3311,
      "Ġdebt": 3312,
      "nolog": 3313,
      "Ġknow": 3314,
      "ious": 3315,
      "espite": 3316,
      "ĠÑģÑĤÐ°ÑĢÑĪÐµ": 3317,
      "VE": 3318,
      "Ġ/": 3319,
      "Ġshort": 3320,
      "ĠÑħÐ¾ÑĢÐ¾ÑĪÐµÐ¹": 3321,
      "ixed": 3322,
      "Ġelectric": 3323,
      "Ġsubscribed": 3324,
      "conom": 3325,
      "ÐŀÐ¨": 3326,
      "ÑįÑĪÐľÐ°ÑĪÐ¸Ð½Ð°": 3327,
      "ĠGMP": 3328,
      "75": 3329,
      "ont": 3330,
      "Ġcra": 3331,
      "Ġbad": 3332,
      "ĠÐºÐ²Ð°ÑĢÑĤÐ¸": 3333,
      "ĠET": 3334,
      "Ġadv": 3335,
      "ĠÐ»ÑİÐ±Ð¾Ð²Ð½Ð¸ÐºÐ°": 3336,
      "ÐŁÑĢÐ¸Ð²ÐµÑĤ": 3337,
      "ha": 3338,
      "ÑĭÑħ": 3339,
      "Ġ52": 3340,
      "ley": 3341,
      "Ġdepos": 3342,
      "ĠÐºÐ¾Ð¼Ð¿": 3343,
      "ĠÑģÐ¼ÐµÐ»": 3344,
      "ĠÑĢÐ¾Ð¼Ð°Ð½": 3345,
      "Ġpap": 3346,
      "ĠÐŀÐĶ": 3347,
      "rade": 3348,
      "Ġpositive": 3349,
      "%.": 3350,
      "32": 3351,
      "44": 3352,
      "Ð°Ð·": 3353,
      "Ġ65": 3354,
      "Ġchief": 3355,
      "ĠÐ¿ÑĢÐ¸ÑıÑĤÐ½ÑĭÑħ": 3356,
      "Ġ++.": 3357,
      "ÐµÑĨ": 3358,
      "ĠÐ´Ð°Ð¼Ð°": 3359,
      "ÐŁÑĢÐ¾Ð": 3360,
      "ider": 3361,
      "ĠÐĲÐ³Ð°": 3362,
      "Ġ75": 3363,
      "Ġrun": 3364,
      "ĠÐľÐ¾Ñı": 3365,
      "ĠDay": 3366,
      "Ġcompl": 3367,
      "ĠÐ´ÐµÐ²Ð¾ÑĩÐºÐ°": 3368,
      "Ġboard": 3369,
      "ĠGovernor": 3370,
      "ÐķÐĿÐĺÐ¯": 3371,
      "Ð¸Ð°": 3372,
      "ĠÐ´ÐµÑĤ": 3373,
      "Ġone": 3374,
      "ÐµÑģÐ½ÑĭÐµ": 3375,
      "Ġ096": 3376,
      "ĠÐ°Ð³Ð°": 3377,
      "Ġmargin": 3378,
      "ĠÐ¸Ð½ÑĤÐµÐµÑģÐ½ÑĭÐµ": 3379,
      "Ġdecl": 3380,
      "ÑĤÐ¸Ð²": 3381,
      "Ġband": 3382,
      "ĠMD": 3383,
      "ÐĿÐ¾ÑĢÐ¼": 3384,
      "Ġnearly": 3385,
      "ĠÐĸÐķÐĿÐ©": 3386,
      "ery": 3387,
      "Ġfuel": 3388,
      "ĠÐ¿Ð¾Ð·Ð²Ð¾Ð½": 3389,
      "Ġyour": 3390,
      "Ð¸ÑĪÐ¸": 3391,
      "Ġcontinue": 3392,
      "ÑĶ": 3393,
      "Ð´Ð¼Ð¸Ð½": 3394,
      "Ġpower": 3395,
      "Ġbu": 3396,
      "ĠAI": 3397,
      "ator": 3398,
      "Ð´ÐµÐ²ÑĥÑĪÐºÐ°": 3399,
      "Ġorder": 3400,
      "ĠÐ¾ÑĤÐ·": 3401,
      "ÐµÐ»Ð¾Ð²": 3402,
      "Ġeff": 3403,
      "Ġ2024": 3404,
      "ĠÐ´Ð°Ð²Ð°Ð¹ÑĤÐµ": 3405,
      "ĠÐ¿ÑĢÐ¾Ð²Ð°Ð»ÑĮÐ½ÑĭÐ¹": 3406,
      "Ð°Ð½Ð´": 3407,
      "ÐĿÐ£Ð®": 3408,
      "ÐŁÐŀÐł": 3409,
      "ire": 3410,
      "ÐĴÑĭ": 3411,
      "Ð´Ð°ÐµÑĤ": 3412,
      "Ġmonetary": 3413,
      "à¥į": 3414,
      "struction": 3415,
      "Ð½ÑĭÐ¼Ð¸": 3416,
      "Ġworld": 3417,
      "ĠÐ»ÑİÐ±Ð¾Ð²ÑĮ": 3418,
      "Ġrules": 3419,
      "Ġacquisition": 3420,
      "ÑĥÐ¶ÑĩÐ¸Ð½Ð°": 3421,
      "UL": 3422,
      "ea": 3423,
      "Ð»Ð°ÑģÑĮ": 3424,
      "use": 3425,
      "ĠÐĺÑīÑİ": 3426,
      "Ġrising": 3427,
      "US": 3428,
      "ĠIs": 3429,
      "Ð¾Ð»Ð¾Ð´": 3430,
      "Ġsett": 3431,
      "ĠLIVE": 3432,
      "ĠÐ¡ÐĲÐľÐĲ": 3433,
      "fore": 3434,
      "ĠSing": 3435,
      "ÐºÑĥÑİ": 3436,
      "Ð°Ð»ÑĮÐ½Ð°Ñı": 3437,
      "Ġshow": 3438,
      "ĠMoto": 3439,
      "Tata": 3440,
      "cess": 3441,
      "ĠÐ¾Ð½": 3442,
      "Ġsmall": 3443,
      "orrow": 3444,
      "Ġhop": 3445,
      "Ġbefore": 3446,
      "Ġrest": 3447,
      "Ġ31": 3448,
      "thers": 3449,
      "ĠHero": 3450,
      "Ġjob": 3451,
      "anged": 3452,
      "cap": 3453,
      "Ġduring": 3454,
      "Ġmost": 3455,
      "ecast": 3456,
      "ĠÑĩÐµÐ»Ð¾Ð²": 3457,
      "ÐķÐĳ": 3458,
      "ĠÐĹÐ°Ð¿Ð¾ÑĢÐ¾Ð¶ÑĮÐµ": 3459,
      "ĠWill": 3460,
      "ipo": 3461,
      "ublic": 3462,
      "ĠÐ¼ÑĥÐ¶Ð°": 3463,
      "ĠÐ½Ð¾ÑĩÐ½Ð¾Ð³Ð¾": 3464,
      "Ġcapex": 3465,
      "ĠÐŁÐĲÐłÐķÐĿÐ¬": 3466,
      "ÐĲÐ®": 3467,
      "ĠPric": 3468,
      "ĠÐ¿Ð¾Ð´ÑĤÐ²ÐµÑĢÐ¶Ð´Ð°ÐµÑĤ": 3469,
      "Markets": 3470,
      "ÐºÑĢÐ°ÑģÐ¸Ð²": 3471,
      "ÐµÑģÐ¿ÐµÑĩÐµÐ½": 3472,
      "ÑĬ": 3473,
      "Ð¿ÑĢÐ¸Ð²ÐµÑĤ": 3474,
      "ĠBharat": 3475,
      "ĠÐ¾Ð¿ÑĭÑĤ": 3476,
      "ÑĮÐµÐ·Ð½ÑĭÑħ": 3477,
      "onald": 3478,
      "ĠMan": 3479,
      "urs": 3480,
      "ÐµÐ·Ð²Ð¾Ð½Ñİ": 3481,
      "ĠÐĹÐ²ÑĳÐ·Ð´Ñĭ": 3482,
      "Ġ68": 3483,
      "ÑĪÐµÐ»": 3484,
      "ÐµÐ½Ð¸": 3485,
      "Ġhead": 3486,
      "Ġpropos": 3487,
      "Ġ2019": 3488,
      "loy": 3489,
      "ĠÑģÐ¸Ð¼Ð¿Ð°ÑĤÐ¸Ñĩ": 3490,
      "ĠÐºÐµÐºÑģ": 3491,
      "ĠBharti": 3492,
      "Ġdays": 3493,
      "ĠÐ¿Ð¾ÐºÐ°ÑĤÐ°": 3494,
      "onduct": 3495,
      "ĠShould": 3496,
      "emiconduct": 3497,
      "Ġdrive": 3498,
      "ystem": 3499,
      "ĠÐ½Ð¸": 3500,
      "arn": 3501,
      "ĠÐ¼Ð½Ð¾Ð¹": 3502,
      "ĠMPC": 3503,
      "ident": 3504,
      "ÑĢÐ¾Ð²Ð°": 3505,
      "Ġ2021": 3506,
      "ĠÐ½Ð¾ÑĩÐ¸": 3507,
      "ĠÐ¥Ð¾ÑĢÐ¾ÑĪÐ¾": 3508,
      "066": 3509,
      "Ġsince": 3510,
      "ÑıÐ´": 3511,
      "Ð¿Ð¸ÑĪÐ¸ÑĤÐµ": 3512,
      "Ġcross": 3513,
      "Ġbid": 3514,
      "ĠÐ»Ð¾Ðº": 3515,
      "Ġforecast": 3516,
      "ÐµÐ´Ð°Ñİ": 3517,
      "ÐµÐ´ÑĢÑĭ": 3518,
      "Ġ39": 3519,
      "ĠÑħÐ¾ÑĢÐ¾ÑĪÐ¾": 3520,
      "ĠEnergy": 3521,
      "bs": 3522,
      "Ġgold": 3523,
      "Ġthings": 3524,
      "Ġexper": 3525,
      "orporate": 3526,
      "oms": 3527,
      "ands": 3528,
      "ĠCapital": 3529,
      "Bank": 3530,
      "PEC": 3531,
      "Ġ)": 3532,
      "ĠÐºÐ¾Ð³Ð´Ð°": 3533,
      "ÐķÑģÑĤÑĮ": 3534,
      "ĠMor": 3535,
      "aman": 3536,
      "ĠÐ¼ÑĥÐ¶ÑĩÐ¸Ð½Ð°": 3537,
      "gs": 3538,
      "ÐŃ": 3539,
      "ÑĩÐ¸Ðº": 3540,
      "ited": 3541,
      "Ð±Ð¸": 3542,
      "ĠSp": 3543,
      "ĠServices": 3544,
      "ĠRuss": 3545,
      "Ġà¤ķ": 3546,
      "Ġhealthcare": 3547,
      "Ġroad": 3548,
      "rum": 3549,
      "ÐµÑİ": 3550,
      "ised": 3551,
      "ĠÐĿÐ¾ÑĢÐ¼": 3552,
      "ĠCoronavirus": 3553,
      "Ġhighs": 3554,
      "ÑĥÐ¹ÑģÑĤÐ°": 3555,
      "ĠDecember": 3556,
      "ĠÐ¼Ð°ÑĪ": 3557,
      "rough": 3558,
      "ĠCan": 3559,
      "ĠGu": 3560,
      "Ġ2017": 3561,
      "Ġdevelop": 3562,
      "Ġmoney": 3563,
      "Ġsoon": 3564,
      "Ð¢Ðł": 3565,
      "ÐľÐ£Ðĸ": 3566,
      "ĠEconom": 3567,
      "ĠSa": 3568,
      "Ð¾ÑĤÐ¸Ñĩ": 3569,
      "Ġreports": 3570,
      "Ġfut": 3571,
      "ĠÐ¿ÑĢÐ¾Ð²": 3572,
      "ĠCement": 3573,
      "ĠPat": 3574,
      "ift": 3575,
      "ĠJul": 3576,
      "Ġbiggest": 3577,
      "Ġed": 3578,
      "orts": 3579,
      "ĠRed": 3580,
      "ible": 3581,
      "ĠÐ´ÐµÐ²ÑĩÑĳÐ½": 3582,
      "Ġipo": 3583,
      "Ð¢ÐķÐł": 3584,
      "Ġdespite": 3585,
      "ÐĲÐĶ": 3586,
      "ĠMay": 3587,
      "idend": 3588,
      "Ð°ÑĤÐ°ÑĪÐ°": 3589,
      "vers": 3590,
      "ĠÐ½Ñĸ": 3591,
      "ÐµÐ½ÐºÐ¸": 3592,
      "ĠÐ¿Ð¾Ñı": 3593,
      "els": 3594,
      "Ġ85": 3595,
      "ÐĺÐ¢Ðķ": 3596,
      "Ġsupport": 3597,
      "eign": 3598,
      "gan": 3599,
      "ara": 3600,
      "ÐłÐ¾ÑģÑĤ": 3601,
      "Ġpress": 3602,
      "Ġeyes": 3603,
      "Ġvaccine": 3604,
      "enew": 3605,
      "Ġben": 3606,
      "Ð¾ÑĤÐ½": 3607,
      "ĠÐĲÐ»Ð¸Ð½Ð°": 3608,
      "ÐłÐĲÐ¡": 3609,
      "ĠOct": 3610,
      "Ġclim": 3611,
      "Ġsurges": 3612,
      "ĠÐ½ÑĥÐ¶Ð½Ð°": 3613,
      "Ġinsolvency": 3614,
      "Ð²ÐµÐ·Ñĥ": 3615,
      "ĠÐ¼Ð°Ð»ÑĮÑĩÐ¸ÐºÐ°": 3616,
      "her": 3617,
      "ÑĦÐ¾Ð½": 3618,
      "akt": 3619,
      "ÐĽÐ¡": 3620,
      "Ġ60": 3621,
      "Ġgainers": 3622,
      "ÐĺÐľÐŁ": 3623,
      "Ġ44": 3624,
      "ose": 3625,
      "ÐºÐ¾Ð¼Ñĥ": 3626,
      "Ġasks": 3627,
      "ĠÑģÐ²Ð¾Ð¸": 3628,
      "ĠOn": 3629,
      "ĠÐ²Ð¾": 3630,
      "ĠAug": 3631,
      "ĠÑħÐ¾ÑĤ": 3632,
      "ĠEl": 3633,
      "ĠÑĪÑĤÑĢÐ°ÑĦ": 3634,
      "ĠÑĢÐµÐ±ÑĳÐ½Ð¾Ðº": 3635,
      "Ġrating": 3636,
      "ÐĲÐ½": 3637,
      "ĠÐĲÐ½": 3638,
      "erves": 3639,
      "ousing": 3640,
      "Ġstatus": 3641,
      "59": 3642,
      "ploy": 3643,
      "uce": 3644,
      "Ġif": 3645,
      "ĠÐ²Ð°": 3646,
      "ats": 3647,
      "Ġbn": 3648,
      "Ð¾Ð²ÑĮ": 3649,
      "urther": 3650,
      "Ġsteel": 3651,
      "ĠFeb": 3652,
      "ikanta": 3653,
      "ĠOp": 3654,
      "ĠAsia": 3655,
      "airman": 3656,
      "Ġannounces": 3657,
      "aktikanta": 3658,
      "NB": 3659,
      "cy": 3660,
      "Ð³Ð¾ÑĢ": 3661,
      "ÐµÑĤÑĮ": 3662,
      "Ġ78": 3663,
      "Ġsale": 3664,
      "Ġvehicle": 3665,
      "Ð¢ÐķÐłÐķÐ¡": 3666,
      "pect": 3667,
      "ÐµÑģÑĤÐ¸": 3668,
      "Ð¸ÑģÑĤ": 3669,
      "ĠÐ½ÐµÐ¶": 3670,
      "erce": 3671,
      "Ġmod": 3672,
      "olid": 3673,
      "olution": 3674,
      "ĠFor": 3675,
      "ĠÐĸÐµÐ½Ñī": 3676,
      "Ġunl": 3677,
      "umbai": 3678,
      "NGC": 3679,
      "Ch": 3680,
      "ÑĤÐ¾Ð±": 3681,
      "ĠMF": 3682,
      "ĠInvest": 3683,
      "Ġimprov": 3684,
      "ling": 3685,
      "ĠHUL": 3686,
      "ains": 3687,
      "Ġinsurance": 3688,
      "Gold": 3689,
      "RA": 3690,
      "rup": 3691,
      "ÑĭÐ¿": 3692,
      "Ġdirect": 3693,
      "ÐµÐ»Ð°": 3694,
      "Ġthree": 3695,
      "ĠSur": 3696,
      "ĠÑĤÐµÐ»Ðµ": 3697,
      "ĠÑģÐ²Ð¾Ñİ": 3698,
      "ĠÐ¿Ð¾ÑıÐ²Ð»ÐµÐ½Ð¸Ðµ": 3699,
      "Corp": 3700,
      "Ġ150": 3701,
      "Ð»Ð°ÑģÐº": 3702,
      "ĠÐ¿ÐµÑĢÐµÐ·Ð²Ð¾Ð½Ñİ": 3703,
      "ĠÐ²ÑģÑĤÑĢÐµÑĤ": 3704,
      "Ġstrateg": 3705,
      "Stocks": 3706,
      "Ġclose": 3707,
      "ĠHealthcare": 3708,
      "Ġfurther": 3709,
      "osp": 3710,
      "ĠÐ¿Ð¾Ð¶Ð°Ð»ÑĥÐ¹ÑģÑĤÐ°": 3711,
      "DA": 3712,
      "ÑĭÐ¼": 3713,
      "ĠSept": 3714,
      "ĠÐ³ÑĢÐ°": 3715,
      "ĠâĢ¦++": 3716,
      "app": 3717,
      "ĠÐ¾Ð´Ð½Ð°": 3718,
      "ĠÐ´ÑĢÑĥÐ¶": 3719,
      "ĠEnter": 3720,
      "Inf": 3721,
      "ways": 3722,
      "Ġpar": 3723,
      "ĠÐ±ÑĢÑİÐ½ÐµÑĤ": 3724,
      "Ð°ÑĤÑı": 3725,
      "ÐĿÐµÐ³Ð°ÑĤÐ¸Ð²Ð½ÑĭÐµ": 3726,
      "ade": 3727,
      "Ð¸ÑĩÐ½ÑĭÐ¹": 3728,
      "Ð§ÐĺÐĿ": 3729,
      "ÐĺÐ¢Ð¬": 3730,
      "ĠÐºÐ¾ÑĤÐ¾ÑĢÑĭÐ¹": 3731,
      "Ġdrops": 3732,
      "ÐŁÐŀÐłÐŀÐĸ": 3733,
      "emiconductor": 3734,
      "iti": 3735,
      "ithar": 3736,
      "Ð¢ÐĲ": 3737,
      "ÐķÐ¡Ð¢": 3738,
      "icial": 3739,
      "ĠMo": 3740,
      "Ð¸Ð¼Ð°": 3741,
      "ÐŀÐĵ": 3742,
      "ĠNCLT": 3743,
      "ÐĽÑİÐ±": 3744,
      "Ġ097": 3745,
      "oody": 3746,
      "Ġposts": 3747,
      "ĠÐŀÐĶÐĺÐĿ": 3748,
      "itharaman": 3749,
      "Reliance": 3750,
      "ĠÑģÐ¾Ð¿": 3751,
      "Ġservices": 3752,
      "Ð¾Ð¶Ðµ": 3753,
      "Ð½Ð¸Ðº": 3754,
      "Ġsecond": 3755,
      "eed": 3756,
      "ior": 3757,
      "Ð¼ÐµÑģÑĤ": 3758,
      "ala": 3759,
      "Ġpan": 3760,
      "Ġstead": 3761,
      "ÐķÐ§": 3762,
      "....": 3763,
      "aints": 3764,
      "Ġups": 3765,
      "ĠÑģÐ»Ð°Ð´": 3766,
      "ĠÐ½ÐµÑģÐµÑĢ": 3767,
      "36": 3768,
      "Covid": 3769,
      "Ġcovid": 3770,
      "Ġlim": 3771,
      "raud": 3772,
      "ÐµÐ½ÑĮÐºÐ°Ñı": 3773,
      "Ġ76": 3774,
      "ĠÐ½ÑĥÐ¶ÐµÐ½": 3775,
      "ĠÑģÑĤÑĢÐ¾Ð¹Ð½ÑĥÑİ": 3776,
      "Ġtalks": 3777,
      "Ġide": 3778,
      "ism": 3779,
      "ÐµÐºÑĢÐ°Ñģ": 3780,
      "ĠÐ¸Ð½ÑĤ": 3781,
      "ĠÐ¿ÑĢÑı": 3782,
      "Ġallot": 3783,
      "ĠÐ²Ð¾Ð·ÑĢÐ°ÑģÑĤ": 3784,
      "ĠMotoCorp": 3785,
      "eas": 3786,
      "fact": 3787,
      "hip": 3788,
      "ĠÐ´Ð»Ð¸Ð½": 3789,
      "ĠÐŁÐŀ": 3790,
      "Ġaw": 3791,
      "ĠÐĶÐµÐ²ÑĥÑĪ": 3792,
      "ĠNov": 3793,
      "umar": 3794,
      "Ġestim": 3795,
      "ĠAmb": 3796,
      "ĠÐ½Ð¾ÑĢÐ¼Ð°Ð»ÑĮÐ½ÑĥÑİ": 3797,
      "ĠJuly": 3798,
      "ries": 3799,
      "Ð½Ð¾Ð²": 3800,
      "Ġcues": 3801,
      "ĠOPEC": 3802,
      "Ġ93": 3803,
      "ĠPSU": 3804,
      "ests": 3805,
      "ĠÐºÐ¾Ð³Ð¾": 3806,
      "ari": 3807,
      "ÐĲÐķÐ¢": 3808,
      "Ġwin": 3809,
      "ĠÐ¿ÑĢÐµÐºÑĢÐ°Ñģ": 3810,
      "Ġyield": 3811,
      "Ġreserves": 3812,
      "Ġvolat": 3813,
      "ÐŁÐŀÐłÐŀÐĸÐ¬": 3814,
      "15": 3815,
      "dy": 3816,
      "ĠÐ¿Ð»Ð¸Ð·": 3817,
      "Ġtest": 3818,
      "ĠÐºÐ¾Ð¼Ñĥ": 3819,
      "Ð½Ð¾Ðµ": 3820,
      "Ġmult": 3821,
      "Ġstep": 3822,
      "ĠÐ¿Ð¾ÑģÑĭÐ¿": 3823,
      "ĠÐ¿Ð¾Ð´ÑģÐºÐ°Ð·Ñĭ": 3824,
      "ĠÑĢÐ°Ð·Ð±ÐµÑĢ": 3825,
      "Ġmeas": 3826,
      "Ð´ÐµÐ»Ð°Ñİ": 3827,
      "ÑĩÐ¸Ð½Ñĭ": 3828,
      "ĠCrude": 3829,
      "ÑĳÐ¼ÑģÑı": 3830,
      "Ġprojects": 3831,
      "Ġscheme": 3832,
      "rokerages": 3833,
      "ĠÐ¿Ð¾ÑģÑĭÐ¿ÐµÑĤÑģÑı": 3834,
      "ĠÐ¿Ð¾Ð´ÑģÐºÐ°Ð·ÑĭÐ²Ð°ÐµÑĤ": 3835,
      "ĠÑĢÐ°Ð·Ð±ÐµÑĢÑĳÐ¼ÑģÑı": 3836,
      "ober": 3837,
      "Ð¸ÑĤÐ°": 3838,
      "ÑĤÐ¾ÑĢÐ½Ð¾": 3839,
      "Ġfood": 3840,
      "ĠÐ»ÐµÐ³": 3841,
      "estic": 3842,
      "ĠÐĲÐĴ": 3843,
      "ending": 3844,
      "ĠShaktikanta": 3845,
      "ĠÐ¾ÑĢÑĳÑĤ": 3846,
      "Ġneeds": 3847,
      "ĠÐ¼ÑĥÑĤÐ¾ÑĢÐ½Ð¾": 3848,
      "Ġallotment": 3849,
      "ĠÑģÐ¾Ð²": 3850,
      "anj": 3851,
      "Ġgroup": 3852,
      "ĠPay": 3853,
      "Ġprob": 3854,
      "Ġincrease": 3855,
      "80": 3856,
      "Ġothers": 3857,
      "Ġthese": 3858,
      "ĠÑĩÑĤÐ¾Ð±": 3859,
      "omp": 3860,
      "ÑĥÐ¶ÑĩÐ¸Ð½Ñĭ": 3861,
      "Ġhighest": 3862,
      "Ġbook": 3863,
      "forms": 3864,
      "ĠÑģÑĤÑĢÐ°ÑģÑĤ": 3865,
      "Ġapproves": 3866,
      "72": 3867,
      "PCL": 3868,
      "ĠSitharaman": 3869,
      "Ġgas": 3870,
      "Ġthrough": 3871,
      "ĠTo": 3872,
      "ĠDonald": 3873,
      "ÐµÑĩÑĥ": 3874,
      "ĠÐķÐ¡Ð¢Ð¬": 3875,
      "ĠÐ½ÐµÑģÐµÑĢÑĮÐµÐ·Ð½ÑĭÑħ": 3876,
      "ĠÐĲÐĴÐ¢Ðŀ": 3877,
      "ÑĥÐºÐ°": 3878,
      "ĠÐ¾ÑģÑĤÐ°Ð²": 3879,
      "ĠÐ´ÐµÑĢ": 3880,
      "ists": 3881,
      "Ġmid": 3882,
      "Ð¡ÐĲ": 3883,
      "ĠÐĴÐ¸ÐºÐ°": 3884,
      "omestic": 3885,
      "ĠDr": 3886,
      "Ġseen": 3887,
      "ÐĶÐµÐ²ÑĥÑĪÐºÐ¸": 3888,
      "611": 3889,
      "ĠÐĸÐµÐ½ÑīÐ¸Ð½Ñĥ": 3890,
      "ÑĢÐ°Ð½": 3891,
      "Ð±Ñĭ": 3892,
      "Ġmaj": 3893,
      "ĠComm": 3894,
      "uty": 3895,
      "Ġforeign": 3896,
      "ĠGo": 3897,
      "ĠÐĽÐµÐ½Ð°": 3898,
      "Ġjo": 3899,
      "Ġchall": 3900,
      "Ġexpected": 3901,
      "ĠÐºÑĢÐ°ÑģÐ¸Ð²ÑĭÐ¹": 3902,
      "ÐŁÐ°ÑĢÐ½Ð¸": 3903,
      "ĠÑĤÐµÐ»ÐµÑĦÐ¾Ð½": 3904,
      "ĠÐ³ÑĢÐ°Ð½Ð¸ÑĨÑĥ": 3905,
      "national": 3906,
      "Ġban": 3907,
      "ĠÑĤÐ¸ÑĩÐ½ÑĭÐ¹": 3908,
      "ĠÐ¼ÑĥÐ¶ÑĩÐ¸Ð½Ñĭ": 3909,
      "ĠÑģÐ¸Ð¼Ð¿Ð°": 3910,
      "Ġstartup": 3911,
      "Ġconcerns": 3912,
      "Ð¦": 3913,
      "ÑĪÐºÐ°": 3914,
      "ĠÐŁÑĢÐ¸": 3915,
      "raine": 3916,
      "Ġ59": 3917,
      "Ġview": 3918,
      "Ġ2023": 3919,
      "ĠÐºÐ¾ÑĤÐ¾ÑĢÑĭÐµ": 3920,
      "ĠÐĺÐ½Ð½Ð°": 3921,
      "cal": 3922,
      "ufact": 3923,
      "ĠÑģÐ¾Ð·": 3924,
      "Ġcoronavirus": 3925,
      "ĠâĢĺ": 3926,
      "ĠRetail": 3927,
      "ĠÐĶÐł": 3928,
      "ÐĶÐķÐĽ": 3929,
      "Ġprem": 3930,
      "ĠÐ¿Ð°ÑĢÐ½Ñİ": 3931,
      "Ġ64": 3932,
      "ĠIns": 3933,
      "Ġcontra": 3934,
      "ÐĿÐ«Ðķ": 3935,
      "Ġmeeting": 3936,
      "Ġaccount": 3937,
      "Ġlisting": 3938,
      "Ġcount": 3939,
      "Ġpapers": 3940,
      "\\\"": 3941,
      "ĠÐ²Ð¾Ð»": 3942,
      "Ġsw": 3943,
      "Ġcy": 3944,
      "ĠÐŁÐ¾Ð·Ð½Ð°ÐºÐ¾Ð¼Ð»ÑİÑģÑĮ": 3945,
      "ĠReal": 3946,
      "ĠÑĤÑĢÑĥ": 3947,
      "ĠAg": 3948,
      "ĠFM": 3949,
      "Ġ300": 3950,
      "ÐļÑĢÐ¸Ð·Ð¸Ñģ": 3951,
      "ectors": 3952,
      "Ġever": 3953,
      "Ġ067": 3954,
      "prises": 3955,
      "Ġcash": 3956,
      "ĠÑħÐ¾ÑĩÐµÑĤÑģÑı": 3957,
      "ÑĥÑģÑĤÐ°": 3958,
      "ĠÐľÐ£ÐĸÐ§ÐĺÐĿ": 3959,
      "Ġfears": 3960,
      "ÐĹÐ°Ð¿Ð¾ÑĢÐ¾Ð¶ÑĮÐµ": 3961,
      "Ġbuyback": 3962,
      "ĠÑĤÐ²Ð¾Ð¹": 3963,
      "enewable": 3964,
      "Ġmov": 3965,
      "Ġmark": 3966,
      "Ġhe": 3967,
      "Ġ484": 3968,
      "ÑĶÑģÑĤ": 3969,
      "ĠÑĩÐµÐ»Ð¾Ð²ÐµÐº": 3970,
      "ĠOctober": 3971,
      "ÐŁÐŀÐłÐŀÐĸÐ¬Ðķ": 3972,
      "49": 3973,
      "ES": 3974,
      "Ð¸ÐºÑĥ": 3975,
      "Ð¸ÐºÐ¸": 3976,
      "ĠÐ¿ÐµÑģ": 3977,
      "road": 3978,
      "Ġgreen": 3979,
      "Ġ400": 3980,
      "Ġplun": 3981,
      "istry": 3982,
      "ĠÐŀÐĳÐ©ÐķÐĿÐĺÐ¯": 3983,
      "ospital": 3984,
      ":-)": 3985,
      "atter": 3986,
      "Ð¢ÐµÐ¹ÐºÐŁÑĢÐ¾ÑĦÐ¸ÑĤ": 3987,
      "Ġcre": 3988,
      "ÐłÑĭÐ½Ð¾ÐºÐĵÑĥÑĢÑĥ": 3989,
      "ĠÑģÐ²ÐµÑĤÐ°": 3990,
      "ĠÐ´ÐµÐ»Ð°ÑĤÑĮ": 3991,
      "Ð°Ð´Ð¼Ð¸Ð½": 3992,
      "ĠÐ²ÐµÑģÐµÐ»": 3993,
      "Ð»ÑİÐ±Ð¾Ð²ÑĮ": 3994,
      "ĠReddy": 3995,
      "Ġfraud": 3996,
      "Ġmove": 3997,
      "icks": 3998,
      "ĠBo": 3999,
      "ĠNo": 4000,
      "ĠÐĲÐ»ÐµÐºÑģ": 4001,
      "Ġ80": 4002,
      "ĠÐ»ÑĥÑĩÑĪ": 4003,
      "ĠÐ¶Ð¸Ð·Ð½ÑĮ": 4004,
      "ĠÐ´ÐµÐ²ÑĩÑĳÐ½ÐºÑĥ": 4005,
      "ner": 4006,
      "oes": 4007,
      "Ð´Ð¸": 4008,
      "Ġcement": 4009,
      "Ġport": 4010,
      "Ġpublic": 4011,
      "ĠÐĿÐ°ÑĤÐ°ÑĪÐ°": 4012,
      "Ð¾Ð½Ñı": 4013,
      "Ġform": 4014,
      "Ð½ÐµÐµ": 4015,
      "à¤ķ": 4016,
      "Ġ69": 4017,
      "Ġ250": 4018,
      "portun": 4019,
      "ĠÑģÐ¸Ð¼Ð¿Ð¾ÑĤÐ¸Ñĩ": 4020,
      "Ð°ÑĤÐ°Ñı": 4021,
      "Ġblock": 4022,
      "ÐµÐ´ÑĢÑĭÐ¹": 4023,
      "16": 4024,
      "ness": 4025,
      "sensex": 4026,
      "Ġpass": 4027,
      "ĠRat": 4028,
      "Ġthreat": 4029,
      "ĠÐĲÐ»": 4030,
      "ĠÐŀÐ»Ñı": 4031,
      "Ġweigh": 4032,
      "ecurity": 4033,
      "ĠÐ²ÐµÑģÑĳÐ»": 4034,
      "ÐŀÐĳÐ©": 4035,
      "COVID": 4036,
      "SW": 4037,
      "bi": 4038,
      "kraine": 4039,
      "Ġwatch": 4040,
      "ĠMumbai": 4041,
      "ĠBSE": 4042,
      "Ġgen": 4043,
      "ÐļÑĢÐ°Ñģ": 4044,
      "ĠOs": 4045,
      "ĠÐ¼Ð¾ÐµÐ¹": 4046,
      "Ġmanufact": 4047,
      "ÐµÐ½ÑīÐ¸Ð½Ð°": 4048,
      "Ð³Ð»Ð°ÑĪÑĥ": 4049,
      "ĠPrice": 4050,
      "cl": 4051,
      "ÑĮÑı": 4052,
      "ĠÐ²Ð°Ñģ": 4053,
      "Ġlarg": 4054,
      "ĠÑĥÑħÐ¾Ð´": 4055,
      "ĠNSE": 4056,
      "ĠÑĤÐ°ÐºÐ°Ñı": 4057,
      "ÐµÑĢÐ³ÐµÐ¹": 4058,
      "ission": 4059,
      "ĠLIC": 4060,
      "ĠÐ½ÑĸÐºÐ¾Ð¼": 4061,
      "tions": 4062,
      "Ġmutual": 4063,
      "Ġled": 4064,
      "umm": 4065,
      "Ġ2022": 4066,
      "ĠÑģÐ²Ð¾ÐµÐ¼": 4067,
      "Ġextends": 4068,
      "Ġmeasures": 4069,
      "Ġtens": 4070,
      "ĠÐ¾ÑĤÐ½": 4071,
      "ĠÐ¿Ð¾Ð·Ñĥ": 4072,
      "ĠONGC": 4073,
      "Ġinfl": 4074,
      "ÐĽÐ®Ð¡Ð¬": 4075,
      "ĠÐ¶ÐµÐ½ÑīÐ¸Ð½Ñĥ": 4076,
      "ĠÑģÐ¸Ð»ÑĮÐ½Ð¾": 4077,
      "Ð½ÑĨÑĥÑİ": 4078,
      "ĠCentre": 4079,
      "ĠAugust": 4080,
      "ĠÐ²ÐµÑģÑĳÐ»ÑĥÑİ": 4081,
      "RI": 4082,
      "cast": 4083,
      "vey": 4084,
      "Ð¾Ð²Ð¾": 4085,
      "Ð¾Ð´Ð¸Ð½Ð¾Ðº": 4086,
      "Ġstill": 4087,
      "ĠTitan": 4088,
      "ĠÐľÐµÐ´": 4089,
      "ĠÑģÐ»Ð¸ÑıÐ½Ð¸Ðµ": 4090,
      "ags": 4091,
      "Ð©ÐµÐ´ÑĢÑĭÐ¹": 4092,
      "ĠÐºÐ¾ÑĤÐ¸ÐºÐ°": 4093,
      "Ġvalu": 4094,
      "ĠSingh": 4095,
      "As": 4096,
      "mart": 4097,
      "Ð½Ð¾Ð¼Ñĥ": 4098,
      "Ġtel": 4099,
      "ĠÐ½Ð°Ð¼": 4100,
      "ĠÐ±Ð¾Ð»": 4101,
      "ĠAc": 4102,
      "ÐķÐĹ": 4103,
      "Ġexports": 4104,
      "ĠUSD": 4105,
      "ĠÐ°Ð´ÐµÐº": 4106,
      "Ġproject": 4107,
      "Ġprivate": 4108,
      "ĠÐ¿ÑĢÑıÐ¼": 4109,
      "11": 4110,
      "TPC": 4111,
      "Ġur": 4112,
      "Ð½Ð¾Ð¼": 4113,
      "ÑīÐµ": 4114,
      "ĠPNB": 4115,
      "Ġdeath": 4116,
      "ÐĵÐĽ": 4117,
      "Ð°ÐºÑģÐ¸Ð¼": 4118,
      "Ġguid": 4119,
      "ier": 4120,
      "ilal": 4121,
      "ĠEV": 4122,
      "ĠÐ½Ð¾Ð¼Ðµ": 4123,
      "Ġpartners": 4124,
      "ĠÐ»ÐµÐ³ÐºÐ¸Ñħ": 4125,
      "ruary": 4126,
      "Ġput": 4127,
      "ites": 4128,
      "Ð½ÑĥÐ¶": 4129,
      "Ġreview": 4130,
      "ĠÐĹÐĲÐŁÐŀÐłÐŀÐĸÐ¬Ðķ": 4131,
      "ĠÐ¶Ð´ÐµÑĤ": 4132,
      "ĠSeptember": 4133,
      "28": 4134,
      "Tech": 4135,
      "ĠÐ²Ð¾ÑĤ": 4136,
      "Ġcoll": 4137,
      "alk": 4138,
      "Ġaff": 4139,
      "ĠÐļÑĤÐ¾": 4140,
      "ĠFII": 4141,
      "Ġreb": 4142,
      "Ġreas": 4143,
      "ÐĽÑĥÐ´Ð¾Ð¼Ð°Ð½": 4144,
      "ĠÐ¿Ð¾ÑģÐ»": 4145,
      "ame": 4146,
      "ĠReserve": 4147,
      "ĠÐ´ÑĢÑĥÐ³Ð°": 4148,
      "Ġdecline": 4149,
      "ÐºÑĢÐ°ÑģÐ¸Ð²Ð°Ñı": 4150,
      "Ġdrop": 4151,
      "Ġproduction": 4152,
      "Ġequity": 4153,
      "Ġsteady": 4154,
      "Ad": 4155,
      "ka": 4156,
      "ta": 4157,
      "Ġsel": 4158,
      "Ġsaid": 4159,
      "ĠÐ¿Ð¾Ð¹": 4160,
      "Ð¢Ð¸ÑħÐ¸Ð¹ÐļÐ¸ÑĤ": 4161,
      "Ġmed": 4162,
      "Ġtheir": 4163,
      "changed": 4164,
      "ĠÐ½Ð°ÑģÑĤÐ¾Ñı": 4165,
      "Ġopportun": 4166,
      "ĠAss": 4167,
      "Indian": 4168,
      "Ð¢ÑĢÐµÐ¹Ð´ÐµÑĢÑĪÐ°": 4169,
      "ĠÐ´Ð¾Ð¼Ð°": 4170,
      "Ð¾ÑĤÐ¾": 4171,
      "Ð²ÑģÐµÐ¼": 4172,
      "ĠÐ·Ð°Ð¿": 4173,
      "ĠCPI": 4174,
      "ĠÑĤÐµÐ»": 4175,
      "ĠÑģÐµÑĢÑĮÐµÐ·": 4176,
      "ĠÐºÐ¾ÑĢÐ¸ÑģÑĤÑĥÐ²Ð°": 4177,
      "Ġbec": 4178,
      "Ġ:)": 4179,
      "ĠÐ»Ñİ": 4180,
      "utions": 4181,
      "ĠPra": 4182,
      "ĠDirect": 4183,
      "Ġbeh": 4184,
      "amp": 4185,
      "Ġunchanged": 4186,
      "Ġindia": 4187,
      "Ġbetter": 4188,
      "Ð¾ÑĢÐ¸ÑģÑĤÑĥÐ²Ð°Ñĩ": 4189,
      "Ġdividend": 4190,
      "Ġcrash": 4191,
      "Ġexperts": 4192,
      "ĠÐ½ÐµÐ³": 4193,
      "inc": 4194,
      "Ġrural": 4195,
      "Ġbudget": 4196,
      "ecial": 4197,
      "ĠMa": 4198,
      "ĠÐ¾Ð±ÑĬ": 4199,
      "ĠYes": 4200,
      "Ġlosses": 4201,
      "Ġhopes": 4202,
      "Ġpremium": 4203,
      "New": 4204,
      "ĠÑģÐºÐ°": 4205,
      "ÐĺÐ¨": 4206,
      "ĠFitch": 4207,
      "à¤¿": 4208,
      "Ġrisks": 4209,
      "ability": 4210,
      "Ġtops": 4211,
      "ĠÐ°Ð´Ð¼Ð¸Ð½": 4212,
      "ucts": 4213,
      "Ġpressure": 4214,
      "ron": 4215,
      "ÐµÑģÑı": 4216,
      "Ġtank": 4217,
      "ĠÐĿÐ°ÑģÑĤ": 4218,
      "ĠMoody": 4219,
      "ĠÐĴÐłÐķÐ": 4220,
      "ival": 4221,
      "Ġatt": 4222,
      "ĠÑĢÐ°Ð·Ð³": 4223,
      "Ð§Ð°ÑĢÑĤÐ¸ÑģÑĤ": 4224,
      "ĠÐ¾Ð´Ð¸Ð½Ð¾": 4225,
      "ulls": 4226,
      "ÑģÐ»Ð¸Ð²Ð°Ñİ": 4227,
      "Ġbuild": 4228,
      "ĠFebruary": 4229,
      "Ġmajor": 4230,
      "Ġchallen": 4231,
      "ĠOswal": 4232,
      "jit": 4233,
      "Ġpoll": 4234,
      "Ġmust": 4235,
      "ÑĨÐµÐ»": 4236,
      "Ġonly": 4237,
      "ĠHot": 4238,
      "Ġ46": 4239,
      "ĠÑĤÐ°Ð¼": 4240,
      "ĠMotilal": 4241,
      "ĠInflation": 4242,
      "Ġsubsid": 4243,
      "Ġmanag": 4244,
      "ĠÐ¾Ð´Ð¸Ð½Ð¾ÐºÐ¸Ð¹": 4245,
      "ÐĲÐĲÐĲÐĲ": 4246,
      "ook": 4247,
      "ĠÐ¼Ð¾Ð³Ñĥ": 4248,
      "Ġroll": 4249,
      "Ð²Ð°ÑĤÐ°": 4250,
      "Ġwas": 4251,
      "Ġwell": 4252,
      "ĠÐľÐĺÐĽ": 4253,
      "Ġpre": 4254,
      "Ġprot": 4255,
      "Ġ71": 4256,
      "Ð£Ð§": 4257,
      "Ð´ÐµÐ²Ñĩ": 4258,
      "Ð³Ð¾Ð´Ð°": 4259,
      "ĠÐĺÐ©Ð£": 4260,
      "Ġarm": 4261,
      "ĠMinister": 4262,
      "Ð¡Ð¿ÐµÐºÑĥÐ»ÑıÐ½ÑĤ": 4263,
      "Ġdeposit": 4264,
      "ĠÐ¸ÑģÐ¿": 4265,
      "Ġbreak": 4266,
      "ĠCM": 4267,
      "ĠBh": 4268,
      "ĠPaints": 4269,
      "Ð°ÑİÑģÑĮ": 4270,
      "Ð°Ð¼Ð¿": 4271,
      "ÐľÑĥÐ¶ÑĩÐ¸Ð½Ð°": 4272,
      "ÐĳÑĭÑĩÐ¸Ð¹ÐĳÐ¾Ð±": 4273,
      "ength": 4274,
      "pe": 4275,
      "ĠÐ¼Ð°": 4276,
      "ĠÐłÑĭÐ½Ð¾ÐºÐĵÑĥÑĢÑĥ": 4277,
      "Ġconsumer": 4278,
      "Ð¤ÑĥÐ½Ð´Ð°Ð¼ÐµÐ½ÑĤÐ°Ð»": 4279,
      "Ġassets": 4280,
      "ĠBusiness": 4281,
      "Ġnifty": 4282,
      "ĠNar": 4283,
      "ĠWor": 4284,
      "ĠÑĤÐ°ÐºÐ¸Ðµ": 4285,
      "Ġ098": 4286,
      "à¥ĭ": 4287,
      "Ġdouble": 4288,
      "Ð¿ÑĢÐ¾Ð¼ÑĭÑĪÐ»ÐµÐ½Ð½Ð¾ÑģÑĤÑĮ": 4289,
      "050": 4290,
      "los": 4291,
      "yd": 4292,
      "ants": 4293,
      "Ġsome": 4294,
      "orr": 4295,
      "ĠÐĿÐķ": 4296,
      "ÐºÑĥÑģ": 4297,
      "ÐĺÐĹ": 4298,
      "ĠÑĩÐµÑĢ": 4299,
      "Ġvehicles": 4300,
      "ÐŁÑĢÐ¾Ð²Ð°Ð»ÑĮÐ½ÑĭÐ¹": 4301,
      "Ġideas": 4302,
      "Ð²Ñģ": 4303,
      "Ġbets": 4304,
      "ĠIran": 4305,
      "edanta": 4306,
      "Ð²ÑĭÑĪÐµÐ»": 4307,
      "Ð¾ÑģÑĤÑı": 4308,
      "Ġ58": 4309,
      "Ġupd": 4310,
      "Ġoutput": 4311,
      "Ġindex": 4312,
      "ĠTechnolog": 4313,
      "Ð»ÑĥÐ¿ÑĭÐ¹": 4314,
      "ĠÐ¼Ð°ÑĪÐ¸Ð½Ðµ": 4315,
      "ĠÐ½Ð¾Ð¼ÐµÑĢÐ¾Ðº": 4316,
      "37": 4317,
      "HDFC": 4318,
      "ees": 4319,
      "ÑģÐ¼Ñģ": 4320,
      "ĠÐ½Ð°Ð¹": 4321,
      "ising": 4322,
      "Ġdip": 4323,
      "Ð¡ÐºÐ°Ð»ÑĮÐ¿ÐµÑĢ": 4324,
      "ĠCon": 4325,
      "ĠÐ¿ÑĢÐ¸ÐµÑħÐ°ÑĤÑĮ": 4326,
      "Ġease": 4327,
      "Ġplat": 4328,
      "oyal": 4329,
      "Ġpanel": 4330,
      "IP": 4331,
      "ĠÐ²Ð°Ð¼": 4332,
      "Ġsectors": 4333,
      "ale": 4334,
      "itical": 4335,
      "ÐļÑĢÐ¸Ð¿ÑĤÐ¾ÐĳÑĢÐ°ÑĤ": 4336,
      "usInd": 4337,
      "Ð¾Ð³Ð»Ð°": 4338,
      "ipla": 4339,
      "ikely": 4340,
      "ĠÐĽÐµÑĢÐ°": 4341,
      "Ġunits": 4342,
      "Ġstrength": 4343,
      "Ð¨ÑĤÑĢÐ°ÑĦ": 4344,
      "ĠÐ½ÐµÐ³Ð»ÑĥÐ¿ÑĭÐ¹": 4345,
      "other": 4346,
      "Ġ***": 4347,
      "ĠÐ½Ð°ÑĥÑĩ": 4348,
      "Ġinv": 4349,
      "utes": 4350,
      "Ð»Ð°Ð²": 4351,
      "Ð¾ÐºÐ¾Ð¹": 4352,
      "Ġ600": 4353,
      "Ġappo": 4354,
      "ĠThis": 4355,
      "ĠNBFCs": 4356,
      "ĠÐ½Ð°ÑģÑĤÐ¾ÑıÑī": 4357,
      "ĠÐ¾Ð´Ð¸Ð½Ð¾ÑĩÐµ": 4358,
      "Ġseek": 4359,
      "Ð¿Ð¾ÑģÑĤÐ°Ð²ÑĮ": 4360,
      "ÐµÑĢÐ±": 4361,
      "ĠÐ¿ÑĢÐ¾Ð¿": 4362,
      "ÑĢÐ¾ÑĩÐ½Ð¾": 4363,
      "ĠÐĴÐ¡": 4364,
      "ĠÐ¿Ð¾Ð·Ð½Ð°Ðº": 4365,
      "ÐľÐµÐ´Ð²ÐµÐ¶onok": 4366,
      "ÐĽÐ¾Ð½Ð³Ð¥Ð¾Ð»Ð´ÐµÑĢ": 4367,
      "Ġ74": 4368,
      "ople": 4369,
      "ÐĵÑĢÐ°ÑĦÐ¾Ð¼Ð°Ð½": 4370,
      "Ġdecision": 4371,
      "ĠRussia": 4372,
      "ÐµÑı": 4373,
      "Ð¸Ð»Ð¸": 4374,
      "Ð²ÐµÑģ": 4375,
      "ercial": 4376,
      "ĠÐºÑĢÑĥÐ¿Ð½ÑĭÐ¹": 4377,
      "ÐµÑĢÑĮ": 4378,
      "Ġav": 4379,
      "Ġdips": 4380,
      "ĠRate": 4381,
      "Ð»Ð°Ñı": 4382,
      "ÐļÑįÑĪÐľÐ°ÑĪÐ¸Ð½Ð°": 4383,
      "iant": 4384,
      "Ġ%,": 4385,
      "Ġofficial": 4386,
      "ĠMarkets": 4387,
      "ĠÐŁÐłÐĺÐĶ": 4388,
      "ÐºÑĢÐ°ÑģÐ¸Ð²Ð¾Ð¹": 4389,
      "ging": 4390,
      "ve": 4391,
      "ÑĤÐ¾Ð»ÑĮÐºÐ¾": 4392,
      "ÑģÐ¾Ðº": 4393,
      "Ġtumb": 4394,
      "Ġsemiconductor": 4395,
      "att": 4396,
      "ĠÐ¸Ð³": 4397,
      "Ð»ÑıÐµÐ¼": 4398,
      "Ð¾Ð²Ð¾ÑĢÐ¸": 4399,
      "ĠMon": 4400,
      "Ð»ÐµÐ½ÑĮ": 4401,
      "Ð£ÑĤÐµÑĩÐºÐ°": 4402,
      "ĠDal": 4403,
      "à¤¨": 4404,
      "Ġexpects": 4405,
      "Ð¨Ð¾ÑĢÑĤKing": 4406,
      "Ð°ÑĤÐ¸ÑĩÐ½Ð°Ñı": 4407,
      "Cr": 4408,
      "ÐµÐ¼ÑģÑı": 4409,
      "Ġforex": 4410,
      "ĠÐĹÐ°": 4411,
      "Ð¥Ð»Ð°Ð´Ð½Ð¾ÐºÑĢÐ¾Ð²Ð½ÑĭÐ¹": 4412,
      "Ð¸ÐºÑĤÐ¾": 4413,
      "ĠÑĪÐ°Ð¼Ð¿": 4414,
      "ÑĩÐ¸ÐºÐ¸": 4415,
      "Ġaction": 4416,
      "Ð¸Ð°Ð½Ð°": 4417,
      "ĠÐ¿Ð¾Ð·Ð²Ð¾Ð½Ð¸": 4418,
      "Coronavirus": 4419,
      "atest": 4420,
      "etrol": 4421,
      "Ġnon": 4422,
      "Ġref": 4423,
      "earch": 4424,
      "udy": 4425,
      "Ġconstruction": 4426,
      "ĠKumar": 4427,
      "Street": 4428,
      "Ġgovernor": 4429,
      "Ġbullish": 4430,
      "Ġvalue": 4431,
      "ÐĴÐŀÐĿÐ®": 4432,
      "01": 4433,
      "65": 4434,
      "com": 4435,
      "wards": 4436,
      "Ġsav": 4437,
      "Ð¢Ð¾Ð»ÑĮÐºÐ¾": 4438,
      "ÐĲÐľ": 4439,
      "Ġhal": 4440,
      "ÐĺÐĿÐĲ": 4441,
      "ĠÑĩÐ°Ñģ": 4442,
      "ÐķÐļ": 4443,
      "ĠHCL": 4444,
      "ÐĴÐ¡Ð¢ÐłÐķÐ§": 4445,
      "ĠLt": 4446,
      "ÑĥÐ¶Ð½Ð°": 4447,
      "ĠÐŀÐĽÐ¯": 4448,
      "Ġconf": 4449,
      "Ġcloses": 4450,
      "engal": 4451,
      "ĠÐ»Ð°ÑģÐºÐ¸": 4452,
      "ĠCoal": 4453,
      "ĠÐ²Ð¸": 4454,
      "ÑīÐµÐ´": 4455,
      "ĠÑĤÐ¾Ð¶Ðµ": 4456,
      "ĠId": 4457,
      "ÐĲÐ´Ð¼Ð¸Ð½": 4458,
      "Ð¡ÑĤÐ¾Ð¿": 4459,
      "ÐµÐ»Ð¾": 4460,
      "ĠÐ¢Ð°Ðº": 4461,
      "ĠÐ¢ÐķÐĳ": 4462,
      "odcast": 4463,
      "Ġ73": 4464,
      "Ġeases": 4465,
      "obile": 4466,
      "Ġdrag": 4467,
      "ĠÐ¥ÐŀÐ§ÐķÐ¢": 4468,
      "ĠEnterprises": 4469,
      "Ġestimates": 4470,
      "Ġyields": 4471,
      "Ð¡ÑĤÐ¾Ð¿ÐĽÐ¾ÑģÑģÐµÑĢ": 4472,
      "ping": 4473,
      "ÑģÐºÑĥ": 4474,
      "ana": 4475,
      "ĠÐŁÐ¸ÑĪÐ¸ÑĤÐµ": 4476,
      "Ġfour": 4477,
      "Ġmiss": 4478,
      "ĠComp": 4479,
      "ĠMutual": 4480,
      "ĠÑĥÐ¼ÐµÐ½": 4481,
      "ÐµÑģÑĮ": 4482,
      "Ġ72": 4483,
      "ĠInc": 4484,
      "????": 4485,
      "Ġslump": 4486,
      "ÑĢÐµÐ¹Ð´ÐµÑĢÑĪÐ°": 4487,
      "Ġzo": 4488,
      "China": 4489,
      "ÑģÐ½Ñĥ": 4490,
      "ÑģÐ±ÑĢÐ¾ÑģÐ¸Ð»": 4491,
      "ĠÐ²ÐºÑĥÑģ": 4492,
      "ĠÐ¼ÐµÑģÑı": 4493,
      "Ġple": 4494,
      "ĠRad": 4495,
      "ÐµÑģÐ¿": 4496,
      "ÐµÑģÐ»Ð¸": 4497,
      "Ġ56": 4498,
      "iesel": 4499,
      "Ġ90": 4500,
      "Ġany": 4501,
      "ĠÐĵÑĢÐ°ÑĦÐ¾Ð¼Ð°Ð½": 4502,
      "Ġcosts": 4503,
      "ĠÐ´ÐµÑĤÐµÐ¹": 4504,
      "con": 4505,
      "Ð²Ðµ": 4506,
      "ĠÐ²ÐµÑĩ": 4507,
      "ĠÐŁÐ¾Ð·": 4508,
      "ÐŁÐµÑĢ": 4509,
      "ĠTra": 4510,
      "ĠPar": 4511,
      "iving": 4512,
      "harash": 4513,
      "ĠÑģÐ¿Ð¾ÑĢÑĤ": 4514,
      "ĠÐµÑģÐ»Ð¸": 4515,
      "odity": 4516,
      "Ġ700": 4517,
      "endra": 4518,
      "inds": 4519,
      "istan": 4520,
      "Ġexpl": 4521,
      "ĠShah": 4522,
      "ĠÐŁÐŀÐĹÐĴÐŀÐĿÐ®": 4523,
      "ĠGovernment": 4524,
      "harashtra": 4525,
      "Ġaut": 4526,
      "Ġovers": 4527,
      "ÐķÐ¡Ð¢Ð¬": 4528,
      "estle": 4529,
      "Ð½Ð¸Ð¹": 4530,
      "Ġread": 4531,
      "ectrum": 4532,
      "ĠÐ»ÑİÐ±Ð¸ÑĤ": 4533,
      "Ġjust": 4534,
      "Ġtrillion": 4535,
      "Ġlending": 4536,
      "Ġunlikely": 4537,
      "Ð¾Ð½ÑıÐµÑĤÑģÑı": 4538,
      "ĠÑĢÐ°Ð·Ð³Ð¾Ð½ÑıÐµÑĤÑģÑı": 4539,
      "100": 4540,
      "Ġche": 4541,
      "ĠÐ¡Ð°ÑĪÐ°": 4542,
      "ĠÐļÐ°ÑĤÑı": 4543,
      "apan": 4544,
      "ÐŀÐĴÐŀÐł": 4545,
      "ĠETMarkets": 4546,
      "Ð¢ÐĲÐ¨ÐĲ": 4547,
      "ÑĥÐºÐ°Ñİ": 4548,
      "ĠÐ°Ð´ÐµÐºÐ²Ð°ÑĤ": 4549,
      "ced": 4550,
      "ĠÑĢÐ¾Ð·": 4551,
      "Ġcorporate": 4552,
      "ĠÐĿÑĥÐ¶Ð½Ð°": 4553,
      "ĠAt": 4554,
      "ĠAfter": 4555,
      "ÐŁÐ¾ÑıÐ²Ð»ÐµÐ½Ð¸Ðµ": 4556,
      "ĠÐ´ÐµÐ²ÑĥÑĪÐºÐµ": 4557,
      "ÐĴÐ»Ð°Ð´": 4558,
      "ÑģÐ¿ÐµÑĢ": 4559,
      "ustan": 4560,
      "ĠÑĢÐµÐ±ÐµÐ½": 4561,
      "ĠÑħÐ¾ÑĢÐ¾ÑĪÐµÐ³Ð¾": 4562,
      "ÐŀÐłÐŀÐ¨": 4563,
      "Ġtensions": 4564,
      "500": 4565,
      "Ð¸Ð»ÑĮ": 4566,
      "ĠÐ¿ÑĢÐ°Ð²": 4567,
      "ÑıÑĤÑĮ": 4568,
      "Ð´Ð¸Ð½": 4569,
      "arge": 4570,
      "ĠÐ¼Ð»Ñģ": 4571,
      "Ð¡ÐĺÐľÐŁ": 4572,
      "ĠÐ»Ð¸": 4573,
      "imul": 4574,
      "Ġ98": 4575,
      "ĠÐ¿Ð¾Ð»Ð¾Ð¶Ð¸ÑĤÐµÐ»ÑĮÐ½ÑĭÐµ": 4576,
      "Ġcentral": 4577,
      "Ġfinance": 4578,
      "Ġextend": 4579,
      "Ġtakes": 4580,
      "ĠEconomic": 4581,
      "ÑĢÐ¾Ð±": 4582,
      "eric": 4583,
      "Ġcar": 4584,
      "ĠEm": 4585,
      "ongress": 4586,
      "Ġà¤¸": 4587,
      "ĠÐ¼ÑĥÐ¶ÑĩÐ¸Ð½Ð¾Ð¹": 4588,
      "Ġlike": 4589,
      "ĠÐ½Ð°Ð´Ð¾": 4590,
      "Ġemerg": 4591,
      "ĠÑģÐºÑĥÐº": 4592,
      "Ġeffect": 4593,
      "ĠAmbani": 4594,
      "ÑīÐµÐ´ÑĢ": 4595,
      "Ġborrow": 4596,
      "Ġdomestic": 4597,
      "ÐĲÐ½Ð°Ð»Ð¸ÑĤÐ¸Ðº": 4598,
      "Ð°ÑĢÐ±Ð¸": 4599,
      "ĠWar": 4600,
      "Ġ84": 4601,
      "outh": 4602,
      "ĠÐºÑĢÐ°ÑģÐ¸Ð²ÑĭÐ¼": 4603,
      "Ġeven": 4604,
      "ĠÐŁÐŀÐŀÐĳÐ©": 4605,
      "Ð½ÐµÐ³Ð°ÑĤÐ¸Ð²Ð½ÑĭÐµ": 4606,
      "Ġfin": 4607,
      "ÐĿÐķÐľ": 4608,
      "ÐĿÐ¾ÑĩÐ½Ð¾Ð¹Ð¢ÑĢÐµÐ¹Ð´ÐµÑĢ": 4609,
      "Ġstay": 4610,
      "ĠÑįÑĤ": 4611,
      "ĠLab": 4612,
      "ĠÐĺÐĿ": 4613,
      "Ġeas": 4614,
      "Ġinvestor": 4615,
      "ĠÑįÐºÑģÐ¿ÐµÑĢ": 4616,
      "ient": 4617,
      "ÐºÑįÑĪ": 4618,
      "anges": 4619,
      "Ð¿ÑĢÐ¾Ð´": 4620,
      "alco": 4621,
      "Ġfive": 4622,
      "Ġface": 4623,
      "Ġph": 4624,
      "Ġow": 4625,
      "ĠÐľÐµÐ´Ð²ÐµÐ¶onok": 4626,
      "ĠHigh": 4627,
      "à¤¤": 4628,
      "ĠÐ§Ð°ÑĢÑĤÐ¸ÑģÑĤ": 4629,
      "Ġcla": 4630,
      "ÑģÑĤÐ°Ð»Ð°": 4631,
      "ĠJanuary": 4632,
      "Ð¯ÐĶÐŀÐ§": 4633,
      "ĠÐ¼ÐµÑģÑıÑĨ": 4634,
      "((": 4635,
      "RC": 4636,
      "land": 4637,
      "oot": 4638,
      "Ð¾Ñĥ": 4639,
      "Ð²ÐµÑĤÐ°": 4640,
      "aruti": 4641,
      "Ð·Ð½Ð°ÐºÐ¾Ð¼": 4642,
      "Ġfail": 4643,
      "ÐŀÐ¡": 4644,
      "ĠIC": 4645,
      "urt": 4646,
      "ĠÐļÐłÐĲÐ¡": 4647,
      "ĠPorts": 4648,
      "ĠÐ¿ÑĢÐ¸Ð³": 4649,
      "ĠÐľÐĽÐ¡": 4650,
      "ĠUr": 4651,
      "ĠÑģÐ²ÐµÑĢÐ±": 4652,
      "Ð´ÐµÑĢÐ¶": 4653,
      "ĠÐĽÐ¾Ð½Ð³Ð¥Ð¾Ð»Ð´ÐµÑĢ": 4654,
      "Ġspectrum": 4655,
      "Ġ2025": 4656,
      "ÐŁÐ¾Ð·Ð½": 4657,
      "ĠÐ³Ð¾ÑĤÐ¾Ð²Ð»Ñİ": 4658,
      "Ġaround": 4659,
      "ÐŁÐµÑĢÐµÐ´Ð°Ñİ": 4660,
      "ĠÑģÐ²ÐµÑĢÐ±Ð¸ÑĤ": 4661,
      "ÑĢÑĤ": 4662,
      "Ð¶ÐµÐ½": 4663,
      "Ð°ÑĢÑĤ": 4664,
      "unj": 4665,
      "Ð¸ÑĤÐµÑģÑĮ": 4666,
      "ÐĶÐ»Ñı": 4667,
      "amil": 4668,
      "ĠÐ·Ð½Ð°Ñĩ": 4669,
      "Ġdoes": 4670,
      "ĠÑħÐ°ÑĢÐ°": 4671,
      "Ð»Ð¾Ð½Ð´Ð¸Ð½ÐºÐ°": 4672,
      "irmala": 4673,
      "877": 4674,
      "Ġtill": 4675,
      "Ġtoo": 4676,
      "Ġrall": 4677,
      "Ð±ÐµÐ·": 4678,
      "Ġdate": 4679,
      "Ġwoes": 4680,
      "ÐµÐ¼Ñĥ": 4681,
      "Ð¸Ð½ÐºÑĥ": 4682,
      "ĠÐ¿ÑĢÐ¸Ðº": 4683,
      "Ð¯Ð¢": 4684,
      "read": 4685,
      "Ġcome": 4686,
      "ĠChand": 4687,
      "Ġresp": 4688,
      "ĠÐ¿ÑĢÐ¸ÑıÑĤÐ½Ð¾Ð³Ð¾": 4689,
      "ÐĿÐ«Ð¥": 4690,
      "ĠÑģÑĤÑĢÐ¾Ð¹Ð½Ð¾Ð¹": 4691,
      "Ġholds": 4692,
      "Ġorders": 4693,
      "ĠÐ¢ÐķÐĳÐ¯": 4694,
      "12": 4695,
      "dra": 4696,
      "ged": 4697,
      "grad": 4698,
      "Ġsets": 4699,
      "ÐºÐ°ÑĤÐµÑĢ": 4700,
      "ĠÐ¿ÑĢÐ¾Ð¼Ð¢ÐµÑħ": 4701,
      "icro": 4702,
      "ĠÐļÐ¾ÑĦÐµÐ¢ÑĢÐµÐ¹Ð´ÐµÑĢ": 4703,
      "ÑĨÐµ": 4704,
      "ÐµÐ´ÐµÑĤ": 4705,
      "ÐŁÐ¸Ð¿ÑģÐ¾Ð²Ð¸Ðº": 4706,
      "ĠÑĩÐ°Ð¹": 4707,
      "ĠIndusInd": 4708,
      "ĠWe": 4709,
      "ĠÐĵÐŀÐĴÐŀÐł": 4710,
      "Ġfunding": 4711,
      "Ġdrug": 4712,
      "Ġentities": 4713,
      "Ġdeliv": 4714,
      "ĠConsumer": 4715,
      "ĠÐ¾Ð¿ÑĭÑĤÐ½Ð¾Ð³Ð¾": 4716,
      "Ð»Ð°ÑģÐºÐ¾Ð²": 4717,
      "Ġupside": 4718,
      "ĠNovember": 4719,
      "Ð¿ÑĢÐ¾Ð´Ð°Ñİ": 4720,
      "Un": 4721,
      "ie": 4722,
      "Ġsent": 4723,
      "Ġcust": 4724,
      "ĠNTPC": 4725,
      "ÐłÐ°Ð·": 4726,
      "Ð¾Ð·Ñı": 4727,
      "ĠÐĽÑĥÐ´Ð¾Ð¼Ð°Ð½": 4728,
      "aster": 4729,
      "ÐĵÐ´Ðµ": 4730,
      "Ð¸Ð·Ð½Ðµ": 4731,
      "Ð°ÑİÑīÐ¸Ðµ": 4732,
      "Ġemploy": 4733,
      "Ġlooks": 4734,
      "Ġmakes": 4735,
      "aitley": 4736,
      "Ġbehind": 4737,
      "ÐºÐ°ÑĤÐµÑĢÐ¸Ð½Ð°": 4738,
      "Ġq": 4739,
      "ĠÑģÐºÐ°Ð·": 4740,
      "Ġfixed": 4741,
      "ĠÐ·Ð°Ð±ÐµÑĢÑĥ": 4742,
      "Ġstates": 4743,
      "ĠPolicy": 4744,
      "ĠÐľÐĿÐķ": 4745,
      "iption": 4746,
      "Ġ67": 4747,
      "ÐĳÐ¸ÑĢÐ¶ÐµÐ²Ð¸Ðº": 4748,
      "ÐĿÐĲÐ¢ÐĲÐ¨ÐĲ": 4749,
      "ĠÐ¶ÐµÐ½Ñĥ": 4750,
      "ĠFederal": 4751,
      "Ġactive": 4752,
      "Ġtrack": 4753,
      "ween": 4754,
      "Ð°Ð½Ð´ÑĢÐ°": 4755,
      "Ġjobs": 4756,
      "ĠÐ¿Ð¾ÐºÐ°ÑĤÐ°ÑĤÑĮÑģÑı": 4757,
      "Ġmanufacturing": 4758,
      "'t": 4759,
      "13": 4760,
      "ĠMovers": 4761,
      "ivity": 4762,
      "ĠBanks": 4763,
      "Ġ79": 4764,
      "ĠÐ±ÑĥÐ´ÐµÑĤÐµ": 4765,
      "Ġresolution": 4766,
      "ÑĸÐ´": 4767,
      "ĠÐ¿Ð¸ÑĪ": 4768,
      "ĠÐºÑĥÑģ": 4769,
      "atory": 4770,
      "Ġrenewable": 4771,
      "ĠSw": 4772,
      "Ġstate": 4773,
      "ĠJaitley": 4774,
      "ÑģÑĤÐ²ÐµÐ½": 4775,
      "ĠYES": 4776,
      "Ġsoars": 4777,
      "Ġbetween": 4778,
      "Ġpeople": 4779,
      "ĠÐŁÐŀÐĹÐĿÐĲÐļÐŀÐľÐĺÐ¢Ð¡Ð¯": 4780,
      "Ġslowdown": 4781,
      "ĠÑĩÑĤÐ¾Ð±Ñĭ": 4782,
      "ÐµÑıÐ»Ð¸ÑģÑĮ": 4783,
      "year": 4784,
      "ÑĥÐ¼ÐµÐ½": 4785,
      "esident": 4786,
      "ert": 4787,
      "ÐµÐ½ÐºÐ°": 4788,
      "ĠÐŁÐ°Ð½Ð¸ÐºÑĳÑĢ": 4789,
      "Ġless": 4790,
      "ĠBl": 4791,
      "ĠÑĥÐ²Ð¸": 4792,
      "Ġstimul": 4793,
      "ĠÐ¢ÑĢÐµÐ¹Ð´ÐµÑĢÑĪÐ°": 4794,
      "ÐĳÐ°Ð±ÑĥÑĪÐºÐ°ÐĺÐ½Ð²ÐµÑģÑĤ": 4795,
      "ĠÐĸÐķ": 4796,
      "ustain": 4797,
      "Ġà¤®": 4798,
      "ounts": 4799,
      "ÑĤÐµÐ»ÑĮÐ½Ð°Ñı": 4800,
      "ÐŀÐ¡Ð¢Ðĺ": 4801,
      "icher": 4802,
      "ĠÐ½Ð°Ð¿Ð¸ÑĪÐ¸": 4803,
      "ÐŁÐŀÐĹÐĿÐĲÐļÐŀÐľ": 4804,
      "Ġroads": 4805,
      "ĠÑĤÐµÐ»ÐµÑĦÐ¾Ð½Ñĥ": 4806,
      "Budget": 4807,
      "Govt": 4808,
      "cing": 4809,
      "lement": 4810,
      "any": 4811,
      "ering": 4812,
      "Ġsystem": 4813,
      "ality": 4814,
      "ĠÐŁÐŀÐł": 4815,
      "Ġpack": 4816,
      "Ġbest": 4817,
      "ĠSanj": 4818,
      "Ġmain": 4819,
      "ĠCongress": 4820,
      "ÐĺÐļ": 4821,
      "Ġreach": 4822,
      "otential": 4823,
      "Ġ77": 4824,
      "Ð¾ÐµÐ»Ð¸": 4825,
      "ĠÑħÐ¾ÑĢÐ¾ÑĪÐ¸Ð¼": 4826,
      "ĠAsh": 4827,
      "ĠAirport": 4828,
      "ehold": 4829,
      "ĠÑģÐ¼ÐµÑıÐ»Ð¸ÑģÑĮ": 4830,
      "ize": 4831,
      "459": 4832,
      "Ġdelay": 4833,
      "Ġcomplet": 4834,
      "Ġsteps": 4835,
      "az": 4836,
      "Ġsol": 4837,
      "Ġsix": 4838,
      "Ġpicks": 4839,
      "itions": 4840,
      "Ð¢Ðķ": 4841,
      "Ð°Ð½Ñģ": 4842,
      "ĠBengal": 4843,
      "ÐŁÐ°Ð½Ð¸ÐºÑĳÑĢ": 4844,
      "ĠÑħÐ¾Ð·Ñı": 4845,
      "oses": 4846,
      "Ð¾Ð±Ð¾Ð´": 4847,
      "ĠÐĹÐĴÐŀÐĿ": 4848,
      "ĠJSW": 4849,
      "Ġwithdra": 4850,
      "Ġdead": 4851,
      "Ġtrades": 4852,
      "Ġslip": 4853,
      "ĠÐ¡Ð¿ÐµÐºÑĥÐ»ÑıÐ½ÑĤ": 4854,
      "ĠÑģÑĤÑĢÐ¾Ð¹Ð½Ð°Ñı": 4855,
      "Ġcurrency": 4856,
      "Ġdeaths": 4857,
      "Ġbecome": 4858,
      "ĠDalal": 4859,
      "Ġplea": 4860,
      "Is": 4861,
      "ÐºÑĢÐ¸Ð·Ð¸Ñģ": 4862,
      "anct": 4863,
      "âĢ¦": 4864,
      "Ġfight": 4865,
      "ĠÐ·Ð²ÑĳÐ·Ð´": 4866,
      "ÑĳÐ½Ð°": 4867,
      "Ð°ÑĢÑĮ": 4868,
      "ĠÐ³Ð»ÑĥÐ¿": 4869,
      "ÐĿÐµÐ¹ÑĢÐ¾Ð¡Ð¾ÑĦÑĤ": 4870,
      "ĠBig": 4871,
      "ĠÐļÑĢÐ¸Ð¿ÑĤÐ¾ÐĳÑĢÐ°ÑĤ": 4872,
      "ĠGen": 4873,
      "ÐĶÐĽÐ¯": 4874,
      "ĠUp": 4875,
      "ÐĴÐ¾Ð»Ðº": 4876,
      "ĠÐĳÑĭÑĩÐ¸Ð¹ÐĳÐ¾Ð±": 4877,
      "ĠÐ´Ð¾ÐºÑĥÐ¿Ð°Ñİ": 4878,
      "Ġanalysts": 4879,
      "ĠÐ¿ÑĢÐµÐ´ÑģÐºÐ°Ð·Ñĭ": 4880,
      "ĠÐĵÐ½Ð¸Ð´": 4881,
      "encies": 4882,
      "Ġincome": 4883,
      "ĠÐ»Ð¾ÐºÑĤÐ¸": 4884,
      "rupt": 4885,
      "ĠÐŀÐĶÐĺÐĿÐŀÐļ": 4886,
      "ĠÑĩÐµÑĢÐµÐ·": 4887,
      "ĠÐĵÐŀÐĴÐŀÐłÐĺÐĽ": 4888,
      "ĠÐ¿ÑĢÐµÐ´ÑģÐºÐ°Ð·ÑĭÐ²Ð°Ð»": 4889,
      "ĠÐĵÐ½Ð¸Ð´Ñĭ": 4890,
      "PL": 4891,
      "ĠÑī": 4892,
      "ĠÑĢÐµÐ´": 4893,
      "Ġdiesel": 4894,
      "elines": 4895,
      "ĠMuk": 4896,
      "ĠÐ¡ÐķÐł": 4897,
      "ĠÐ¡ÐºÐ°Ð»ÑĮÐ¿ÐµÑĢ": 4898,
      "ension": 4899,
      "ĠÐ²ÑĭÐºÑĥÐ¿Ð°Ñİ": 4900,
      "ĠÐ¿Ð¾Ð´Ð°": 4901,
      "ĠÐĽÐ¾Ñĥ": 4902,
      "Ġinvestments": 4903,
      "Ġ2761": 4904,
      "Ġcontinues": 4905,
      "ĠArun": 4906,
      "ĠPatel": 4907,
      "ĠÑģÐ¾Ð·Ð´Ð°Ð½": 4908,
      "ĠÑħÐ°ÑĢÐ°ÐºÑĤÐµ": 4909,
      "ĠÐºÑĥÑģÐ°ÑĤÑĮ": 4910,
      "ĠÐ·Ð²ÑĳÐ·Ð´Ð½ÑĭÐ¹": 4911,
      "Ġ2761459": 4912,
      "field": 4913,
      "led": 4914,
      "ued": 4915,
      "ÑĢÑĮ": 4916,
      "ĠÐ¿ÑĢÐ°": 4917,
      "Ð´Ñĭ": 4918,
      "enal": 4919,
      "Ġflo": 4920,
      "isil": 4921,
      "ĠSab": 4922,
      "ĠÐĿÐ¾ÑĩÐ½Ð¾Ð¹Ð¢ÑĢÐµÐ¹Ð´ÐµÑĢ": 4923,
      "Ġlif": 4924,
      "rael": 4925,
      "ĠÑĩÐ¸ÑģÑĤ": 4926,
      "ĠPodcast": 4927,
      "ird": 4928,
      "ĠUkraine": 4929,
      "ĠÐ¢Ð¸ÑħÐ¸Ð¹ÐļÐ¸ÑĤ": 4930,
      "ĠVedanta": 4931,
      "Ð§ÑĤÐ¾": 4932,
      "ĠÐ¿ÑĢÐ¾ÑĤÐ¸Ð²": 4933,
      "Ġallow": 4934,
      "ĠÑģÑĤÑĢÐ°ÑģÑĤÑĮ": 4935,
      "ĠElect": 4936,
      "Adani": 4937,
      "ĠÐºÐ¾ÑĢÐ¸ÑģÑĤÑĥÐ²Ð°ÑĩÐ°": 4938,
      "ĠTechnologies": 4939,
      "eat": 4940,
      "ĠÐ¸Ð¼": 4941,
      "Ġinst": 4942,
      "ĠSub": 4943,
      "Ġdist": 4944,
      "ecut": 4945,
      "ĠPl": 4946,
      "Ġvar": 4947,
      "ÑĤÐ¸ÐºÐ¸": 4948,
      "Ġworst": 4949,
      "ĠInfrastructure": 4950,
      "ĠÑĨÐµÐ½": 4951,
      "Ġopening": 4952,
      "Ġcommercial": 4953,
      "ĠÐŁÐłÐĺÐĵÐĽ": 4954,
      "Ġeye": 4955,
      "Ġlenders": 4956,
      "Ġlevels": 4957,
      "ĠÑħÐ°ÑĢÐ°ÐºÑĤÐµÑĢÐ¾Ð¼": 4958,
      "How": 4959,
      "MF": 4960,
      "jay": 4961,
      "mp": 4962,
      "ĠX": 4963,
      "ÑĭÑĤÐ°": 4964,
      "Ð¿ÑĢÐ¸Ð·": 4965,
      "Ð¢Ð°Ð½Ñı": 4966,
      "Ð¾Ð²Ð¸ÑĤÐµÑģÑĮ": 4967,
      "Ġwid": 4968,
      "Ð°ÑĢÐ´": 4969,
      "ÐĺÐĻ": 4970,
      "ÐµÐ´Ð¸": 4971,
      "irst": 4972,
      "akistan": 4973,
      "ĠÐ´ÐµÐ²ÑĥÑĪÐµÐº": 4974,
      "Ð¾Ð±Ð¾Ð¹": 4975,
      "Ġprof": 4976,
      "Ġbeg": 4977,
      "Ġshows": 4978,
      "Ġwarns": 4979,
      "Ġoffers": 4980,
      "ĠÐ¿ÑĢÐ¸ÑıÑĤÐ½ÑĭÐ¼": 4981,
      "Ð¾Ð²Ð¸ÑģÑĮ": 4982,
      "ĠÐºÑĢÐ°ÑģÐ¸Ð²ÑĭÑħ": 4983,
      "ĠÐĽÐ®ÐĳÐĽÐ®": 4984,
      "Ġdeclines": 4985,
      "Ġfuture": 4986,
      "ĠÐ½Ð°Ð¹ÑĤÐ¸": 4987,
      "ĠLtd": 4988,
      "33": 4989,
      "bers": 4990,
      "fol": 4991,
      "Ġans": 4992,
      "ÐºÐ¾Ð²": 4993,
      "Ð´Ð²Ð°": 4994,
      "Ġsug": 4995,
      "ĠÐŁÐĲÐł": 4996,
      "ĠÐŁÐ¸Ð¿ÑģÐ¾Ð²Ð¸Ðº": 4997,
      "Ġbas": 4998,
      "Ġbear": 4999,
      "ĠÑĢÐµ": 5000,
      "ĠÑĤÐ¾Ð³Ð¾": 5001,
      "ils": 5002,
      "Ġgive": 5003,
      "ĠÐļÑģ": 5004,
      "ÐĺÐ§": 5005,
      "Ð²ÑĭÐ¹": 5006,
      "ÑĥÐ´Ñĥ": 5007,
      "irc": 5008,
      "irector": 5009,
      "ĠÐľÐ°ÐºÑģ": 5010,
      "Ġexport": 5011,
      "Ġspecial": 5012,
      "Ġstress": 5013,
      "Ġuse": 5014,
      "ÐŀÐĵÐŀ": 5015,
      "ĠIdea": 5016,
      "Ġansw": 5017,
      "oon": 5018,
      "ÑĤÐ¸Ñĩ": 5019,
      "ÑĢÐµÐ»": 5020,
      "ÑĥÐ¶Ðµ": 5021,
      "ĠÐ¿Ð°Ð¿": 5022,
      "ĠÐ½Ð°Ñģ": 5023,
      "Ġbell": 5024,
      "rap": 5025,
      "ras": 5026,
      "Ġstra": 5027,
      "Ð»ÐµÐ½ÑĤ": 5028,
      "ĠÐĲÐ»Ð¸": 5029,
      "aka": 5030,
      "ĠÐ²ÑģÐµÐ³Ð¾": 5031,
      "ĠÐ¨Ð°Ð»ÑĮÐ½Ð°Ñı": 5032,
      "udi": 5033,
      "ĠÐ¤ÑĥÐ½Ð´Ð°Ð¼ÐµÐ½ÑĤÐ°Ð»": 5034,
      "Ġwhich": 5035,
      "Ġbuying": 5036,
      "Ġconsider": 5037,
      "Ġcalls": 5038,
      "ĠÐŁÐŀÐłÐ¯ÐĶÐŀÐ§": 5039,
      "Ġer": 5040,
      "ĠÐ¼Ð¾ÑĢ": 5041,
      "ĠÐ¾ÑĤÐº": 5042,
      "ÐĲÐļ": 5043,
      "Ġgives": 5044,
      "ĠÑĥÐ¶": 5045,
      "ĠÑĥÑģÐ¿": 5046,
      "Ġstance": 5047,
      "ĠNirmala": 5048,
      "Ð¾ÑģÑĤÐ¸": 5049,
      "Ð¸ÑģÐ°": 5050,
      "ĠÐ¢ÐµÐ¹ÐºÐŁÑĢÐ¾ÑĦÐ¸ÑĤ": 5051,
      "heel": 5052,
      "ĠÐ¶ÐµÐ½Ð°": 5053,
      "Ġsubscription": 5054,
      "certain": 5055,
      "ĠÐ¾ÑĤÐ·Ð¾Ð²Ð¸ÑĤÐµÑģÑĮ": 5056,
      "ĠWorld": 5057,
      "come": 5058,
      "iev": 5059,
      "ĠIt": 5060,
      "ÐļÐ¾ÑĦÐµÐ¢ÑĢÐµÐ¹Ð´ÐµÑĢ": 5061,
      "ĠÐľÐŀ": 5062,
      "ÐľÐ½Ðµ": 5063,
      "à¤¸": 5064,
      "Ġexit": 5065,
      "ĠÐ¿Ð¾Ð·Ð½Ð°ÐºÐ¾Ð¼Ð»Ñİ": 5066,
      "ĠÐ¥Ð»Ð°Ð´Ð½Ð¾ÐºÑĢÐ¾Ð²Ð½ÑĭÐ¹": 5067,
      "Ġconsolid": 5068,
      "Ġsigns": 5069,
      "Ġrallies": 5070,
      "ÐŁÐŀÐĹÐĿÐĲÐļÐŀÐľÐĽÐ®Ð¡Ð¬": 5071,
      "Ġsanct": 5072,
      "ater": 5073,
      "Ġpotential": 5074,
      "Ġauction": 5075,
      "ĠÑĢÑıÐ´": 5076,
      "Ġmuch": 5077,
      "ÑĢÑĥÐ³": 5078,
      "ĠÑħÐ¾ÑĤÐµ": 5079,
      "omat": 5080,
      "Ð£ÐĶ": 5081,
      "Ġ42": 5082,
      "ollow": 5083,
      "abad": 5084,
      "Ġexpand": 5085,
      "ĠÑĥÐ¼ÐµÑİ": 5086,
      "Ġrecords": 5087,
      "Ġdraft": 5088,
      "Ġmetal": 5089,
      "Ġcontract": 5090,
      "kar": 5091,
      "Ð¨Ðļ": 5092,
      "ÑĤÑĭ": 5093,
      "Ð´ÑĢÐ°Ð²": 5094,
      "Ð´ÐµÐ½Ð¸Ñı": 5095,
      "Ġtests": 5096,
      "Ġsustain": 5097,
      "Ð·Ñĥ": 5098,
      "Ġpenal": 5099,
      "ÐĿÐŀÐĻ": 5100,
      "uri": 5101,
      "ĠTV": 5102,
      "à¤¯": 5103,
      "ÑĪÐµÑĩÐºÐ°": 5104,
      "Ġchange": 5105,
      "ĠÐ¿ÑĢÐ¸ÑıÑĤÐ½Ð¾Ð¹": 5106,
      "ÑģÐ¸Ð¾Ð½": 5107,
      "Ġreduce": 5108,
      "Ġpromo": 5109,
      "ÐĽÑİÐ±Ð»Ñİ": 5110,
      "JP": 5111,
      "LI": 5112,
      "fl": 5113,
      "iation": 5114,
      "nia": 5115,
      "ĠÐºÑĢÐ°": 5116,
      "ati": 5117,
      "ĠÐŁÐ¾ÑģÑĤÐ°Ð²ÑĮ": 5118,
      "Ġbiz": 5119,
      "Ð¡Ðĺ": 5120,
      "Ġlatest": 5121,
      "ĠÐ¡ÐĶÐķÐĽ": 5122,
      "ĠÐ¶Ð¸Ð²": 5123,
      "ĠFood": 5124,
      "Ð»ÑİÑĩ": 5125,
      "ements": 5126,
      "ĠÐ¿ÑĢÐ¸Ð´ÐµÑĢÐ¶Ð¸": 5127,
      "Ð¾Ð³Ð°ÑĤÐ°Ñı": 5128,
      "ĠÐ¨Ð¾ÑĢÑĤKing": 5129,
      "ĠÐĹÐ°Ð¿Ð¾ÑĢÐ¾Ð¶ÑĮ": 5130,
      "Ð·Ð°Ð±ÐµÑĢÑĥ": 5131,
      "Ġcoming": 5132,
      "ĠÑģÑĤÐ¾Ð¿": 5133,
      "Ð³Ð»Ð°ÑĪÐ°Ñİ": 5134,
      "ĠÐ®Ð»Ñı": 5135,
      "Ð¯ÐĶÐŀÐľ": 5136,
      "Ġmarginally": 5137,
      "ĠÑĢÐ¾Ðº": 5138,
      "Ð¼ÐµÑĢ": 5139,
      "Ð¼ÐµÑĤ": 5140,
      "Ð´ÐµÑģÑĮ": 5141,
      "arts": 5142,
      "Ġsaf": 5143,
      "Ġsession": 5144,
      "ĠÐŁÐ°ÑĢ": 5145,
      "Ġfine": 5146,
      "Ġpers": 5147,
      "ĠSC": 5148,
      "ĠÑĤÐ°ÐºÐ¾Ð¹": 5149,
      "Ġ82": 5150,
      "ÑĤÐ¸Ñħ": 5151,
      "ÐĲÐ¡Ð¡ÐĲ": 5152,
      "Ġneg": 5153,
      "umbers": 5154,
      "ĠÐ¿Ð¾Ð³ÑĥÐ»Ñı": 5155,
      "Ġcurrent": 5156,
      "ĠÐ¾ÑĤÐ·Ð¾Ð²Ð¸ÑģÑĮ": 5157,
      "ĠMorgan": 5158,
      "ĠMaharashtra": 5159,
      "ĠÐ·Ð½Ð°ÑĩÐ¸ÑĤ": 5160,
      "Ġsentim": 5161,
      "ĠÑĢÑıÐ´Ð¾Ð¼": 5162,
      "ÐĲÐ¡Ð¡ÐĲÐĸ": 5163,
      "38": 5164,
      "FL": 5165,
      "uck": 5166,
      "view": 5167,
      "ÑĪÑĤÑĢÐ°ÑĦ": 5168,
      "ĠÐºÑĥÐ´Ð°": 5169,
      "arr": 5170,
      "ÐŀÑĤ": 5171,
      "ĠÐĶÐ°ÑĪÐ°": 5172,
      "Ð¾Ð½ÐºÐ¸": 5173,
      "ĠÐļÐ°ÑĢÐ¸Ð½Ð°": 5174,
      "ĠFin": 5175,
      "ÐķÐĵ": 5176,
      "Ð£ÑħÐ¾Ð´": 5177,
      "ÐļÐ¾ÑĢÐ¸ÑģÑĤÑĥÐ²Ð°Ñĩ": 5178,
      "ĠÐ°Ð²Ð°ÑĤÐ°": 5179,
      "ÐĶÐķ": 5180,
      "oda": 5181,
      "ĠÐ±ÑĭÐ»Ð¾": 5182,
      "Ġcond": 5183,
      "Ġ800": 5184,
      "Ġlogs": 5185,
      "ells": 5186,
      "ours": 5187,
      "Ġremains": 5188,
      "ÐŁÐŀÐĹÐĿÐĲÐļ": 5189,
      "ĠÐºÐ²Ð°ÑĢÑĤÐ¸ÑĢÐµ": 5190,
      "Ġreasons": 5191,
      "ĠÐĿÐ°ÑģÑĤÑı": 5192,
      "Ġstimulus": 5193,
      "70": 5194,
      "ties": 5195,
      "ĠÐ´ÑĥÑĪ": 5196,
      "ataka": 5197,
      "ÐŀÐ±": 5198,
      "Ġwould": 5199,
      "Ġlarge": 5200,
      "ÐŁÐŀÐļ": 5201,
      "Ð°Ð¼Ð°": 5202,
      "Ġ66": 5203,
      "ĠÐ·Ð²Ð¾Ð½Ð¸": 5204,
      "Ġcoal": 5205,
      "Ġanother": 5206,
      "ĠAnalysts": 5207,
      "Ġmining": 5208,
      "Ġbring": 5209,
      "ÐľÐĲÐĽ": 5210,
      "ommerce": 5211,
      "arnataka": 5212,
      "ÑĨÐµÐ»Ñĥ": 5213,
      "ÑĢÑĤÐµÐ¼": 5214,
      "ĠÐ¡ÐĶÐķÐĽÐĲÐķÐ¢": 5215,
      "072": 5216,
      "58": 5217,
      "BS": 5218,
      "Th": 5219,
      "uit": 5220,
      "Ð°Ð»Ð¸": 5221,
      "Ð½Ð¸Ð¼": 5222,
      "ÑĭÐº": 5223,
      "Ġpick": 5224,
      "ĠCipla": 5225,
      "ÐµÑģÑģÐ¸Ð¾Ð½": 5226,
      "à¤Ł": 5227,
      "ĠÐĳÐ¸ÑĢÐ¶ÐµÐ²Ð¸Ðº": 5228,
      "Ġspace": 5229,
      "Ġcapac": 5230,
      "Ġreturns": 5231,
      "urope": 5232,
      "ĠÑģÐ¼ÐµÐ»ÑĭÐµ": 5233,
      "ĠRadar": 5234,
      "ĠÐĹÐ°Ð¿Ð¾ÑĢÐ¾Ð¶ÑĮÑı": 5235,
      "ÐµÑģÑģÐ¸Ð¾Ð½Ð°Ð»ÑĮÐ½Ð¾": 5236,
      "48": 5237,
      "Air": 5238,
      "Ex": 5239,
      "Share": 5240,
      "mark": 5241,
      "ÑģÐµ": 5242,
      "ĠÐ½Ð¾Ð³": 5243,
      "ÑĢÐ¾Ð»": 5244,
      "ĠÐ¿Ð¾ÑĪ": 5245,
      "Ð¶ÐµÐ»Ð°": 5246,
      "ÑīÐµÑĤ": 5247,
      "ĠAMC": 5248,
      "ĠÐĴÐ¾Ð»Ðº": 5249,
      "ĠÑĩÐµÐ³Ð¾": 5250,
      "Ġprocess": 5251,
      "Ġincl": 5252,
      "ÐĶÐµÐ²Ñĩ": 5253,
      "ĠÐĲÐ»ÑĳÐ½Ð°": 5254,
      "grades": 5255,
      "folio": 5256,
      "based": 5257,
      "ox": 5258,
      "Ġbroad": 5259,
      "ÐķÑģÐ»Ð¸": 5260,
      "Ġlic": 5261,
      "ĠMond": 5262,
      "aking": 5263,
      "ĠDe": 5264,
      "Ġ49": 5265,
      "ĠÐ¿Ð°ÑĢÐ½ÐµÐ¹": 5266,
      "ĠÐºÑĢÐ°ÑģÐ°Ð²": 5267,
      "ĠJapan": 5268,
      "Ġinfra": 5269,
      "Ġopt": 5270,
      "enger": 5271,
      "Ġminutes": 5272,
      "ĠCrisil": 5273,
      "ÐĺÐ©ÐķÐ¢": 5274,
      "ÐŀÐ¡Ð¢ÐĲÐĴ": 5275,
      "ĠÑĢÐ¾Ð¼Ð°Ð½ÑĤÐ¸ÐºÐ¸": 5276,
      "Ġinflows": 5277,
      "Ġrebound": 5278,
      "ĠÐ¿Ð¾ÑģÐ»ÑĥÑĪ": 5279,
      "Ġtanks": 5280,
      "Ġcustom": 5281,
      "gine": 5282,
      "Ð°ÐµÐ¼ÑģÑı": 5283,
      "eries": 5284,
      "ĠÐ¿Ð¾ÑĨÐµÐ»Ñĥ": 5285,
      "Ġbre": 5286,
      "ÐĲÐĹ": 5287,
      "ĠÐ¡Ð²ÐµÑĤÐ°": 5288,
      "utious": 5289,
      "ĠPre": 5290,
      "ÐĴÐŀ": 5291,
      "ewell": 5292,
      "ĠÑĦÐ¾ÑĤÐ¾": 5293,
      "Ġrece": 5294,
      "Ġà¤¬": 5295,
      "Ġclear": 5296,
      "ĠÐºÐ¾ÑĪÐµÑĩÐºÐ°": 5297,
      "ÑĢÐ¾Ð´Ðµ": 5298,
      "inese": 5299,
      "ÑıÐ·ÐºÑĥ": 5300,
      "Ġminister": 5301,
      "ĠÐ¿Ð¾Ð¶Ð°Ð»ÑĥÑģÑĤÐ°": 5302,
      "ĠÐ¿ÑĢÐ¾ÑģÐ°Ð´": 5303,
      "Ġmetals": 5304,
      "Why": 5305,
      "BC": 5306,
      "TI": 5307,
      "cement": 5308,
      "ĠÐºÐ¾ÑĦ": 5309,
      "enior": 5310,
      "ĠSmall": 5311,
      "ict": 5312,
      "ĠÑĥÑģÐ¿ÐµÑĪÐ½ÑĭÐ¹": 5313,
      "Ð¾ÑĩÐ½Ð°Ñı": 5314,
      "ĠÐĴÐķÐ§": 5315,
      "ires": 5316,
      "ĠÐĺÐ»Ð¾Ð½": 5317,
      "ĠÐĳÐ°Ð±ÑĥÑĪÐºÐ°ÐĺÐ½Ð²ÐµÑģÑĤ": 5318,
      "Ġshr": 5319,
      "ÐĸÐķÐĿ": 5320,
      "Ð§ÐķÐĿ": 5321,
      "Ġuncertain": 5322,
      "ĠÐ²ÑģÑĤÑĢÐµÑĩÐ¸": 5323,
      "Ġquality": 5324,
      "Ġfree": 5325,
      "ĠÐ¿ÑĢÐ¾ÑģÑĤÑĥÑİ": 5326,
      "ĠÐ¿Ð¾Ð³Ð¾Ð²Ð¾ÑĢÐ¸": 5327,
      "ĠAll": 5328,
      "Ġtelecom": 5329,
      "Ġplatform": 5330,
      "Ġzooms": 5331,
      "Ġcapacity": 5332,
      "Maruti": 5333,
      "gen": 5334,
      "tm": 5335,
      "Ð»Ð¾Ð¿": 5336,
      "Ð¼Ð¾Ð¶": 5337,
      "Ġcard": 5338,
      "Ġfull": 5339,
      "Ġfollow": 5340,
      "Ġtouch": 5341,
      "ĠBar": 5342,
      "ĠNestle": 5343,
      "ĠÐľÐľÐ¡": 5344,
      "Ġvis": 5345,
      "ĠÐ§Ð¢Ðŀ": 5346,
      "Ġfarm": 5347,
      "Ġguidelines": 5348,
      "ĠÐŁÐłÐĺÐĵÐĽÐĲÐ¡": 5349,
      "eet": 5350,
      "Ð½Ð¾Ð½": 5351,
      "Ð²Ð¾ÑĢ": 5352,
      "arat": 5353,
      "ĠÐ·Ð°Ð±": 5354,
      "ĠÐĶÐ¸Ð°Ð½Ð°": 5355,
      "Ġway": 5356,
      "uru": 5357,
      "ĠTel": 5358,
      "eeps": 5359,
      "ÐľÐ°ÑĪÐ°": 5360,
      "Ð½Ð¸ÑģÑĮ": 5361,
      "ĠUK": 5362,
      "itya": 5363,
      "ĠÐ²Ð·ÑĢÐ¾Ñģ": 5364,
      "ĠÐĵÐŀÐ¡Ð¢Ðĺ": 5365,
      "ĠÐ»ÑİÐ±Ð¸Ð¼Ð¾Ð¹": 5366,
      "orporation": 5367,
      "itannia": 5368,
      "Ġvolatility": 5369,
      "ĠÐ¿ÐµÑģÐ½Ñİ": 5370,
      "ospitals": 5371,
      "Ġlargest": 5372,
      "Ð»Ð°ÑģÐºÐ¾Ð²Ð°Ñı": 5373,
      "ĠÐ¾ÑĤÐºÑĢÐ¾Ð²": 5374,
      "ĠÐŁÐłÐĺÐĵÐĽÐĲÐ¡ÐĺÐ¢": 5375,
      "55": 5376,
      "92": 5377,
      "MS": 5378,
      "for": 5379,
      "Ð¸ÐµÐ²": 5380,
      "ÐµÐ½ÐºÐ¾Ð¹": 5381,
      "ĠÐ¿Ð¾Ð²": 5382,
      "Ġrights": 5383,
      "Ġbase": 5384,
      "ĠÐĿÐŀ": 5385,
      "Ð¡Ð»Ð¸": 5386,
      "ĠÐ·Ð°ÑĢÐµ": 5387,
      "Ð¾Ð»Ñı": 5388,
      "olitical": 5389,
      "ĠÑħÐ»Ð¾Ð¿": 5390,
      "omb": 5391,
      "ĠÐ¿ÑĢÐ¸Ð½": 5392,
      "Ð´ÑĥÐ¼": 5393,
      "Ġprev": 5394,
      "ches": 5395,
      "Ġdeals": 5396,
      "ĠÐ¸Ð½ÑĤÐµÑĢÐµÑģÐ½ÑĥÑİ": 5397,
      "ĠÐĽÑİÐ±": 5398,
      "Ġrecla": 5399,
      "prec": 5400,
      "ĠÑģÑĢÐ°Ð·Ñĥ": 5401,
      "ÐķÐłÐĸ": 5402,
      "ÐķÐ¡ÐŁ": 5403,
      "Ġpayment": 5404,
      "ĠÐ¿ÑĢÐ¸Ð³Ð»Ð°Ñģ": 5405,
      "ĠÐĴÐķÐ§ÐķÐł": 5406,
      "ĠÐ·Ð°ÑĢÐµÑĶÑģÑĤ": 5407,
      "46": 5408,
      "ause": 5409,
      "way": 5410,
      "ward": 5411,
      "ĠÑĢÐ¾Ð´": 5412,
      "ĠÐ¿ÑĭÑĪ": 5413,
      "ÑıÐ½Ð°": 5414,
      "ĠÑģÐºÐ¾": 5415,
      "ĠÐ¾ÑĤÐ²ÐµÑĤ": 5416,
      "Ġright": 5417,
      "ĠHousing": 5418,
      "ĠÐ¿ÐµÑĢÐµÐ´": 5419,
      "Ð¼ÐµÐ½Ñı": 5420,
      "Ġ83": 5421,
      "ÑħÐ°Ð¶Ð¸": 5422,
      "ĠHindustan": 5423,
      "ĠÐ´Ð»Ð¸Ð½Ð½Ð¾Ð½": 5424,
      "ĠRatings": 5425,
      "ĠÑģÐºÑĥÐºÐ¸": 5426,
      "Ġsanctions": 5427,
      "Ð¡Ð»Ð¸ÑıÐ½Ð¸Ðµ": 5428,
      "ĠÐ´Ð»Ð¸Ð½Ð½Ð¾Ð½Ð¾Ð³": 5429,
      "bh": 5430,
      "mission": 5431,
      "nes": 5432,
      "Ġ!!": 5433,
      "ÐºÐ¾Ð²Ð°": 5434,
      "ÑĮÐ¼Ð¸": 5435,
      "ony": 5436,
      "Ġcit": 5437,
      "etro": 5438,
      "ĠMid": 5439,
      "ides": 5440,
      "ĠÐ¡ÑĤÐ¾Ð¿ÐĽÐ¾ÑģÑģÐµÑĢ": 5441,
      "Ġcautious": 5442,
      "Ġoperations": 5443,
      "ĠÐ²Ð¾Ð»Ð¾Ñģ": 5444,
      "ĠÐ½Ð°ÑģÑĤÐ¾ÑıÑīÐ¸Ðµ": 5445,
      "Crude": 5446,
      "ĠÐĺÐĿÐ¢ÐķÐłÐķÐ¡": 5447,
      "ĠUrjit": 5448,
      "ĠÐ¿Ð¾Ð³Ð¾Ð²Ð¾ÑĢÐ¸ÑĤÑĮ": 5449,
      "AI": 5450,
      "oh": 5451,
      "ots": 5452,
      "Ð»ÑĥÐ±": 5453,
      "ĠÑģÑĩÐ°": 5454,
      "ĠÐºÐ¾Ð»": 5455,
      "atural": 5456,
      "Ð±Ð°": 5457,
      "ĠRE": 5458,
      "ĠÐ±Ñĥ": 5459,
      "ĠCA": 5460,
      "ĠÐļÐŀÐĿ": 5461,
      "ĠÑĥÑħÐ°Ð¶Ð¸": 5462,
      "ĠAp": 5463,
      "ĠNow": 5464,
      "Ð¾Ð·Ð°": 5465,
      "ÐĳÑĥÐ´Ñĥ": 5466,
      "Ð¸ÐºÐ°ÑĢ": 5467,
      "umption": 5468,
      "Ġkeeps": 5469,
      "Ġworries": 5470,
      "ĠÑĥÐ¼Ð½Ð°Ñı": 5471,
      "Ġperform": 5472,
      "à¥ĩà¤Ĥ": 5473,
      "Ġlooking": 5474,
      "Ġequities": 5475,
      "ĠÑĤÐµÐ¿ÐµÑĢÑĮ": 5476,
      "ĠHindalco": 5477,
      "Ġclimbs": 5478,
      "ÑĭÐºÐ²Ð°ÑĤ": 5479,
      "ĠÐ¿Ð¾ÑĨÐµÐ»ÑĥÐµÐ²": 5480,
      "31": 5481,
      "week": 5482,
      "Ġtight": 5483,
      "ĠÐ¼Ð°ÐºÑģÐ¸Ð¼": 5484,
      "Ð²Ð°Ð½Ð¸Ð¹": 5485,
      "Ð¡Ð°ÑĪÐ°": 5486,
      "ĠÐ»ÐµÑģ": 5487,
      "ĠBPCL": 5488,
      "ĠÐ¶Ð¸ÑĤÑĮ": 5489,
      "ĠÐłÐ¸ÑĤ": 5490,
      "ceed": 5491,
      "Ð½ÑĥÑĤÑĮÑģÑı": 5492,
      "ework": 5493,
      "Ð°Ð»ÐµÑĢ": 5494,
      "Ġallows": 5495,
      "099": 5496,
      "Ġgoing": 5497,
      "Ġannounce": 5498,
      "Ġgoods": 5499,
      "ÐĺÐĴÐķÐ¢": 5500,
      "Ð¿ÑĢÐ¾Ð²Ð°Ð»ÑĮÐ½ÑĭÐ¹": 5501,
      "Ġplunges": 5502,
      "Ġportfolio": 5503,
      "ĠMonday": 5504,
      "ĠÐºÐ¾ÑĦÐµ": 5505,
      "FDA": 5506,
      "Sh": 5507,
      "fc": 5508,
      "uation": 5509,
      "Ġcover": 5510,
      "Ġcirc": 5511,
      "ÑĢÐ¸ÑģÑĤÐ¸": 5512,
      "ÐºÐ°Ð½": 5513,
      "Ġdiff": 5514,
      "ĠÐĲÐ½Ð°Ð»Ð¸ÑĤÐ¸Ðº": 5515,
      "ections": 5516,
      "ody": 5517,
      "ĠÐĸÐĺÐĹ": 5518,
      "inance": 5519,
      "Ġgrows": 5520,
      "Ġchairman": 5521,
      "ÐĿÐĲÐ¯": 5522,
      "Ġacross": 5523,
      "Ġseg": 5524,
      "ÐĺÐĿÐ¢ÐķÐłÐķÐ¡": 5525,
      "ĠÐ°Ð´ÑĭÐºÐ²Ð°ÑĤ": 5526,
      "ĠÐ¶ÐµÐ½ÑīÐ¸Ð½Ð¾Ð¹": 5527,
      "ÐĲÐ¢Ð¬": 5528,
      "ÑĳÐ¼Ð°": 5529,
      "ramework": 5530,
      "Ġproducts": 5531,
      "Ġrestric": 5532,
      "ÑģÐ¾ÐºÐ¸Ð¹": 5533,
      "ĠÐ²ÐºÑĥÑģÐ½Ð¾": 5534,
      "ĠTrai": 5535,
      "ĠÐ¿ÑĢÐ¸Ð½ÑĨÐ°": 5536,
      "ĠÑĥÑħÐ°Ð¶Ð¸Ð²Ð°Ð½Ð¸Ð¹": 5537,
      "54": 5538,
      "efit": 5539,
      "res": 5540,
      "Ġ00": 5541,
      "Ġals": 5542,
      "ÑĥÑĤÐµÑĩÐºÐ°": 5543,
      "Ð»Ð¾Ð¶": 5544,
      "ĠÑģÐ¸Ð»": 5545,
      "ÑĤÐ°Ð¹": 5546,
      "ĠÐŁÐĺÐ¨": 5547,
      "Ġbags": 5548,
      "ĠSec": 5549,
      "ĠÑĤÐ¾Ð±Ð¾Ð¹": 5550,
      "ĠÐ³Ð»Ð°": 5551,
      "ole": 5552,
      "Ġnumbers": 5553,
      "ully": 5554,
      "ify": 5555,
      "ĠEM": 5556,
      "ĠÐ»ÑİÐ±Ð¸ÑĤÐµ": 5557,
      "ĠÑĢÐ°Ð´Ð°": 5558,
      "Ð²Ð¾Ð½Ð¸ÑĤÐµ": 5559,
      "Ð°Ð»Ð¾Ð¼": 5560,
      "ugg": 5561,
      "Ġtrig": 5562,
      "ÐŀÐľÐ£": 5563,
      "ĠÐ½Ð¾Ð¼ÐµÑĢÐ¾ÑĩÐµÐº": 5564,
      "063": 5565,
      "ĠInternational": 5566,
      "ÐŁÐłÐĺÐĴÐķÐ¢": 5567,
      "ĠÑģÐ¸Ð¼Ð¿Ð¾ÑĤÐ¸ÑĩÐ½ÑĥÑİ": 5568,
      "Ġalso": 5569,
      ".-": 5570,
      "An": 5571,
      "Op": 5572,
      "cent": 5573,
      "och": 5574,
      "oft": 5575,
      "uff": 5576,
      "âĤ": 5577,
      "Ġ\\": 5578,
      "Ð°Ð»Ðµ": 5579,
      "ÑģÑĤÐµÐ¼": 5580,
      "Ġpain": 5581,
      "ĠÐ½Ð°ÑĪ": 5582,
      "ĠSouth": 5583,
      "Ġduty": 5584,
      "ÐŀÐ»Ñı": 5585,
      "ĠID": 5586,
      "Ð¡ÐµÑĢ": 5587,
      "ĠCorporation": 5588,
      "ĠMake": 5589,
      "ĠÐļÑįÑĪÐľÐ°ÑĪÐ¸Ð½Ð°": 5590,
      "emes": 5591,
      "Ð´ÑĥÐ°ÑĢÐ´": 5592,
      "Ġ04": 5593,
      "ĠÐ¿Ð¾Ð¿ÑĢÐ¾Ð±": 5594,
      "ÐµÐ½ÑĮÐºÑĥÑİ": 5595,
      "ĠÐºÐ¾Ð½ÐµÑĨ": 5596,
      "ĠÐĹÐ°Ð¿": 5597,
      "odaf": 5598,
      "Ð¾ÑĢÐ¾ÑĤ": 5599,
      "ĠÐĸÐ´Ñĥ": 5600,
      "loud": 5601,
      "Ġshut": 5602,
      "Ġfalling": 5603,
      "Ġbuys": 5604,
      "ĠExper": 5605,
      "Ġaccounts": 5606,
      "ĠÐ±Ð»Ð¾Ð½Ð´Ð¸Ð½ÐºÐ°": 5607,
      "ĠÐĺÐ½Ð³Ð°": 5608,
      "ĠÐ»Ð°ÑģÐºÐ°": 5609,
      "ĠÑģÐ»Ð°Ð´ÐºÐ¾Ð³Ð¾": 5610,
      "ĠInsurance": 5611,
      "Ġsentiment": 5612,
      "odafone": 5613,
      "39": 5614,
      ";)": 5615,
      "TC": 5616,
      "cle": 5617,
      "eam": 5618,
      "ĠÐŁÐ°Ð½": 5619,
      "ÑĤÐµÑģÑĮ": 5620,
      "Ġtom": 5621,
      "Ġwr": 5622,
      "ĠÑĥÑģÑĤÐ°Ð»Ð°": 5623,
      "Ġthird": 5624,
      "ÐļÐŀÐĽ": 5625,
      "ĠDo": 5626,
      "Ġ43": 5627,
      "Ġrequ": 5628,
      "umin": 5629,
      "Ð¥ÐŀÐłÐŀÐ¨": 5630,
      "ĠChinese": 5631,
      "Ġplant": 5632,
      "ĠÐ¾Ð±ÑīÐ¸ÑĤÐµÐ»ÑĮ": 5633,
      "ĠÐ¼ÑĥÐ¶ÑĩÐ¸Ð½Ðµ": 5634,
      "ĠÐºÐ°ÐºÐ°Ñı": 5635,
      "ĠInfra": 5636,
      "ĠÐ¥Ð°ÑĢÑĮ": 5637,
      "ĠÑģÐ¸ÑģÑĤÐµÐ¼": 5638,
      "ÐĲÐ¢ÐĲÐ®": 5639,
      "Ġapproval": 5640,
      "Ð¾Ð»Ð¾Ð´Ð°Ñı": 5641,
      "ĠÑģÐ¸Ð¼Ð¿Ð°ÑĤÐ¸ÑĩÐ½Ð¾Ð¹": 5642,
      "ÐŃÐ´ÑĥÐ°ÑĢÐ´": 5643,
      "Ġstrategy": 5644,
      "ÐµÑĩÑĥÑģÑĮ": 5645,
      "Ġchallenges": 5646,
      "ÐĿÐķÐľÐ£": 5647,
      "ĠÑĩÐ¸ÑģÑĤÑĭÐ¹": 5648,
      "omato": 5649,
      "ĠÐĺÐ»Ð¾Ð½Ð°": 5650,
      "ĠÐĴÐķÐ§ÐķÐłÐĿÐķÐľÐ£": 5651,
      "Go": 5652,
      "nov": 5653,
      "ÐµÐµÑĤ": 5654,
      "ÑĥÐ²ÐµÐ·Ñĥ": 5655,
      "ĠÑģÐ¾Ð±": 5656,
      "Ð¿Ð¾Ð¼": 5657,
      "Ġmixed": 5658,
      "ĠPuri": 5659,
      "Ġreforms": 5660,
      "ollo": 5661,
      "Ð·Ð°ÑĪÑĳÐ»": 5662,
      "ÑģÑĤÐ²Ð¾": 5663,
      "Ġ88": 5664,
      "ÐķÐĿÐ¯": 5665,
      "ĠChairman": 5666,
      "ĠVi": 5667,
      "Ġnote": 5668,
      "ĠÐ²ÐµÑĢÐ½Ð¸ÑģÑĮ": 5669,
      "Ġ186": 5670,
      "ĠÐ¾ÑĤÐ½Ð¾ÑĪÐµÐ½Ð¸Ñı": 5671,
      "Ġselling": 5672,
      "ĠÐ¿Ð¾Ð¾Ð±ÑīÐ°ÐµÐ¼ÑģÑı": 5673,
      "perform": 5674,
      "Ġasset": 5675,
      "Ð»ÑİÐ±Ð»Ñİ": 5676,
      "Ġ689": 5677,
      "ĠÐ»Ð¾ÐºÐ°Ð»Ð¾Ð¼": 5678,
      "ĠÑħÐ¾ÑĤÑıÑĤ": 5679,
      "ĠÐ¾Ð±ÑĬÑĳÐ¼Ð°": 5680,
      "ĠÐ¿ÑĢÐ¾Ð¿Ð°Ð»": 5681,
      "ĠMonetary": 5682,
      "Ġsavings": 5683,
      "Ġmaintain": 5684,
      "ÐŁÐŀÐļÐĲÐ¢ÐĲÐ®": 5685,
      "ĠÑģÐ¸ÑģÑĤÐµÐ¼Ðµ": 5686,
      "RE": 5687,
      "med": 5688,
      "ĠâĤ": 5689,
      "Ð²ÐµÑĤÐµ": 5690,
      "Ð´Ð¾ÐºÑĥÐ¿": 5691,
      "ĠÐºÑĥÐ¿": 5692,
      "Ġserv": 5693,
      "ĠâĢĵ": 5694,
      "ÑĢÐ¾ÑĤÐ¸Ð²": 5695,
      "Ġhis": 5696,
      "ÐµÐ¼ÐµÐ½": 5697,
      "ĠBull": 5698,
      "ĠFrid": 5699,
      "ĠÐ¾Ð±ÐµÑģÐ¿ÐµÑĩÐµÐ½": 5700,
      "ĠState": 5701,
      "ĠKarnataka": 5702,
      "ĠÐ¾Ð´Ð½Ñĥ": 5703,
      "ÑģÑĤÐ°Ð²Ð¸Ð»": 5704,
      "Ġtariffs": 5705,
      "ÑĭÑĤÐ½Ð°Ñı": 5706,
      "ĠÑģÐ¸Ð»ÑĮÐ½Ð¾Ð³Ð¾": 5707,
      "ĠÐ´ÑĢÑĥÐ¶Ð±Ñĭ": 5708,
      "ĠCompany": 5709,
      "Ġeasing": 5710,
      "ĠICRA": 5711,
      "ecutive": 5712,
      "ĠÐ¥Ð°ÑĢÑĮÐºÐ¾Ð²Ð°": 5713,
      "Ð´Ð¾ÐºÑĥÐ¿Ð¸Ð»": 5714,
      "ĠFriday": 5715,
      "CA": 5716,
      "grade": 5717,
      "oid": 5718,
      "Ð¼ÑĥÐ¶": 5719,
      "ÑĢÐ°Ð·": 5720,
      "Ġsn": 5721,
      "atives": 5722,
      "Ġframework": 5723,
      "ĠSol": 5724,
      "Ġmovers": 5725,
      "Ð¾Ð´ÐµÑĢ": 5726,
      "ÐĲÐ¯": 5727,
      "Ð¡ÐµÑĢÐ³ÐµÐ¹": 5728,
      "Ġwants": 5729,
      "Ġonline": 5730,
      "Ð¾ÑĩÑĮ": 5731,
      "ĠFirst": 5732,
      "ĠTw": 5733,
      "ĠTop": 5734,
      "Ð£Ð¢": 5735,
      "term": 5736,
      "Ġ;)": 5737,
      "ĠÐ²ÑĭÐ¿": 5738,
      "ĠStan": 5739,
      "ĠUSFDA": 5740,
      "Ġ900": 5741,
      "ĠÐĴÑģÐµ": 5742,
      "Stock": 5743,
      "SEBI": 5744,
      "Ð¿Ð¾Ð·Ð½Ð°Ðº": 5745,
      "Ġpayments": 5746,
      "ĠInterest": 5747,
      "ĠOne": 5748,
      "ĠÐ¾Ð´Ð¸Ð½Ð¾ÑĩÐµÑģÑĤÐ²Ð°": 5749,
      "ĠÐ¿Ð¾Ð´Ð°ÑĢÐ¾Ðº": 5750,
      "ĠÐ¿ÑĢÐ¸Ð³Ð»Ð°ÑģÐ¸ÑĤ": 5751,
      "ĠÐ¼Ð°ÐºÑģÐ¸Ð¼Ð°Ð»ÑĮÐ½Ð¾": 5752,
      "FS": 5753,
      "ci": 5754,
      "off": 5755,
      "Ð¸Ð²Ð°Ñİ": 5756,
      "ÐºÐ¸Ðµ": 5757,
      "Ġsk": 5758,
      "Ð³Ð´Ðµ": 5759,
      "Ġmor": 5760,
      "ĠÐ±Ð»Ð°": 5761,
      "ÐķÐ»ÐµÐ½Ð°": 5762,
      "ĠBJP": 5763,
      "ury": 5764,
      "ÐļÑĢÑĥÐ¿Ð½ÑĭÐ¹": 5765,
      "Ð¸ÑģÐ»Ð°Ð²": 5766,
      "ÐµÐ·Ð¶": 5767,
      "adh": 5768,
      "ĠUl": 5769,
      "ĠOff": 5770,
      "ĠÐ¿Ð¾ÑĢÑıÐ´": 5771,
      "Ġlosers": 5772,
      "ÑĳÐ½ÐºÐ¸": 5773,
      "ĠÐŁÐŀÐĹÐĿ": 5774,
      "Ġexpectations": 5775,
      "Ġtransform": 5776,
      "ĠÐ¿Ð°ÑĢÐ°": 5777,
      "Ġtechnolog": 5778,
      "ĠÐ±ÑĢÑİÐ½ÐµÑĤÐºÐ°": 5779,
      "ĠÑģÐ¾Ð¿Ð»Ð¸": 5780,
      "Ġdeadline": 5781,
      "ĠÐľÐŀÐķÐĻ": 5782,
      "ĠÐ¿Ð¾Ð·Ð½Ð°ÐºÐ¾Ð¼Ð»ÑİÑģÑı": 5783,
      "ĠÐĸÐĺÐĹÐĿÐĺ": 5784,
      "!)": 5785,
      "ICICI": 5786,
      "cra": 5787,
      "caps": 5788,
      "ough": 5789,
      "work": 5790,
      "Ð´ÑĢÐµÐ¹": 5791,
      "ĠÐ²ÑĢÐ°": 5792,
      "enn": 5793,
      "ĠÐ½ÐµÐ¾Ð±": 5794,
      "ĠÐ¿Ð¾ÑĪÑĳÐ»": 5795,
      "isions": 5796,
      "ĠÑĤÑĢÐµÐ½Ð´": 5797,
      "ĠÑĤÐµÐ¹Ðº": 5798,
      "ĠÐ³ÑĢÐ°ÑĦ": 5799,
      "Ġstand": 5800,
      "ĠÐĴÑħÐ¾Ð¶Ñĥ": 5801,
      "Ġ350": 5802,
      "ĠDigital": 5803,
      "à¤²": 5804,
      "ĠÐ²ÑĭÑģÑĤÐ°Ð²Ð¸Ð»": 5805,
      "ĠLockdown": 5806,
      "ĠÑĦÐ¾ÑĢÐ¼": 5807,
      "Ġvirus": 5808,
      "Ð£Ðĵ": 5809,
      "ĠÐ»ÑİÐ±Ð¸ÑĤÑĮ": 5810,
      "ĠÑĤÐ°ÐºÐ¸Ð¼": 5811,
      "ĠÐ¶ÐµÐ²Ð°ÑĤÑĮ": 5812,
      "ĠKey": 5813,
      "Ġlocal": 5814,
      "ÐĸÐµÐ½ÑīÐ¸Ð½Ð°": 5815,
      "Ġspending": 5816,
      "Ġwho": 5817,
      "Ġrevises": 5818,
      "acro": 5819,
      "ĠMotor": 5820,
      "Ð¾ÑĢÐ¾Ð¶ÑĮÐµ": 5821,
      "ĠÐ¿ÑĢÐ¾Ð±Ð¸Ð»Ð°": 5822,
      "ĠÐ·Ð°Ð»ÐµÑĤÐ°Ð¹": 5823,
      "ĠÐ³Ð¾Ð»Ð¾Ð²Ð°": 5824,
      "ification": 5825,
      "ĠÑģÐ¾Ð¿ÑĢÐ¾ÑĤÐ¸Ð²": 5826,
      "Ġmoves": 5827,
      "Ġrespons": 5828,
      "ĠÐļÑģÐµÐ½Ñı": 5829,
      "Ġanswers": 5830,
      "ĠÐļÐŀÐĿÐ¤": 5831,
      "ĠÐ»ÐµÑģÐµÐ½ÐºÐ¾Ð¹": 5832,
      "ĠÐ³ÑĢÐ°ÑĦÐ¸ÐºÑĥ": 5833,
      "ĠÑģÐ¾Ð¿ÑĢÐ¾ÑĤÐ¸Ð²Ð»ÐµÐ½Ð¸Ðµ": 5834,
      "78": 5835,
      "ÑĢÐ¾Ð³Ð¾": 5836,
      "ĠÐ´Ð¾ÑģÑĤ": 5837,
      "ÑİÑĤ": 5838,
      "ances": 5839,
      "Ġsuc": 5840,
      "Ð¿Ð»": 5841,
      "ĠÐ¾ÑĤÐ²": 5842,
      "Ð¾Ð´Ð¸Ð½": 5843,
      "ĠBrokerages": 5844,
      "ute": 5845,
      "ĠÑĥÐ´Ð°": 5846,
      "ĠAct": 5847,
      "ĠÐ£Ð´Ð²Ð°": 5848,
      "ÐºÐ¸Ð´": 5849,
      "Ġ08": 5850,
      "ĠEurope": 5851,
      "ÑģÐºÐ¾Ð³Ð¾": 5852,
      "Ġbeats": 5853,
      "ĠÐĽÐ£Ð§": 5854,
      "Ġspl": 5855,
      "ources": 5856,
      "Ġadm": 5857,
      "uzz": 5858,
      "ĠÐ´Ð°Ð¼Ñĭ": 5859,
      "ĠÐ¥ÐŀÐ§Ð£": 5860,
      "Ġdiscuss": 5861,
      "ĠÐĴÐ°Ð»ÐµÐ½ÑĤ": 5862,
      "What": 5863,
      "ÐĲÐĻÐ¢Ðķ": 5864,
      "ÐĴÑĭÑģÐ¾ÐºÐ¸Ð¹": 5865,
      "Ġsettles": 5866,
      "Ġbenefit": 5867,
      "ĠSurvey": 5868,
      "ĠÐ´ÐµÑĢÐ·": 5869,
      "ĠÐ¸ÑģÐ¿Ð¾Ð»": 5870,
      "ÐĴÐ¡Ð¢ÐłÐķÐ§Ðĺ": 5871,
      "ÐĴÐ»Ð°Ð´Ð¸ÑģÐ»Ð°Ð²": 5872,
      "ĠÐ¿ÑĢÐ¸ÐºÐ»ÑİÑĩ": 5873,
      "ÑĤÐ¸ÑħÐ¾": 5874,
      "ÐĺÐĿÐ¢ÐķÐłÐķÐ¡ÐĿ": 5875,
      "ĠÐ£Ð´Ð²Ð°Ð¸Ð²Ð°Ñİ": 5876,
      "ÑĥÐµÐ´Ñĥ": 5877,
      "Ġcos": 5878,
      "Ġcorr": 5879,
      "Ġpact": 5880,
      "itor": 5881,
      "Ð»Ð¸ÑĩÐ½Ð¾": 5882,
      "ÐĲÑĢÑĤÐµÐ¼": 5883,
      "Ġstudy": 5884,
      "ĠÐĲÐ½Ñı": 5885,
      "ĠÐľÐ°ÑĢ": 5886,
      "ÐłÐ¯ÐĶÐŀÐľ": 5887,
      "change": 5888,
      "Ġbeen": 5889,
      "ansion": 5890,
      "ĠÐ¾Ð±ÑīÐ°ÑĤÑĮÑģÑı": 5891,
      "Ġrevival": 5892,
      "Ġconsumption": 5893,
      "Ġcentre": 5894,
      "ÐĽÐ®Ð¡Ðĺ": 5895,
      "ÐŁÑĢÐ¾ÑģÑĤ": 5896,
      "tract": 5897,
      "ÐĲÐĿÐ¢Ðł": 5898,
      "Ġdeclar": 5899,
      "ĠIsrael": 5900,
      "Ġfutures": 5901,
      "Ġstartups": 5902,
      "ĠÑĥÑģÐ¿Ð¾ÐºÐ¾Ð¹": 5903,
      "The": 5904,
      "hor": 5905,
      "wheel": 5906,
      "Ġ****": 5907,
      "Ð²Ð·ÑıÐ»": 5908,
      "ÑĮÑİ": 5909,
      "Ð¿Ð°": 5910,
      "Ġaims": 5911,
      "Ð¾Ð²Ð»ÐµÑĤ": 5912,
      "ĠSME": 5913,
      "ĠÐ±Ð°ÑĢÐ±Ð¸": 5914,
      "ĠÐĶÐŀ": 5915,
      "ÐµÐ»Ðµ": 5916,
      "ĠÐ¡ÐµÑĢ": 5917,
      "ĠÑĥÐ³": 5918,
      "igit": 5919,
      "Ð°ÑİÑĤ": 5920,
      "ÐļÐ£": 5921,
      "eeks": 5922,
      "harya": 5923,
      "ĠEicher": 5924,
      "ĠÐ´Ð°Ð¹ÑĤÐµ": 5925,
      "Ð¬ÐĿÐŀ": 5926,
      "Ġexpansion": 5927,
      "ÑģÑĤÑĢÐµÑĩÑĥÑģÑĮ": 5928,
      "ĠÐĶÐķÐĴÐ£Ð¨ÐļÐķ": 5929,
      "Ġimposes": 5930,
      "ĠÐ²ÐµÑĢÐ½ÑĥÑĤÑĮÑģÑı": 5931,
      "ĠÐ½Ð°Ð´Ð¾ÐµÐ»Ð¸": 5932,
      "Ġrealty": 5933,
      "Ð¿Ð°ÑĢÐ½Ð¸": 5934,
      "Ġrele": 5935,
      "Ġfaces": 5936,
      "Ġproposes": 5937,
      "Ġimprove": 5938,
      "Ġprobe": 5939,
      "Ġsubsidy": 5940,
      "Ġready": 5941,
      "ĠÑįÑĤÐ¾Ð¹": 5942,
      "ÐŀÐ¡Ð¢ÐĲÐĴÐ¬": 5943,
      "14": 5944,
      "56": 5945,
      "ĠÑģÐºÐ¸Ð´": 5946,
      "ĠÐ²Ð°ÑĪ": 5947,
      "Ð¿Ð»Ð¾Ñħ": 5948,
      "Ġcities": 5949,
      "Ġiniti": 5950,
      "ĠSam": 5951,
      "ÑĢÐ¾ÑģÑĤ": 5952,
      "ÐĿÐŀÐ¨": 5953,
      "Ġgr": 5954,
      "ĠÐļÑĢÐ¸ÑģÑĤÐ¸": 5955,
      "ĠPi": 5956,
      "ĠÐľÐķÐĿÐ¯": 5957,
      "ĠHC": 5958,
      "ĠHold": 5959,
      "Ġ89": 5960,
      "indo": 5961,
      "Ġchanges": 5962,
      "ĠÐ¾Ð±ÑīÐµÐ½": 5963,
      "Ġunit": 5964,
      "ĠÐ¶ÐµÐ»Ð°ÐµÑĤ": 5965,
      "ĠÐ¾Ð´Ð¸Ð½Ð¾ÐºÐ¾": 5966,
      "ÑĤÐµÐ»ÑĮÐ½Ð¾": 5967,
      "traTech": 5968,
      "ĠÐ´Ð°Ð²Ð°Ð¹": 5969,
      "ĠÐºÐ²Ð°ÑĢÑĤÐ¸ÑĢÐ°": 5970,
      "ĠÐ²Ð°Ð¶": 5971,
      "Ġevery": 5972,
      "Ġopportunity": 5973,
      "ĠÑĢÐµÐ±ÐµÐ½Ð¾Ðº": 5974,
      "ĠÐ¿ÑĢÐ¾ÑģÐ°Ð´ÐºÐµ": 5975,
      "uminium": 5976,
      "Ð¥ÐŀÐłÐŀÐ¨ÐĺÐĻ": 5977,
      "ĠÑĥÑģÐ¿Ð¾ÐºÐ¾Ð¹ÑĤÐµÑģÑĮ": 5978,
      "ĠÑģÐºÐ¸Ð´ÐºÐ°": 5979,
      "60": 5980,
      "commerce": 5981,
      "jarat": 5982,
      "mon": 5983,
      "yush": 5984,
      "ĠÐ½ÐµÐ¿": 5985,
      "Ð³Ð¾Ð²Ð¾": 5986,
      "Ġrat": 5987,
      "Ġrob": 5988,
      "Ġbrokerages": 5989,
      "ĠÐĿÐ°": 5990,
      "Ġweeks": 5991,
      "ĠPrad": 5992,
      "estive": 5993,
      "ream": 5994,
      "ĠÐºÑĢÐ°ÑģÐ¾Ðº": 5995,
      "ĠÐ±ÑĭÐ»": 5996,
      "Ġsharehold": 5997,
      "ĠÐ§ÐĲ": 5998,
      "Ġspike": 5999,
      "ĠÑĢÐ°Ð·Ð²Ð»ÐµÑĩ": 6000,
      "ĠÐ´Ð¾Ð±Ð°Ð²Ð¸ÑĤ": 6001,
      "Ġtransact": 6002,
      "ĠFPIs": 6003,
      "ĠÐºÐ¾Ð¼Ð¿Ð°Ð½": 6004,
      "ĠÐ²ÑģÑĤÑĢÐµÑĤÐ¸ÑĤÑĮÑģÑı": 6005,
      "ÐļÑĢÐ°ÑģÐ¸Ð²Ð°Ñı": 6006,
      "ĠÐ°Ð´ÐµÐºÐ²Ð°ÑĤÐ½ÑĭÐµ": 6007,
      "ĠÐ¿ÑĢÐ°Ð·Ð´": 6008,
      "ĠIDBI": 6009,
      "53": 6010,
      "bindo": 6011,
      "cs": 6012,
      "eak": 6013,
      "ever": 6014,
      "fer": 6015,
      "ied": 6016,
      "Ġ=": 6017,
      "ÑĪÐ°Ñı": 6018,
      "ĠÐºÐµÐ¼": 6019,
      "ĠÐ½Ð°Ð¾Ð±": 6020,
      "ĠSup": 6021,
      "Ð¾Ð´Ð°": 6022,
      "Ð»ÑĮÐ³Ð°": 6023,
      "ĠÐ¶Ð¸ÑĢ": 6024,
      "ĠAnd": 6025,
      "ĠÑĩÐµÐ¼": 6026,
      "ular": 6027,
      "Ð¶ÐµÑĤÐµ": 6028,
      "ĠGrid": 6029,
      "ĠEst": 6030,
      "Ġbeat": 6031,
      "Ð¿Ð¾Ð·Ð½": 6032,
      "ĠÐ³Ð¾ÑĤÐ¾Ð²ÑĭÐµ": 6033,
      "Ġenter": 6034,
      "ĠMorning": 6035,
      "ĠSaudi": 6036,
      "ĠÑģÐ¾Ð²Ð¼ÐµÑģÑĤ": 6037,
      "ĠÑģÐºÐ°Ð¶ÐµÑĤÐµ": 6038,
      "ĠÐĹÐ°ÐºÑĥÐ¿Ð°Ñİ": 6039,
      "ĠÐ¾ÑĤÐºÑĢÐ¾Ð²ÐµÐ½Ð¸Ñı": 6040,
      "ĠâĤ¹": 6041,
      "ĠÐ½Ð°Ð¾Ð±Ð¾ÑĢÐ¾ÑĤ": 6042,
      "71": 6043,
      "ban": 6044,
      "lem": 6045,
      "Ð½ÐµÐ¿": 6046,
      "Ð¸ÑīÐµÑĤ": 6047,
      "ĠÑģÑĥ": 6048,
      "ĠÐ´ÑĥÑĢ": 6049,
      "Ġsebi": 6050,
      "Ġpast": 6051,
      "Ġtowards": 6052,
      "ĠÐ·Ð°ÐºÑĥÐ¿Ð°Ñİ": 6053,
      "Ġhad": 6054,
      "tern": 6055,
      "ĠDep": 6056,
      "Ġrej": 6057,
      "ÐĽÐĺ": 6058,
      "Ġ53": 6059,
      "à¤ľ": 6060,
      "Ġ99": 6061,
      "ĠÑģÐ»Ð¸Ð²Ð°ÑİÑĤ": 6062,
      "ĠÐ¿Ð¾Ð»Ð¾Ð²": 6063,
      "ĠÐ¾ÑĤÑģÐºÐ¾Ðº": 6064,
      "Ġraising": 6065,
      "ĠÑģÐºÑĢÐ¾Ð¼": 6066,
      "Ð²ÐµÐ·ÐµÑĤ": 6067,
      "ÐķÐĶÐĺ": 6068,
      "ĠÐ¿ÑĢÐ¾ÑģÐµÐ»": 6069,
      "ÐŁÑĢÐ¾Ð¼Ð¢ÐµÑħ": 6070,
      "ĠÐºÐµÐºÑģÐ¾Ð¼": 6071,
      "Ġpartnership": 6072,
      "ÐłÐ°Ð·Ð³Ð¾Ð²Ð¾": 6073,
      "Ġwithdraw": 6074,
      "ĠÑģÐ¾Ð·Ð´Ð°Ð½Ð¸Ñı": 6075,
      "Ġnegative": 6076,
      "Ġoptim": 6077,
      "ĠÐ¶Ð¸ÑĢÐ½ÑĭÐ¹": 6078,
      "ĠÐ´ÑĥÑĢÐ½Ð¸": 6079,
      "ÐłÐ°Ð·Ð³Ð¾Ð²Ð¾ÑĢÑĭ": 6080,
      "41": 6081,
      "ira": 6082,
      "ĠÑģÑĢÐ¾ÑĩÐ½Ð¾": 6083,
      "ining": 6084,
      "ÑħÐ¾ÑĢÐ¾ÑĪÐ¾": 6085,
      "Ġfind": 6086,
      "ĠÐ¿Ð¾Ð±": 6087,
      "ĠIMF": 6088,
      "ÐķÐĸ": 6089,
      "ensive": 6090,
      "iven": 6091,
      "ĠÐĳÐķÐĶ": 6092,
      "ĠÑĢÐ°Ð±Ð¾": 6093,
      "Ð°Ð±ÑĥÑĢ": 6094,
      "ÑĸÐ²": 6095,
      "crore": 6096,
      "ĠÐ¿Ð¾Ð¶Ð°Ð»Ðµ": 6097,
      "Ġposs": 6098,
      "ĠÐ´ÐµÐ²ÑĩÐµÐ½ÐºÐ¸": 6099,
      "ÐĶÐķÐĴÐ£Ð¨Ðļ": 6100,
      "urobindo": 6101,
      "Inflation": 6102,
      "ĠPaytm": 6103,
      "ĠÐĲÐ»ÐµÐºÑģÐ°Ð½Ð´ÑĢÐ°": 6104,
      "Ð²ÐµÑģÐµÐ»Ð¸": 6105,
      "ĠÑħÐ¾ÑĤÐµÐ»": 6106,
      "ĠÐ½Ð¾Ð³Ð°Ð¼Ð¸": 6107,
      "ĠStanley": 6108,
      "ĠÐ¿Ð¾ÑĢÑıÐ´Ð¾Ñĩ": 6109,
      "74": 6110,
      "ÑģÐºÐ¸": 6111,
      "ĠÐ½Ð¸ÐºÑĤÐ¾": 6112,
      "Ð¼Ñĥ": 6113,
      "Ġten": 6114,
      "ĠÐ²Ð¼ÐµÑģÑĤ": 6115,
      "ĠÐ·Ð´ÐµÑģÑĮ": 6116,
      "ĠRam": 6117,
      "Ġmn": 6118,
      "ĠÐ¿ÑĢÐ¾Ðº": 6119,
      "ĠÐ±Ð¾ÑĢ": 6120,
      "ÑĳÐ·": 6121,
      "Ġlift": 6122,
      "ĠMeh": 6123,
      "Ġgro": 6124,
      "ivers": 6125,
      "ected": 6126,
      "ĠQIP": 6127,
      "ĠÑģÐ°Ð¼Ð¾Ð¹": 6128,
      "ĠÐ¼ÑĥÐ¶Ð¸ÐºÐ°": 6129,
      "ĠÐ¿ÑĢÐ¾ÑĦ": 6130,
      "itional": 6131,
      "intech": 6132,
      "ÑıÑīÐµÐ¹": 6133,
      "ÐŁÐ°ÑĢÐº": 6134,
      "ĠÐ¶Ð´Ð°ÑĤÑĮ": 6135,
      "Ð±ÑĥÐ´Ñĥ": 6136,
      "Ð¸Ð°ÐŁÐ°ÑĢÐº": 6137,
      "ĠÐ½Ð¸Ð¶Ðµ": 6138,
      "Ġcrosses": 6139,
      "Infosys": 6140,
      "ĠÐľÐµÐ´Ð¸Ð°ÐŁÐ°ÑĢÐº": 6141,
      "ĠÐ±Ð¾Ð»Ð¸ÑĤ": 6142,
      "ĠÐľÐĺÐĽÐ£Ð®": 6143,
      "ĠElectric": 6144,
      "Ð§ÐķÐĿÐļÐĺ": 6145,
      "ĠÐ»ÑİÐ±Ð¸ÑĤÐµÐ»Ð¸": 6146,
      "ĠÐĳÐķÐĶÐĿÐ«ÐĻ": 6147,
      "hone": 6148,
      "ned": 6149,
      "Ġ..": 6150,
      "ÑĤÑģ": 6151,
      "Ð²Ð¾Ð¹": 6152,
      "ĠÐ½ÐµÐ¹ÑĢÐ¾Ð¡Ð¾ÑĦÑĤ": 6153,
      "Ð¿ÑĢÐ¾Ðº": 6154,
      "ators": 6155,
      "ÑĤÐ°Ð½ÑĨÑĥÑİ": 6156,
      "ĠÐ½ÐµÐ²ÐµÑģÑĤ": 6157,
      "Ġtot": 6158,
      "Ġbal": 6159,
      "ĠÐĿÐŀÐł": 6160,
      "Ġhousing": 6161,
      "Ġ62": 6162,
      "ĠÐ±ÑĭÐ»Ð°": 6163,
      "aves": 6164,
      "Ġslash": 6165,
      "Ð¼Ð¸Ð»Ð°Ñı": 6166,
      "ĠÐ¿Ð¾ÑĤÐ¾Ð¼Ñĥ": 6167,
      "ather": 6168,
      "ÐŀÐĴÐ¬": 6169,
      "ĠÐŁÐłÐĺÐ¯Ð¢": 6170,
      "point": 6171,
      "Ġrelief": 6172,
      "Ð¨ÐĲÐ¯": 6173,
      "Ġadvis": 6174,
      "Ġdeposits": 6175,
      "ĠÐ¡ÐĲÐľÐĲÐ¯": 6176,
      "ÑĢÐ°Ð½Ñģ": 6177,
      "ĠÐ²ÐµÑģÐµÐ»Ð¾Ð³Ð¾": 6178,
      "ydro": 6179,
      "ĠÑĢÐ¾Ð·Ð²ÐµÑģÐµÐ»Ð¸": 6180,
      "Ġfinal": 6181,
      "ĠÐºÑĢÐ°Ð¹": 6182,
      "ĠÐ¶Ð¸Ð²Ñĥ": 6183,
      "Jio": 6184,
      "MA": 6185,
      "tree": 6186,
      "ĠÑİ": 6187,
      "ĶÐĿÐ«ÐĻ": 6188,
      "Ð»Ðľ": 6189,
      "Ġsumm": 6190,
      "ĠÐ¼Ð¸Ð»Ð°": 6191,
      "Ð¶Ð°Ñı": 6192,
      "ĠÐĿÐ¾": 6193,
      "ĠII": 6194,
      "Ġlab": 6195,
      "ÐµÐ¹Ð»Ðľ": 6196,
      "ÐĿÐķÐ¢": 6197,
      "Ġnar": 6198,
      "ĠFl": 6199,
      "Ð°Ð»ÑĮÑĩÐ¸ÐºÐ¸": 6200,
      "thqu": 6201,
      "ĠÐľÐ°ÑĪÐ°": 6202,
      "ĠÐľÐ°ÑĢÐ¸Ð½Ð°": 6203,
      "ĠEd": 6204,
      "ĠÐµÐµ": 6205,
      "ĠWith": 6206,
      "ĠÐ¸Ð·Ð²": 6207,
      "Ġ63": 6208,
      "ĠÐŀÑģÑĤÐ°Ð²": 6209,
      "ĠÐĸÐĶ": 6210,
      "indtree": 6211,
      "Ġwhen": 6212,
      "Ġseas": 6213,
      "Ġloses": 6214,
      "Ġairports": 6215,
      "ĠThese": 6216,
      "ĠÐŀÐ¢ÐĿÐŀÐ¨": 6217,
      "aways": 6218,
      "ĠBritannia": 6219,
      "Ġvolum": 6220,
      "Ġvolatile": 6221,
      "Union": 6222,
      "ĠUpd": 6223,
      "ĠÐ¿Ð°Ð¿Ñĥ": 6224,
      "Ġstraight": 6225,
      "ÐľÐĲÐĽÐ¬": 6226,
      "ĠApollo": 6227,
      "ĠÐłÐ¸ÑĤÐµÐ¹Ð»Ðľ": 6228,
      "Ġtomorrow": 6229,
      "ĠÐłÐ¸ÑĤÐµÐ¹Ð»ÐľÐ°ÑĢÑĤ": 6230,
      "ll": 6231,
      "retary": 6232,
      "tr": 6233,
      "Ð°Ð»Ð°": 6234,
      "ones": 6235,
      "Ġsize": 6236,
      "ali": 6237,
      "Ġder": 6238,
      "ÐĲÐ»ÐµÐ½Ð°": 6239,
      "Ġwind": 6240,
      "ÐŁÐ»ÑİÑģ": 6241,
      "ĠÐĲÐ´Ð¼Ð¸Ð½": 6242,
      "Ð£ÑģÐ¿ÐµÑĪÐ½ÑĭÐ¹": 6243,
      "unic": 6244,
      "ÐľÐĺÐĿ": 6245,
      "Ġ51": 6246,
      "ĠÐ¢ÐķÐľ": 6247,
      "Ġattract": 6248,
      "Ġyet": 6249,
      "avi": 6250,
      "ĠÐĽÐ¸": 6251,
      "Ð¾Ð»ÑĮÐ·": 6252,
      "Ġrecession": 6253,
      "eals": 6254,
      "prise": 6255,
      "ormer": 6256,
      "Ġappro": 6257,
      "ĠCredit": 6258,
      "ÐĿÐĺÐļÐŀÐĽ": 6259,
      "Ġsignals": 6260,
      "ĠÐ¼Ð¸Ð»ÑĥÑİ": 6261,
      "ĠÐĴÐ°Ð»Ñı": 6262,
      "ĠÐ¿ÑĢÐ¾Ð²ÐµÐ´Ñĥ": 6263,
      "ĠÐľÐµÐ´ÐŁÐ»ÑİÑģ": 6264,
      "ÑīÐµÑģÑĤÐ²": 6265,
      "ĠÐĴÐłÐķÐĶÐĿÐ«ÐĻ": 6266,
      "ĠÐ²ÐµÑĩÐµÑĢ": 6267,
      "Ġoverseas": 6268,
      "Ġreclaims": 6269,
      "ĠExperts": 6270,
      "ÐµÐ·Ð¶Ð°Ð¹": 6271,
      "ĠÐĽÐ£Ð§Ð¨ÐĲÐ¯": 6272,
      "ÐŁÑĢÐ¾ÑģÑĤÐ°Ñı": 6273,
      "ĠÐ¿ÑĢÐ¾ÑĦÐµÑģÑģÐ¸Ð¾Ð½Ð°Ð»ÑĮÐ½Ð¾": 6274,
      "ÐĿÐĺÐļÐŀÐĽÐĲÐĻ": 6275,
      "dle": 6276,
      "rd": 6277,
      "ÑħÑĥÐ´": 6278,
      "ĠÐ¸Ð´Ðµ": 6279,
      "aly": 6280,
      "ales": 6281,
      "ĠÐ¾ÑĤÐ²ÐµÐ·ÐµÑĤ": 6282,
      "Ġrange": 6283,
      "Ġbill": 6284,
      "ĠÐ·Ð²": 6285,
      "ÐĲÐ¨": 6286,
      "Ġland": 6287,
      "Ġlink": 6288,
      "ÐĿÑĥ": 6289,
      "ĠÐļÐ¸Ðµ": 6290,
      "ĠTim": 6291,
      "ÐĽÐ¾Ð³": 6292,
      "ÐµÐ½ÑĮÐºÐ¾Ð³Ð¾": 6293,
      "ĠÑĤÐ°Ð½ÑĨÑĥÑİ": 6294,
      "ĠÐ¢ÑĢÐ°Ð½Ñģ": 6295,
      "Ġbeing": 6296,
      "Ġimports": 6297,
      "Ġspeed": 6298,
      "Ð°Ð´Ð¼": 6299,
      "Ġinternational": 6300,
      "Ġcontrol": 6301,
      "Ġlosing": 6302,
      "ĠInvestment": 6303,
      "Ġcountry": 6304,
      "Ġputs": 6305,
      "Ġhalf": 6306,
      "Ġpackage": 6307,
      "ĠBengaluru": 6308,
      "Ġservice": 6309,
      "ĠÐ¢ÑĢÐ°Ð½ÑģÐĽÐ¾Ð³": 6310,
      "FO": 6311,
      "tech": 6312,
      "yn": 6313,
      "Ð½Ð¸ÑĤ": 6314,
      "Ð»ÑĭÐµ": 6315,
      "ĠÑģÐ¸Ñħ": 6316,
      "erate": 6317,
      "ÐµÐ½ÑĤ": 6318,
      "ores": 6319,
      "Ġrs": 6320,
      "Ð½Ð°ÑģÑĤ": 6321,
      "ĠÐ»ÐµÐ´Ð¸": 6322,
      "iron": 6323,
      "ĠÐłÐĲÐĶ": 6324,
      "ĠÐ°Ð½": 6325,
      "chiev": 6326,
      "Ġlog": 6327,
      "Ð°ÑıÑĤÐµÐ»ÑĮÐ½Ð°Ñı": 6328,
      "maz": 6329,
      "Ġwhile": 6330,
      "à¥ģ": 6331,
      "ĠÐ²ÑģÑĤÑĢÐµÑĩÐĿÐĺÐļÐŀÐĽÐĲÐĻ": 6332,
      "ĠÐ´Ð¾Ð±ÑĢÐ¾Ð¹": 6333,
      "Ġsells": 6334,
      "Ġacquire": 6335,
      "Ġaddress": 6336,
      "ĠÑĩÐ°ÑĤÑĸ": 6337,
      "Ġmargins": 6338,
      "ĠMinistry": 6339,
      "Ġcharge": 6340,
      "ursday": 6341,
      "ÑĢÐ¾Ð²Ð°Ð½Ð¾": 6342,
      "Ġlimit": 6343,
      "ĠÐ´Ð»Ð¸Ð½Ð½ÑĭÐ¼Ð¸": 6344,
      "Ð½ÑĥÐ¶Ð½Ð°": 6345,
      "ĠÑĥÐ²Ð¸Ð´": 6346,
      "ĠÐ·Ð°ÑĢÐµÑĶÑģÑĤÑĢÐ¾Ð²Ð°Ð½Ð¾": 6347,
      "ĠÐ±ÑĥÐ»Ð¾": 6348,
      "ĠÐ±Ð¾ÑĢÑī": 6349,
      "),": 6350,
      "Big": 6351,
      "aff": 6352,
      "ĠÑģÑİ": 6353,
      "ÑĪÐµÐ´": 6354,
      "Ġsecurity": 6355,
      "ÑĤÐ°ÑĢ": 6356,
      "Ġfound": 6357,
      "Ð³Ð¾ÑĢÑı": 6358,
      "Ġreliance": 6359,
      "rod": 6360,
      "ĠÐĶÐĲÐĴ": 6361,
      "ĠBand": 6362,
      "uted": 6363,
      "ĠÑĥÑĤÐµ": 6364,
      "ention": 6365,
      "ĠÑģÐ¿Ð°ÑĤÑĮ": 6366,
      "Ð¸Ð³ÑĥÑĢ": 6367,
      "iple": 6368,
      "ĠÐ¿ÑĢÐµÑģÑĤÐ¸": 6369,
      "ibility": 6370,
      "ĠÑĥÐ¼Ð½Ð¾Ð³Ð¾": 6371,
      "Ġsoar": 6372,
      "Ġreduc": 6373,
      "Ġturns": 6374,
      "ÑĢÑİÐ½ÐµÑĤÐºÐ°": 6375,
      "ificant": 6376,
      "ĠÐ·Ð°Ð¿Ð¾ÑĢÐ¾Ð¶ÑĮÐµ": 6377,
      "Ġupdate": 6378,
      "ĠÐļÐłÐĲÐ¡ÐĺÐĴ": 6379,
      "ĠDevelop": 6380,
      "ĠÐ²Ð°Ð¶Ð½ÐµÐµ": 6381,
      "ĠÐ²Ð¼ÐµÑģÑĤÐµ": 6382,
      "Ġtotal": 6383,
      "mazon": 6384,
      "ĠÐ¿ÑĢÐµÑģÑĤÐ¸Ð¶": 6385,
      "79": 6386,
      "Bs": 6387,
      "ÑģÐ¾": 6388,
      "ĠÐ¾Ð³Ð¾ÑĢ": 6389,
      "onet": 6390,
      "Ġfav": 6391,
      "Ð¶ÐµÐ½ÑīÐ¸Ð½Ð°": 6392,
      "Ġrbi": 6393,
      "Ġmot": 6394,
      "ÐĲÐĳ": 6395,
      "Ð°Ð½Ð¾Ð²": 6396,
      "ĠÐ¡Ð¢Ðł": 6397,
      "ĠBrok": 6398,
      "ĠAb": 6399,
      "Ð»Ð°Ð½Ð°": 6400,
      "ÐŁÐĽ": 6401,
      "ĠÐłÑĥÑģ": 6402,
      "ĠÐľÑĥÐ¶ÑĩÐ¸Ð½Ñĭ": 6403,
      "ĠDel": 6404,
      "à¤Ĺ": 6405,
      "agger": 6406,
      "ÐĵÐŀ": 6407,
      "Ġrevive": 6408,
      "ÐŀÐ§ÐļÐĺ": 6409,
      "ĠÐ½ÑĥÐ¶Ð½Ð¾": 6410,
      "ĠZinc": 6411,
      "ĠÑĤÐ²Ð¾Ñı": 6412,
      "ĠPresident": 6413,
      "ÐĴÑĭÑħÐ¾Ð´": 6414,
      "ĠÐĶÐµÐ²ÑĥÑĪÐºÑĥ": 6415,
      "Ġappoints": 6416,
      "Ð´Ð¸Ð½ÑģÑĤÐ²ÐµÐ½": 6417,
      "Ġemployees": 6418,
      "Airtel": 6419,
      "ĠPreview": 6420,
      "ĠÑħÐ»Ð¾Ð¿ÑĨ": 6421,
      "ĠÐ¿ÑĢÐ¸ÐºÐ»ÑİÑĩÐµÐ½Ð¸Ð¹": 6422,
      "Tr": 6423,
      "TCS": 6424,
      "ful": 6425,
      "lear": 6426,
      "less": 6427,
      "ľÐ¯": 6428,
      "Ð²Ð¾": 6429,
      "ÑĮÑĳÐ·": 6430,
      "Ð´Ð¾Ð²Ð»ÐµÑĤ": 6431,
      "ÑĪÐºÐ¸": 6432,
      "Ġsit": 6433,
      "Ġsecurities": 6434,
      "ĠÐŁÐŀÐĽ": 6435,
      "Ġfast": 6436,
      "Ð½Ð¾ÑĩÐºÐ°": 6437,
      "Ð°Ð½ÑĤÐ°": 6438,
      "Ð°Ð½Ð¸Ðµ": 6439,
      "Ð°ÑĤÐ¸ÑĤÐµ": 6440,
      "Ġstreak": 6441,
      "ÐŁÐ¾ÑģÑĤÐ°Ð²ÑĮ": 6442,
      "upin": 6443,
      "Ð¾ÑģÑĤÐ¾Ñı": 6444,
      "iring": 6445,
      "Ð£Ð´Ð¾Ð²Ð»ÐµÑĤ": 6446,
      "Ð¾Ð³Ð³Ð¾": 6447,
      "Ð¾Ð¿ÑĭÑĤÐ½Ð°Ñı": 6448,
      "Ð¾Ð·Ð¸ÑĤ": 6449,
      "ĠÐ»ÑİÐ±Ð¾Ð³Ð³Ð¾": 6450,
      "Ġclar": 6451,
      "izens": 6452,
      "Ġtakeaways": 6453,
      "ĠÐ±Ð¾Ð»ÑĮÑĪ": 6454,
      "ĠÐ¿Ð°Ð·Ð½Ð°ÐºÐ¾Ð¼": 6455,
      "Ġpeak": 6456,
      "ÐŁÐłÐĺ": 6457,
      "ĠGujarat": 6458,
      "ÐĲÐ½Ð¶ÐµÐ»Ð°": 6459,
      "Ð¸Ð·Ð½ÐµÑģ": 6460,
      "ÐĸÐķÐĿÐ©": 6461,
      "Ð²Ð¾ÑĢÑİ": 6462,
      "Ġsplit": 6463,
      "Ð¿ÑĢÐ¾ÐºÐ°ÑĤÐ¸ÑĤÐµ": 6464,
      "Ġnarrow": 6465,
      "ĠÐ¿ÑĢÐµÑģÑĤÐ¸Ð¶Ð½Ð¾Ð¼": 6466,
      "Ð£Ð´Ð¾Ð²Ð»ÐµÑĤÐ²Ð¾ÑĢÑİ": 6467,
      "'.": 6468,
      "AIL": 6469,
      "Jet": 6470,
      "band": 6471,
      "bhar": 6472,
      "dfc": 6473,
      "eer": 6474,
      "rib": 6475,
      "ÑģÐ´ÐµÐ»Ð°Ñİ": 6476,
      "ÑĥÑĢÐ°": 6477,
      "ÐºÐ¾ÑĤ": 6478,
      "ination": 6479,
      "ĠÐ´ÐµÐ¿": 6480,
      "Ð¿Ð¾Ð·Ð½Ð°ÐºÐ¾Ð¼": 6481,
      "ĠÐŁÐµÑĤ": 6482,
      "Ġfully": 6483,
      "Ġachiev": 6484,
      "ĠÐ·ÑĢÐµÐ»": 6485,
      "ĠShar": 6486,
      "ĠÑĢÐµÐ¶Ñĥ": 6487,
      "Ġmade": 6488,
      "ĠÐĶÐµÐ½": 6489,
      "Ġwave": 6490,
      "ĠÑĩÑĥÐ¹": 6491,
      "oment": 6492,
      "iral": 6493,
      "ĠÐ¿ÑĢÐ¸ÐµÐ·Ð¶Ð°Ð¹": 6494,
      "ĠÑģÐ¿Ð¾Ð½": 6495,
      "ĠGreen": 6496,
      "ode": 6497,
      "ikes": 6498,
      "ĠÑĤÐ°ÐºÐ¾Ð³Ð¾": 6499,
      "ĠÐŃÑĤÐ¾": 6500,
      "Ġ%;": 6501,
      "rowth": 6502,
      "ÑĩÑĥÑģÑĮ": 6503,
      "Ġà¤¨": 6504,
      "Ġà¤¹": 6505,
      "Ġleg": 6506,
      "ĠÐĵÐ´Ðµ": 6507,
      "ĠÐ²ÑģÑĤÑĢÐµÑĩÑĥ": 6508,
      "ahul": 6509,
      "ĠEnfield": 6510,
      "Ð°ÑĢÐ¸ÑĤÑĮ": 6511,
      "ĠÑģÐºÐ¾Ð»ÑĮÐ·": 6512,
      "Ġdevelopment": 6513,
      "ĠÐ½ÐµÐ¶Ð½Ð¾Ð³Ð¾": 6514,
      "ĠÑĤÑĢÑĥÑģÐ¾Ð²": 6515,
      "Asian": 6516,
      "Ġurges": 6517,
      "Ġsegment": 6518,
      "Ġrestrictions": 6519,
      "ĠÐ¢ÐķÐľÐ«": 6520,
      "ĠÐ´ÐµÐ¿Ð¾Ð·Ð¸ÑĤ": 6521,
      "ĠÑĩÑĥÐ¹ÐºÐ¸": 6522,
      "ĠÑģÐºÐ¾Ð»ÑĮÐ·ÑıÑīÐµÐ¹": 6523,
      "43": 6524,
      "DC": 6525,
      "NP": 6526,
      "ĠÑĥÐº": 6527,
      "ÑĩÑĤÐ¾": 6528,
      "ÐµÐ½Ð½Ð°Ñı": 6529,
      "Ġpetrol": 6530,
      "Ġdet": 6531,
      "ĠÐ±Ð¸Ð·Ð½ÐµÑģ": 6532,
      "Ġlife": 6533,
      "ĠMicro": 6534,
      "rab": 6535,
      "Ġthem": 6536,
      "ĠNit": 6537,
      "ĠTrade": 6538,
      "ÐļÐŀÐľÐ£": 6539,
      "Ġ41": 6540,
      "ĠÐ¢Ð°Ð½Ñı": 6541,
      "ÐĴÐ¸ÐºÐ°": 6542,
      "ĠÐµÐ´Ð¸Ð½ÑģÑĤÐ²ÐµÐ½": 6543,
      "Ġprog": 6544,
      "ĠÐ´Ð°ÑĩÑĥ": 6545,
      "ĠStr": 6546,
      "ÑĢÐ¼Ð¾Ð·Ð°": 6547,
      "Ġtraders": 6548,
      "Ġoutfl": 6549,
      "ĠÑĤÐ¾ÑĢÐ¼Ð¾Ð·Ð°": 6550,
      "ĠÐ·Ð°Ð²ÑıÐ·ÐºÑĥ": 6551,
      "ĠExpect": 6552,
      "ĠÐ¿Ð¾ÑĢÑĤÑĦÐµÐ»ÑĮ": 6553,
      "ĠÐŁÐłÐŀÐĴ": 6554,
      "ĠÑĢÑĥÐºÐ¸": 6555,
      "ĠÑģÐ´ÐµÐ»Ð°ÑĤÑĮ": 6556,
      "Ð°ÑĤÐ¸ÑĩÐ½ÑĭÐ¹": 6557,
      "ĠÐ¶ÐµÐ½ÑīÐ¸Ð½Ð°": 6558,
      "ĠZomato": 6559,
      "Ġcrack": 6560,
      "Ġstrategic": 6561,
      "ÐĺÐ¢Ð¬Ð¡Ð¯": 6562,
      "ĠÐĴÐłÐķÐľÐ¯": 6563,
      "ĠÐ½Ð°ÑĥÑĩÐ¸ÑĤÑĮÑģÑı": 6564,
      "ĠÐĴÐ¡Ðķ": 6565,
      "Ġofficials": 6566,
      "Ġbasis": 6567,
      "ĠÑģÐºÐ¾ÑĢ": 6568,
      "Ð°Ð±ÑĥÑĢÐºÐ°": 6569,
      "ĠÐ¿Ð¾Ð¶Ð°Ð»ÐµÐµÑĤÐµ": 6570,
      "FY": 6571,
      "Hot": 6572,
      "go": 6573,
      "nt": 6574,
      "Ġ*": 6575,
      "Ġes": 6576,
      "Ð½ÐµÐ¹": 6577,
      "ÑĮÑģÑı": 6578,
      "Ð¼Ð¸Ð»": 6579,
      "Ð´Ð°ÑİÑģÑĮ": 6580,
      "ories": 6581,
      "ĠÐŁÐŀÐĸ": 6582,
      "Ð³Ñĥ": 6583,
      "Ġbecom": 6584,
      "Ġhand": 6585,
      "ĠÐ¡Ñĭ": 6586,
      "oles": 6587,
      "ĠFrom": 6588,
      "ĠTalk": 6589,
      "ĠPakistan": 6590,
      "ÐµÐ±Ñı": 6591,
      "Ð¸Ð»ÑģÑı": 6592,
      "Ð¾Ð±ÑĢÐ¾Ð¹": 6593,
      "Ġprep": 6594,
      "ĠJet": 6595,
      "Ġdev": 6596,
      "ĠÐĸÐµÐ»": 6597,
      "agh": 6598,
      "Ġ91": 6599,
      "Ġoutcome": 6600,
      "ĠAditya": 6601,
      "ĠÐ»ÑİÐ±Ð¸Ð¼ÑĭÐ¹": 6602,
      "ĠÐ¼Ð¾Ð»Ð¾Ð´ÐµÐ½ÑĮÐºÐ¾Ð³Ð¾": 6603,
      "Ġbids": 6604,
      "ĠÐĲÐ½Ð½Ð°": 6605,
      "ĠOpec": 6606,
      "Ġtumbles": 6607,
      "Ġexplains": 6608,
      "Ġclaims": 6609,
      "ĠÑħÐ¾Ð·ÑıÐ¹": 6610,
      "ydrogen": 6611,
      "ĠÐ¾Ð³Ð¾ÑĢÑĩÑĥ": 6612,
      "86": 6613,
      "Bajaj": 6614,
      "gy": 6615,
      "iÐ²": 6616,
      "ĠÑĢÐ¾Ð¶": 6617,
      "inion": 6618,
      "Ð¼ÐµÐ»": 6619,
      "ÑĪÑĥ": 6620,
      "ĠÐºÑĢÐ¾Ð²": 6621,
      "Ð¿Ð¾ÑıÐ²Ð»ÐµÐ½Ð¸Ðµ": 6622,
      "Ġcards": 6623,
      "ĠÐŁÐ°ÑĢÐµÐ½ÑĮ": 6624,
      "ĠÐ½ÐµÑģÐº": 6625,
      "ĠÐ½Ð°Ð±ÐµÑĢÑĥ": 6626,
      "Ð¢Ðĺ": 6627,
      "Ð±Ð»Ð¾Ð½Ð´Ð¸Ð½ÐºÐ°": 6628,
      "ĠÑĢÑĭ": 6629,
      "ĠRates": 6630,
      "Ð°ÑĤÑģÑı": 6631,
      "ura": 6632,
      "uram": 6633,
      "ĠApp": 6634,
      "Ð½ÐµÐ¾Ð¿ÑĭÑĤÐ½Ð°Ñı": 6635,
      "ĠÐ¿Ð¾Ð·Ð²": 6636,
      "ÐļÐŀ": 6637,
      "ÐľÐĽÐ¡": 6638,
      "oss": 6639,
      "ĠUPI": 6640,
      "ĠQu": 6641,
      "ĠÑģÐ°Ð¼Ð°Ñı": 6642,
      "ÐµÐļÐ¾ÑĢ": 6643,
      "Ð¡Ð¢ÐĴ": 6644,
      "Ð°Ð´ÐºÐ°": 6645,
      "acks": 6646,
      "Ġtargets": 6647,
      "Ġquo": 6648,
      "ences": 6649,
      "Ð¤Ð¸Ð³ÑĥÑĢ": 6650,
      "Ġcommerce": 6651,
      "ĠThursday": 6652,
      "Ġextension": 6653,
      "ouse": 6654,
      "Ġelection": 6655,
      "ÐŀÐĽÐ¬": 6656,
      "ĠÐĽÐ®ÐĳÐŀÐĴÐ¬": 6657,
      "Ġworkers": 6658,
      "ĠÐ³Ð¾Ð»Ð¾Ñģ": 6659,
      "ÑģÐ²ÑĤÐ°ÑĢ": 6660,
      "Ġregulatory": 6661,
      "ÐķÐ¡Ð¢Ðĺ": 6662,
      "Ġaway": 6663,
      "News": 6664,
      "ÑĢÑĮÐµÐļÐ¾ÑĢ": 6665,
      "ÐķÐłÐĸÐĺ": 6666,
      "ĠUltraTech": 6667,
      "ĠÐĿÐŀÐłÐľÐĲÐĽÐ¬": 6668,
      "thquake": 6669,
      "ĠÐŀÑģÑĤÐ°Ð²Ð»ÑıÐµÐ¼": 6670,
      "Ġseason": 6671,
      "ĠÐļÐ¸ÐµÑģÐ²ÑĤÐ°ÑĢ": 6672,
      "ĠÑĥÑĤÐµÑĪ": 6673,
      "ĠÐ¡ÑĭÑĢÑĮÐµÐļÐ¾ÑĢ": 6674,
      "Ð¤Ð¸Ð³ÑĥÑĢÐ½Ð°Ñı": 6675,
      "Oil": 6676,
      "aS": 6677,
      "ja": 6678,
      "oad": 6679,
      "Ð»ÑģÑı": 6680,
      "Ð¼ÑĥÐ¶ÑĩÐ¸Ð½Ð°": 6681,
      "ĠÐ²ÑĥÐ¼ÐµÐ½": 6682,
      "ÑĢÐ°Ñİ": 6683,
      "Ġsil": 6684,
      "ĠÐ¼Ð¾Ð·": 6685,
      "ĠÐ¼ÑĤÑģ": 6686,
      "itness": 6687,
      "Ð±Ð¾Ð³Ð°ÑĤÐ°Ñı": 6688,
      "ĠSr": 6689,
      "Ð°Ð½Ñİ": 6690,
      "Ð»ÑĮÐºÐ°": 6691,
      "emp": 6692,
      "uses": 6693,
      "ifies": 6694,
      "ott": 6695,
      "ĠWall": 6696,
      "ĠÐŀÐ±": 6697,
      "ĠÐ»ÑİÐ±Ð¾Ð¹": 6698,
      "?????": 6699,
      "))))": 6700,
      "Ġworry": 6701,
      "ĠÑģÐµÑĢÐ´": 6702,
      "Ġlaw": 6703,
      "ĠÐķÐĵÐŀ": 6704,
      "ĠÐ¿Ð¾Ð¼Ð¾Ð»": 6705,
      "ĠÐ¾ÑģÑĤÐ°": 6706,
      "ĠÐ®Ð³": 6707,
      "Ġmaking": 6708,
      "ĠÐ¼Ð¸Ð»Ð¾Ð¹": 6709,
      "Ġtaking": 6710,
      "Ġfacility": 6711,
      "ĠGuv": 6712,
      "Ġcreate": 6713,
      "Ġmanagement": 6714,
      "ÐĲÐĲÐĲÐĲÐĲÐĲÐĲÐĲ": 6715,
      "Ġprofits": 6716,
      "bersecurity": 6717,
      "Ġcustomers": 6718,
      "ĠÐ³Ð»Ð°Ð·": 6719,
      "ĠEstate": 6720,
      "ÑħÑĥÐ´ÐµÐ½ÑĮÐºÐ°Ñı": 6721,
      "LR": 6722,
      "ven": 6723,
      "ÑĢÐµÐ´": 6724,
      "Ð¼Ð°": 6725,
      "ÑĩÐºÐ¸": 6726,
      "ĠÐºÐ»Ð°Ñģ": 6727,
      "ÑĢÐ°ÑĨ": 6728,
      "atisation": 6729,
      "Ġfew": 6730,
      "Ġpolic": 6731,
      "ĠSharma": 6732,
      "ĠRahul": 6733,
      "ĠÐĿÐķÐ¡ÐŁ": 6734,
      "ÐķÐĲÐĽ": 6735,
      "ednes": 6736,
      "Ġhapp": 6737,
      "ÐĿÐ¯": 6738,
      "ĠÐ¡ÐŁ": 6739,
      "ĠBi": 6740,
      "urg": 6741,
      "Ġstop": 6742,
      "ĠPLI": 6743,
      "irla": 6744,
      "Ð°ÐµÑĤÑģÑı": 6745,
      "ÐĳÐĲ": 6746,
      "ĠÐ¾Ð´Ð½Ð¾Ð¹": 6747,
      "Ġ068": 6748,
      "ĠÑħÐ¾ÑĢÐ¾ÑĪÐ¸Ð¹": 6749,
      "Ġindices": 6750,
      "ĠÐ¿Ð¾Ð»Ð½Ð°Ñı": 6751,
      "Ġquick": 6752,
      "ogle": 6753,
      "ĠÐ½ÑĥÐ¶Ð´Ð°ÑİÑģÑĮ": 6754,
      "ĠZee": 6755,
      "ĠÐ²Ð¾Ð·ÑĢÐ°ÑģÑĤÐµ": 6756,
      "ĠÐľÐ£ÐĸÐ§ÐĺÐĿÐ£": 6757,
      "ÑĶÑģÑĤÑĢÐ°ÑĨ": 6758,
      "Ġopportunities": 6759,
      "Ð¨ÐļÐ£": 6760,
      "ĠÑģÑĥÑīÐµÑģÑĤÐ²": 6761,
      "ÑĶÑģÑĤÑĢÐ°ÑĨÑĸ": 6762,
      "ble": 6763,
      "iate": 6764,
      "Ðģ": 6765,
      "ÑĥÑħÐ¾Ð´": 6766,
      "Ġtells": 6767,
      "ĠAut": 6768,
      "Ġstarts": 6769,
      "Ġthere": 6770,
      "Ð¸Ð²Ð½ÑĭÐ¹": 6771,
      "ĠÐºÐ²Ð°ÑĢÑĤ": 6772,
      "thing": 6773,
      "ÐļÐ¾Ð¼Ñĥ": 6774,
      "Ð¸ÑĤÐµÐ»Ñı": 6775,
      "ĠGand": 6776,
      "ĠÐºÐ°ÐºÐ¸Ðµ": 6777,
      "Ð¼ÐµÐ½ÑĤ": 6778,
      "ÑĢÑĭÐ¶Ð°Ñı": 6779,
      "ĠÐ¾Ð±Ð°ÑıÑĤÐµÐ»ÑĮÐ½Ð°Ñı": 6780,
      "Ð°ÑĤÑĮÑıÐ½Ð°": 6781,
      "ĠOver": 6782,
      "ubs": 6783,
      "ĠÐ¼Ð¾ÐµÐ³Ð¾": 6784,
      "Ġlows": 6785,
      "ÑĥÐ¼Ð°Ñģ": 6786,
      "Ġsever": 6787,
      "ĠÐķÑģÑĤÑĮ": 6788,
      "Ġcommodity": 6789,
      "Ġnears": 6790,
      "ĠAmeric": 6791,
      "ÐŀÐĳÐł": 6792,
      "Ġoffering": 6793,
      "ÐĲÐĴÐ«": 6794,
      "Ġmakers": 6795,
      "ÐķÐĶÐ£": 6796,
      "ĠMSMEs": 6797,
      "Ġdoubles": 6798,
      "Ġbidd": 6799,
      "ĠÐŁÑĢÐ¸Ð´ÐµÑĢÐ¶Ð¸": 6800,
      "Ġslumps": 6801,
      "ĠÑĢÐµÐ´ÐºÐ¸Ñħ": 6802,
      "Ġbreach": 6803,
      "Ð½ÐµÐ¿ÑĢ": 6804,
      "ĠÐŁÐłÐŀÐĴÐķÐ¡Ð¢Ðĺ": 6805,
      "ĠÐ¼Ð¾Ð·Ð³": 6806,
      "200": 6807,
      "PM": 6808,
      "equ": 6809,
      "ĠÐ¦": 6810,
      "ÑģÐ°Ð¼": 6811,
      "Ð¼ÐµÑİ": 6812,
      "arm": 6813,
      "Ġfil": 6814,
      "ĠÐ±ÑĢÐ°": 6815,
      "ĠIcra": 6816,
      "ÐĲÐķÐľ": 6817,
      "ĠÐ·Ð°ÑĤÐ¾": 6818,
      "Ġwant": 6819,
      "Ġwealth": 6820,
      "Ð»ÑĮÑĤÑĥ": 6821,
      "ÐĿÐ°ÑģÑĤ": 6822,
      "utin": 6823,
      "utral": 6824,
      "ĠAf": 6825,
      "ĠAurobindo": 6826,
      "ĠAmazon": 6827,
      "ĠÐ£Ðľ": 6828,
      "ÐŁÐ¸ÑĪÐ¸ÑĤÐµ": 6829,
      "ĠGad": 6830,
      "umber": 6831,
      "ĠÑĦÐ¾ÑĤ": 6832,
      "ĠÐŀÐ»ÐµÐ½Ð°": 6833,
      "ĠÐŀÐ»ÑĮÐ³Ð°": 6834,
      "Ġwithout": 6835,
      "ĠIPOs": 6836,
      "Ġpoint": 6837,
      "ĠÐ¿ÑĢÐµÐ´Ð»Ð¾Ð¶": 6838,
      "Ġunve": 6839,
      "ĠÐºÐ°Ð¿ÑĢÐ¸Ð·": 6840,
      "093": 6841,
      "Ġsurvey": 6842,
      "Ġmany": 6843,
      "ÐŀÐĸÐĿÐŀ": 6844,
      "Ġacquires": 6845,
      "ĠNPAs": 6846,
      "Ġsettlement": 6847,
      "Ġappoint": 6848,
      "unjab": 6849,
      "ruptcy": 6850,
      "ĠMukesh": 6851,
      "ĠÑĢÐ¾ÐºiÐ²": 6852,
      "ĠREIT": 6853,
      "Ġtrigger": 6854,
      "Ġsuccess": 6855,
      "ĠÐĶÐĲÐĴÐĲÐĻÐ¢Ðķ": 6856,
      "ĠÑħÐ»Ð¾Ð¿ÑĨÑı": 6857,
      "ĠÐĿÐķÐ¡ÐŁÐĺÐ¢Ð¡Ð¯": 6858,
      "ednesday": 6859,
      "90": 6860,
      "IPO": 6861,
      "OC": 6862,
      "fall": 6863,
      "kh": 6864,
      "yka": 6865,
      "ĠSA": 6866,
      "Ð¸Ð±": 6867,
      "ÑĥÑħ": 6868,
      "ined": 6869,
      "ÑĪÐºÑĥ": 6870,
      "ĠÐ²Ð´": 6871,
      "orks": 6872,
      "Ġpause": 6873,
      "Ð²Ð°Ð¹": 6874,
      "Ð²Ð°Ð¹ÑĤÐµ": 6875,
      "Ġbody": 6876,
      "Ġmacro": 6877,
      "Ġmoment": 6878,
      "ÐķÐºÐ°ÑĤÐµÑĢÐ¸Ð½Ð°": 6879,
      "ĠÐ·Ð°Ð¶": 6880,
      "icip": 6881,
      "Ġwait": 6882,
      "Ð°Ð½Ð½Ð°": 6883,
      "Ð¸Ð¼ÐµÐ½": 6884,
      "ĠNational": 6885,
      "irbhar": 6886,
      "ĠÐĲÐĶ": 6887,
      "ĠÐłÐķÐĲÐĽ": 6888,
      "ĠÐ¿ÑĢÐ¸Ð³Ð»Ð°ÑĪÑĥ": 6889,
      "usion": 6890,
      "ÐĴÐķÐ¢": 6891,
      "ĠÑĦÐ°Ð½ÑĤÐ°": 6892,
      "ĠÑģÐ²ÐµÑĤ": 6893,
      "agg": 6894,
      "Ġcomes": 6895,
      "abh": 6896,
      "Ġreserve": 6897,
      "istics": 6898,
      "ĠÐ²ÑĢÐµÐ´": 6899,
      "ĠVodafone": 6900,
      "Ġslide": 6901,
      "ĠÐ¿ÑĢÐ¸ÑıÑĤÐ½ÑĥÑİ": 6902,
      "ÑģÑĭÐ¿": 6903,
      "ĠÐ½Ð°Ð´ÐµÐ¶": 6904,
      "Ġprovide": 6905,
      "ĠÑĢÐ¾Ð¼Ð°Ð½ÑĤÐ¸Ñĩ": 6906,
      "Ġedge": 6907,
      "Ġproblem": 6908,
      "Ġcountries": 6909,
      "ĠÐ»ÑĥÑĩÑĪÐ¸Ðµ": 6910,
      "Ġformer": 6911,
      "ĠPrabh": 6912,
      "Ġbegins": 6913,
      "ĠÐ§ÐĲÐ¨ÐļÐ£": 6914,
      "ĠMehta": 6915,
      "ĠÐ·ÑĢÐµÐ»Ð¾Ð³Ð¾": 6916,
      "ykaa": 6917,
      "SIL": 6918,
      "iGo": 6919,
      "lier": 6920,
      "par": 6921,
      "ration": 6922,
      "Ġens": 6923,
      "Ð¾ÑģÐ¿": 6924,
      "ĠÑģÐ´ÐµÐ²ÑĥÑĪ": 6925,
      "Ð´ÑĮ": 6926,
      "ĠÐ¾Ñģ": 6927,
      "Ġfestive": 6928,
      "ĠÐ¼Ð°ÑĪÐ¸Ð½Ð°": 6929,
      "itive": 6930,
      "ÑīÐµÐ½": 6931,
      "eds": 6932,
      "ĠÐ¡ÐµÑĢÐ³ÐµÐ¹": 6933,
      "urr": 6934,
      "ĠÐļÐĲÐĴÐ«": 6935,
      "ĠÑĥÑĤÑĢÐ°": 6936,
      "ĠAG": 6937,
      "Ð¾ÑĩÐ°": 6938,
      "ĠNad": 6939,
      "ÐĽÐķÐ¢": 6940,
      "ote": 6941,
      "ÐµÐ½ÑĮÐºÐ°": 6942,
      "Ð½ÑĥÐ»Ð°ÑģÑĮ": 6943,
      "ĠÐŀÐ§": 6944,
      "aily": 6945,
      "Ġlowest": 6946,
      "Ġoffice": 6947,
      "igns": 6948,
      "ĠÐ¡Ð¿Ð¾ÑĢÑĤ": 6949,
      "Ð¿ÑĢÐ¸ÐµÐ´Ñĥ": 6950,
      "ĠAirways": 6951,
      "Ġsoft": 6952,
      "ÐŀÐ§ÐķÐĿÐ¬": 6953,
      "Ġweekly": 6954,
      "Ġaccess": 6955,
      "Ġbusinesses": 6956,
      "Ð¿ÐµÑĢÐµÐ´Ð°Ñİ": 6957,
      "erala": 6958,
      "Ġleaders": 6959,
      "Ġworking": 6960,
      "Ġcharges": 6961,
      "Ġ555": 6962,
      "ĠÐ¾Ð¿ÑĭÑĤÐ½ÑĭÐ¼": 6963,
      "ĠÑģÑĤÑĢÐ°ÑģÑĤÐ½Ð°Ñı": 6964,
      "Ġpassenger": 6965,
      "Ð´ÐµÐ²ÑĩÑĳÐ½ÐºÐ¸": 6966,
      "ĠÑįÐºÑģÐ¿ÐµÑĢÐ¸Ð¼ÐµÐ½": 6967,
      "Ġown": 6968,
      "ĠÐĹÐĴÐŀÐĿÐĺÐ¢Ðķ": 6969,
      "Ġwidens": 6970,
      "ÑĥÐ¶ÐµÐ»Ð¸": 6971,
      "Ð´ÑĢÐ°Ð²Ð»ÑıÑİ": 6972,
      "ĠÐ¿ÑĭÑĪÐ½ÑĭÑħ": 6973,
      "ĠÐ»Ð°ÑģÐºÐ°Ñħ": 6974,
      "month": 6975,
      "ĠÑĥÑĤÐµÑĪÐ¸ÑĤ": 6976,
      "ÑĥÐ¼Ð°ÑģÑĪÐµÐ´": 6977,
      "85": 6978,
      "Global": 6979,
      "eo": 6980,
      "hold": 6981,
      "iod": 6982,
      "reme": 6983,
      "erative": 6984,
      "ĠÐ¼Ð¾Ðµ": 6985,
      "ĠRa": 6986,
      "ĠÐĿÐ°Ð´": 6987,
      "Ð¡ÐľÐ¡": 6988,
      "ĠÐ·Ð°ÑģÐ½Ñĥ": 6989,
      "ĠBond": 6990,
      "ĠFr": 6991,
      "à¤¦": 6992,
      "à¤®": 6993,
      "à¤¹": 6994,
      "ĠÐ¢Ñĭ": 6995,
      "Ġ81": 6996,
      "Ġ97": 6997,
      "Ð°Ð¹ÑĦ": 6998,
      "ĠÑĢÐ°Ð·Ð±ÑĥÐ´": 6999,
      "Ġslaps": 7000,
      "ÐĹÐ°Ð¼": 7001,
      "ĠÐ´ÑĢÑĥÐ³Ð¾Ð¼": 7002,
      "Ð¾Ð±ÑīÐµÐ½": 7003,
      "ĠÑģÐµÑĢÑĮÑĳÐ·": 7004,
      "Ġflows": 7005,
      "ilever": 7006,
      "ĠRev": 7007,
      "Ġbrand": 7008,
      "Ġplayers": 7009,
      "Ð²ÑģÑĳ": 7010,
      "Ġtumble": 7011,
      "Ġuncertainty": 7012,
      "ĠBaroda": 7013,
      "Ġdiffer": 7014,
      "ĠÑĥÐ³Ð¾ÑģÑĤ": 7015,
      "ĠTimes": 7016,
      "onetisation": 7017,
      "ĠBroking": 7018,
      "ĠÐºÐ°Ð¿ÑĢÐ¸Ð·Ð½Ð°Ñı": 7019,
      "ĠÑĦÐ°Ð½ÑĤÐ°Ð·": 7020,
      "Hind": 7021,
      "Ð°Ð¸ÑģÐ°": 7022,
      "ÑĢÑģÐ¾Ð²": 7023,
      "ÑģÑĥÐ¼Ð°ÑģÑĪÐµÐ´": 7024,
      "Ð¸ÑĤÐ°Ð»Ð¸": 7025,
      "Ð²Ð¾Ñı": 7026,
      "ĠÐ´Ð¾Ð¼Ð¡ÑĤÑĢÐ¾Ð¹": 7027,
      "aries": 7028,
      "ene": 7029,
      "ened": 7030,
      "Ġbased": 7031,
      "ĠRC": 7032,
      "Ġmess": 7033,
      "ĠÐ±ÐµÑģÐ¿": 7034,
      "ĠÐ·Ð°Ð±ÐµÑĢ": 7035,
      "ĠÐ·Ð°ÑģÑĭÐ¿": 7036,
      "Ð°ÑĢÑİ": 7037,
      "Ð¾Ð½Ð¾Ðº": 7038,
      "ÑĢÑĥÐ¶": 7039,
      "ĠBid": 7040,
      "Ð»Ð°ÑĩÑĥ": 7041,
      "ĠFormer": 7042,
      "ÐļÐ»ÑĥÐ±": 7043,
      "Ġthey": 7044,
      "ills": 7045,
      "ames": 7046,
      "vestment": 7047,
      "Ġ95": 7048,
      "Ġagre": 7049,
      "Ġnotes": 7050,
      "Ġnotice": 7051,
      "ourt": 7052,
      "Ġcommitt": 7053,
      "ĠÐŁÐłÐĺÐķÐĶÐ£": 7054,
      "Ġcurbs": 7055,
      "ÐŁÑĢÐ¸Ð³Ð»Ð°ÑĪÑĥ": 7056,
      "Ġbulls": 7057,
      "Ġschemes": 7058,
      "ĠÐŁÐŀÐĹÐĿÐĲÐļÐŀÐľÐĺÐ¢Ð¬Ð¡Ð¯": 7059,
      "ĠÑįÐºÑģÐºÑĥ": 7060,
      "Ġbenef": 7061,
      "ĠÐĶÐłÐ£Ðĵ": 7062,
      "ÐµÐ¼ÐµÐ½ÑĤÐ°": 7063,
      "Ġtechnology": 7064,
      "Ġresponse": 7065,
      "Ġrobust": 7066,
      "Ġpossible": 7067,
      "ĠÐłÑĥÑģÐ»Ð°Ð½Ð°": 7068,
      "ĠÐĸÐµÐ»Ð°ÑİÑīÐ¸Ðµ": 7069,
      "ĠÐ¡Ð¿Ð¾ÑĢÑĤÐļÐ»ÑĥÐ±": 7070,
      "ÑģÑĥÐ¼Ð°ÑģÑĪÐµÐ´ÑĪÐ°Ñı": 7071,
      "AM": 7072,
      "No": 7073,
      "cos": 7074,
      "dollar": 7075,
      "kari": 7076,
      "na": 7077,
      "ne": 7078,
      "ĠÑģÐ¾Ñģ": 7079,
      "ÑĩÐ°ÑĤÑĮ": 7080,
      "Ð´Ð²Ðµ": 7081,
      "ĠÐ´Ð²": 7082,
      "Ġtreat": 7083,
      "Ġsmart": 7084,
      "Ġcloud": 7085,
      "ĠÐ½ÐµÑĤÑĥ": 7086,
      "Ð¶Ð¼ÐµÐ½ÑĤ": 7087,
      "Ð³Ð¾ÑģÑĤÑı": 7088,
      "Ġinches": 7089,
      "ĠSach": 7090,
      "ĠRep": 7091,
      "ĠÐĶÐĲÐľ": 7092,
      "Ð¾Ð½ÐµÑĨ": 7093,
      "ĠÐ¡ÐĺÐľÐŁ": 7094,
      "ĠÐĴÐ°Ð»ÐµÑĢ": 7095,
      "ĠÑħÐ¾Ð»Ð¾Ð´": 7096,
      "ĠÐłÐ¸ÑĤÐ°": 7097,
      "erse": 7098,
      "ĠÐĺÑĢÐ°": 7099,
      "ĠÐĳÐķÐĹ": 7100,
      "ĠÐ´ÐµÐ»Ð°": 7101,
      "ĠÐ¿Ð¾Ð´Ð°ÑĢÐ¸ÑĤÑĮ": 7102,
      "ĠKh": 7103,
      "avy": 7104,
      "ĠÐ½Ð¾ÑĩÐ½Ð¾Ð¼Ñĥ": 7105,
      "ĠÐĶÐķÐĴÐ£Ð¨ÐļÐĺ": 7106,
      "ustral": 7107,
      "Ġperiod": 7108,
      "Ġquest": 7109,
      "ÐµÐµÐµ": 7110,
      "ĠÑģÐ¼Ð»Ñģ": 7111,
      "Ġdefa": 7112,
      "Ġintrod": 7113,
      "ĠÑģÑĤÑĢÐ¾Ð¹Ð½": 7114,
      "ĠÐ¾Ð´Ð¸Ð½Ð¾ÐºÐ°": 7115,
      "Ġsignificant": 7116,
      "ĠÐ¿Ð¾Ð·Ð²Ð¾Ð½ÑıÑĤ": 7117,
      "ĠNarendra": 7118,
      "ĠÐŁÐ¾Ð·Ð½": 7119,
      "Ġapproach": 7120,
      "Ð¼Ð¸Ð»ÑĭÐ¹": 7121,
      "ĠÐ¼Ð¾Ð·Ð³Ð°Ð¼Ð¸": 7122,
      "Ð¾ÑĩÐ°ÑĢÐ¾Ð²Ð°": 7123,
      "ĠÑįÐºÑģÐ¿ÐµÑĢÐ¸Ð¼ÐµÐ½ÑĤÐ¾Ð²": 7124,
      "ĠÑĢÐ°Ð·Ð±ÑĥÐ´Ð¸ÑĤÐµ": 7125,
      "ÑĢÑģÐ¾Ð²Ð¾Ð´Ð°": 7126,
      "ĠÑįÐºÑģÐºÑĥÑĢÑģÐ¾Ð²Ð¾Ð´Ð°": 7127,
      "':": 7128,
      "bl": 7129,
      "mak": 7130,
      "uan": 7131,
      "vind": 7132,
      "Ð°Ð°": 7133,
      "ĠÑģÑĥÐ¿": 7134,
      "Ð¼Ð°ÑĤÐ¸ÑĩÐ½Ð°Ñı": 7135,
      "ancy": 7136,
      "err": 7137,
      "Ġsenior": 7138,
      "ĠÐ¸Ð¼ÐµÐ½": 7139,
      "Ġtough": 7140,
      "Ġdid": 7141,
      "ici": 7142,
      "ĠCorp": 7143,
      "Ġhard": 7144,
      "ĠÐ¡Ðļ": 7145,
      "ÑĨÐ¾Ð¼": 7146,
      "ÑĨÐ²ÐµÑĤÐµ": 7147,
      "ols": 7148,
      "ÐµÐ´ÑĮ": 7149,
      "ĠÑħÐ²Ð°": 7150,
      "ÐļÐłÐĲÐ¡": 7151,
      "ĠHospitals": 7152,
      "Ġpref": 7153,
      "ÑĢÐ¸Ð·Ð¼Ð°ÑĤÐ¸ÑĩÐ½Ð°Ñı": 7154,
      "ÑĨÐ¸Ð¸": 7155,
      "ĠÐ¾Ð±Ð¸": 7156,
      "ĠWednesday": 7157,
      "ĠÑģÐ²Ð¾Ð±Ð¾Ð´": 7158,
      "Ð¼ÐµÐ½ÐµÐ´Ð¶Ð¼ÐµÐ½ÑĤ": 7159,
      "Ġ94": 7160,
      "ĠÐĽÐķÐ¢": 7161,
      "Ġrecovers": 7162,
      "istic": 7163,
      "Ġspot": 7164,
      "ĠÐºÑĢÐ°ÑģÐ¸Ð²Ð¾Ð¼Ñĥ": 7165,
      "Ġ277": 7166,
      "Ġlose": 7167,
      "ĠÑĢÐ°ÑģÑĨÐ²ÐµÑĤÐµ": 7168,
      "ÑĤÐ¾ÑĢÑĪÐ°": 7169,
      "ĠÐ´ÐµÐ²ÑĩÐµÐ½ÐºÐ°": 7170,
      "Ġrelax": 7171,
      "ÑħÐ°ÑĢÐ¸Ð·Ð¼Ð°ÑĤÐ¸ÑĩÐ½Ð°Ñı": 7172,
      "ĠÐ±ÑĢÑİÐ½ÐµÑĤÐºÑĥ": 7173,
      "RISIL": 7174,
      "Ġvaluation": 7175,
      "ĠÑįÐºÑģÐ¿ÐµÑĢÐµÐ¼ÐµÐ½ÑĤÐ°": 7176,
      "ÐĶÐµÐ²ÑĩÐµÐ½ÐºÐ¸": 7177,
      "ĠÑģÐºÐ¾ÑĢÐµÐµ": 7178,
      "ĠGandhi": 7179,
      "ĠÐŀÐ§ÐķÐĿÐ¬": 7180,
      "ĠÑĥÐ³Ð¾ÑģÑĤÐ¸ÑĤ": 7181,
      "ĠÑįÐºÑģÐ¿ÐµÑĢÐµÐ¼ÐµÐ½ÑĤÐ°ÑĤÐ¾ÑĢÑĪÐ°": 7182,
      "300": 7183,
      "Nifty": 7184,
      "ju": 7185,
      "rat": 7186,
      "uild": 7187,
      "Ð¸Ð²ÑĭÐ¹": 7188,
      "ĠÑģÐ°": 7189,
      "ÑİÐ½Ð¾ÑĪ": 7190,
      "Ġsecur": 7191,
      "ĠÐŁÐŀÐ¡Ð¢ÐĲÐĴÐ¬": 7192,
      "Ð±Ð¾Ð»": 7193,
      "ĠSand": 7194,
      "ĠRec": 7195,
      "Ġmobile": 7196,
      "ĠÑĤÑı": 7197,
      "ÐĲÐ¡Ð¢": 7198,
      "Ġwont": 7199,
      "Ġlet": 7200,
      "Ġlive": 7201,
      "ÑĢÐ¾Ñİ": 7202,
      "ĠCard": 7203,
      "Ġhot": 7204,
      "ĠMore": 7205,
      "ÐĿÐŀÐĵÐŀ": 7206,
      "ayog": 7207,
      "ĠAv": 7208,
      "ĠAayog": 7209,
      "Ð¾ÑĩÐºÐ¾Ð¹": 7210,
      "ĠÐĴÐ°Ð½Ñı": 7211,
      "iding": 7212,
      "ĠIndiGo": 7213,
      "ĠDirector": 7214,
      "ĠED": 7215,
      "ÑĨÐ¸Ñı": 7216,
      "ĠJM": 7217,
      "ĠJewell": 7218,
      "Ġshine": 7219,
      "Ġchain": 7220,
      "Ġexpos": 7221,
      "Ġà¤°": 7222,
      "ĠÐ¾Ð´Ð¸Ð½": 7223,
      "Ġcompet": 7224,
      "ibas": 7225,
      "emicals": 7226,
      "097": 7227,
      "Ð¾Ð±ÑīÐµ": 7228,
      "Ġdefence": 7229,
      "ĠÐŁÐŀÐĹÐĿÐĲÐļ": 7230,
      "ĠAnand": 7231,
      "Ġdrags": 7232,
      "Ġdisclos": 7233,
      "Ġtaken": 7234,
      "rokerage": 7235,
      "ĠMFs": 7236,
      "Ġplunge": 7237,
      "ĠÐ¡ÐķÐłÐ¬": 7238,
      "Ġderiv": 7239,
      "ĠÐŁÐŀÐĽÐĿÐĲÐ¯": 7240,
      "ÐĲÐķÐľÐ¡Ð¯": 7241,
      "!(": 7242,
      "700": 7243,
      "Delhi": 7244,
      "ym": 7245,
      "Ġi": 7246,
      "ÐµÑĩÐºÐ°": 7247,
      "Ð´ÐµÑĤ": 7248,
      "ÑĪÑĥÐºÐ°Ñİ": 7249,
      "ĠÐ²ÑģÑĤ": 7250,
      "ĠÐºÐ¸Ñģ": 7251,
      "ÑĢÐ°Ð´Ñĥ": 7252,
      "Ġrail": 7253,
      "Ġbra": 7254,
      "ĠSmart": 7255,
      "ĠÐ·Ð°Ðµ": 7256,
      "ĠÐĶÐŀÐĳÐł": 7257,
      "ĠCourt": 7258,
      "ĠÐļÐĺ": 7259,
      "ĠAjay": 7260,
      "ÑĨÑĭ": 7261,
      "ulation": 7262,
      "akes": 7263,
      "ense": 7264,
      "ĠÑģÐ¿Ð¾Ñģ": 7265,
      "ĠHPCL": 7266,
      "ÐºÐ¾Ð¼Ð¿Ð»": 7267,
      "ÑĢÐµÐ½Ð°": 7268,
      "ĠLupin": 7269,
      "ĠWPI": 7270,
      "Ġdep": 7271,
      "agn": 7272,
      "Ð«Ð¨": 7273,
      "Ġclass": 7274,
      "à¥Ī": 7275,
      "aces": 7276,
      "ĠÐ´ÑĢÑĥÐ·": 7277,
      "Ġmeans": 7278,
      "Ġpercent": 7279,
      "ĠÐ¶ÐµÐ»Ð°": 7280,
      "ÐŀÐ§ÐķÐ¡Ð¢": 7281,
      "Ġdriving": 7282,
      "Ġgovernance": 7283,
      "Ġtakeover": 7284,
      "Ġdebut": 7285,
      "ĠÐ¼Ð¸Ð»ÑĭÐµ": 7286,
      "Ġprivatisation": 7287,
      "ĠSaaS": 7288,
      "ĠInvestors": 7289,
      "ĠÐŀÐĶÐĺÐĿÐŀÐ§ÐķÐ¡Ð¢": 7290,
      "attle": 7291,
      "ĠÐŁÐŀÐŀÐĳÐ©ÐĲÐķÐľÐ¡Ð¯": 7292,
      "Ð°Ð½ÑģÐºÐ¾Ðµ": 7293,
      "ĠÐĲÐ»Ð¸ÑģÐµ": 7294,
      "Ġpromoters": 7295,
      "gineering": 7296,
      "ĠÑģÐºÑĢÐ¾Ð¼Ð½ÑĥÑİ": 7297,
      "Ġbalance": 7298,
      "Ġsituation": 7299,
      "PS": 7300,
      "een": 7301,
      "rs": 7302,
      "Ð¸Ð´Ð°Ð½": 7303,
      "investment": 7304,
      "ĠÐŁÐ¾Ð»": 7305,
      "ĠÐ¿Ð¾ÐµÐ´ÐµÑĤ": 7306,
      "Ð¶Ð´Ñĥ": 7307,
      "ĠÐ·Ð²ÑĳÐ·Ð´Ñĭ": 7308,
      "Ð±ÐºÑĥ": 7309,
      "Ġmil": 7310,
      "ĠÐ±ÑĢÐ°ÑĤ": 7311,
      "Ġwins": 7312,
      "Ġwitness": 7313,
      "ÐĺÑīÑİ": 7314,
      "ĠÐĲÐ´": 7315,
      "ĠÐ¿Ð°ÑĢÑĥ": 7316,
      "ĠÐ¿Ð¾ÐºÐ°ÑĤÐ°Ñİ": 7317,
      "ĠGl": 7318,
      "ĠGoyal": 7319,
      "ĠGAIL": 7320,
      "ĠHar": 7321,
      "apore": 7322,
      "ĠInv": 7323,
      "Ġresult": 7324,
      "ÐĹÐ°Ñı": 7325,
      "Ġtrend": 7326,
      "Ð³Ð¾Ð´Ð½Ð¾": 7327,
      "uclear": 7328,
      "Ð¸Ð»Ð°ÑģÑĮ": 7329,
      "Ġ364": 7330,
      "ĠÐ¿ÑĢÐ¾ÑģÐ½ÑĥÐ»Ð°ÑģÑĮ": 7331,
      "Ġcause": 7332,
      "ĠRussian": 7333,
      "Ġwinning": 7334,
      "ĠÐĶÐłÐ£Ðĸ": 7335,
      "Ġavoid": 7336,
      "Ġautom": 7337,
      "ĠÐĺÐĿÐ¢ÐķÐłÐķÐ¡ÐĿÐ«Ðķ": 7338,
      "ĠÑģÑĩÐ°ÑģÑĤÑĮ": 7339,
      "Ġperformance": 7340,
      "ĠÐ¾ÑĤÐ²ÐµÑĩÑĥ": 7341,
      "ĠÐ¸Ð·Ð²ÐµÐ½Ð¸": 7342,
      "ĠÐĶÐµÐ½Ð¸Ñģ": 7343,
      "ĠÐ³Ð»Ð°Ð·Ð°Ð¼Ð¸": 7344,
      "ET": 7345,
      "ney": 7346,
      "Ð¼Ð¾Ð»Ð¾Ð´Ð°Ñı": 7347,
      "ÑĩÐºÑĥ": 7348,
      "Ð¾Ð¼Ð°": 7349,
      "ĠÐ¼Ð¾Ð¸": 7350,
      "Ð²Ð°Ð½": 7351,
      "Ġaud": 7352,
      "ĠSch": 7353,
      "Ġdues": 7354,
      "Ġdeep": 7355,
      "Ġmand": 7356,
      "ico": 7357,
      "ĠCRISIL": 7358,
      "Ġhours": 7359,
      "iggy": 7360,
      "Ð¾ÐºÐ°": 7361,
      "adher": 7362,
      "ĠEO": 7363,
      "Ġproceed": 7364,
      "illadher": 7365,
      "ĠÑĦÐ¸Ð·": 7366,
      "udas": 7367,
      "Ġ.:": 7368,
      "ÐĳÐ»Ð¸Ð½ÑģÐºÐ¸Ð¹": 7369,
      "ĠÐĸÐ°Ð½Ð½Ð°": 7370,
      "ams": 7371,
      "Ġshop": 7372,
      "ÑĢÐ¾Ð²Ð°ÑĤÑĮ": 7373,
      "Ð°Ð»ÑĭÑĪ": 7374,
      "Ð«ÐĻ": 7375,
      "ĠView": 7376,
      "Ġwhere": 7377,
      "ĠÑĥÐ¼Ð½": 7378,
      "ĠUnilever": 7379,
      "ĠAmit": 7380,
      "iceJet": 7381,
      "Ġincreases": 7382,
      "Ġcurrencies": 7383,
      "ÐĶÐķÐĴÐŀÐ§ÐļÐĺ": 7384,
      "Ġpaper": 7385,
      "ĠManag": 7386,
      "ĠÐ¿Ð¾ÐºÐ°ÑĤÐ°ÐµÑĤ": 7387,
      "Ġedges": 7388,
      "ĠÐľÐ£ÐĸÐ§ÐĺÐĿÐŀÐĻ": 7389,
      "ĠÐ»ÑİÐ´": 7390,
      "Ġpolls": 7391,
      "ĠParibas": 7392,
      "Ġtransformation": 7393,
      "ĠÑħÐ¾ÑĤÐµÐ»ÐºÐ°": 7394,
      "ĠÐŁÐłÐĺÐ¯Ð¢ÐĿÐ«Ð¥": 7395,
      "After": 7396,
      "CB": 7397,
      "Dollar": 7398,
      "Will": 7399,
      "fold": 7400,
      "kay": 7401,
      "oil": 7402,
      "Ð»Ð»": 7403,
      "Ð»Ð¾Ð³": 7404,
      "ĠÐ½ÐµÐ¹": 7405,
      "erge": 7406,
      "Ġsus": 7407,
      "ĠÐ¾ÑĤÑĨÐ¾Ð¼": 7408,
      "Ġrole": 7409,
      "Ð±Ð°Ð½": 7410,
      "ÐŀÐ´": 7411,
      "Ð¡ÐĽ": 7412,
      "Ġwa": 7413,
      "Ġhurt": 7414,
      "Ġhydrogen": 7415,
      "ĠBe": 7416,
      "ĠBNP": 7417,
      "Ġgl": 7418,
      "Ð¾ÑĩÐµÐ¼Ñĥ": 7419,
      "ĠTues": 7420,
      "ankar": 7421,
      "ĠÐłÐ°Ð¸ÑģÐ°": 7422,
      "ÐľÐ°ÑĢÐ¸Ð½Ð°": 7423,
      "ÐľÐĲÐ¡Ð¡ÐĲÐĸ": 7424,
      "ĠGrowth": 7425,
      "ÑĩÐ°Ñı": 7426,
      "Ġproper": 7427,
      "ĠLilladher": 7428,
      "ĠÐ¿Ð¾Ð´Ð´ÐµÑĢÐ¶Ð¸": 7429,
      "ĠStar": 7430,
      "ĠÐ½ÑĥÑĤ": 7431,
      "ĠÐĽÐķÐĶÐĺ": 7432,
      "Ġinvesting": 7433,
      "Ġchanged": 7434,
      "Ġà¤ª": 7435,
      "Ð¼Ð¸ÑĢÐ°Ñİ": 7436,
      "ibagger": 7437,
      "Ġalleg": 7438,
      "Ġapplic": 7439,
      "ortis": 7440,
      "Ġgoes": 7441,
      "ĠÐ»ÑİÐ±Ð¸Ð¼Ð°Ñı": 7442,
      "Ġarr": 7443,
      "Ġquarters": 7444,
      "Ġconcern": 7445,
      "ÐĲÐ®Ð¡Ð¬": 7446,
      "ĠÑģÐ²Ð¾Ð¸Ð¼": 7447,
      "Ġjoin": 7448,
      "Ġchallenge": 7449,
      "ĠÑĪÐ°Ð¼Ð¿Ð°Ð½ÑģÐºÐ¾Ðµ": 7450,
      "Ġsolar": 7451,
      "Ġinclud": 7452,
      "Ġlicence": 7453,
      "ĠSolutions": 7454,
      "Ġfavour": 7455,
      "ĠÐłÐķÐĲÐĽÐ¬ÐĿÐŀ": 7456,
      "ĠÐĶÐłÐ£ÐĵÐĲ": 7457,
      "ĠÐ¶ÐµÐ»Ð°ÑĤÐµÐ»ÑĮÐ½Ð¾": 7458,
      "98": 7459,
      "IC": 7460,
      "ek": 7461,
      "kish": 7462,
      "to": 7463,
      "ÑĹ": 7464,
      "ĠÐ¿ÑĮÑİ": 7465,
      "ĠÑģÐ¾Ð»": 7466,
      "inet": 7467,
      "ÑĮÐµÑħÐ°ÑĤÑĮ": 7468,
      "Ð¼Ñĭ": 7469,
      "ĠÐ´Ð¾Ð¼Ñĥ": 7470,
      "Ġsing": 7471,
      "Ġround": 7472,
      "ety": 7473,
      "ĠÐ±ÐµÐ»": 7474,
      "ĠÐ·Ð°Ñī": 7475,
      "elwe": 7476,
      "ĠÐ»Ð°Ð¹ÑĦ": 7477,
      "ĠCards": 7478,
      "ĠBirla": 7479,
      "ĠLo": 7480,
      "ĠÐ¾Ð±ÑĢÐ°ÑĤ": 7481,
      "ĠÐ´Ð¾ÑĢÐ¾Ð³": 7482,
      "ĠÑĢÐ°Ð·Ð¼": 7483,
      "Ð°Ð´Ð°Ð²": 7484,
      "Ġalloc": 7485,
      "ÐĿÐ«Ðľ": 7486,
      "ĠÐĿÐĲÐĻ": 7487,
      "Ġweakens": 7488,
      "Ġmaker": 7489,
      "ĠBrent": 7490,
      "ĠÐ³Ð¾Ð»ÑĥÐ±": 7491,
      "ÑģÐ²ÐµÐ½": 7492,
      "Ġclimb": 7493,
      "ĠMoU": 7494,
      "ĠÐŀÐĶÐĺÐĿÐŀÐļÐ£Ð®": 7495,
      "Ġconsolidation": 7496,
      "Ġpenalty": 7497,
      "ĠÐ¸Ð´ÐµÐ°Ð»ÑĮÐ½Ð°Ñı": 7498,
      "ĠGadkari": 7499,
      "ĠÐ²Ð´ÑĢÑĥÐ³": 7500,
      "ĠPrabhudas": 7501,
      "ĠÐĶÐĲÐľÐ«": 7502,
      "ĠTuesday": 7503,
      "ĠÐ¿Ð¾Ð´Ð´ÐµÑĢÐ¶Ð¸Ð²Ð°ÐµÑĤ": 7504,
      "book": 7505,
      "oor": 7506,
      "uge": 7507,
      "Ð¼ÑĥÐ¶ÑĩÐ¸Ð½Ñĭ": 7508,
      "ÑħÐ¾ÑĢÐ¾ÑĪ": 7509,
      "Ð·Ð°Ð¼": 7510,
      "Ġcal": 7511,
      "Ġrout": 7512,
      "Ġinnov": 7513,
      "Ð»Ð¸Ð²Ð°": 7514,
      "eline": 7515,
      "Ġhdfc": 7516,
      "ilities": 7517,
      "ÐºÑĥÐ»ÑĮÑĤÑĥ": 7518,
      "ÑĨÐµÐ½": 7519,
      "ÐŁÐ¾Ð»Ð¾Ð¶Ð¸ÑĤÐµÐ»ÑĮÐ½ÑĭÐµ": 7520,
      "ĠPow": 7521,
      "ĠÑįÑĦ": 7522,
      "ÐĶÐĲ": 7523,
      "ĠUN": 7524,
      "Ġask": 7525,
      "reg": 7526,
      "ipp": 7527,
      "Ġ61": 7528,
      "ĠÐŀÐ½": 7529,
      "Ð¸ÑĪÑĥ": 7530,
      "ÑĥÑĤÐ±Ð¾Ð»": 7531,
      "Ġresid": 7532,
      "Ð»Ð¸Ð½ÑĩÐ¸Ðº": 7533,
      "Ġboun": 7534,
      "ĠÐĶÐķÐĴÐ£Ð¨ÐļÐĲ": 7535,
      "Ġdowngrades": 7536,
      "ĠÐ±Ð¾Ð³Ð°ÑĤÐ°Ñı": 7537,
      "ĠÐķÐºÐ°ÑĤÐµÑĢÐ¸Ð½Ð°": 7538,
      "manirbhar": 7539,
      "ĠÐ½Ð¾ÑĩÑĮÑİ": 7540,
      "Ġministry": 7541,
      "Ġtaxes": 7542,
      "Ġtransfer": 7543,
      "Ġscale": 7544,
      "Ġsubscribe": 7545,
      "Ġacquisitions": 7546,
      "Ð±ÑĥÐ´ÑĮ": 7547,
      "Ġtalk": 7548,
      "ĠÑĤÐµÐ¿Ð»Ð°": 7549,
      "ĠÑģÐ¸Ð¼Ð¿Ð°ÑĤÐ¸ÑĩÐ½Ð°Ñı": 7550,
      "ĠAcharya": 7551,
      "Ġfails": 7552,
      "ĠÑĥÐ¶Ð¸Ð½": 7553,
      "ĠÐ¿Ð¾ÑĪÐ»": 7554,
      "ĠÐ¾ÑĤÐ²ÐµÑĤÑģÐ²ÐµÐ½": 7555,
      "ĠUpdates": 7556,
      "ĠÑĦÐ¾ÑĤÐºÐ¸": 7557,
      "ĠÐ·Ð°Ð¶Ð°Ð´Ð°Ð²": 7558,
      "ĠÐĿÐĲÐĻÐ¢Ðĺ": 7559,
      "400": 7560,
      "66": 7561,
      "82": 7562,
      "97": 7563,
      "Am": 7564,
      "eÐ½ÑĮ": 7565,
      "iol": 7566,
      "Ð¸ÑĢÐ°": 7567,
      "ĠÑģÐ¾Ð³": 7568,
      "ĠÐ´Ðµ": 7569,
      "ÑİÐ¼Ð¸Ð½": 7570,
      "Ġrow": 7571,
      "itter": 7572,
      "Ð¾Ð²ÑĥÑĤ": 7573,
      "ĠSell": 7574,
      "ĠRel": 7575,
      "Ġmuted": 7576,
      "Ġline": 7577,
      "ĠMal": 7578,
      "stit": 7579,
      "Ġnumber": 7580,
      "ĠPunjab": 7581,
      "iam": 7582,
      "ems": 7583,
      "ĠGod": 7584,
      "imum": 7585,
      "alls": 7586,
      "ĠEqu": 7587,
      "ÐĴÑĢÐ¾Ð´Ðµ": 7588,
      "ĠÐĹÐ²Ð¾Ð½Ð¸ÑĤÐµ": 7589,
      "ĠÐ²ÑĭÑģÐ»": 7590,
      "Ġpricing": 7591,
      "abinet": 7592,
      "ĠÑĢÐµÐ±Ð¾Ð½Ð¾Ðº": 7593,
      "Ð«Ðľ": 7594,
      "ellow": 7595,
      "ĠÐ¿Ð¾Ð»Ð½": 7596,
      "Ġsubm": 7597,
      "ĠÐ¶ÐµÐ»Ð°ÑİÑīÐ¸Ðµ": 7598,
      "Ġcanc": 7599,
      "ĠTrans": 7600,
      "Ð¾ÑĢÑĤÐ¸Ð²Ð½ÑĭÐ¹": 7601,
      "Ġinsider": 7602,
      "Ġneeded": 7603,
      "ĠÐĹÐĲÐĳ": 7604,
      "Ð»ÐµÐºÑģÐ¾Ð²": 7605,
      "Ð°Ð·Ð°ÑĢ": 7606,
      "Ġsettle": 7607,
      "Banks": 7608,
      "Ð¦ÐĲ": 7609,
      "ĠÑĤÑĢÑĥÐ±ÐºÑĥ": 7610,
      "ĠÑģÐ¿Ð¾ÑĢÑĤÐ¸Ð²": 7611,
      "Ġcheap": 7612,
      "ĠSanjiv": 7613,
      "ĠÐŀÐĶÐĺÐĿÐŀÐļÐŀÐĻ": 7614,
      "Ġshareholders": 7615,
      "ĠÑĢÐ°Ð·Ð²Ð»ÐµÑĩÑĮÑģÑı": 7616,
      "ĠÐĽÐ¸Ð·Ð°": 7617,
      "Ġensure": 7618,
      "ÑĢÐµÐ½Ð°Ð»Ð¸Ð½ÑĩÐ¸Ðº": 7619,
      "ĠÐŀÐĶÐĺÐĿÐŀÐ§ÐķÐ¡Ð¢ÐĴÐŀ": 7620,
      "elweiss": 7621,
      "ĠÐ¾ÑĤÐ²ÐµÑĤÑģÐ²ÐµÐ½Ð¾ÑģÑĤÐ¸": 7622,
      "600": 7623,
      "94": 7624,
      "Fed": 7625,
      "FPI": 7626,
      "NCLT": 7627,
      "gel": 7628,
      "Ġ....": 7629,
      "Ð½Ð´": 7630,
      "Ð»ÐµÐ³": 7631,
      "Ð»ÐµÐ±": 7632,
      "ĠÐ½ÐµÐ·": 7633,
      "ĠÐ²Ð½": 7634,
      "ĠÐºÐ¸ÐµÐ²": 7635,
      "Ð·Ð´ÐµÐ»Ð°Ñİ": 7636,
      "Ġfamil": 7637,
      "Ġpatter": 7638,
      "ĠÐ¾ÑĤÐ´Ñĭ": 7639,
      "ÑĢÐ¸Ñı": 7640,
      "Ġbon": 7641,
      "Ġap": 7642,
      "ĠSud": 7643,
      "ett": 7644,
      "Ġmar": 7645,
      "ĠIR": 7646,
      "ĠMW": 7647,
      "raman": 7648,
      "ÐŀÐ¯": 7649,
      "ĠTy": 7650,
      "Ð¾ÑĤÐ¾Ð²Ð°": 7651,
      "ÐķÐ¥": 7652,
      "ÐķÐ¨": 7653,
      "ĠÑģÐ¿ÑıÑĤ": 7654,
      "ÐłÐĲÐĹ": 7655,
      "Ð¸ÑģÐ°ÑĤÑĮ": 7656,
      "ÐĶÐ°Ð¼Ð°": 7657,
      "Ġpres": 7658,
      "Ġprior": 7659,
      "Ð½ÑĥÑĤÑĮ": 7660,
      "rej": 7661,
      "Ġwithin": 7662,
      "ĠKerala": 7663,
      "ĠOf": 7664,
      "Ð°Ð»ÑģÑı": 7665,
      "Ð®Ð»Ñı": 7666,
      "Ġspend": 7667,
      "acy": 7668,
      "Ð´ÐµÑģÑı": 7669,
      "Ġstrugg": 7670,
      "ĠIndians": 7671,
      "ĠÐ´ÐµÐ²ÑĥÑĪÐºÐ°Ð¼": 7672,
      "ĠÑĩÑĥÐ²ÑģÑĤÐ²": 7673,
      "Ġposition": 7674,
      "Ġclosing": 7675,
      "wala": 7676,
      "Ġannouncement": 7677,
      "*******": 7678,
      "ĠÐ·Ð½Ð°ÐºÐ¾Ð¼Ð¸ÑĤÑģÑı": 7679,
      "Ġproposal": 7680,
      "ĠÐ¾ÑģÑĤÐ°Ð²Ð»ÑıÐµÐ¼": 7681,
      "Ġjoins": 7682,
      "ĠLabs": 7683,
      "RCTC": 7684,
      "Ġcompletes": 7685,
      "ĠGeneral": 7686,
      "Ġbroadband": 7687,
      "ĠÐºÐ¾Ð¼Ð¿Ð°Ð½Ð¸Ñİ": 7688,
      "Ġground": 7689,
      "Ð½Ð°ÑģÑĤÐ°Ñģ": 7690,
      "ĠÐ³Ð¾Ð»Ð¾ÑģÐ¾Ð¼": 7691,
      "ĠÑģÑĥÑīÐµÑģÑĤÐ²ÑĥÑİ": 7692,
      "ĠÐĶÐłÐ£ÐĸÐĳÐĲ": 7693,
      "ĠEOD": 7694,
      "ĠÑĦÐ¸Ð·ÐºÑĥÐ»ÑĮÑĤÑĥ": 7695,
      "ĠÐ¾Ð±ÑĢÐ°ÑĤÐ½Ð¾": 7696,
      "ĠÐ²ÑĭÑģÐ»Ð°ÑĤÑĮ": 7697,
      "ĠÐ¾ÑĤÐ´ÑĭÑħÐ°": 7698,
      "Axis": 7699,
      "We": 7700,
      "ias": 7701,
      "time": 7702,
      "ÑģÐ¸Ñı": 7703,
      "ÑĥÑģÑĤÐ¸": 7704,
      "ĠÑģÐ¾Ð³Ð»Ð°Ñģ": 7705,
      "ÑģÑĤÑĭÑħ": 7706,
      "eration": 7707,
      "Ġdir": 7708,
      "ĠRail": 7709,
      "ĠÐĶÐ½ÐµÐ¿ÑĢ": 7710,
      "Ġwon": 7711,
      "Ð°Ð½ÑĮ": 7712,
      "ÑįÑĤÐ¾": 7713,
      "Ġgreat": 7714,
      "ĠÐļÑĢÐ°Ñģ": 7715,
      "olk": 7716,
      "ĠÐĴÐŀÐĹ": 7717,
      "ĠFins": 7718,
      "ÑħÐ¾Ð´Ð¸ÑĤÐµÐ»ÑĮ": 7719,
      "emb": 7720,
      "ivate": 7721,
      "Ġ450": 7722,
      "Ð¸ÑģÐº": 7723,
      "ada": 7724,
      "Ġ57": 7725,
      "ÐĶÐ°ÑĪÐ°": 7726,
      "Ġpred": 7727,
      "Ġviol": 7728,
      "ĠÑģÐ²Ð¸Ð´Ð°Ð½": 7729,
      "ĠKoch": 7730,
      "ama": 7731,
      "ava": 7732,
      "loff": 7733,
      "Ġshift": 7734,
      "ĠChief": 7735,
      "Ġoutperform": 7736,
      "iocon": 7737,
      "ĠÐºÐ¾Ð¼Ð½Ð°": 7738,
      "ĠÐ¿ÑĢÐ¸ÐµÐ´Ð¸ÑĤ": 7739,
      "Ġbigger": 7740,
      "ĠÑĤÑĢÐµÐ½ÐµÑĢÐ°": 7741,
      "Ġindustries": 7742,
      "Ġadds": 7743,
      "ĠArvind": 7744,
      "ÐķÐĿÐĺÐĻ": 7745,
      "Ġimportant": 7746,
      "Ġpushes": 7747,
      "ittle": 7748,
      "ÐĶÐķÐĽÐĺÐ¢": 7749,
      "Ġemerging": 7750,
      "Ġborrowing": 7751,
      "Ġinstit": 7752,
      "ÐķÐĵÐŀ": 7753,
      "ĠÐ°Ð´ÑĭÐºÐ²Ð°ÑĤÐ½": 7754,
      "ĠNitin": 7755,
      "Ġunveils": 7756,
      "ĠÐ¾Ð±Ð¸Ð¶": 7757,
      "Ġexposure": 7758,
      "ĠÐ¡ÐķÐłÐ¬ÐķÐĹ": 7759,
      "ĠÑĢÐ°Ð·Ð¼ÐµÑĢÐ°": 7760,
      "ÐłÐĲÐĹÐĶÐķÐĽÐĺÐ¢": 7761,
      "ĠÑĦÐ¸Ð·ÐºÑĥÐ»ÑĮÑĤÑĥÑĢÐ°": 7762,
      "./": 7763,
      "88": 7764,
      "bit": 7765,
      "light": 7766,
      "lights": 7767,
      "ounder": 7768,
      "yo": 7769,
      "yond": 7770,
      "Ġ))": 7771,
      "Ð°Ð½Ð°": 7772,
      "Ð½ÑĢÐ°Ð²": 7773,
      "ĠÐ¿Ð¸ÑĪÐ¸": 7774,
      "Ð¼ÐµÑĪ": 7775,
      "ÑĪÐµÐ±": 7776,
      "ÑĤÐ°ÑĤÑĮÑģÑı": 7777,
      "Ġcare": 7778,
      "ĠÐ½ÐµÐ²": 7779,
      "Ġpace": 7780,
      "ĠÑĤÐ¾Ð»Ðº": 7781,
      "ÐĲÐ½Ñı": 7782,
      "Ġwalk": 7783,
      "ĠMur": 7784,
      "ÐĿÐ°Ð·Ð°ÑĢ": 7785,
      "Ġnuclear": 7786,
      "Ð¾Ð¶Ð°Ñİ": 7787,
      "ental": 7788,
      "entures": 7789,
      "ĠÐ¿ÑĢÐ¸Ð¼ÐµÑĢ": 7790,
      "Ð½Ð¸Ñı": 7791,
      "ĠEast": 7792,
      "ĠÐ¸Ð½ÑĤÐµÑĢ": 7793,
      "porters": 7794,
      "Ġupgrade": 7795,
      "ĠÐĺÐĹ": 7796,
      "ĠÐºÑĢÐ°ÑģÐ¾ÑĤ": 7797,
      "ĠÐ¸Ð·ÑİÐ¼Ð¸Ð½": 7798,
      "ĠJLR": 7799,
      "Ġbeyond": 7800,
      "ĠOm": 7801,
      "Ġshock": 7802,
      "Ġplace": 7803,
      "Ġlost": 7804,
      "Ġchip": 7805,
      "ĠÐ·Ð²Ð¾Ð½ÐºÐ°": 7806,
      "ĠÑĢÐ¸ÑģÐºÐ½ÐµÑĤ": 7807,
      "Ġboth": 7808,
      "Ġleaves": 7809,
      "ĠResearch": 7810,
      "Ġmean": 7811,
      "Ġ353": 7812,
      "ĠÑģÐ¼ÑĥÐ¶": 7813,
      "Ġtweak": 7814,
      "ĠÐ¾Ð¿ÑĭÑĤÐ°": 7815,
      "ramal": 7816,
      "ITC": 7817,
      "ĠRajan": 7818,
      "ÑģÐ¸Ð¼Ð¿Ð°ÑĤÐ¸ÑĩÐ½ÑĭÐ¹": 7819,
      "ĠÐºÐ¾Ð¼Ð¿Ð»ÐµÐºÑģÐ¾Ð²": 7820,
      "ĠÐ²Ð¾Ð¾Ð±ÑīÐµ": 7821,
      "ĠÐ´ÐµÑĢÐµÐ²": 7822,
      "ĠÐ²Ð¾Ð»ÑĪÐµÐ±": 7823,
      "ÐļÑĢÐ°ÑģÐ¸Ð²ÑĭÐ¹": 7824,
      "ĠÐ¿Ð¾Ð¹Ð´Ñĥ": 7825,
      "Ġavail": 7826,
      "Ġfarmers": 7827,
      "Ġcitizens": 7828,
      "ĠÐ¿Ð¾Ð¿ÑĢÐ¾Ð±Ð¾Ð²Ð°ÑĤÑĮ": 7829,
      "ĠÐĿÐŀÐłÐľÐĲÐĽÐ¬ÐĿÐ«Ðķ": 7830,
      "ĠÐºÐ»Ð°ÑģÑģ": 7831,
      "ĠAfric": 7832,
      "Ð½Ð°ÑģÑĤÐ°ÑģÐ¸Ñı": 7833,
      "',": 7834,
      ")*": 7835,
      "EL": 7836,
      "Tel": 7837,
      "ĠÑĸ": 7838,
      "inf": 7839,
      "Ġtro": 7840,
      "ern": 7841,
      "Ġcor": 7842,
      "Ġcars": 7843,
      "Ġpur": 7844,
      "ÐµÑĤÐºÐ¾Ð¹": 7845,
      "Ġbatter": 7846,
      "Ġmember": 7847,
      "ĠImp": 7848,
      "ĠÐ·Ð°ÐµÐ´ÐµÑĤ": 7849,
      "ĠCFO": 7850,
      "ĠMet": 7851,
      "uture": 7852,
      "ĠAustral": 7853,
      "Ġnatural": 7854,
      "Ġstable": 7855,
      "ĠNykaa": 7856,
      "omura": 7857,
      "ÐľÐŀÐĸÐĿÐŀ": 7858,
      "ĠÑģÐ¿Ð¸ÑĤÐµ": 7859,
      "oreign": 7860,
      "ÐµÐ·Ð´": 7861,
      "ĠÑģÐ°Ð¼ÑĭÐ¹": 7862,
      "Ġ86": 7863,
      "abi": 7864,
      "Ġgrowing": 7865,
      "Ġcourt": 7866,
      "Ġking": 7867,
      "Ġmeets": 7868,
      "ĠÐķÐ³Ð¾ÑĢ": 7869,
      "ĠÐ±Ð»Ð¸Ð½ÑģÐºÐ¸Ð¹": 7870,
      "ĠUnited": 7871,
      "Ġregister": 7872,
      "Ġ++,": 7873,
      "Ġdisap": 7874,
      "ĠFDs": 7875,
      "Ġpartner": 7876,
      "Ġproduct": 7877,
      "ĠÐ¼Ð¾Ð»Ð¾Ð´Ð¾Ð¹": 7878,
      "Ġincreased": 7879,
      "Ġregulations": 7880,
      "ĠÐĶÐµÐ²ÑĥÑĪÐºÐ¾Ð¹": 7881,
      "Ġjoint": 7882,
      "ĠÐĲÐ»ÐµÐºÑģÐµÐ¹": 7883,
      "Ġgeneric": 7884,
      "Ġselloff": 7885,
      "Ġmedia": 7886,
      "Ġstrengthen": 7887,
      "Ð¸ÐºÑĤÐ¾ÑĢÐ¸Ñı": 7888,
      "ĠEmkay": 7889,
      "Ġvariant": 7890,
      "ĠÐŁÐ°ÑĢeÐ½ÑĮ": 7891,
      "ĠÐ¿Ð¾Ð³ÑĥÐ»ÑıÑİ": 7892,
      "ĠÐ¿Ð¾Ð³ÑĥÐ»ÑıÑĤÑĮ": 7893,
      "Ġfollowing": 7894,
      "ĠÐŁÐĺÐ¨ÐĺÐ¢Ðķ": 7895,
      "Ġtransactions": 7896,
      "ĠÐ¡Ð¢ÐłÐŀÐĻ": 7897,
      "ĠÐŁÐµÑĤÑĢÐ¾Ð²": 7898,
      "Ġescal": 7899,
      "ĠÐŁÐŀÐĸÐĲÐĽ": 7900,
      "ĠNadu": 7901,
      "ĠFinserv": 7902,
      "Bhar": 7903,
      "CC": 7904,
      "For": 7905,
      "dish": 7906,
      "hiv": 7907,
      "mi": 7908,
      "ph": 7909,
      "works": 7910,
      "ying": 7911,
      "Ð°Ð¶": 7912,
      "ÑĥÑĦ": 7913,
      "Ð»Ñĭ": 7914,
      "Ð»Ð¾Ðº": 7915,
      "ÑģÑĤÑĢÐ¾Ð¹": 7916,
      "ÑģÑĤÑĢÐ¸Ð¼": 7917,
      "ĠÐºÑĥ": 7918,
      "orator": 7919,
      "ÐµÑĢÐ¸": 7920,
      "ĠÐ¸Ñħ": 7921,
      "ĠÐ¼Ð½Ð¾Ð³Ð¾": 7922,
      "Ġinks": 7923,
      "Ġdirector": 7924,
      "ĠRoyal": 7925,
      "Ġmis": 7926,
      "ĠÑĤÐ¾Ð½": 7927,
      "ĠCl": 7928,
      "ĠÐļÐ°ÑĤ": 7929,
      "Ð¸Ð¼ÑģÑı": 7930,
      "ÐŁÐĲÐł": 7931,
      "omen": 7932,
      "enture": 7933,
      "ĠÐ¿ÑĢÐ¸Ð¹": 7934,
      "eev": 7935,
      "cept": 7936,
      "Ð¾Ð±ÐµÑģÐ¿ÐµÑĩÐµÐ½": 7937,
      "ĠÑĤÐ°ÑĩÐºÐ°": 7938,
      "Ġpros": 7939,
      "Ð´Ð°ÐµÑĤÑģÑı": 7940,
      "ĠJay": 7941,
      "ÑĢÑİÐ½Ðµ": 7942,
      "Ġ845": 7943,
      "isted": 7944,
      "ÐĵÐ»ÐµÐ±": 7945,
      "ĠÑħÐ¾ÑĢÐ¾ÑĪÐµÐ½ÑĮÐºÑĥÑİ": 7946,
      "ĠÑģÑĤÐ¾Ð¹": 7947,
      "ÐķÐĿÐ¬ÐļÐĲ": 7948,
      "Ð´ÐµÐ²ÑĥÑĪÐºÐµ": 7949,
      "ÑĢÐ¾Ð½Ð¸ÐºÐ°": 7950,
      "ĠProd": 7951,
      "Ġannounced": 7952,
      "ĠÐ¿ÑĢÐ¸Ð´Ð»Ð¾Ð³": 7953,
      "Ġfactory": 7954,
      "ÑĤÐµÐ»ÑĮÐ½Ð¾Ð³Ð¾": 7955,
      "Ġterms": 7956,
      "Ġoperating": 7957,
      "ĠSingapore": 7958,
      "ystems": 7959,
      "ĠCanara": 7960,
      "Ġcycle": 7961,
      "ĠÐ´Ð»Ð¸Ð½Ð½Ð¾Ð½Ð¾Ð³ÑĥÑİ": 7962,
      "ĠDeputy": 7963,
      "ĠÐ½ÐµÐ²ÐµÑģÑĤÑĥ": 7964,
      "ÐĲÐĳÐŀÐ¢": 7965,
      "ĠÐºÐ°ÐºÐ¸ÐµÑĤÐ¾": 7966,
      "ĠÑģÐ°Ñĥ": 7967,
      "ĠPowell": 7968,
      ".:)": 7969,
      "BL": 7970,
      "Co": 7971,
      "HFL": 7972,
      "Mindtree": 7973,
      "burg": 7974,
      "eop": 7975,
      "eech": 7976,
      "ji": 7977,
      "kart": 7978,
      "not": 7979,
      "yju": 7980,
      "Ġpull": 7981,
      "Ð³Ð°ÑĢÐ¸": 7982,
      "Ġbans": 7983,
      "ĠÑĤÑİ": 7984,
      "ÐĲÐ»ÐµÐºÑģ": 7985,
      "ĠBuzz": 7986,
      "ÐŁÐĲ": 7987,
      "ĠFortis": 7988,
      "ĠPan": 7989,
      "ived": 7990,
      "ivid": 7991,
      "ively": 7992,
      "ĠÑģÐ¿Ð°Ñģ": 7993,
      "ĠDef": 7994,
      "Ġrep": 7995,
      "Ġ54": 7996,
      "odities": 7997,
      "ĠÐ¾Ð±ÑħÐ¾Ð´Ð¸ÑĤÐµÐ»ÑĮ": 7998,
      "ĠÑĦÐ¸Ð³": 7999
    },
    "merges": [
      [
        "Ġ",
        "Ð"
      ],
      [
        "Ð",
        "¾"
      ],
      [
        "Ð",
        "µ"
      ],
      [
        "Ð",
        "°"
      ],
      [
        "Ñ",
        "Ĥ"
      ],
      [
        "Ñ",
        "Ģ"
      ],
      [
        "Ð¾",
        "Ð"
      ],
      [
        "Ñ",
        "ģ"
      ],
      [
        "Ð",
        "½"
      ],
      [
        "Ð",
        "¸"
      ],
      [
        "Ñ",
        "ĥ"
      ],
      [
        "č",
        "Ċ"
      ],
      [
        "Ð",
        "»"
      ],
      [
        "Ð",
        "º"
      ],
      [
        "ĠÐ",
        "¿"
      ],
      [
        "Ñ",
        "ĭ"
      ],
      [
        "Ñ",
        "ı"
      ],
      [
        "Ð",
        "²"
      ],
      [
        "ĠÐ",
        "½"
      ],
      [
        "F",
        "T"
      ],
      [
        "N",
        "D"
      ],
      [
        "E",
        "X"
      ],
      [
        "ND",
        "O"
      ],
      [
        "E",
        "NDO"
      ],
      [
        "FT",
        "EX"
      ],
      [
        "ENDO",
        "FTEX"
      ],
      [
        "ENDOFTEX",
        "T"
      ],
      [
        "Ġ",
        "Ñģ"
      ],
      [
        "Ðµ",
        "Ð"
      ],
      [
        "ÑĢ",
        "Ð¾Ð"
      ],
      [
        "i",
        "n"
      ],
      [
        "Ñ",
        "Į"
      ],
      [
        "Ġ",
        "["
      ],
      [
        "Ð",
        "¼"
      ],
      [
        "Ñ",
        "ĩ"
      ],
      [
        "Ñ",
        "ħ"
      ],
      [
        "Ð",
        "´"
      ],
      [
        "ĠÐ",
        "¾"
      ],
      [
        "ĠÐ",
        "´"
      ],
      [
        "Ñģ",
        "ÑĤ"
      ],
      [
        "Ġ",
        "t"
      ],
      [
        "e",
        "s"
      ],
      [
        "Ñ",
        "Ī"
      ],
      [
        "Ñ",
        "İ"
      ],
      [
        "ĠÐ",
        "²"
      ],
      [
        "a",
        "n"
      ],
      [
        "e",
        "r"
      ],
      [
        "Ðµ",
        "Ð½"
      ],
      [
        "ĠÐ",
        "º"
      ],
      [
        "o",
        "n"
      ],
      [
        "ÑĢ",
        "Ð°"
      ],
      [
        "a",
        "r"
      ],
      [
        "Ġ",
        "s"
      ],
      [
        "o",
        "r"
      ],
      [
        "Ð",
        "¿"
      ],
      [
        "Ð",
        "·"
      ],
      [
        "Ðµ",
        "ÑĢ"
      ],
      [
        "ÑĤ",
        "Ð¾"
      ],
      [
        "a",
        "t"
      ],
      [
        "ĠÐ",
        "¸"
      ],
      [
        "Ð¾Ð",
        "¼"
      ],
      [
        "ÑĤ",
        "Ð°"
      ],
      [
        "Ð½",
        "Ñĭ"
      ],
      [
        "Ġ",
        "c"
      ],
      [
        "e",
        "n"
      ],
      [
        "a",
        "l"
      ],
      [
        "â",
        "Ģ"
      ],
      [
        "ĠÐ",
        "Ł"
      ],
      [
        "ĠÐ½",
        "Ðµ"
      ],
      [
        "ĠÐ¿",
        "Ð¾"
      ],
      [
        "ÑĤ",
        "Ðµ"
      ],
      [
        "Ġ",
        "f"
      ],
      [
        "ĠÐ",
        "¼"
      ],
      [
        "Ð",
        "¶"
      ],
      [
        "Ġ",
        "p"
      ],
      [
        "Ġ",
        "âĢ"
      ],
      [
        "ĠÐ¾",
        "ÑĤ"
      ],
      [
        "Ð",
        "¹"
      ],
      [
        "Ð",
        "³"
      ],
      [
        "ĠÐ¿",
        "Ð¾Ð"
      ],
      [
        "ĠÐ½",
        "Ð°"
      ],
      [
        "Ġt",
        "o"
      ],
      [
        "Ġ",
        "r"
      ],
      [
        "Ġ",
        "in"
      ],
      [
        "Ð½",
        "Ð¾"
      ],
      [
        "M",
        "E"
      ],
      [
        "ÑĢ",
        "Ð¸"
      ],
      [
        "Ðº",
        "Ð°"
      ],
      [
        "Ð»",
        "Ñı"
      ],
      [
        "S",
        "A"
      ],
      [
        "G",
        "E"
      ],
      [
        "Ðµ",
        "ÑĤ"
      ],
      [
        "S",
        "SA"
      ],
      [
        "ME",
        "SSA"
      ],
      [
        "MESSA",
        "GE"
      ],
      [
        "i",
        "t"
      ],
      [
        "Ð²",
        "Ð°"
      ],
      [
        "Ġ",
        "b"
      ],
      [
        "Ð",
        "¢"
      ],
      [
        "Ġ",
        "a"
      ],
      [
        "Ð»",
        "Ð¸"
      ],
      [
        "Ð½",
        "Ð°"
      ],
      [
        "³",
        "Ð¾"
      ],
      [
        "Ñ",
        "Ħ"
      ],
      [
        "N",
        "E"
      ],
      [
        "W",
        "S"
      ],
      [
        "NE",
        "WS"
      ],
      [
        "ĠÐ",
        "·"
      ],
      [
        "Ð¾Ð",
        "²"
      ],
      [
        "i",
        "s"
      ],
      [
        "Ð",
        "±"
      ],
      [
        "Ġ",
        "S"
      ],
      [
        "Ġ",
        "ÑĢ"
      ],
      [
        "Ġ",
        "o"
      ],
      [
        "Ġ",
        "d"
      ],
      [
        "Ġ",
        "R"
      ],
      [
        "Ġ",
        "2"
      ],
      [
        "e",
        "t"
      ],
      [
        "Ġ",
        "m"
      ],
      [
        "ĠÐ¿",
        "ÑĢÐ¾Ð"
      ],
      [
        "Ñ",
        "ī"
      ],
      [
        "ĠÐ",
        "Ŀ"
      ],
      [
        "Ġ",
        "ÑĤ"
      ],
      [
        "Ð",
        "ŀ"
      ],
      [
        "in",
        "g"
      ],
      [
        "ĠâĢ",
        "Ķ"
      ],
      [
        "Ġ",
        ","
      ],
      [
        "ĠÐ",
        "±"
      ],
      [
        "Ð¾Ð",
        "´"
      ],
      [
        "Ġ",
        "I"
      ],
      [
        "Ñ",
        "ĳ"
      ],
      [
        "Ð",
        "Ĳ"
      ],
      [
        "ĠÐŁ",
        "ÑĢÐ¾Ð"
      ],
      [
        "e",
        "c"
      ],
      [
        "Ð",
        "¡"
      ],
      [
        "r",
        "o"
      ],
      [
        "Ðµ",
        "Ðº"
      ],
      [
        "Ð",
        "ķ"
      ],
      [
        "ĠÐ·",
        "Ð°"
      ],
      [
        "ĠÐ",
        "Ķ"
      ],
      [
        "i",
        "c"
      ],
      [
        "Ðµ",
        "Ð»"
      ],
      [
        "Ġ",
        ":"
      ],
      [
        "Ġ",
        "w"
      ],
      [
        "Ðµ",
        "Ñħ"
      ],
      [
        "Ð°",
        "ÑĢ"
      ],
      [
        "Ġ",
        "l"
      ],
      [
        "e",
        "l"
      ],
      [
        "Ð°",
        "Ð½"
      ],
      [
        "i",
        "on"
      ],
      [
        "ĠÐ",
        "»"
      ],
      [
        "e",
        "d"
      ],
      [
        "Ð¸",
        "ÑĤ"
      ],
      [
        "Ð»",
        "ÑĮ"
      ],
      [
        "ĠÐ¿ÑĢÐ¾Ð",
        "´"
      ],
      [
        "ÑĢ",
        "Ð¾"
      ],
      [
        "Ġ",
        "1"
      ],
      [
        "Ð°",
        "ÑĤ"
      ],
      [
        "ÐµÐ",
        "¹"
      ],
      [
        "Ñĥ",
        "Ðº"
      ],
      [
        "Ð½Ñĭ",
        "Ð¹"
      ],
      [
        "¼",
        "Ð¢"
      ],
      [
        "¼Ð¢",
        "ÐµÑħ"
      ],
      [
        "ĠÐ",
        "³"
      ],
      [
        "Ġ",
        "C"
      ],
      [
        "Ġ",
        "h"
      ],
      [
        "ĠÐŁÑĢÐ¾Ð",
        "¼Ð¢ÐµÑħ"
      ],
      [
        "Ð¾Ð",
        "¹"
      ],
      [
        "ÐµÐ",
        "³"
      ],
      [
        "Ðµ",
        "Ð²"
      ],
      [
        "i",
        "l"
      ],
      [
        "Ð¾Ð",
        "½"
      ],
      [
        "Ðº",
        "Ñĥ"
      ],
      [
        "ÑĢ",
        "Ñĥ"
      ],
      [
        "Ð¸",
        "Ðµ"
      ],
      [
        "ÐµÐ",
        "¼"
      ],
      [
        "Ġ",
        "M"
      ],
      [
        "Ñ",
        "į"
      ],
      [
        "Ð¾Ð",
        "³Ð¾"
      ],
      [
        "Ð¸",
        "Ð½"
      ],
      [
        "Ð",
        "Ŀ"
      ],
      [
        "ĠÐ",
        "¡"
      ],
      [
        "ÑģÑĤ",
        "ÑĮ"
      ],
      [
        "S",
        "O"
      ],
      [
        "SO",
        "S"
      ],
      [
        "Ġ",
        "B"
      ],
      [
        "a",
        "y"
      ],
      [
        "s",
        "t"
      ],
      [
        "ĠÐ¿ÑĢÐ¾Ð´",
        "ÑĥÐº"
      ],
      [
        "Ġ",
        "Ñı"
      ],
      [
        "u",
        "r"
      ],
      [
        "Ġ",
        "g"
      ],
      [
        "Ð¾Ð",
        "»"
      ],
      [
        "ĠÐ",
        "ļ"
      ],
      [
        "n",
        "d"
      ],
      [
        "ĠÐ",
        "¶"
      ],
      [
        "u",
        "t"
      ],
      [
        "Ð",
        "ĺ"
      ],
      [
        "ÑĢÐ°",
        "Ñģ"
      ],
      [
        "Ð¸",
        "Ð¼"
      ],
      [
        "Ġ",
        "Ñĥ"
      ],
      [
        "e",
        "x"
      ],
      [
        "ĠÐ´",
        "Ð»Ñı"
      ],
      [
        "Ġ",
        "A"
      ],
      [
        "Ġo",
        "f"
      ],
      [
        "Ñ",
        "Ĩ"
      ],
      [
        "o",
        "l"
      ],
      [
        "Ñĥ",
        "Ð»Ñı"
      ],
      [
        "Ñĭ",
        "Ð½"
      ],
      [
        "r",
        "a"
      ],
      [
        "Ġ",
        "on"
      ],
      [
        "Ġf",
        "or"
      ],
      [
        "Ð²",
        "Ñĭ"
      ],
      [
        "Ð¾",
        "Ñĩ"
      ],
      [
        "Ġ",
        "n"
      ],
      [
        "Ð¾Ð",
        "¶"
      ],
      [
        "ÐµÐ",
        "´"
      ],
      [
        "Ġs",
        "t"
      ],
      [
        "ĠÐ",
        "Ĵ"
      ],
      [
        "ĠÑĢ",
        "ÑĭÐ½"
      ],
      [
        "Ñĥ",
        "Ð´"
      ],
      [
        "ĠÐ",
        "£"
      ],
      [
        "Ðŀ",
        "Ð"
      ],
      [
        "ĠâĢ",
        "¦"
      ],
      [
        "o",
        "w"
      ],
      [
        "t",
        "s"
      ],
      [
        "Ġt",
        "h"
      ],
      [
        "Ð½",
        "Ðµ"
      ],
      [
        "Ñģ",
        "Ñı"
      ],
      [
        "Ð»",
        "Ð°"
      ],
      [
        "Ñĥ",
        "ÑĪ"
      ],
      [
        "ĠÐ½",
        "Ð¾Ð²"
      ],
      [
        "Ð¸",
        "Ð²"
      ],
      [
        "Ð",
        "Ł"
      ],
      [
        "u",
        "p"
      ],
      [
        "i",
        "d"
      ],
      [
        "Ġ",
        "Ñħ"
      ],
      [
        "Ð¾",
        "ÑĦ"
      ],
      [
        "Ð½Ñĭ",
        "Ðµ"
      ],
      [
        "Ġ",
        "N"
      ],
      [
        "Ġ",
        "F"
      ],
      [
        "Ġ",
        "Ñĩ"
      ],
      [
        "Ġ",
        "T"
      ],
      [
        "ÑĤÐ°",
        "Ð»"
      ],
      [
        "Ð°",
        "Ðº"
      ],
      [
        "Ġ",
        "3"
      ],
      [
        "Ð·",
        "Ñĭ"
      ],
      [
        "o",
        "m"
      ],
      [
        "Ð¾",
        "ÑĤ"
      ],
      [
        "an",
        "d"
      ],
      [
        "Ð¾",
        "ÑģÑĤ"
      ],
      [
        "ÐµÐ¹",
        "ÑĢÐ¾Ð"
      ],
      [
        "¡",
        "Ð¾ÑĦ"
      ],
      [
        "ÐµÐ¹ÑĢÐ¾Ð",
        "¡Ð¾ÑĦ"
      ],
      [
        "ÐµÐ¹ÑĢÐ¾Ð¡Ð¾ÑĦ",
        "ÑĤ"
      ],
      [
        "Ġ",
        "P"
      ],
      [
        "a",
        "s"
      ],
      [
        "en",
        "t"
      ],
      [
        "Ðº",
        "Ðµ"
      ],
      [
        "ĠÐĿ",
        "ÐµÐ¹ÑĢÐ¾Ð¡Ð¾ÑĦÑĤ"
      ],
      [
        "Ð»",
        "ÐµÐ½"
      ],
      [
        "Ð²Ð°",
        "ÑĢ"
      ],
      [
        "ĠÐº",
        "Ð²Ð°ÑĢ"
      ],
      [
        "i",
        "g"
      ],
      [
        "ĠÐ¾ÑĤ",
        "Ð·Ñĭ"
      ],
      [
        "ĠÐ¿ÑĢÐ¾Ð´ÑĥÐº",
        "ÑĤÐµ"
      ],
      [
        "ĠÐ¾ÑĤÐ·Ñĭ",
        "Ð²Ñĭ"
      ],
      [
        "Ñħ",
        "Ð¾Ð´"
      ],
      [
        "c",
        "k"
      ],
      [
        "Ð°",
        "Ñİ"
      ],
      [
        "ÑĢÐ¾Ð",
        "¹"
      ],
      [
        "i",
        "r"
      ],
      [
        "ĠÐºÐ²Ð°ÑĢ",
        "ÑĤÐ°Ð»"
      ],
      [
        "es",
        "t"
      ],
      [
        "u",
        "l"
      ],
      [
        "ĠÐ½",
        "Ð¾"
      ],
      [
        "Ð°",
        "Ð»ÑĮ"
      ],
      [
        "Ĵ",
        "ÐµÐº"
      ],
      [
        "B",
        "I"
      ],
      [
        "ĠÐ",
        "Ĳ"
      ],
      [
        "i",
        "a"
      ],
      [
        "Ð»",
        "Ñİ"
      ],
      [
        "an",
        "k"
      ],
      [
        "Ð¾Ð",
        "º"
      ],
      [
        "e",
        "m"
      ],
      [
        "ĠÐ¿Ð¾Ð",
        "·"
      ],
      [
        "Ðķ",
        "Ð"
      ],
      [
        "Ðµ",
        "Ñģ"
      ],
      [
        "Ð¶",
        "Ñĥ"
      ],
      [
        "Ġ",
        "Ñį"
      ],
      [
        "ÐµÐ²",
        "ÑĥÑĪ"
      ],
      [
        "t",
        "h"
      ],
      [
        "ĠÐ",
        "ł"
      ],
      [
        "ĠÐ¿",
        "ÑĢÐ¸"
      ],
      [
        "Ð",
        "£"
      ],
      [
        "Ð",
        "ļ"
      ],
      [
        "o",
        "v"
      ],
      [
        "ĠÐ",
        "ľ"
      ],
      [
        "ĠÐ½Ð¾Ð²",
        "Ð¾Ð³Ð¾"
      ],
      [
        "0",
        "0"
      ],
      [
        "Ð°",
        "Ð¼"
      ],
      [
        "e",
        "e"
      ],
      [
        "ÑĤ",
        "ÑĢÐ¾Ð¹"
      ],
      [
        "ÑģÑĤ",
        "Ð¸"
      ],
      [
        "Ġ",
        "-"
      ],
      [
        "ĠÐ",
        "°"
      ],
      [
        "a",
        "k"
      ],
      [
        "en",
        "s"
      ],
      [
        "t",
        "er"
      ],
      [
        "ĠI",
        "nd"
      ],
      [
        "i",
        "v"
      ],
      [
        "u",
        "n"
      ],
      [
        "h",
        "ar"
      ],
      [
        "ĠÐ¿",
        "Ð°ÑĢ"
      ],
      [
        "u",
        "s"
      ],
      [
        "Ñĭ",
        "ÑĪ"
      ],
      [
        "Ð",
        "ľ"
      ],
      [
        "Ñģ",
        "ÑĮ"
      ],
      [
        "Ð¸",
        "ÑĤÐµ"
      ],
      [
        "ÐµÐ",
        "±"
      ],
      [
        "Ðµ",
        "ÑĪ"
      ],
      [
        "ĠÐ¿Ð¾Ð",
        "º"
      ],
      [
        "c",
        "e"
      ],
      [
        "Ð¶",
        "Ðµ"
      ],
      [
        "Ð¡",
        "ÑĤÑĢÐ¾Ð¹"
      ],
      [
        "Ð¾Ð¼",
        "Ð¡ÑĤÑĢÐ¾Ð¹"
      ],
      [
        "ĠÐ¿Ð¾Ðº",
        "Ð°"
      ],
      [
        "Ðº",
        "Ð¸"
      ],
      [
        "Ð´",
        "Ñĥ"
      ],
      [
        "Ð½",
        "Ð¸"
      ],
      [
        "er",
        "s"
      ],
      [
        "ĠÐĶ",
        "Ð¾Ð¼Ð¡ÑĤÑĢÐ¾Ð¹"
      ],
      [
        "ĠR",
        "s"
      ],
      [
        "Ġc",
        "r"
      ],
      [
        "Ġ",
        "0"
      ],
      [
        "ĠÑģ",
        "Ð¿"
      ],
      [
        "Ġ",
        "G"
      ],
      [
        "o",
        "ck"
      ],
      [
        "ĠÐ¿Ð¾Ð",
        "¿"
      ],
      [
        "Ð",
        "ł"
      ],
      [
        "i",
        "m"
      ],
      [
        "i",
        "f"
      ],
      [
        "Ġ",
        "D"
      ],
      [
[...]
