{
  "version": "1.0",
  "truncation": {
    "direction": "Right",
    "max_length": 512,
    "strategy": "LongestFirst",
    "stride": 0
  },
  "padding": {
    "strategy": {
      "Fixed": 512
    },
    "direction": "Right",
    "pad_to_multiple_of": null,
    "pad_id": 0,
    "pad_type_id": 0,
    "pad_token": "[PAD]"
  },
  "added_tokens": [
    {
      "id": 0,
      "content": "[PAD]",
      "single_word": false,
      "lstrip": false,
      "rstrip": false,
      "normalized": false,
      "special": true
    },
    {
      "id": 1,
      "content": "[UNK]",
      "single_word": false,
      "lstrip": false,
      "rstrip": false,
      "normalized": false,
      "special": true
    },
    {
      "id": 2,
      "content": "[SOS]",
      "single_word": false,
      "lstrip": false,
      "rstrip": false,
      "normalized": false,
      "special": true
    },
    {
      "id": 3,
      "content": "[EOS]",
      "single_word": false,
      "lstrip": false,
      "rstrip": false,
      "normalized": false,
      "special": true
    }
  ],
  "normalizer": null,
  "pre_tokenizer": {
    "type": "ByteLevel",
    "add_prefix_space": false,
    "trim_offsets": true,
    "use_regex": true
  },
  "post_processor": null,
  "decoder": {
    "type": "ByteLevel",
    "add_prefix_space": true,
    "trim_offsets": true,
    "use_regex": true
  },
  "model": {
    "type": "BPE",
    "dropout": null,
    "unk_token": "[UNK]",
    "continuing_subword_prefix": null,
    "end_of_word_suffix": null,
    "fuse_unk": false,
    "byte_fallback": false,
    "ignore_merges": false,
    "vocab": {
      "[PAD]": 0,
      "[UNK]": 1,
      "[SOS]": 2,
      "[EOS]": 3,
      "!": 4,
      "%": 5,
      "(": 6,
      ")": 7,
      "*": 8,
      ",": 9,
      "-": 10,
      ".": 11,
      "/": 12,
      "0": 13,
      "1": 14,
      "2": 15,
      "3": 16,
      "4": 17,
      "5": 18,
      "6": 19,
      "7": 20,
      "8": 21,
      "9": 22,
      ":": 23,
      ";": 24,
      "?": 25,
      "A": 26,
      "E": 27,
      "H": 28,
      "I": 29,
      "K": 30,
      "L": 31,
      "M": 32,
      "N": 33,
      "P": 34,
      "R": 35,
      "S": 36,
      "T": 37,
      "U": 38,
      "W": 39,
      "a": 40,
      "b": 41,
      "c": 42,
      "d": 43,
      "e": 44,
      "f": 45,
      "g": 46,
      "h": 47,
      "i": 48,
      "j": 49,
      "k": 50,
      "l": 51,
      "m": 52,
      "n": 53,
      "o": 54,
      "p": 55,
      "r": 56,
      "s": 57,
      "t": 58,
      "u": 59,
      "v": 60,
      "w": 61,
      "x": 62,
      "y": 63,
      "¡": 64,
      "¢": 65,
      "£": 66,
      "¤": 67,
      "¥": 68,
      "¦": 69,
      "§": 70,
      "¨": 71,
      "«": 72,
      "¯": 73,
      "°": 74,
      "±": 75,
      "²": 76,
      "³": 77,
      "´": 78,
      "µ": 79,
      "¶": 80,
      "·": 81,
      "¸": 82,
      "¹": 83,
      "º": 84,
      "»": 85,
      "¼": 86,
      "½": 87,
      "¾": 88,
      "¿": 89,
      "Â": 90,
      "Ð": 91,
      "Ñ": 92,
      "â": 93,
      "Ċ": 94,
      "č": 95,
      "Ġ": 96,
      "Ģ": 97,
      "ģ": 98,
      "Ĥ": 99,
      "ĥ": 100,
      "Ħ": 101,
      "ħ": 102,
      "Ĩ": 103,
      "ĩ": 104,
      "Ī": 105,
      "ī": 106,
      "Ĭ": 107,
      "ĭ": 108,
      "Į": 109,
      "į": 110,
      "İ": 111,
      "ı": 112,
      "Ĳ": 113,
      "ĳ": 114,
      "Ĵ": 115,
      "ĵ": 116,
      "Ķ": 117,
      "ķ": 118,
      "ĸ": 119,
      "Ĺ": 120,
      "ĺ": 121,
      "ļ": 122,
      "Ľ": 123,
      "ľ": 124,
      "Ŀ": 125,
      "ŀ": 126,
      "Ł": 127,
      "ł": 128,
      "Ń": 129,
      "Ð¾": 130,
      "Ðµ": 131,
      "ĠÐ": 132,
      "Ð°": 133,
      "Ð¸": 134,
      "Ð½": 135,
      "ÑĤ": 136,
      "Ñģ": 137,
      "Ð¾Ð": 138,
      "ÑĢ": 139,
      "ÐµÐ": 140,
      "Ð°Ð": 141,
      "Ñĭ": 142,
      "Ñĥ": 143,
      "Ñı": 144,
      "Ð¸Ð": 145,
      "ÑģÑĤ": 146,
      "ĠÐ¿": 147,
      "Ñĩ": 148,
      "Ð»": 149,
      "ÑĮ": 150,
      "ÐµÐ½": 151,
      "Ñħ": 152,
      "Ð²": 153,
      "Ðº": 154,
      "ĠÑģ": 155,
      "Ð¾Ð²": 156,
      "ĠÐ½": 157,
      "ĠÐ²": 158,
      "Ð½Ð¾": 159,
      "Ð½Ñĭ": 160,
      "ÑĨ": 161,
      "ÑĢÐµÐ": 162,
      "ÐµÑĤ": 163,
      "ĠÐº": 164,
      "ĠÐ¸": 165,
      "ÑĥÐ": 166,
      "Ð°Ð½": 167,
      "ÑĢÐ°Ð": 168,
      "ÑĤÐ¾": 169,
      "Ñİ": 170,
      "Ð¸Ñı": 171,
      "Ð¸ÑĤ": 172,
      "Ð´": 173,
      "ÐµÐ»": 174,
      "Ð¼": 175,
      "Ð¾Ð´": 176,
      "ÑĪ": 177,
      "ÐµÑĢ": 178,
      "Ð¾Ð±": 179,
      "Ð°Ð»": 180,
      "ĠÑĤ": 181,
      "ÐµÑģ": 182,
      "Ñī": 183,
      "ĠÐ´": 184,
      "Ð¾Ð³": 185,
      "Ð°Ðº": 186,
      "ĠÐ¿ÑĢ": 187,
      "Ð¿": 188,
      "ĠÐ¼": 189,
      "âĢ": 190,
      "Ð¾Ð¼": 191,
      "ĠâĢ": 192,
      "ĠâĢĶ": 193,
      "Ð¾ÑĤ": 194,
      "Ð¾Ð»": 195,
      "Ð¾Ð½": 196,
      "ÑģÑĤÐ²": 197,
      "ÑĨÐ¸": 198,
      "ĠÑ": 199,
      "Ð°ÑĤ": 200,
      "ĠÑĩ": 201,
      "Ð¸Ð¹": 202,
      "Ð¸Ð²": 203,
      "ĠÐ·": 204,
      "Ð¸Ð¼": 205,
      "Ð¾ÑĢ": 206,
      "ÑĢÐµÐ´": 207,
      "ĠÑĢÐ°Ð": 208,
      "ĠÑħ": 209,
      "Ð½ÑĭÑħ": 210,
      "Ð°Ñı": 211,
      "Ð¸Ðµ": 212,
      "Ð¸Ð·": 213,
      "ĠÐ°": 214,
      "Ð¾Ðº": 215,
      "ĠÐ½Ðµ": 216,
      "ÐµÐ¹": 217,
      "Ġ2": 218,
      "Ð¾Ð¹": 219,
      "Ġ1": 220,
      "ĠÐ±": 221,
      "Ġ5": 222,
      "ĠÐ½Ð°": 223,
      "Ñĳ": 224,
      "Ġ3": 225,
      "Ð¾ÑģÑĤ": 226,
      "Ð°Ð²": 227,
      "Ġ4": 228,
      "Ġ6": 229,
      "Ġ7": 230,
      "Ġ9": 231,
      "Ġ8": 232,
      "Ð¸Ñĩ": 233,
      "čĊ": 234,
      "ĠÑĢ": 235,
      "ÐµÐ½Ð¸Ñı": 236,
      "Ð¸Ð½": 237,
      "ÑģÑı": 238,
      "Ð¾Ð·": 239,
      "Ð¹": 240,
      "Ð¾Ð¿": 241,
      "Ð½Ð¾ÑģÑĤ": 242,
      "ĠÑĥ": 243,
      "Ð½Ð¾Ðµ": 244,
      "Ð³": 245,
      "Ð¾Ð³Ð¾": 246,
      "ĠÑĢÐ°Ð·": 247,
      "Ð»Ñı": 248,
      "Ð¾Ñģ": 249,
      "ĠÐ²Ñĭ": 250,
      "Ð°Ñĩ": 251,
      "ÐµÐ¼": 252,
      "Ð°Ð»ÑĮ": 253,
      "ĠÑģÑĤ": 254,
      "ĠÐ¾Ð±": 255,
      "ÐµÐ´": 256,
      "Ġ/": 257,
      "ĠÑį": 258,
      "ÐµÑģÑĤÐ²": 259,
      "ÐµÐº": 260,
      "Ð¸ÑĢ": 261,
      "ĠÐ³": 262,
      "Ð°ÑģÑĤ": 263,
      "Ð°Ð¼": 264,
      "ĠÑĦ": 265,
      "ÑĥÑİ": 266,
      "Ð°Ð´": 267,
      "Ð¸Ðº": 268,
      "ÐµÐ»ÑĮ": 269,
      "ÐµÐ³": 270,
      "ĠÐ¿ÑĢÐµÐ´": 271,
      "Ð°ÐµÑĤ": 272,
      "Ð°Ñģ": 273,
      "ÐµÑģÐº": 274,
      "¹Ð½": 275,
      "Ð·": 276,
      "Ð°ÑĢ": 277,
      "Ð¾Ð¶": 278,
      "Ð½ÑĭÐµ": 279,
      "ĠÐ¿ÑĢÐ¾": 280,
      "ÑĨÐ¸Ð¸": 281,
      "ÑĥÐ¹Ð½": 282,
      "Ð¸ÑĩÐµÑģÐº": 283,
      "Ð°Ð·": 284,
      "ÐºÐ°": 285,
      "Ð½ÑĭÐ¹": 286,
      "ĠÑħÑĥÐ¹Ð½": 287,
      "Ð¸Ð¸": 288,
      "Ð¸Ñħ": 289,
      "ĠÐ¾ÑĤ": 290,
      "ĠÐºÐ°Ðº": 291,
      "Ð¾Ð²Ñĭ": 292,
      "ÑĤÐ¾ÑĢ": 293,
      "ÐµÐ½Ð¸Ðµ": 294,
      "ÑĤÐ¸Ð²": 295,
      "Ð¾Ð²Ð°Ð½": 296,
      "Ð¸Ð·Ð°": 297,
      "ÑĥÑĢ": 298,
      "ÐµÐ½Ð½ÑĭÑħ": 299,
      "ÑģÐ»": 300,
      "ÐµÐ²": 301,
      "ÑĥÑĤ": 302,
      "Ð¾Ñĩ": 303,
      "ĠÐ¸Ð½": 304,
      "Ð°ÑĤÑĮ": 305,
      "ĠÑĩÑĤÐ¾": 306,
      "ÐµÐ¿": 307,
      "ĠÐ°Ðº": 308,
      "Ð¾Ðµ": 309,
      "ĠÑģÐ²": 310,
      "ÐµÐ³Ð¾": 311,
      "ĠÐ»": 312,
      "Ð½Ð°Ñı": 313,
      "ÑĭÐ²": 314,
      "Ð½Ð¾ÑģÑĤÐ¸": 315,
      "ÑīÐµÑģÑĤÐ²": 316,
      "Ð¶": 317,
      "ÐµÑĪ": 318,
      "ÐµÐ·": 319,
      "Ð¸Ð»": 320,
      "ÐµÐ½Ñĭ": 321,
      "ÑİÑĤ": 322,
      "Ð¸ÑĤÐµÐ»ÑĮ": 323,
      "ÑĦ": 324,
      "ÑĥÐ¿": 325,
      "ĠÑħÑĥÐ¹Ð½Ñı": 326,
      "Ð½Ð°Ñĩ": 327,
      "ÑģÐº": 328,
      "ĠÑģÐ¾": 329,
      "ÑĨÐ¸Ð¾Ð½": 330,
      "ĠÐ¿Ð¾Ð´": 331,
      "ĠÑģÐ¾Ð²": 332,
      "ĠÐ²Ð½": 333,
      "Ð´Ð°": 334,
      "ĠÑĢÐ°Ð·Ð²": 335,
      "ÑĥÐµÑĤ": 336,
      "ĠÑģÐ»": 337,
      "ĠÑĤÐ°Ðº": 338,
      "ÐµÑĩ": 339,
      "Ð½Ð¾Ð³Ð¾": 340,
      "Ð½Ð¾ÑģÑĤÑĮ": 341,
      "ÑĭÐµ": 342,
      "ĠÐ¿Ð¾": 343,
      "ÑĢÐµÐ¼": 344,
      "ĠÐļ": 345,
      "Ð»Ñİ": 346,
      "ĠÑĢÐ°Ð·Ð²Ð¸ÑĤ": 347,
      "!,": 348,
      "ĠÑĨ": 349,
      "ĠÐ¾Ð¿": 350,
      "Ð½Ð¾Ð¹": 351,
      "ĠÐ¿Ð¾Ð»": 352,
      "ÐºÐ¸": 353,
      "ÑĥÐ´": 354,
      "ÐµÑģÑĤ": 355,
      "ĠÐŁ": 356,
      "Ð¸Ñģ": 357,
      "Ð¸ÑĤÑĮ": 358,
      "Ð¾ÑĢÐ¼": 359,
      "Ð¸Ð·Ð°ÑĨÐ¸Ð¸": 360,
      "¶Ð´": 361,
      "Ð°Ð¿": 362,
      "ÑĨÐ¸Ñı": 363,
      "ĠÑĤÑĢÐµÐ": 364,
      "ÐµÐ½ÑĤ": 365,
      "ÑĢÐµÐ·": 366,
      "ĠÑįÑĤ": 367,
      "ĠÑı": 368,
      "Ð¸Ð´": 369,
      "ĠÑģÐ¿": 370,
      "ÑĥÐ¼": 371,
      "ÐµÑģÑģ": 372,
      "ĠÐ°ÐºÑĤÐ¸Ð²": 373,
      "ÑģÑĤÐ°Ð²": 374,
      "ĠÐ¿Ð¾Ð·": 375,
      "ĠÐ¿ÑĢÐµÐ´ÑģÑĤÐ°Ð²": 376,
      "ÐµÑħ": 377,
      "ĠÐĴ": 378,
      "ÑıÑĤ": 379,
      "ÑĢÐ°Ð·": 380,
      "Ð¾Ð´Ð½": 381,
      "Ð¾Ð»ÑĮ": 382,
      "Ð¸ÑĢÐ¾Ð²Ð°Ð½": 383,
      "ÑĭÑĤ": 384,
      "ÑĥÐº": 385,
      "Ð½ÑĭÐ¼": 386,
      "ĠÐ´Ð»Ñı": 387,
      "is": 388,
      "Ð±": 389,
      "ÐµÐµ": 390,
      "Ð¸ÑģÑĤ": 391,
      "Ð°Ð±": 392,
      "ĠÑĩÐ°ÑģÑĤ": 393,
      "ĠÑĥÑĩ": 394,
      "ĠÐļÐ°Ðº": 395,
      "Ġt": 396,
      "ĠÐĿ": 397,
      "ÑĢÐ¾Ð²": 398,
      "ÐµÐ½Ð¸Ð¹": 399,
      "ĠÐºÐ¾Ð½": 400,
      "ÑĥÐ±": 401,
      "ÑİÑī": 402,
      "ĠÑĪ": 403,
      "ĠÐ¶": 404,
      "ÑĤÐµÑĢ": 405,
      "ĠÐ¿Ð¾Ð²": 406,
      "Ð²Ð¾Ð´": 407,
      "ĠÐ½ÐµÐ¿": 408,
      "ÑĢÐµÐ´ÐµÐ»": 409,
      "Ð°Ð²Ð¸Ñģ": 410,
      "Ð¾ÑģÐ¾Ð±": 411,
      "ĠÑĦÐ¾ÑĢÐ¼": 412,
      "Ð»ÑİÑĩ": 413,
      "he": 414,
      "¹Ð´": 415,
      "ĠÐ¾": 416,
      "ÑĢÐ°Ð½": 417,
      "Ð°Ð»ÑĮÐ½Ð¾": 418,
      "ÑĥÑİÑī": 419,
      "ÑĭÑħ": 420,
      "ĠÐ·Ð°Ð´": 421,
      "ÑĳÑĤ": 422,
      "ĠÑģÐ¾Ð²ÑĢÐµÐ¼": 423,
      "Ġa": 424,
      "ĠÑĤÐ¾": 425,
      "Ð°ÑİÑī": 426,
      "ÑģÐ¿": 427,
      "ÑĥÑĩ": 428,
      "ĠÐ¸Ð·": 429,
      "ÑĥÐ¶": 430,
      "Ð¾Ð²ÑĭÑħ": 431,
      "ÑģÐ»Ð¾Ð²": 432,
      "ĠÑĥÑĩÐ°ÑģÑĤ": 433,
      "Ð½Ð¸Ðº": 434,
      "Ð¸Ð±": 435,
      "ÐºÐ¾": 436,
      "ĠÑģÐ¾Ð±": 437,
      "ĠÐ²Ñģ": 438,
      "Ð¿Ð¾Ð»": 439,
      "ĠÑģÑĤÑĢ": 440,
      "Ð°Ð¼Ð¸": 441,
      "ĠÑĢÐ°Ð·Ð²Ð¸ÑĤÐ¸Ñı": 442,
      "±Ð¾ÑĤ": 443,
      "ĠÐ¾Ð´Ð½": 444,
      "Ð¾ÑĤÐ¾ÑĢ": 445,
      "ÑĤÑĥÑĢ": 446,
      "ÐµÐ½ÑĮ": 447,
      "ÑħÐ¾Ð´": 448,
      "Ð´ÐµÐ»": 449,
      "Ð¾ÑģÑĤÐ°Ð²": 450,
      "ĠÑģÐ²Ð¾": 451,
      "ÐµÑħÐ½": 452,
      "Ð°Ð²Ð¸ÑģÐ¸Ð¼": 453,
      "as": 454,
      "Ð»Ð¸": 455,
      "ĠÐ¿Ð¾Ð·Ð¸": 456,
      "Ġ(": 457,
      "Ð°Ð³": 458,
      "Ð°Ð¹": 459,
      "ÑĥÑī": 460,
      "ÑĥÑīÐµÑģÑĤÐ²": 461,
      "ÑıÐµÑĤ": 462,
      "ĠÐ¿Ð»": 463,
      "ĠÐ¿Ð¾Ðº": 464,
      "Ð»ÑĮ": 465,
      "ĠÑģÑĥÑīÐµÑģÑĤÐ²": 466,
      "ÑĢÐ°Ðº": 467,
      "Ð¸Ð·Ð²": 468,
      "Ð¾ÑģÑĤÑĮ": 469,
      "Ð¾Ð·Ð½Ð°Ñĩ": 470,
      "ĠÑĢÐµÐ·": 471,
      "ÐµÑī": 472,
      "Ð°Ð½Ñĭ": 473,
      "Ð°Ð¶": 474,
      "ÑıÐ½": 475,
      "ÐµÐ½Ð¸": 476,
      "ÐºÐµ": 477,
      "ĠÑģÐ´ÐµÐ»": 478,
      "ÑĢÐ°Ð²": 479,
      "Ð¸ÑıÑĤ": 480,
      "ĠÑĢÐ°Ñģ": 481,
      "Ð¸Ð½Ð³": 482,
      "Ð»ÑıÐµÑĤ": 483,
      "ĠÐ²ÑĭÑģ": 484,
      "ĠÐ²ÑĭÐ²Ð¾Ð´": 485,
      "Ð°ÑĩÐµÑģÑĤÐ²": 486,
      "ĠÑĤÑĢÐµÐ¹Ð´": 487,
      "ĠÑıÐ²": 488,
      "ĠÑģÐ¾Ð²ÑĢÐµÐ¼ÐµÐ½Ð½ÑĭÑħ": 489,
      "..": 490,
      "ÑĬ": 491,
      "ĠÐ¡": 492,
      "ÑĢÐ¸ÑıÑĤ": 493,
      "ÑĥÐ½": 494,
      "ĠÐºÐ¾Ð¼": 495,
      "ĠÐºÐ¾ÑĤÐ¾ÑĢ": 496,
      "ÐµÐ»Ð¸": 497,
      "ÐµÐ¹ÑģÑĤÐ²": 498,
      "ĠÐ±Ð°Ð·": 499,
      "ĠÐ±ÑĭÑĤ": 500,
      "ĠÐ¾Ð±ÑĢÐ°Ð·": 501,
      "ĠÑĦÐ¾ÑĢÐ¼Ð¸ÑĢÐ¾Ð²Ð°Ð½": 502,
      "ĠÐ±ÑĭÑĤÑĮ": 503,
      "ÐµÐ°Ð»": 504,
      "Ð°Ñħ": 505,
      "Ð°ÑİÑĤ": 506,
      "Ð½Ð¾Ð¼": 507,
      "Ð½ÐµÐ¹": 508,
      "ÐµÐ±": 509,
      "Ð°Ð½Ñģ": 510,
      "ĠÐ¿ÑĢÐ¸Ð½": 511,
      "ĠÑĢÐµÐ°Ð»": 512,
      "ĠÑģÐ¾ÑĨÐ¸": 513,
      "ĠÑĨÐµÐ»": 514,
      "ĠÑģÐ¿Ð¾ÑģÐ¾Ð±": 515,
      "Ð¾Ð»ÑĮÐºÐ¾": 516,
      "00": 517,
      "Ð¸Ð¿": 518,
      "Ð»ÐµÐ½Ð¸Ðµ": 519,
      "Ð²ÐµÑĤ": 520,
      "ÑĨÐµÐ½": 521,
      "ÑĨÐ¸Ð¹": 522,
      "Ð°Ð½Ð¸Ñı": 523,
      "ÐµÐ»Ð¾Ð²": 524,
      "ĠÐ´Ð¾Ð»": 525,
      "Ð°ÑĢÑĤ": 526,
      "Ð¶Ðµ": 527,
      "ĠÑĤÐ°ÐºÐ¶Ðµ": 528,
      "ĠÐ¿Ð¾Ð»Ð¸ÑĤ": 529,
      "ÑĥÐºÑĤÑĥÑĢ": 530,
      "ĠÑģÑĤÑĢÑĥÐºÑĤÑĥÑĢ": 531,
      "ĠÐ¾Ð±ÑĢÐ°Ð·Ð¾Ð¼": 532,
      "Ð°ÑĪ": 533,
      "Ð°ÐµÐ¼": 534,
      "ÑĭÐ¹": 535,
      "ÑĥÐ»ÑĮ": 536,
      "Ð»ÐµÐ½Ð¸Ñı": 537,
      "ÑĢÐ°Ð¶": 538,
      "Ð¼Ð¸": 539,
      "Ð¾Ð³Ð´Ð°": 540,
      "ĠÐ¼ÐµÑĤ": 541,
      "Ð°ÑĤÐ¸Ð²": 542,
      "ĠÐ·Ð½Ð°Ñĩ": 543,
      "Ð¸Ð¼ÐµÑĢ": 544,
      "ĠÐ½Ð°Ñģ": 545,
      "Ð°Ð»ÑĮÐ½ÑĭÑħ": 546,
      "Ð¸ÑĢÐ¾Ðº": 547,
      "ĠÐºÐ°ÐºÐ°Ñı": 548,
      "ĠÐ¸Ð½ÑĤÐµÑĢ": 549,
      "ÑĭÐ²Ð°ÐµÑĤ": 550,
      "ĠÑĪÐ¸ÑĢÐ¾Ðº": 551,
      "ĠÑĤÐ¾ÑĢ": 552,
      "ĠÐ¾Ñĩ": 553,
      "Ð¾ÑıÐ½": 554,
      "ĠÐŀ": 555,
      "Ð°ÑĨÐ¸Ð¾Ð½": 556,
      "Ð½Ñı": 557,
      "ÑģÑĤÑĢ": 558,
      "ĠÐ¿ÐµÑĢ": 559,
      "ÐµÐ½Ð¸Ð¸": 560,
      "ĠÐ½ÐµÐ·": 561,
      "ĠÐºÐ°ÑĩÐµÑģÑĤÐ²": 562,
      "ĠÐ¸ÑģÐº": 563,
      "ÑĥÐ·": 564,
      "Ð°Ð½Ð´": 565,
      "ÑĪÑĮ": 566,
      "Ð¾Ð³ÑĢ": 567,
      "ĠÐ¿ÑĢÐ¾Ð´": 568,
      "ĠÐ¼Ñĭ": 569,
      "ĠÑĩÐµÐ»Ð¾Ð²": 570,
      "ĠÑĢÐ°Ð±Ð¾ÑĤ": 571,
      "ĠÐ°Ð½": 572,
      "ĠÐ½ÐµÐ¸Ð·Ð²": 573,
      "ÑĳÐ²": 574,
      "Ð¾ÑģÑĤÐ¾ÑıÐ½": 575,
      "ĠÑĥÐº": 576,
      "ĠÑĥÑĢÐ¾Ð²": 577,
      "Ð»ÑıÑİÑĤ": 578,
      "ĠÑįÐº": 579,
      "Ð¸ÐºÐ°": 580,
      "ĠÐ¾Ð¿ÑĢÐµÐ´ÐµÐ»": 581,
      "ĠÑĤÑĢÐµÐ±": 582,
      "ĠÐ¿ÑĢÐµÐ´ÑģÑĤÐ°Ð²Ð¸ÑĤ": 583,
      "ĠÐ¿Ð¾Ð²ÐµÐ´": 584,
      "Ð¾Ð·Ð½Ð°ÑĩÐ½Ð¾": 585,
      "ĠÐ¼ÐµÑĤÐ¾Ð´": 586,
      "ĠÑĤÐ¾ÑĢÐ³": 587,
      "ĠÑĩÐµÐ»Ð¾Ð²ÐµÐº": 588,
      "ĠÐ½ÐµÐ¸Ð·Ð²ÐµÑģÑĤ": 589,
      "in": 590,
      "ÐĴ": 591,
      "Ġs": 592,
      "ĠÐĶ": 593,
      "ÐµÐ½Ð½Ð¾ÑģÑĤÐ¸": 594,
      "ĠÐ½Ð°Ð¿": 595,
      "ĠÐ²Ð°Ð¶": 596,
      "ĠÐºÑĢ": 597,
      "ĠÐ¸Ñħ": 598,
      "ÑĥÐ³": 599,
      "ÐµÑĢÐ¸": 600,
      "ÐµÑĢÑĪ": 601,
      "Ð¾Ð½Ð¾Ð¼": 602,
      "Ð¸Ð²Ð°ÐµÑĤ": 603,
      "ĠÐ·Ð°": 604,
      "ĠÐ·Ð°Ð±": 605,
      "ÐµÐºÑĤÐ¸Ð²": 606,
      "Ð¸ÑĤÐµÐ»ÑĮÐ½Ð¾": 607,
      "ĠÑĢÐ°Ð·Ð²Ð¸ÑĤÐ¸Ðµ": 608,
      "ĠÐ²ÑģÐµÐ³Ð¾": 609,
      "ĠÐ²ÑĭÑģÐ¾Ðº": 610,
      "ĠÐ¿Ð¾Ð»Ð¸ÑĤÐ¸ÑĩÐµÑģÐº": 611,
      "!.": 612,
      "Ñį": 613,
      "Ġc": 614,
      "ĠÐ¾Ð³": 615,
      "ĠÐ¾ÑĢ": 616,
      "ĠÐ¢": 617,
      "ĠÐĺ": 618,
      "Ð½ÐµÐ²": 619,
      "ÑĢÐµÐ½": 620,
      "ÑĭÐ»": 621,
      "ÑĥÑģÐ»Ð¾Ð²": 622,
      "Ð»ÐµÐ¼": 623,
      "ÐºÑĢ": 624,
      "ĠÐ½Ð°Ð¼": 625,
      "ĠÐ²ÑģÑı": 626,
      "Ð¼Ñĭ": 627,
      "Ð¾ÑĤÐ²ÐµÑĤ": 628,
      "Ð¾Ð½ÑıÑĤ": 629,
      "ÑģÑĤÐ²ÑĥÐµÑĤ": 630,
      "Ð°ÑĤÐµÐ»ÑĮ": 631,
      "Ð¸Ð²ÑĪ": 632,
      "Ð¸Ð¼Ð¾ÑģÑĤÑĮ": 633,
      "ĠÐ½ÐµÑĩ": 634,
      "Ð³Ð°Ð½": 635,
      "ĠÐ¾Ð±ÑīÐµÑģÑĤÐ²": 636,
      "ÐµÐºÑĤ": 637,
      "Ð¾Ð¶Ð¸Ð²ÑĪ": 638,
      "ÐºÐ°Ñħ": 639,
      "Ð¸Ð»ÑĮ": 640,
      "Ð»ÑİÑĩÐ¸ÑĤÐµÐ»ÑĮÐ½Ð¾": 641,
      "ĠÐ²ÑĭÐ²Ð¾Ð´Ñĭ": 642,
      "ĠÑĤÑĢÐµÐ¹Ð´ÐµÑĢ": 643,
      "ĠÐºÐ¾Ð¼Ð¿": 644,
      "ĠÐºÐ¾ÑĤÐ¾ÑĢÑĭÐµ": 645,
      "ĠÐ½ÐµÐ·Ð°Ð²Ð¸ÑģÐ¸Ð¼": 646,
      "ĠÐ¸ÑģÐºÐ»ÑİÑĩÐ¸ÑĤÐµÐ»ÑĮÐ½Ð¾": 647,
      "ĠÐ°Ð½Ð°Ð»": 648,
      "ĠÐ¾ÑĢÐ³Ð°Ð½": 649,
      ".!": 650,
      "at": 651,
      "Ġis": 652,
      "ÐµÑĨÐ¸": 653,
      "Ð½ÐµÑĤ": 654,
      "Ð½ÑĥÑİ": 655,
      "ÑģÐµÐ´": 656,
      "ÐºÐ¸Ð¹": 657,
      "ĠÑģÐ¾Ð·": 658,
      "ÑĨÐµÑģÑģ": 659,
      "Ð¼Ð¾ÑĤ": 660,
      "ĠÑĤÐµÑħÐ½": 661,
      "ĠÐ´ÐµÑĪ": 662,
      "ĠÐ´ÐµÐ¹ÑģÑĤÐ²": 663,
      "ĠÐ¼Ð¾Ð¶": 664,
      "Ð¾Ð»Ð¾Ð³": 665,
      "ÑģÑĤÐ²ÑĥÑİÑī": 666,
      "Ġ25": 667,
      "Ġ50": 668,
      "Ð¸Ð½Ð°Ð½Ñģ": 669,
      "ĠÑįÑĤÐ¾": 670,
      "ĠÐ³Ð»": 671,
      "Ð¸ÐºÐ¸": 672,
      "ĠÐ¿ÑĢÐ¾ÑĨÐµÑģÑģ": 673,
      "ĠÐ¾ÑĤÐ½Ð¾": 674,
      "ĠÑģÐ¾Ð¾ÑĤÐ²ÐµÑĤ": 675,
      "ĠÑģÐ»Ð¾Ð¶Ð¸Ð²ÑĪ": 676,
      "ÑĨÐ¸ÑıÐ¼Ð¸": 677,
      "ĠÑįÑĤÐ°": 678,
      "Ð¾ÑģÑĤÐ°Ð²Ð»": 679,
      "ĠÐ¿Ð»Ð°Ð½": 680,
      "ĠÐ¿Ð¾ÐºÐ°Ð·": 681,
      "ĠÑģÐ¿Ð¾ÑģÐ¾Ð±ÑģÑĤÐ²ÑĥÐµÑĤ": 682,
      "Ð¾Ð½Ð¾Ð¼Ð¸ÑĩÐµÑģÐº": 683,
      "ĠÐ¾ÑĢÐ³Ð°Ð½Ð¸Ð·Ð°ÑĨÐ¸Ð¸": 684,
      "ÑģÐµÐ´Ð½ÐµÐ²": 685,
      "Ðŀ": 686,
      "Ġg": 687,
      "Ġh": 688,
      "Ġw": 689,
      "ĠÐ¾Ð½": 690,
      "ĠÑĥÐ¿": 691,
      "ÐµÑĢÐµÐ´": 692,
      "Ð½Ð°": 693,
      "Ð½Ð¾Ð²": 694,
      "ÑĢÐ¸": 695,
      "ÑĢÐ¾Ð¿": 696,
      "ÐµÐ¶": 697,
      "ÑĥÑģ": 698,
      "ÑıÑī": 699,
      "ÐµÐ½Ð½Ð¾Ð³Ð¾": 700,
      "ĠÑģÐ°Ð¼": 701,
      "ÑĢÐµÐ±": 702,
      "Ð°Ð½ÑĤ": 703,
      "Ð¼ÐµÑĤ": 704,
      "Ð°Ð»Ð¾": 705,
      "ĠÐ¿ÑĢÐ¸": 706,
      "Ð¿ÐµÑĩ": 707,
      "ĠÐ½ÐµÐ¾Ð¿": 708,
      "Ġ20": 709,
      "Ġ22": 710,
      "Ġ24": 711,
      "Ġ26": 712,
      "Ġ10": 713,
      "ĠÐ±ÐµÑģ": 714,
      "ÑĳÐ¼": 715,
      "ĠÑĢÑĭ": 716,
      "ĠÑĦÐ¸Ð½Ð°Ð½Ñģ": 717,
      "ĠÑħÑĥÐ¹Ð½Ñİ": 718,
      "Ð¾Ð²ÑĭÐ¹": 719,
      "ĠÐ»Ð¸Ð±": 720,
      "Ð¶Ð½Ñĭ": 721,
      "ÐµÑĪÐ½": 722,
      "ÐµÐ½ÑĤÑĭ": 723,
      "ÑĢÐ°Ð½Ð¸Ñĩ": 724,
      "ĠÑģÐ¾Ð±Ð¾Ð¹": 725,
      "ĠÐ¾Ð´Ð½Ð¾Ð·Ð½Ð°ÑĩÐ½Ð¾": 726,
      "ĠÐ´Ð¾Ð»Ð¶Ð½Ñĭ": 727,
      "ĠÐ¾Ð³ÑĢÐ°Ð½Ð¸Ñĩ": 728,
      "ĠÐ½ÐµÑĩÑĤÐ¾": 729,
      "ĠÐ´ÐµÑĪÑĳÐ²": 730,
      "ĠÑģÐ¾Ð¾ÑĤÐ²ÐµÑĤÑģÑĤÐ²ÑĥÑİÑī": 731,
      "?!": 732,
      "las": 733,
      "nd": 734,
      "ÐĿ": 735,
      "ĠÐĵ": 736,
      "ĠÐĹ": 737,
      "Ð¸Ð½Ñĭ": 738,
      "Ð¸ÑĪÑĮ": 739,
      "Ð°Ð¶Ð´": 740,
      "ÑıÐ´": 741,
      "ĠÐ¿Ð¾Ð²Ñĭ": 742,
      "ĠÐ¿Ð¾ÑģÑĤÐ°Ð²Ð»": 743,
      "ÑĩÐ¸ÑĤ": 744,
      "Ð»Ð¾Ð¶": 745,
      "ÐµÐ½Ð½ÑĭÐµ": 746,
      "Ð²Ð¾Ð²": 747,
      "Ð²Ð¾Ð»": 748,
      "Ð¾Ð²Ð¾ÑĢ": 749,
      "ĠÐ½Ð°Ð·": 750,
      "ĠÐ²Ð¸Ð´": 751,
      "ĠÐ²ÐµÑī": 752,
      "ÑĢÐµÐ¿": 753,
      "ĠÐºÐ»": 754,
      "ĠÐºÐ¾Ð³Ð´Ð°": 755,
      "ĠÐ¸Ð³": 756,
      "Ð°Ð½Ð¸Ð¹": 757,
      "Ð¸ÑĤÑĥ": 758,
      "ÑĪÐµÐ¹": 759,
      "ÐµÑĢÐ²Ð¾Ð²": 760,
      "ĠÐ¿ÑĢÐ¸Ð¼ÐµÑĢ": 761,
      "Ð¾ÐºÑĢ": 762,
      "Ġ21": 763,
      "Ġ23": 764,
      "Ġ27": 765,
      "Ġ28": 766,
      "Ġ29": 767,
      "Ġ11": 768,
      "Ġ12": 769,
      "Ġ13": 770,
      "Ġ14": 771,
      "Ġ15": 772,
      "Ġ16": 773,
      "Ġ17": 774,
      "Ġ18": 775,
      "Ġ19": 776,
      "Ġ51": 777,
      "Ġ52": 778,
      "Ġ53": 779,
      "Ġ54": 780,
      "Ġ55": 781,
      "Ġ56": 782,
      "Ġ57": 783,
      "Ġ59": 784,
      "Ġ31": 785,
      "Ġ32": 786,
      "Ġ34": 787,
      "Ġ35": 788,
      "Ġ36": 789,
      "Ġ37": 790,
      "Ġ38": 791,
      "Ġ39": 792,
      "Ð¾ÑģÑĤÐ¸": 793,
      "Ġ41": 794,
      "Ġ42": 795,
      "Ġ43": 796,
      "Ġ44": 797,
      "Ġ45": 798,
      "Ġ46": 799,
      "Ġ47": 800,
      "Ġ48": 801,
      "Ġ49": 802,
      "Ġ61": 803,
      "Ġ62": 804,
      "Ġ63": 805,
      "Ġ64": 806,
      "Ġ65": 807,
      "Ġ66": 808,
      "Ġ67": 809,
      "Ġ68": 810,
      "Ġ69": 811,
      "Ġ71": 812,
      "Ġ72": 813,
      "Ġ73": 814,
      "Ġ74": 815,
      "Ġ75": 816,
      "Ġ76": 817,
      "Ġ77": 818,
      "Ġ78": 819,
      "Ġ79": 820,
      "Ġ91": 821,
      "Ġ92": 822,
      "Ġ93": 823,
      "Ġ94": 824,
      "Ġ95": 825,
      "Ġ96": 826,
      "Ġ97": 827,
      "Ġ98": 828,
      "Ġ99": 829,
      "Ġ81": 830,
      "Ġ82": 831,
      "Ġ84": 832,
      "Ġ85": 833,
      "Ġ86": 834,
      "Ġ87": 835,
      "Ġ88": 836,
      "Ġ89": 837,
      "Ð¾Ð¿ÑĢÐ¸ÑıÑĤ": 838,
      "ĠÑģÑĤÐµÐ¿": 839,
      "ĠÐ³Ð¾ÑĢ": 840,
      "Ð¾Ð²Ð°Ð½Ð¸Ð¹": 841,
      "Ð°ÑĤÑĮÑģÑı": 842,
      "ĠÑģÐ¾Ð²ÐµÑĢÑĪ": 843,
      "ĠÐ²Ð½ÐµÑĪÐ½": 844,
      "ĠÑģÐ»ÐµÐ´": 845,
      "ĠÐ¿Ð¾Ð·Ð²Ð¾Ð»": 846,
      "ĠÐ·Ð°Ð´Ð°Ñĩ": 847,
      "ĠÑĤÐ¾Ñĩ": 848,
      "Ð°ÑİÑīÐµÐµ": 849,
      "ĠÑĥÑĩÐ°ÑģÑĤÐ½Ð¸Ðº": 850,
      "Ð¿Ð¾Ð»ÐµÐ·": 851,
      "ĠÐ¿Ð¾Ð·Ð¸ÑĨÐ¸Ð¸": 852,
      "ĠÑģÑĥÑīÐµÑģÑĤÐ²ÑĥÑİÑī": 853,
      "ĠÑĢÐµÐ·ÐµÑĢÐ²Ð¾Ð²": 854,
      "ĠÑĦÐ¾ÑĢÐ¼Ð¸ÑĢÐ¾Ð²Ð°Ð½Ð¸Ð¸": 855,
      "Ð½ÐµÐ¹ÑĪ": 856,
      "ÑĥÐ»ÑĮÑĤ": 857,
      "ĠÐ¼ÑĭÑĪ": 858,
      "ĠÐ¿Ð¾Ð²ÐµÐ´ÐµÐ½Ð¸Ñı": 859,
      "ĠÐ½ÐµÐ·Ð°Ð²Ð¸ÑģÐ¸Ð¼ÑĭÐµ": 860,
      "ĠÐ°Ð½Ð°Ð»Ð¸Ð·Ð°": 861,
      "ĠÐ±ÐµÑģÐ¿Ð¾Ð»ÐµÐ·": 862,
      "ĠÑĢÑĭÐ½": 863,
      "ĠÐ¿Ð¾ÑģÑĤÐ°Ð²Ð»ÐµÐ½Ð½ÑĭÑħ": 864,
      "ĠÑģÑĤÐµÐ¿ÐµÐ½Ð¸": 865,
      "ĠÐ¿Ð¾Ð·Ð²Ð¾Ð»ÑıÐµÑĤ": 866,
      "ch": 867,
      "er": 868,
      "or": 869,
      "Ġf": 870,
      "ĠÑĥÐ±": 871,
      "ĠÐ¾ÑģÐ¾Ð±": 872,
      "ĠÑĥÐ¶": 873,
      "Ð¾Ñħ": 874,
      "ĠÐ§": 875,
      "ĠÐĲ": 876,
      "ĠÐĳ": 877,
      "Ð¸Ð¾Ð½": 878,
      "ÑģÑģÐ»": 879,
      "ÑĭÑĩ": 880,
      "Ð¸Ð³": 881,
      "ĠÐ¿Ð¾Ñģ": 882,
      "ĠÐ¿Ð¾ÑģÑĤÐ¾ÑıÐ½": 883,
      "Ð»ÐµÐ´": 884,
      "ÐµÐ½Ð½ÑĭÐ¹": 885,
      "ÐºÐ¾Ðµ": 886,
      "ĠÑģÐ¸ÑĤÑĥ": 887,
      "ĠÐ½Ð¾Ð²": 888,
      "ĠÐ½Ð°Ð´": 889,
      "ĠÐ²Ð¾Ð·": 890,
      "ĠÐºÐ°Ð´": 891,
      "ĠÐ¸ÑģÑģÐ»": 892,
      "Ð°Ð½Ð½Ð¾Ðµ": 893,
      "ÑĢÐ°Ð»": 894,
      "ÐµÐ»ÐµÐ¹": 895,
      "ÐµÑĢÐ°": 896,
      "Ð°Ð»Ð¸ÑĤ": 897,
      "ĠÑĤÑĭ": 898,
      "ÐµÑģÐ¿ÐµÑĩ": 899,
      "ĠÐ´ÐµÐ»": 900,
      "ĠÐ´Ð°Ð»ÑĮ": 901,
      "ĠÐ¿ÑĢÐ¾Ð³ÑĢ": 902,
      "ĠÐ¼Ð¾Ð´": 903,
      "ĠÐ¼Ð°ÑĤ": 904,
      "ĠÑĩÐµÐ³Ð¾": 905,
      "ĠÐ·Ð°Ð²Ð¸ÑģÐ¸Ð¼": 906,
      "ĠÑĢÐ°Ð¼": 907,
      "ĠÐ½ÐµÐ¾Ð±": 908,
      "ĠÐ±ÑĥÐ´": 909,
      "Ġ58": 910,
      "ĠÐ½Ð°ÑĪÐµÐ¹": 911,
      "Ġ30": 912,
      "Ġ33": 913,
      "Ġ40": 914,
      "Ġ60": 915,
      "Ġ70": 916,
      "Ġ90": 917,
      "Ġ80": 918,
      "Ġ83": 919,
      "ĠÑĥÑģÐ»Ð¾Ð²": 920,
      "ĠÑĢÐ°Ð·ÑĥÐ¼": 921,
      "ĠÐ²ÑĭÐ¿Ð¾Ð»": 922,
      "ĠÑģÑĤÐ¾": 923,
      "ĠÐ¾Ð±ÑĬ": 924,
      "ĠÐ¾Ð±ÐµÑģÐ¿ÐµÑĩ": 925,
      "ÑĭÐ²Ð°ÑİÑĤ": 926,
      "ĠÑģÐ¾Ð¾Ð±": 927,
      "ĠÐ²Ð½ÑĥÑĤ": 928,
      "ĠÑģÐ»ÑĥÑĩ": 929,
      "ĠÑĩÐ°ÑģÑĤÐ½Ð¾ÑģÑĤÑĮ": 930,
      "ĠÐ¶Ðµ": 931,
      "ĠÑĢÐµÐ°Ð»Ð¸Ð·Ð°ÑĨÐ¸Ð¸": 932,
      "ĠÑģÐ¾ÑĨÐ¸Ð°Ð»ÑĮÐ½Ð¾": 933,
      "ĠÑģÑĤÑĢÑĥÐºÑĤÑĥÑĢÑĭ": 934,
      "ĠÑĥÑĢÐ¾Ð²Ð½Ñı": 935,
      "ĠÑĤÑĢÐµÐ±ÑĥÐµÑĤ": 936,
      "ĠÑĤÐ¾ÑĢÐ³Ð¾Ð²": 937,
      "ĠÐĶÐ°": 938,
      "Ġclas": 939,
      "ĠÐ¼Ð¾Ð¶ÐµÑĤ": 940,
      "ĠÐ¾ÑĤÐ½Ð¾ÑĪ": 941,
      "ĠÐ¿Ð¾Ð²ÑĭÑĪ": 942,
      "ĠÐ¾ÑģÐ¾Ð±ÐµÐ½Ð½Ð¾ÑģÑĤÐ¸": 943,
      "ĠÑģÐ¸ÑĤÑĥÐ°": 944,
      "ĠÐºÐ°Ð´ÑĢÐ¾Ð²": 945,
      "ĠÐ¸ÑģÑģÐ»ÐµÐ´": 946,
      "ĠÐ¿ÑĢÐ¾Ð³ÑĢÐµÑģÑģ": 947,
      "ĠÑĥÑģÐ»Ð¾Ð²Ð¸Ð¹": 948,
      "Ġclass": 949,
      "es": 950,
      "ÐŁ": 951,
      "ĠL": 952,
      "Ġl": 953,
      "Ġm": 954,
      "Ġhe": 955,
      "ÑĢÐ°": 956,
      "ÑĥÑģÑĤ": 957,
      "ÑıÑģ": 958,
      "ĠÐ¿Ð¾ÑĤ": 959,
      "Ð»ÐµÐ½Ð¸Ð¹": 960,
      "ÑĮÑİ": 961,
      "ĠÑģÐº": 962,
      "ĠÐ½Ð¾Ð²ÑĭÑħ": 963,
      "ĠÐ²ÐµÐº": 964,
      "ÑĨÐµÐ¿": 965,
      "ÑĢÐµÐ¶Ð´": 966,
      "ĠÐºÐ¾Ð»": 967,
      "ĠÐºÑĥÐ¿": 968,
      "ĠÐºÐ»ÑİÑĩ": 969,
      "Ð¼Ð°": 970,
      "ĠÑĤÐ¾Ð»ÑĮÐºÐ¾": 971,
      "ĠÐ´Ðµ": 972,
      "Ð°ÐºÐ¾": 973,
      "ĠÐ¼Ð°ÑĪ": 974,
      "Ð¾Ð¼Ñĥ": 975,
      "ÑĨÐ¸Ñİ": 976,
      "ĠÐ·Ð°Ðº": 977,
      "ĠÐ·Ð°Ð¿": 978,
      "Ð¸Ð¼Ð°ÐµÐ¼": 979,
      "ÑĳÐ½": 980,
      "ÑĳÐ»": 981,
      "Ð¾Ð·Ð½": 982,
      "Ð¾ÑģÐ¿": 983,
      "ĠÑģÑĤÐ°Ð½Ð´": 984,
      "ÐµÐ´ÑĢ": 985,
      "ĠÑįÐ»ÐµÐ¼": 986,
      "ĠÑĦÑĥÐ½": 987,
      "ĠÐ¿ÑĢÐµÐ´Ð¿": 988,
      "ĠÐ¿ÑĢÐµÐ´Ð¼ÐµÑĤ": 989,
      "ĠÐ¿ÑĢÐ¾Ñĩ": 990,
      "ĠÐ¿ÑĢÐ¾ÑĦ": 991,
      "ĠÐ¾ÑĤÐºÑĢ": 992,
      "ÑĥÑĢÑģ": 993,
      "ÐµÐ·ÑĥÑģÐ»Ð¾Ð²": 994,
      "Ð»ÑİÐ´": 995,
      "ĠÐŁÑĢÐµÐ¶Ð´": 996,
      "Ð¸ÑĤÑĮÑģÑı": 997,
      "ÐµÑģÑģÐ¸Ð¾Ð½": 998,
      "Ġto": 999,
      "Ġand": 1000,
      "ĠÑĥÑĩÐ°ÑģÑĤÐ¸Ñı": 1001,
      "ĠÐ¾Ð´Ð½Ð°ÐºÐ¾": 1002,
      "Ð¾ÑģÑĤÐ°Ð²Ð»ÑıÐµÑĤ": 1003,
      "ĠÑĢÐ°ÑģÑģ": 1004,
      "ĠÐ±Ð°Ð·Ð¾Ð²ÑĭÐ¹": 1005,
      "ĠÑģÐ¾ÑĨÐ¸Ð°Ð»ÑĮÐ½ÑĭÑħ": 1006,
      "ĠÐ¸Ð½ÑĤÐµÑĢÐµÑģ": 1007,
      "ĠÑĥÐºÑĢÐµÐ¿": 1008,
      "ĠÑįÐºÐ¾Ð½Ð¾Ð¼Ð¸ÑĩÐµÑģÐº": 1009,
      "ĠÐ¿ÑĢÐµÐ´ÑģÑĤÐ°Ð²Ð¸ÑĤÐµÐ»Ð¸": 1010,
      "ĠÑĩÐµÐ»Ð¾Ð²ÐµÐºÐ°": 1011,
      "ĠÐ¿Ð¾Ð»Ð¸ÑĤÐ¸ÑĩÐµÑģÐºÐ¾Ð³Ð¾": 1012,
      "ĠÐ²ÑģÑıÐº": 1013,
      "ĠÑģÐ¾Ð·Ð´Ð°": 1014,
      "Ð¼Ð¾ÑĤÑĢ": 1015,
      "ĠÐ½ÐµÐ¾Ð¿Ð¾Ð·Ð½": 1016,
      "ĠÐ»Ð¸Ð±Ð¾": 1017,
      "ĠÐ´Ð°Ð»ÑĮÐ½ÐµÐ¹ÑĪ": 1018,
      "ĠÐ¼Ð°ÑĤÐµÑĢÐ¸": 1019,
      "ĠÑĢÐ°Ð¼ÐºÐ°Ñħ": 1020,
      "ĠÐ²ÑĭÐ¿Ð¾Ð»Ð½": 1021,
      "ĠÐ²ÐµÐºÑĤÐ¾ÑĢ": 1022,
      "ĠÐºÐ»ÑİÑĩÐµÐ²": 1023,
      "ĠÑģÑĤÐ°Ð½Ð´Ð°ÑĢÑĤ": 1024,
      "ĠÑįÐ»ÐµÐ¼ÐµÐ½ÑĤÑĭ": 1025,
      "ĠÑĦÑĥÐ½Ðº": 1026,
      "ĠÐ¿ÑĢÐ¾ÑĦÐµÑģÑģÐ¸Ð¾Ð½": 1027,
      "ÐµÐ·ÑĥÑģÐ»Ð¾Ð²Ð½Ð¾": 1028,
      "ĠÐŁÑĢÐµÐ¶Ð´Ðµ": 1029,
      "?!,": 1030,
      "His": 1031,
      "cas": 1032,
      "en": 1033,
      "ucas": 1034,
      "Ð¡": 1035,
      "Ġb": 1036,
      "Ġd": 1037,
      "ĠÐ¾ÑģÑĤ": 1038,
      "ÐµÑīÐµÑģÑĤÐ²": 1039,
      "ĠÐķ": 1040,
      "ĠÐľ": 1041,
      "ĠÐŃ": 1042,
      "Ð°ÑĳÑĤ": 1043,
      "Ð½ÐµÑģ": 1044,
      "ÑģÑģ": 1045,
      "ÑĢÐºÐ¸Ð¹": 1046,
      "ÑıÑħ": 1047,
      "ÑģÑĤÐ°Ð½": 1048,
      "ĠÐ¿ÑĢÐ°Ðº": 1049,
      "Ð»Ð°Ð³": 1050,
      "ÐµÐ½Ð½Ð¾": 1051,
      "ÐµÐ½Ð½Ð¾Ðµ": 1052,
      "ĠÐ½ÐµÐ½": 1053,
      "ĠÐ½Ð¾Ð²Ñĭ": 1054,
      "ĠÐ²ÐµÑīÐµÑģÑĤÐ²": 1055,
      "ÑĢÐµÐ²": 1056,
      "ÑĢÐ°Ð¶Ð´": 1057,
      "ÑĢÐ°Ð±Ð¾ÑĤ": 1058,
      "ÑĤÐ¾ÑĤ": 1059,
      "ÑĤÐ¾Ñĩ": 1060,
      "Ð¼Ð¸Ð½": 1061,
      "Ð¾Ð´Ð°": 1062,
      "ÐµÑģÑı": 1063,
      "ĠÐ´ÐµÐ½ÑĮ": 1064,
      "ĠÐ¼Ð¾Ð³": 1065,
      "ĠÐ¼Ð¸ÑĢ": 1066,
      "ÑģÑĤÐ²Ð°": 1067,
      "ĠÐ·Ð°Ð½": 1068,
      "Ð¸Ð¼Ð¸": 1069,
      "Ð°ÑıÑģÑı": 1070,
      "Ð¸Ð·Ð½": 1071,
      "ĠÑĢÐµÑĪ": 1072,
      "Ð³Ð¾ÑĤ": 1073,
      "ÐµÐ¼Ñĥ": 1074,
      "ĠÐ¾Ð±Ñī": 1075,
      "ĠÐ³ÑĢ": 1076,
      "ĠÐ³Ð°Ð´": 1077,
      "ĠÐ³ÑĢÐ°Ð¶Ð´": 1078,
      "ÑĥÑİÑĤ": 1079,
      "ÐµÐ»ÑĮÐ½Ð¾ÑģÑĤÐ¸": 1080,
      "ĠÐ¿ÑĢÐ¾Ð¸Ð·": 1081,
      "ĠÐ¿ÑĢÐ¾ÐµÐºÑĤ": 1082,
      "Ð¸ÑĩÐµÑģÐºÐ¸Ð¹": 1083,
      "Ð¸ÑĩÐµÑģÐºÐ¾Ðµ": 1084,
      "Ð¸Ð·Ð°ÑĨÐ¸Ñı": 1085,
      "ÐµÐ²Ð¸Ð´": 1086,
      "ÑģÐºÐ¾Ð³Ð¾": 1087,
      "ĠÐ²Ð½Ð¸Ð¼": 1088,
      "ĠÐ²Ð½ÐµÐ´ÑĢ": 1089,
      "ÐµÑĩÐµÐ½Ð½ÑĭÑħ": 1090,
      "ĠÑĨÐµÐ½": 1091,
      "ĠÐ¾Ð¿Ð°Ñģ": 1092,
      "ĠÑįÑĤÑĥ": 1093,
      "ĠÑıÑĢÐºÐ¸Ð¹": 1094,
      "ĠÐ¿ÑĢÐµÐ´ÑģÑĤÐ°Ð²Ð»ÑıÑİÑĤ": 1095,
      "ÑıÑĤÐµÐ»ÑĮÐ½Ð¾ÑģÑĤÐ¸": 1096,
      "Ð±Ð¾ÑĢ": 1097,
      "ĠÑĩÐ°ÑģÑĤÐ½ÑĭÐ¹": 1098,
      "ĠÐĿÐ¾": 1099,
      "ĠÐ¶Ð¸Ð²": 1100,
      "ĠÐ·Ð°Ð´Ð°Ð½Ð¸Ð¹": 1101,
      "ÑģÐ¿ÐµÐºÑĤÐ¸Ð²": 1102,
      "ÑħÐ¾Ð´Ð¸Ð¼Ð¾ÑģÑĤÑĮ": 1103,
      "ÑĥÑīÐ¸Ñħ": 1104,
      "ÐµÐ½Ð¸Ñİ": 1105,
      "ĠÑĢÐ°ÑģÐ¿": 1106,
      "ĠÑĢÐµÐ°Ð»Ð¸Ð·Ð°ÑĨÐ¸Ñı": 1107,
      "ĠÑģÑĤÑĢÑĥÐºÑĤÑĥÑĢÐ°": 1108,
      "ĠÐ·Ð½Ð°ÑĩÐµÐ½Ð¸Ðµ": 1109,
      "ĠÐ¸Ð½ÑĤÐµÑĢÐ½ÐµÑĤ": 1110,
      "ĠÐ¾ÑĩÐµÐ²Ð¸Ð´": 1111,
      "ĠÐ¿ÐµÑĢÑģÐ¿ÐµÐºÑĤÐ¸Ð²": 1112,
      "ĠÐ¾Ð¿ÑĢÐµÐ´ÐµÐ»ÐµÐ½Ð¸Ñı": 1113,
      "ĠÐ½Ð°Ð¿ÑĢÐ°Ð²": 1114,
      "ĠÐ½Ð°Ð¼ÐµÑĩÐµÐ½Ð½ÑĭÑħ": 1115,
      "ĠÑģÐ»Ð¾Ð¶Ð¸Ð²ÑĪÐ°ÑıÑģÑı": 1116,
      "ĠÐ¿Ð»Ð°Ð½Ð¾Ð²ÑĭÑħ": 1117,
      "ĠÐ¾Ð³ÑĢÐ°Ð½Ð¸ÑĩÐµÐ½Ñĭ": 1118,
      "Ð¾ÐºÑĢÐ°ÑĤ": 1119,
      "ĠÐ¼ÑĭÑĪÐ»ÐµÐ½Ð¸Ñı": 1120,
      "ĠÑĥÐ¶Ðµ": 1121,
      "ĠÐ½ÐµÐ¾Ð±ÑħÐ¾Ð´Ð¸Ð¼Ð¾ÑģÑĤÑĮ": 1122,
      "ĠÐ²Ð½ÑĥÑĤÑĢÐµÐ½": 1123,
      "ĠÑģÐ»ÑĥÑĩÐ°Ð¹": 1124,
      "ĠÐ¿ÑĢÐ¾Ð³ÑĢÐµÑģÑģÐ°": 1125,
      "ĠÐ´ÐµÑıÑĤÐµÐ»ÑĮÐ½Ð¾ÑģÑĤÐ¸": 1126,
      "ĠÑĥÐºÑĢÐµÐ¿Ð»ÐµÐ½Ð¸Ðµ": 1127,
      "ĠÑģÐ¾Ð·Ð´Ð°ÑĳÑĤ": 1128,
      "ĠÑĦÑĥÐ½ÐºÑĨÐ¸Ð¾Ð½": 1129,
      "ĠÐ¿ÑĢÐ°ÐºÑĤ": 1130,
      "Ð»Ð°Ð³Ð¾Ð¿ÑĢÐ¸ÑıÑĤ": 1131,
      "ĠÐ³ÑĢÐ°Ð¶Ð´Ð°Ð½": 1132,
      "Ð¢": 1133,
      "ĠÐ¾Ñģ": 1134,
      "ĠÐ£": 1135,
      "ĠÐł": 1136,
      "Ð°ÑĨÐ¸Ñı": 1137,
      "Ð¸Ñİ": 1138,
      "Ð¸ÐµÑģÑı": 1139,
      "ÑĤÐµ": 1140,
      "ÑĢÐ¸Ð½": 1141,
      "ÑĢÐ°ÐµÑĤ": 1142,
      "ÑĢÐ¾Ñĩ": 1143,
      "ÑĥÑĤÐ¾": 1144,
      "ÑıÐ¼": 1145,
      "ĠÐ¿Ð¾ÑĢ": 1146,
      "ĠÐ¿Ð¾Ð¿": 1147,
      "ĠÐ¿ÑĢÐµÐ·": 1148,
      "ĠÐ¿Ð¾Ð½ÑıÑĤ": 1149,
      "Ð»ÐµÐ¹": 1150,
      "Ð²Ð°ÑĢ": 1151,
      "ĠÑģÐµÐ±": 1152,
      "ĠÑģÑĨÐµÐ½": 1153,
      "Ð¾Ð²ÑģÐµÐ´Ð½ÐµÐ²": 1154,
      "ÑĢÐµÐ¹Ð´": 1155,
      "ÐµÑĤÑģÑı": 1156,
      "ĠÐºÐ°ÑĢÑĤ": 1157,
      "ĠÐ¸Ð¼": 1158,
      "Ð°Ð½Ð½ÑĭÐµ": 1159,
      "ÑĢÐ°Ð¼": 1160,
      "Ð¾Ð±ÑĢÐ°Ð·": 1161,
      "ĠÑĤÐµÐº": 1162,
      "ÐµÑģÑĮ": 1163,
      "ÑīÐµ": 1164,
      "ĠÐ´Ð¾": 1165,
      "ĠÐ´ÑĥÑĢ": 1166,
      "ĠÐ¿ÑĢÐ¾Ð²": 1167,
      "ĠÐ¿ÑĢÐ¸Ð²": 1168,
      "ĠÐ¼ÐµÐ»": 1169,
      "ĠÐ¼ÑĥÐ·": 1170,
      "ĠÑĩÐµÐ¼": 1171,
      "ĠÐ°Ð¿": 1172,
      "ĠÐ±Ð»Ð°Ð³Ð¾Ð¿ÑĢÐ¸ÑıÑĤ": 1173,
      "ĠÐ½Ð°Ñĩ": 1174,
      "ĠÑĢÐ¾Ð»ÑĮ": 1175,
      "ĠÑĢÑĥÐ±": 1176,
      "ĠÑĢÐ°ÑĨÐ¸Ð¾Ð½": 1177,
      "Ð³Ð°": 1178,
      "Ð¾ÑģÑĭÐ»": 1179,
      "Ð°Ð»ÑĮÐ½Ð¾Ð³Ð¾": 1180,
      "ĠÑģÑĤÐ¾ÑĢ": 1181,
      "ĠÐ¾Ð±ÑĥÑĩ": 1182,
      "Ð¸ÑĢÐ¾Ð²": 1183,
      "ĠÐ³Ð¾Ð²Ð¾ÑĢ": 1184,
      "Ð°ÑģÑĤÐµÑĢ": 1185,
      "ĠÑĦÐ°Ðº": 1186,
      "ĠÑĦÐ°Ð½ÑĤ": 1187,
      "ÐµÐ³Ð°ÑĤÐ¸Ð²": 1188,
      "Ð°ÑģÑģ": 1189,
      "Ð°ÑĢÐ¸Ð¸": 1190,
      "Ð¾Ð¶ÐµÑģÑĤÐ²": 1191,
      "ĠÐ¿ÑĢÐ¾ÑĤÐ¾ÑĤ": 1192,
      "ÑĥÑĤÑĮ": 1193,
      "Ð¾ÑĩÐµÑĢÐµÐ´": 1194,
      "ÑĭÐ²Ð°ÑĤÑĮ": 1195,
      "Ð¸ÑĤÐµÐ»ÑĮÐ½Ð¾Ð¹": 1196,
      "ĠÐ¿Ð¾Ð´ÑħÐ¾Ð´": 1197,
      "ĠÐ²Ð½Ðµ": 1198,
      "ĠÑĤÐ°ÐºÐ°Ñı": 1199,
      "ĠÑģÐ¿ÐµÑĨÐ¸": 1200,
      "ĠÐ°ÐºÑĤÐ¸Ð²Ð¾Ð²": 1201,
      "Ġthe": 1202,
      "ĠÐºÐ¾Ð½ÑĨÐµÐ¿": 1203,
      "Ð²Ð¾Ð´ÑģÑĤÐ²": 1204,
      "ĠÐ½ÐµÐ¿Ð¾Ð½ÑıÑĤ": 1205,
      "ĠÐ¾ÑĨÐµÐ½": 1206,
      "ĠÑģÐ¾Ð±ÑģÑĤÐ²": 1207,
      "ÐµÑħÐ½Ð¾Ð»Ð¾Ð³": 1208,
      "ĠÐ¿Ð»Ð¾Ñħ": 1209,
      "ĠÐ¿Ð¾ÐºÑĥÐ¿": 1210,
      "Ð»ÑıÐµÑĤÑģÑı": 1211,
      "ĠÐ²ÑĭÐ²Ð¾Ð´Ð°": 1212,
      "ĠÑĤÑĢÐµÐ¹Ð´Ð¸Ð½Ð³": 1213,
      "ĠÑıÐ²Ð»ÑıÐµÑĤÑģÑı": 1214,
      "ÑĢÐ°Ð¶ÐµÐ½Ð¸Ñı": 1215,
      "ĠÐºÐ°ÑĩÐµÑģÑĤÐ²Ð°": 1216,
      "ĠÑĢÐ°Ð±Ð¾ÑĤÑĭ": 1217,
      "ĠÐ¿ÑĢÐµÐ´ÑģÑĤÐ°Ð²Ð¸ÑĤÐµÐ»ÐµÐ¹": 1218,
      "ĠÐ½ÐµÐ¸Ð·Ð²ÐµÑģÑĤÐ½Ð¾Ðµ": 1219,
      "ing": 1220,
      "Ð¼ÑĭÑģÐ»": 1221,
      "ĠÐ¿Ð¾ÐºÐ°Ð·ÑĭÐ²Ð°ÐµÑĤ": 1222,
      "ĠÑĦÐ¸Ð½Ð°Ð½ÑģÐ¾Ð²ÑĭÑħ": 1223,
      "ĠÐºÐ»Ð°ÑģÑĤÐµÑĢ": 1224,
      "ĠÐ¸Ð³ÑĢÐ°ÐµÑĤ": 1225,
      "ĠÐ§ÑĤÐ¾": 1226,
      "ĠÐ¿Ð¾ÑģÐ»ÐµÐ´": 1227,
      "ĠÐ¼Ð¾Ð´ÐµÐ»Ð¸": 1228,
      "ĠÐ±ÑĥÐ´ÑĥÑĤ": 1229,
      "ĠÐ¾Ð±ÐµÑģÐ¿ÐµÑĩÐ¸Ð²Ð°ÐµÑĤ": 1230,
      "ĠÐ¿Ð¾Ð²ÑĭÑĪÐµÐ½Ð¸Ñİ": 1231,
      "ĠÐ¸ÑģÑģÐ»ÐµÐ´Ð¾Ð²Ð°Ð½Ð¸Ð¹": 1232,
      "ĠLucas": 1233,
      "ĠÐ¿ÑĢÐµÐ´Ð¿Ð¾ÑģÑĭÐ»": 1234,
      "ĠÐ¾ÑĤÐºÑĢÑĭÐ²Ð°ÐµÑĤ": 1235,
      "ĠÐºÐ»ÑİÑĩÐµÐ²ÑĭÐµ": 1236,
      "ĠÐ½ÐµÐ½ÑĥÐ¶": 1237,
      "ĠÐ¼Ð¸ÑĢÐ°": 1238,
      "Ð³Ð¾ÑĤÐ¾Ð²": 1239,
      "ĠÐ¿ÑĢÐ¾Ð¸Ð·Ð²Ð¾Ð´ÑģÑĤÐ²": 1240,
      "ĠÐ²Ð½ÐµÐ´ÑĢÐµÐ½Ð¸Ðµ": 1241,
      "ĠÑĢÐ°ÑģÐ¿ÑĢÐµÐ´ÐµÐ»": 1242,
      "ĠÐ¿ÑĢÐ°ÐºÑĤÐ¸ÐºÐ°": 1243,
      "ĠÑģÑĨÐµÐ½Ð°ÑĢÐ¸Ð¸": 1244,
      "Ð¾Ð²ÑģÐµÐ´Ð½ÐµÐ²Ð½Ð°Ñı": 1245,
      "ĠÐºÐ°ÑĢÑĤÐ¸Ð½Ñĭ": 1246,
      "ĠÑĤÐµÐºÑĥÑīÐ¸Ñħ": 1247,
      "ĠÐ¼ÑĥÐ·Ñĭ": 1248,
      "ĠÐ±Ð»Ð°Ð³Ð¾Ð¿ÑĢÐ¸ÑıÑĤÐ½ÑĭÑħ": 1249,
      "ĠÑĢÑĥÐ±Ð»ÐµÐ¹": 1250,
      "ĠÐ¾Ð±ÑĥÑĩÐµÐ½Ð¸Ñı": 1251,
      "ĠÐ¿ÑĢÐ¾ÑĤÐ¾ÑĤÐ¸Ð¿": 1252,
      "Ð¾ÑĩÐµÑĢÐµÐ´Ð½ÑĭÑħ": 1253,
      ".,": 1254,
      "ac": 1255,
      "ay": 1256,
      "it": 1257,
      "oo": 1258,
      "re": 1259,
      "ÐĶ": 1260,
      "Ġo": 1261,
      "ĠÐµÑī": 1262,
      "ĠÐ¾ÑģÑĤÐ°Ð²Ð»ÑıÐµÑĤ": 1263,
      "ÐµÐµÑĤÑģÑı": 1264,
      "Ð½ÐµÐ½Ð¸Ñı": 1265,
      "ÑĢÐµÐ½Ð¸Ñı": 1266,
      "ÑĢÐ°Ñģ": 1267,
      "ÑĢÐ¸Ð¼ÐµÑĢ": 1268,
      "ÑĢÑĥÐ³": 1269,
      "ÑıÐ²": 1270,
      "ÑıÑĤÐ¾": 1271,
      "ÑıÐ·": 1272,
      "Ð¸Ð¶": 1273,
      "ĠÐ¿Ð¸Ð´": 1274,
      "ĠÐ¿ÑĥÑģÑĤ": 1275,
      "Ð»Ð°": 1276,
      "Ð»Ð¸Ñĩ": 1277,
      "Ð»Ð¸Ð²Ð°ÐµÑĤ": 1278,
      "ÐµÐ½Ð´": 1279,
      "ĠÑģÑĦ": 1280,
      "ĠÑģÐ¸ÑģÑĤ": 1281,
      "ĠÑģÐ¾ÑģÑĤÐ¾ÑıÐ½": 1282,
      "ĠÑģÑĩÐ¸ÑĤ": 1283,
      "ĠÐ½Ð¸Ð¼": 1284,
      "ĠÐ½Ð¸Ð·": 1285,
      "ĠÐ½ÐµÐ´": 1286,
      "ĠÐ½ÐµÐº": 1287,
      "ĠÐ½Ð°Ð±": 1288,
      "ĠÐ²Ð¾ÑĤ": 1289,
      "ÐµÑĤÑĮ": 1290,
      "ĠÐºÑĥÐ»ÑĮ": 1291,
      "ĠÐºÐ°Ð¶Ð´": 1292,
      "Ð°Ð½Ð¸Ðµ": 1293,
      "Ð°Ð½Ð°Ð»Ð¸ÑĤ": 1294,
      "Ð¼Ð¾Ð¶": 1295,
      "Ð¾Ð´Ðµ": 1296,
      "Ð°Ð»Ð¸ÑģÑĤ": 1297,
      "ĠÑĤÐ°Ð¼": 1298,
      "ĠÑĤÐ¸Ð¿": 1299,
      "Ð¿Ð°ÑĢ": 1300,
      "ĠÐ¼ÐµÑĢ": 1301,
      "ĠÐ¼Ð°Ð»": 1302,
      "Ð¾ÑĤÐ¸Ð²": 1303,
      "Ð¾Ð»Ð¾Ð´": 1304,
      "ĠÑĩÑĥ": 1305,
      "ĠÐ°Ð´": 1306,
      "Ð¾ÐºÐ¸Ð¹": 1307,
      "ĠÐ½ÐµÐ¾Ð´Ð½": 1308,
      "ÐµÐ¹Ð½ÑĭÐµ": 1309,
      "Ð¸ÑĩÐµÑģÑĤÐ²": 1310,
      "Ð¸Ð½ÑĤ": 1311,
      "ĠÑĢÐ°Ð·Ð½ÐµÑģ": 1312,
      "ĠÑĢÐ°Ð·ÑĢÐ°Ð±Ð¾ÑĤ": 1313,
      "ĠÑĢÐ°Ð·Ð»Ð¸Ñĩ": 1314,
      "Ð°Ð»ÑĮÐ½ÑĭÐ¹": 1315,
      "ĠÑįÐ¼": 1316,
      "Ð¸ÑĢÑĥÐµÑĤ": 1317,
      "ĠÐ³ÑĢÐ°Ð½": 1318,
      "Ð°Ð´Ð°Ñĩ": 1319,
      "ĠÐ¿ÑĢÐµÐ´Ð»Ð¾Ð¶": 1320,
      "ĠÐ¿ÑĢÐ¾Ð¸Ñģ": 1321,
      "Ð¸ÑĩÐµÑģÐºÐ¾Ð¹": 1322,
      "ÑĤÐ¸Ð²Ð½ÑĭÐµ": 1323,
      "ĠÐ¸Ð½Ð¾Ð³Ð´Ð°": 1324,
      "ĠÐ¸Ð½ÑĤÐµ": 1325,
      "ĠÐ»Ð¸ÑĪÑĮ": 1326,
      "ÑĨÐ¸Ð¾Ð½Ð½ÑĭÑħ": 1327,
      "ĠÐ¿Ð¾Ð´Ð³Ð¾ÑĤÐ¾Ð²": 1328,
      "ĠÐŁÐ¾Ð²ÑģÐµÐ´Ð½ÐµÐ²Ð½Ð°Ñı": 1329,
      "ĠÐ¿ÑĢÐµÐ´ÑģÑĤÐ°Ð²Ð»": 1330,
      "Ð½ÑĭÐ¼Ð¸": 1331,
      "Ġth": 1332,
      "ĠÑĪÐ°Ð½Ñģ": 1333,
      "ĠÐ¶Ð¸Ð·Ð½": 1334,
      "ĠÐ¿Ð¾Ð²ÑģÐµÐ´Ð½ÐµÐ²": 1335,
      "ÑģÐ¿ÐµÑĨÐ¸": 1336,
      "ĠÑĥÑĩÐ°ÑģÑĤÐ¸Ðµ": 1337,
      "ĠÑģÐ¾Ð±ÑĭÑĤ": 1338,
      "ÑĢÐ°ÐºÑĤÐ¸Ð²Ð½ÑĭÐµ": 1339,
      "ĠÑĢÐµÐ·ÑĥÐ»ÑĮÑĤ": 1340,
      "ĠÑģÐ´ÐµÐ»ÐºÐ¸": 1341,
      "ĠÑģÐ´ÐµÐ»Ð°Ð½Ð½ÑĭÐµ": 1342,
      "ĠÑıÐ²Ð»ÑıÑİÑĤ": 1343,
      "ĠÐ±Ð°Ð·Ðµ": 1344,
      "ĠÑĦÐ¾ÑĢÐ¼Ð¸ÑĢÐ¾Ð²Ð°Ð½Ð¸Ñİ": 1345,
      "ĠÐ¿ÑĢÐ¸Ð½ÑıÑĤÐ¾": 1346,
      "ĠÑĨÐµÐ»Ð¾Ð¼": 1347,
      "ĠÐ·Ð½Ð°ÑĩÐ¸ÑĤÐµÐ»ÑĮÐ½Ð¾Ð¹": 1348,
      "ĠÑĪÐ¸ÑĢÐ¾ÐºÐ¾Ð¼Ñĥ": 1349,
      "ĠÐŀÐ½": 1350,
      "ĠÐºÐ°ÑĩÐµÑģÑĤÐ²Ð¾": 1351,
      "ĠÐ¿ÑĢÐ¾Ð´Ð°ÑĤÑĮ": 1352,
      "ĠÑĥÑĢÐ¾Ð²ÐµÐ½ÑĮ": 1353,
      "ĠÐ¼ÐµÑĤÐ¾Ð´Ð¾Ð¼": 1354,
      "ĠÐºÑĢÑĥÐ³": 1355,
      "ĠÐ·Ð°Ð±ÑĭÐ²Ð°ÑĤÑĮ": 1356,
      "ĠÐ¾Ð±ÑīÐµÑģÑĤÐ²Ð¾Ð¼": 1357,
      "ĠÐ´ÐµÑĪÑĳÐ²ÐºÐ°": 1358,
      "ĠÐĵÐ¾ÑģÐ¿": 1359,
      "ĠÐ²ÐµÑīÐ¸": 1360,
      "ĠÑģÐ»ÐµÐ´ÑĥÐµÑĤ": 1361,
      "ĠÑģÑĥÑīÐµÑģÑĤÐ²ÑĥÑİÑīÐ¸Ñħ": 1362,
      "ĠÑĢÑĭÐ½ÐºÐµ": 1363,
      "ĠÐ·Ð°Ð²Ð¸ÑģÐ¸Ð¼Ð¾ÑģÑĤÐ¸": 1364,
      "ĠÐºÐ¾Ð»Ð¸ÑĩÐµÑģÑĤÐ²": 1365,
      "ĠÐºÑĥÐ¿Ð¸ÑĤÑĮ": 1366,
      "ĠÐ¼Ð°ÑĪÐ¸Ð½": 1367,
      "Ð¸Ð¼Ð°ÐµÐ¼ÑĭÑħ": 1368,
      "ÑĳÐ½Ð½Ð¾ÑģÑĤÑĮ": 1369,
      "ĠÑĢÐ°ÑģÑģÐ¼Ð¾ÑĤÑĢ": 1370,
      "ĠÐ½ÐµÐ¾Ð¿Ð¾Ð·Ð½Ð°Ð½Ð½Ð¾Ðµ": 1371,
      "ĠÐ²Ð½Ð¸Ð¼Ð°Ð½Ð¸Ñı": 1372,
      "ĠÐ¶Ð¸Ð²Ð¾ÑĤ": 1373,
      "ĠÐ¾ÑĩÐµÐ²Ð¸Ð´Ð½Ð°": 1374,
      "ĠÐ½Ð°Ð¿ÑĢÐ°Ð²Ð»ÐµÐ½Ð¸Ð¹": 1375,
      "ĠÐ²Ð½ÑĥÑĤÑĢÐµÐ½Ð½ÐµÐ¹": 1376,
      "ĠÑĦÑĥÐ½ÐºÑĨÐ¸Ð¾Ð½Ð°Ð»ÑĮÐ½Ð¾": 1377,
      "ĠÐ¿Ð¾ÑĢÑıÐ´": 1378,
      "ĠÑģÐµÐ±Ðµ": 1379,
      "ĠÐ°Ð¿Ð¿Ð°ÑĢ": 1380,
      "ĠÐ½Ð°ÑĩÐ°Ð»Ð¾": 1381,
      "ĠÐ³Ð¾Ð²Ð¾ÑĢÐ¸ÑĤ": 1382,
      "ĠÐ¿ÑĢÐ¾ÑĤÐ¾ÑĤÐ¸Ð¿Ñĭ": 1383,
      "ĠÐµÑīÑĳ": 1384,
      "ĠÐ¿Ð¸Ð´Ð¾ÑĢ": 1385,
      "ĠÑģÐ¸ÑģÑĤÐµÐ¼": 1386,
      "ĠÑģÑĩÐ¸ÑĤÐ°ÑĤÑĮ": 1387,
      "ĠÐºÑĥÐ»ÑĮÑĤÑĥÑĢ": 1388,
      "Ð°Ð½Ð°Ð»Ð¸ÑĤÐ¸ÐºÐ¸": 1389,
      "Ð°Ð»Ð¸ÑģÑĤÐ¾Ð²": 1390,
      "ĠÑĤÐ¸Ð¿Ð°": 1391,
      "ĠÑĢÐ°Ð·Ð½ÐµÑģÐµÐ½Ñĭ": 1392,
      "ĠÑĢÐ°Ð·Ð»Ð¸ÑĩÐ½ÑĭÑħ": 1393,
      "ĠÐ¿ÑĢÐµÐ´Ð»Ð¾Ð¶ÐµÐ½Ð¸Ð¹": 1394,
      "ĠÐ¿ÑĢÐ¾Ð¸ÑģÑħÐ¾Ð´": 1395,
      "ĠÐ¸Ð½ÑĤÐµÑĢÐ°ÐºÑĤÐ¸Ð²Ð½ÑĭÐµ": 1396,
      "ĠÑĪÐ°Ð½ÑģÐ°": 1397,
      "ĠÐ¿Ð¾Ð²ÑģÐµÐ´Ð½ÐµÐ²Ð½Ð¾Ð¹": 1398,
      "ÑģÐ¿ÐµÑĨÐ¸Ð°Ð»Ð¸ÑģÑĤÐ¾Ð²": 1399,
      "ĠÑĢÐµÐ·ÑĥÐ»ÑĮÑĤÐ°ÑĤ": 1400,
      "ĠÑıÐ²Ð»ÑıÑİÑĤÑģÑı": 1401,
      "ĠÐºÑĢÑĥÐ³Ñĥ": 1402,
      "ĠÐĵÐ¾ÑģÐ¿Ð¾Ð´Ð°": 1403,
      "ĠÑĢÐ°ÑģÑģÐ¼Ð¾ÑĤÑĢÐµÐ½Ñĭ": 1404,
      "ĠÐ°Ð¿Ð¿Ð°ÑĢÐ°ÑĤ": 1405,
      "al": 1406,
      "ci": 1407,
      "le": 1408,
      "ts": 1409,
      "ver": 1410,
      "´Ð¸": 1411,
      "¹Ð¾Ð½": 1412,
      "Ð£": 1413,
      "ÐĲ": 1414,
      "Ðļ": 1415,
      "Ġp": 1416,
      "ĠÐµÑģ": 1417,
      "ĠÐµÐ³Ð¾": 1418,
      "ĠÑĥÐ´": 1419,
      "Ð¾ÑĨÐ¸": 1420,
      "ĠÐ¯": 1421,
      "ĠÐĽ": 1422,
      "Ð°ÑĦ": 1423,
      "Ð¸ÐµÐ½ÑĤ": 1424,
      "ÑĤÐ°": 1425,
      "ÑĤÑĥ": 1426,
      "ÑĤÐ¾Ð±": 1427,
      "ÑĤÐ¸Ð½": 1428,
      "ÑģÐ¸Ð»": 1429,
      "ÑģÑĥÐ»ÑĮÑĤ": 1430,
      "ÑģÐ¸ÑĢÑĥÐµÑĤ": 1431,
      "ÑĢÐ°ÑģÑĤ": 1432,
      "ÑĢÐ°ÑĤÐ¸Ð²": 1433,
      "ĠÐ¿Ð¾Ð±": 1434,
      "ĠÐ¿ÑĢÐµÐ²": 1435,
      "Ð»Ð°Ñĩ": 1436,
      "Ð»Ð°Ð´": 1437,
      "Ð»ÐµÑĩ": 1438,
      "ÑĮÑİÑĤ": 1439,
      "Ð²ÐµÑĢ": 1440,
      "ÐºÐµÑĤ": 1441,
      "ĠÑģÐµÑĢ": 1442,
      "ĠÑģÑĢÐ¾Ñĩ": 1443,
      "ĠÐ½ÐµÑģ": 1444,
      "ĠÐ½ÐµÐ³Ð°ÑĤÐ¸Ð²": 1445,
      "ĠÐ²Ð¾ÑģÑĤ": 1446,
      "ĠÐ²Ð°Ð¼": 1447,
      "ĠÐ²Ð·": 1448,
      "ĠÐºÑĥÑĢÑģ": 1449,
      "ĠÐ¸Ð»Ð¸": 1450,
      "ÑĥÐ¶Ð´": 1451,
      "Ð°Ð½Ð¸Ð¸": 1452,
      "Ð´ÐµÐ¹Ð½ÑĭÐµ": 1453,
      "Ð¼ÐµÑĢ": 1454,
      "ÑĪÐµÐ³Ð¾": 1455,
      "ÐµÑĢÐ¸Ð¼": 1456,
      "ÐµÑĢÐ¶": 1457,
      "Ð¾Ð±Ð»ÐµÐ¼": 1458,
      "Ð¾Ð±Ð»Ð°Ñĩ": 1459,
      "Ð°Ð»Ð°": 1460,
      "Ð°Ð»ÑİÑĤ": 1461,
      "ĠÑĤÑĢ": 1462,
      "ĠÐ´Ð²": 1463,
      "ĠÐ´Ð°Ð½": 1464,
      "ĠÐ´ÑĢÑĥÐ³": 1465,
      "Ð°ÐºÐ¸Ð¼": 1466,
      "ĠÐ¿ÑĢÐ¾ÑģÑĤ": 1467,
      "ĠÐ¿ÑĢÐ¾ÑĤÐ¸Ð²": 1468,
      "ĠÐ¿ÑĢÐ¾Ð±Ð»ÐµÐ¼": 1469,
      "ĠÐ¼Ð°ÑĢ": 1470,
      "ĠÐ¼Ð°Ð»Ð¾": 1471,
      "Ð¾Ð¼Ñĭ": 1472,
      "Ð¾Ð¼ÑıÐ½": 1473,
      "Ð°ÑĤÐµÐ³": 1474,
      "ĠÑĩÑĤÐ¾Ð±": 1475,
      "ĠÐ·Ð°Ð²Ð¸Ñģ": 1476,
      "Ð¾ÑĢÐ¸ÐµÐ½ÑĤ": 1477,
      "Ð¸Ð·Ð¼Ð°": 1478,
      "ĠÐ°ÑģÑģ": 1479,
      "ÐµÐ¹ÑģÐºÐ¾Ð³Ð¾": 1480,
      "ĠÐ±ÐµÐ»": 1481,
      "ĠÐ±ÑĥÑĢ": 1482,
      "ĠÐ½Ð°ÑĨÐ¸Ð¾Ð½": 1483,
      "ÑĳÐ¶": 1484,
      "Ð°Ð²Ð½ÑĭÐ¼": 1485,
      "ĠÑĢÐ¾ÑģÑĤ": 1486,
      "Ð¾Ð¿ÑĢÐµÐ´ÐµÐ»": 1487,
      "ĠÑĥÑĤÐ¾Ñĩ": 1488,
      "ĠÑĥÑģÐ¸Ð»": 1489,
      "ĠÑĢÐ°Ð·Ð¾Ð±Ð»Ð°Ñĩ": 1490,
      "Ð»ÑıÐ´": 1491,
      "Ð»ÑıÐ¼": 1492,
      "ĠÐ²ÑĭÐ·": 1493,
      "ĠÐ²ÑĭÑĢÐ°Ð¶": 1494,
      "ĠÐ¾Ð±ÑĥÑģÐ»Ð¾Ð²": 1495,
      "ÐµÐºÑģ": 1496,
      "ĠÑĦÐ¸Ðº": 1497,
      "ĠÐ¿ÑĢÐµÐ´Ð¾Ð¿ÑĢÐµÐ´ÐµÐ»": 1498,
      "Ð°ÑģÐ¾Ð²": 1499,
      "Ð¸ÑĩÐµÑģÐºÐ¸Ñħ": 1500,
      "ĠÐ¾ÑĤÑĢÐ°Ñģ": 1501,
      "ÑĤÐ¾ÑĢÐ¸Ð¸": 1502,
      "Ð¾Ð²Ð°Ð½Ð½Ð¾ÑģÑĤÑĮ": 1503,
      "ÑģÐ»Ð¸": 1504,
      "ÐµÐ²Ð¾Ð¹": 1505,
      "ÐµÐ²ÑĢÐµÐ¼": 1506,
      "ÐµÐ²ÑĢÐ¾Ð¿": 1507,
      "ĠÐ¸Ð½ÑģÑĤÑĢ": 1508,
      "ĠÐ¸Ð½Ð½Ð¾Ð²": 1509,
      "ĠÐ°ÐºÑĨÐ¸ÑıÐ¼Ð¸": 1510,
      "ĠÑģÐ²ÐµÑĤ": 1511,
      "ĠÑģÐ²ÑıÐ·": 1512,
      "ÑĭÐ²Ð°Ñı": 1513,
      "ÑīÐµÑģÑĤÐ²Ð°": 1514,
      "ÐµÑĪÑĮ": 1515,
      "Ð¸ÑĤÐµÐ»ÑĮÐ½Ð¾Ðµ": 1516,
      "ÑĦÑĦ": 1517,
      "ÑĦÐ¾ÑĢÐ¼": 1518,
      "ÑĥÐ¿Ð¿": 1519,
      "ĠÐ¿Ð¾Ð´Ð¾Ð±": 1520,
      "ĠÑģÐ»Ð¾Ð²": 1521,
      "ÐµÑĩÑĤÐ¾": 1522,
      "ĠÐ¾Ð¿Ð¿": 1523,
      "ĠÐ¿Ð¾Ð»Ð¾Ð¶": 1524,
      "ÑĥÐ´Ð°": 1525,
      "ÑĥÐ´Ð¸": 1526,
      "ÑĥÐ´ÑĮ": 1527,
      "ÐµÐ½ÑĤÐ¾Ð²": 1528,
      "ÐµÐ½ÑĤÐ°Ð»ÑĮÐ½Ð¾": 1529,
      "ĠÑįÑĤÐ¾Ð¼": 1530,
      "ĠÐ°ÐºÑĤÐ¸Ð²Ð¾Ð¼": 1531,
      "ĠÐ°ÐºÑĤÐ¸Ð²Ð½Ð¾ÑģÑĤÐ¸": 1532,
      "ĠÐ°ÐºÑĤÐ¸Ð²Ð¸Ð·Ð°ÑĨÐ¸Ð¸": 1533,
      "ĠÐĴÐ¾ÑĤ": 1534,
      "Ð¸ÑĢÐ¾Ð²Ð°Ð½Ð¸Ðµ": 1535,
      "Ð¸ÑĢÐ¾Ð²Ð°Ð½Ð½ÑĭÐ¹": 1536,
      "Ð¸ÑģÑĤÑĢÐ°ÑĤÐ¸Ð²": 1537,
      "ĠÑĥÑĩÑĳÑĤ": 1538,
      "ĠÐĿÐµ": 1539,
      "ĠÐºÐ¾Ð½ÑĤÐ¸Ð½": 1540,
      "ĠÐºÐ¾Ð½ÑģÑĥÐ»ÑĮÑĤ": 1541,
      "ĠÐ½ÐµÐ¿ÑĢ": 1542,
      "ĠÐ·Ð°Ð´Ð°Ð½Ð¸Ñı": 1543,
      "ÑģÐ¿ÐµÑĢÐ¸Ð¼": 1544,
      "ĠÑģÐ²Ð¾ÐµÐ²ÑĢÐµÐ¼": 1545,
      "ĠÐ¿Ð¾Ð·Ð¸ÑĨÐ¸Ð¹": 1546,
      "ĠÐ²ÑĭÑģÑĪÐµÐ³Ð¾": 1547,
      "....": 1548,
      "ÑĢÐ¸ÑıÑĤÐ½Ð¾": 1549,
      "Ð°ÑĤÐ¸Ð²Ð½Ð¾": 1550,
      "ĠÑĪÐ¸ÑĢÐ¾ÐºÐ¸Ð¼": 1551,
      "ĠÐŀÐ´": 1552,
      "ĠÐ¿ÑĢÐ¾Ð´Ð°ÑĳÑĤ": 1553,
      "ĠÑįÐºÑģÐ¿ÐµÑĢÐ¸Ð¼": 1554,
      "ĠÐ¼ÐµÑĤÐ¾Ð´Ð¸Ðº": 1555,
      "ĠÐ²Ð°Ð¶Ð½ÑĭÐµ": 1556,
      "ĠÐ²Ð°Ð¶Ð½Ð¾ÑģÑĤÑĮ": 1557,
      "ĠÐ²Ð°Ð¶Ð½ÑĥÑİ": 1558,
      "ĠÐ²ÑĭÑģÐ¾ÐºÑĥÑİ": 1559,
      "ĠÐ¿Ð¾Ð»Ð¸ÑĤÐ¸ÑĩÐµÑģÐºÐ¾Ð¹": 1560,
      "ĠÐºÐ¾Ð¼Ð¿ÑĮÑİÑĤ": 1561,
      "ĠÑĤÐµÑħÐ½Ð¾Ð»Ð¾Ð³": 1562,
      "ĠÐ´ÐµÐ¹ÑģÑĤÐ²Ð¸Ñı": 1563,
      "ĠÐ´ÐµÐ¹ÑģÑĤÐ²Ð¸Ð¹": 1564,
      "ĠÐ³Ð»ÑĥÐ±": 1565,
      "Ġhis": 1566,
      "ĠÑĥÐ¿Ð¾Ð¼ÑıÐ½": 1567,
      "ÑĢÐµÐ±Ð¾Ð²Ð°Ð½Ð½Ð¾ÑģÑĤÑĮ": 1568,
      "ÐĿÐµÑĩÑĤÐ¾": 1569,
      "ÑĩÐ¸ÑĤÑĭÐ²Ð°Ñı": 1570,
      "ĠÐ½Ð°Ð·ÑĭÐ²Ð°ÑİÑĤ": 1571,
      "ĠÑģÐ¾Ð²ÐµÑĢÑĪÐ°ÐµÑĤ": 1572,
      "ĠÐ²Ð½ÐµÑĪÐ½Ðµ": 1573,
      "ĠÑĥÑĩÐ°ÑģÑĤÐ½Ð¸ÐºÐ°Ð¼Ð¸": 1574,
      "ĠÐ±ÐµÑģÐ¿Ð¾Ð»ÐµÐ·Ð½Ð¾Ðµ": 1575,
      "ĠÑĢÑĭÐ½Ð¾Ðº": 1576,
      "ĠÐ¿Ð¾ÑģÑĤÐ¾ÑıÐ½Ð½ÑĭÐ¹": 1577,
      "ĠÐ²Ð¾Ð·Ð¼Ð¾Ð¶": 1578,
      "ĠÐ´ÐµÐ»Ð¾": 1579,
      "ĠÑģÐ¾Ð¾Ð±ÑĢÐ°Ð¶ÐµÐ½Ð¸Ñı": 1580,
      "ĠÑģÐ¾Ð¾Ð±ÑīÐµÑģÑĤÐ²Ð°": 1581,
      "ĠÐ¾ÑĤÐ½Ð¾ÑĪÐµÐ½Ð¸Ð¸": 1582,
      "ĠÐ¿Ð¾ÑĤÑĢÐµÐ±": 1583,
      "ĠÑģÐºÐ°Ð·": 1584,
      "Ð»ÑİÐ´Ð°ÑĤÑĮ": 1585,
      "ĠÑįÐºÐ¾Ð½Ð¾Ð¼Ð¸ÑĩÐµÑģÐºÑĥÑİ": 1586,
      "ĠÐ´Ð°Ð»ÑĮÐ½ÐµÐ¹ÑĪÐµÐµ": 1587,
      "ĠÐ²ÑĭÐ¿Ð¾Ð»Ð½Ð¸ÑĤÑĮ": 1588,
      "ĠÑģÑĤÐ°Ð½Ð´Ð°ÑĢÑĤÐ½ÑĭÑħ": 1589,
      "ĠÐ¿ÑĢÐ¾ÑĦÐµÑģÑģÐ¸Ð¾Ð½Ð°Ð»ÑĮÐ½Ð¾Ð³Ð¾": 1590,
      "ĠÐŃÑĤÐ¾": 1591,
      "Ð¼Ð¸Ð½Ð¸ÑģÑĤÑĢÐ°ÑĤÐ¸Ð²": 1592,
      "ĠÐ¼Ð¾Ð³ÑĥÑĤ": 1593,
      "ĠÐ·Ð°Ð½Ð¸Ð¼Ð°ÐµÐ¼ÑĭÑħ": 1594,
      "ĠÐ¾Ð¿Ð°ÑģÐ½Ð¾Ðµ": 1595,
      "Ð¾ÐºÑĢÐ°ÑĤÐ½Ð¾": 1596,
      "ĠÐ³ÑĢÐ°Ð¶Ð´Ð°Ð½Ðµ": 1597,
      "ÑĢÐµÐ¹Ð´Ð¸Ð½Ð³": 1598,
      "ÑĢÐ°Ð¼Ð¼Ñĭ": 1599,
      "ĠÐ¿Ð¾Ð´ÑħÐ¾Ð´Ð¾Ð²": 1600,
      "ĠÐ½ÐµÐ¿Ð¾Ð½ÑıÑĤÐ½Ð¾Ðµ": 1601,
      "ĠÐ¾ÑĨÐµÐ½Ð¸ÑĤÑĮ": 1602,
      "ĠÐ¿Ð»Ð¾ÑħÐ¾": 1603,
      "ĠÐ¿Ð¾ÐºÑĥÐ¿Ð°ÐµÑĤ": 1604,
      "ĠÐºÐ»Ð°ÑģÑĤÐµÑĢÐ¸Ð·Ð°ÑĨÐ¸Ð¸": 1605,
      "ĠÐ¿ÑĢÐµÐ´Ð¿Ð¾ÑģÑĭÐ»ÐºÐ¸": 1606,
      "ĠÑĢÐ°ÑģÐ¿ÑĢÐµÐ´ÐµÐ»ÐµÐ½Ñĭ": 1607,
      "ĠÑģÑĦÐµÑĢÐ°": 1608,
      "ĠÐ½Ð°Ð±Ð»ÑİÐ´Ð°ÑĤÑĮ": 1609,
      "ĠÐºÐ°Ð¶Ð´Ð¾Ð³Ð¾": 1610,
      "ĠÐ°Ð´Ð¼Ð¸Ð½Ð¸ÑģÑĤÑĢÐ°ÑĤÐ¸Ð²": 1611,
      "ĠÐ½ÐµÐ¾Ð´Ð½Ð¾ÐºÑĢÐ°ÑĤÐ½Ð¾": 1612,
      "ĠÑĢÐ°Ð·ÑĢÐ°Ð±Ð¾ÑĤÐºÐµ": 1613,
      "ĠÐ¶Ð¸Ð·Ð½Ð¸": 1614,
      "ĠÐºÐ¾Ð»Ð¸ÑĩÐµÑģÑĤÐ²ÐµÐ½Ð½ÑĭÐ¹": 1615,
      "ĠÐ¶Ð¸Ð²Ð¾ÑĤÐ½Ð¾Ðµ": 1616,
      "ĠÐ¿Ð¾ÑĢÑıÐ´ÐºÐ°": 1617,
      "ĠÑģÐ¸ÑģÑĤÐµÐ¼Ñĭ": 1618,
      "ĠÐºÑĥÐ»ÑĮÑĤÑĥÑĢÑĭ": 1619,
      "very": 1620,
      "ÐļÐ°Ðº": 1621,
      "ĠÐµÑģÐ»Ð¸": 1622,
      "Ð¾ÑĨÐ¸Ð°ÑĤÐ¸Ð²Ð½Ð¾": 1623,
      "ÐºÐµÑĤÐ¸Ð½Ð³": 1624,
      "ĠÐ²Ð¾ÑģÑĤÑĢÐµÐ±Ð¾Ð²Ð°Ð½Ð½Ð¾ÑģÑĤÑĮ": 1625,
      "ĠÐ¼Ð°ÑĢÐºÐµÑĤÐ¸Ð½Ð³": 1626,
      "ĠÑĩÑĤÐ¾Ð±Ñĭ": 1627,
      "ĠÐ·Ð°Ð²Ð¸ÑģÐ¸ÑĤ": 1628,
      "Ð¾ÑĢÐ¸ÐµÐ½ÑĤÐ¸ÑĢÐ¾Ð²Ð°Ð½Ð½ÑĭÐ¹": 1629,
      "ĠÐ°ÑģÑģÐ¾ÑĨÐ¸Ð°ÑĤÐ¸Ð²Ð½Ð¾": 1630,
      "ĠÐ½Ð°ÑĨÐ¸Ð¾Ð½Ð°Ð»ÑĮÐ½ÑĭÐ¹": 1631,
      "ĠÑĥÑĤÐ¾ÑĩÐ½ÐµÐ½Ð¸Ñı": 1632,
      "ĠÑĥÑģÐ¸Ð»Ð¸Ð¹": 1633,
      "ĠÑĢÐ°Ð·Ð¾Ð±Ð»Ð°ÑĩÐµÐ½Ñĭ": 1634,
      "ĠÐ²ÑĭÐ·ÑĭÐ²": 1635,
      "ĠÐ²ÑĭÑĢÐ°Ð¶ÐµÐ½Ð¸Ðµ": 1636,
      "ĠÐ¾Ð±ÑĥÑģÐ»Ð¾Ð²Ð»Ð¸Ð²Ð°ÐµÑĤ": 1637,
      "ĠÑĦÐ¸ÐºÑģÐ¸ÑĢÑĥÐµÑĤ": 1638,
      "ĠÐ¿ÑĢÐµÐ´Ð¾Ð¿ÑĢÐµÐ´ÐµÐ»ÑıÐµÑĤ": 1639,
      "ĠÐ¾ÑĤÑĢÐ°ÑģÐ»ÑıÐ¼": 1640,
      "ÐµÐ²ÑĢÐ¾Ð¿ÐµÐ¹ÑģÐºÐ¾Ð³Ð¾": 1641,
      "ĠÐ¸Ð½Ð½Ð¾Ð²Ð°ÑĨÐ¸Ð¾Ð½": 1642,
      "ĠÑĥÑĩÑĳÑĤÐ¾Ð¼": 1643,
      "ĠÐºÐ¾Ð½ÑĤÐ¸Ð½ÐµÐ½ÑĤÐ°Ð»ÑĮÐ½Ð¾": 1644,
      "ĠÐºÐ¾Ð½ÑģÑĥÐ»ÑĮÑĤÐ°ÑĨÐ¸Ñı": 1645,
      "ĠÑĥÐ¿Ð¾Ð¼ÑıÐ½ÑĥÑĤÐ¾": 1646,
      "ĠÐ°Ð´Ð¼Ð¸Ð½Ð¸ÑģÑĤÑĢÐ°ÑĤÐ¸Ð²Ð½ÑĭÑħ": 1647,
      "),": 1648,
      "ce": 1649,
      "hi": 1650,
      "ik": 1651,
      "ks": 1652,
      "mat": 1653,
      "rt": 1654,
      "st": 1655,
      "un": 1656,
      "ws": 1657,
      "Ðł": 1658,
      "Ġe": 1659,
      "ĠÐµ": 1660,
      "ĠÐ¾Ð´": 1661,
      "ĠÐµÑĢ": 1662,
      "ĠÐµÑģÑĤ": 1663,
      "Ġvery": 1664,
      "Ð¾Ð½Ñĭ": 1665,
      "Ð¾ÑĪ": 1666,
      "Ð¾Ð¾ÑĩÐµÑĢÐµÐ´Ð½ÑĭÑħ": 1667,
      "ÐµÑı": 1668,
      "ÐµÑĨ": 1669,
      "ÐµÑĢÐµÐ": 1670,
      "ĠÐ¥": 1671,
      "Ð°Ð½Ð¾": 1672,
      "Ð°ÑģÑı": 1673,
      "Ð°ÐµÑĪÑĮ": 1674,
      "Ð¸ÑĤÐ¾": 1675,
      "Ð¸ÑģÐº": 1676,
      "Ð¸Ð°Ð³": 1677,
      "Ð½Ðµ": 1678,
      "Ð½ÑĥÑĤ": 1679,
      "Ð½ÐµÐ·": 1680,
      "Ð½ÑĤÐµÑĢ": 1681,
      "Ð½Ð¾Ð·Ð½Ð°ÑĩÐ½Ð¾": 1682,
      "Ð½Ð¸Ð³": 1683,
      "ÑĤÑĭ": 1684,
      "ÑĤÐ°Ð»Ð¸ÑĤ": 1685,
      "ÑĤÑĢÐµÐ¹Ð´Ð¸Ð½Ð³": 1686,
      "ÑģÐµÐ¼": 1687,
      "ÑģÐ¾ÐºÐ¸Ð¹": 1688,
      "ÐµÐ¶Ð´": 1689,
      "ÑĭÑģÐ¾ÐºÐ¸Ð¹": 1690,
      "ÑĥÐ»": 1691,
      "ÑĥÑĪ": 1692,
      "ÑıÐ¶": 1693,
      "ÑģÑĤÐ¾Ð»ÑĮÐºÐ¾": 1694,
      "ĠÐ¿Ð°Ðº": 1695,
      "ĠÐ¿Ð°ÑĤ": 1696,
      "ĠÐ¿Ð°ÑĢ": 1697,
      "ĠÐ¿Ð¾Ñĩ": 1698,
      "Ð»Ð¾Ðº": 1699,
      "Ð»Ð¾Ñĩ": 1700,
      "Ð»ÐµÐºÑģ": 1701,
      "ÐµÐ½Ð½Ð¾Ð¹": 1702,
      "Ð²ÑģÑĤÐ²": 1703,
      "Ð²Ð°ÑĤ": 1704,
      "Ð²Ð»Ñı": 1705,
      "Ð²ÐµÑģÑĤ": 1706,
      "Ð²Ð¾Ð¾ÑĩÐµÑĢÐµÐ´Ð½ÑĭÑħ": 1707,
      "ÐºÑĥ": 1708,
      "ÐºÐ¾Ð²": 1709,
      "ÐºÐ¸Ð¼": 1710,
      "ÐºÐ¾Ð½Ð¾Ð¼Ð¸ÑĩÐµÑģÐº": 1711,
      "ĠÑģÐ¼": 1712,
      "ĠÑģÐµÐ¹": 1713,
      "ĠÑģÐµÐ¼": 1714,
      "ĠÑģÐ¼ÑĭÑģÐ»": 1715,
      "Ð¾Ð²Ð¾Ð³Ð¾": 1716,
      "Ð¾Ð²ÐºÐ¸": 1717,
      "Ð¾Ð²Ð»ÐµÑĩ": 1718,
      "ĠÐ½Ð¾": 1719,
      "ĠÐ½ÐµÑģÐº": 1720,
      "ĠÐ½Ð¾ÑĢÐ¼": 1721,
      "ĠÐ²Ð¾": 1722,
      "ĠÐ²Ðº": 1723,
      "ĠÐ²Ð¾Ð´": 1724,
      "ĠÐ²Ð°Ð»ÑİÑĤ": 1725,
      "ĠÐ²Ð¾Ð²Ð»ÐµÑĩ": 1726,
      "Ð½Ð¾Ð¾Ð±ÑĢÐ°Ð·": 1727,
      "ÑĨÐ¸Ð¿": 1728,
      "ÐµÑĤÐ½ÑĭÐµ": 1729,
      "ÐµÑĤÐ¸ÑĩÐµÑģÐºÐ¾Ðµ": 1730,
      "ÐµÑĤÐºÐ¸Ð¼": 1731,
      "ĠÐºÑĢÐ°Ð": 1732,
      "ĠÐºÐ¾Ñģ": 1733,
      "ĠÐ¸ÑģÑĤ": 1734,
      "ÑİÐ´": 1735,
      "Ð¾Ð´ÐµÐ¹ÑģÑĤÐ²": 1736,
      "ÑĪÐµ": 1737,
      "Ð°Ð»Ð¸": 1738,
      "Ð°Ð»Ð¾Ð²": 1739,
      "ĠÑĤÐµÐ»": 1740,
      "ĠÑĤÐµÑĢ": 1741,
      "ĠÑĤÑıÐ¶": 1742,
      "ĠÐ´ÐµÐ½": 1743,
      "ĠÐ´Ð¾Ðº": 1744,
      "ĠÐ´Ð¸Ð°Ð³": 1745,
      "Ð¾Ð³Ð°ÑĤ": 1746,
      "ĠÐ¿ÑĢÐ¸Ð·": 1747,
      "ĠÐ¿ÑĢÐ¸Ð±": 1748,
      "ĠÐ¼ÐµÑħ": 1749,
      "ĠÐ¼Ð¾Ð»Ð¾Ð´": 1750,
      "Ð¾ÑĤÐµÑħÐ½Ð¾Ð»Ð¾Ð³": 1751,
      "Ð¾Ð½Ð¸Ð¼": 1752,
      "Ð¾Ð½Ð½Ð¸Ðº": 1753,
      "Ð¾Ð½ÑĤÑĭ": 1754,
      "ÑģÑĤÐ²Ð¸Ñı": 1755,
      "ÑģÑĤÐ²Ð¾Ð¼": 1756,
      "Ð°ÑĤÐµÐ»Ð¸": 1757,
      "ĠÑĩÐµÑĤÐºÐ¸Ð¼": 1758,
      "ĠÐ·Ð´": 1759,
      "ĠÐ·ÑĢÐµÐ½Ð¸Ñı": 1760,
      "ÑĢÐµÐ´Ð²Ð°ÑĢ": 1761,
      "Ð¸Ð·Ð¾Ð½ÑĤÑĭ": 1762,
      "ĠÐ°ÑĥÐ´Ð¸": 1763,
      "ĠÐ½ÐµÑĥÑĤ": 1764,
      "Ġ100": 1765,
      "ĠÐ±Ñĭ": 1766,
      "ĠÐ±Ð¾Ð»": 1767,
      "ĠÐ±ÑĢÐµÐ´": 1768,
      "ĠÐ±ÐµÐ·ÑĥÑģÐ»Ð¾Ð²Ð½Ð¾": 1769,
      "ĠÐ±Ð¾Ð³Ð°ÑĤ": 1770,
      "ĠÐ½Ð°ÑĥÐº": 1771,
      "ĠÐ½Ð°ÑģÑĤÐ¾Ð»ÑĮÐºÐ¾": 1772,
      "ÑĳÑĢ": 1773,
      "ÑĳÐ¹": 1774,
      "ÑĳÐ·": 1775,
      "Ð¾ÑģÑĤÐ¾Ð¹": 1776,
      "Ð¸ÑĩÐ½Ð°Ñı": 1777,
      "ĠÑĢÐ°ÑģÑĤ": 1778,
      "ÐµÐ½Ð¸ÑıÐ¼": 1779,
      "Ð¾Ð·Ð¸": 1780,
      "ĠÑĥÑģÑĤÑĢ": 1781,
      "Ð³Ð»ÑıÐ´": 1782,
      "ĠÑĢÐ°Ð·Ð±Ð¾ÑĢ": 1783,
      "Ð¾ÑģÑĥÐ´": 1784,
      "ĠÐ²ÑĭÐ¿": 1785,
      "Ð°Ð»ÑĮÐ½Ð¾Ðµ": 1786,
      "ĠÑģÑĤÑĢÐµÐ¼": 1787,
      "ĠÐ¾Ð±Ð»": 1788,
      "ĠÐ¾Ð±ÑģÑĤÐ°Ð½": 1789,
      "ÐµÐ´Ñĭ": 1790,
      "ĠÑįÑĦÑĦ": 1791,
      "ĠÑĦÐ¸Ð»ÑĮ": 1792,
      "ĠÐ¿ÑĢÐµÐ´Ð¿Ð¾Ð»": 1793,
      "Ð°ÑģÑĮ": 1794,
      "¹Ð½Ðµ": 1795,
      "Ð°ÑĢÐ¸Ð·Ð¼Ð°": 1796,
      "Ð¸ÑĩÐµÑģÐºÐ¾Ð³Ð¾": 1797,
      "Ð°Ð·Ð°ÑĤÐµÐ»ÑĮ": 1798,
      "Ð°Ð·Ð½Ð¾Ð¾Ð±ÑĢÐ°Ð·": 1799,
      "ĠÑħÑĥÐ¹Ð½ÑĳÐ¹": 1800,
      "ĠÐºÐ°ÐºÐ¾Ð¹": 1801,
      "ĠÐºÐ°ÐºÐ¸Ñħ": 1802,
      "Ð¾Ð²Ð°Ð½Ð¸Ñı": 1803,
      "ĠÐ¸Ð½ÑģÑĤÐ°Ð½": 1804,
      "ĠÐ°ÐºÑĨÐ¸Ð¹": 1805,
      "ĠÑģÐ²ÐµÑĢÑĪ": 1806,
      "ĠÑģÐ²ÐµÐ¶": 1807,
      "ĠÐ»ÐµÑĤ": 1808,
      "ĠÐ»ÑİÐ´": 1809,
      "ÐµÑĪÐ¸ÑĤÐµÐ»ÑĮ": 1810,
      "Ð¸Ð»Ð°": 1811,
      "Ð¸Ð»Ð¸": 1812,
      "Ð¸ÑĤÐµÐ»ÑĮÐ½ÑĭÐµ": 1813,
      "Ð¸ÑĤÐµÐ»ÑĮÐ½Ð¾Ð¼": 1814,
      "ÑĦÐ¸ÐºÐ°": 1815,
      "Ð½Ð°ÑĩÐ¸Ð¼Ð¾ÑģÑĤÑĮ": 1816,
      "ĠÐ¿Ð¾Ð´Ð¾Ð·": 1817,
      "ĠÑģÐ¾Ð²ÑģÐµÐ¼": 1818,
      "ĠÑĨÐµÐ½Ñĭ": 1819,
      "ĠÐ¾Ð¿ÑĭÑĤ": 1820,
      "ĠÐ¿Ð¾Ð»ÐµÐ·": 1821,
      "ĠÐŁÑĢÐ¸ÑıÑĤÐ½Ð¾": 1822,
      "Ð°Ð¿Ð½Ð¾": 1823,
      "Ð°Ð¿ÑĢÐ¸Ð¼ÐµÑĢ": 1824,
      "ĠÑįÑĤÐ¸Ñħ": 1825,
      "ĠÑģÐ¿Ð»Ð¾Ñĩ": 1826,
      "ÑĥÐ¼ÐµÐ½ÑĤ": 1827,
      "ÑĢÐ°Ð·ÑĥÐ¼": 1828,
      "Ð¾Ð»ÑĮÐ·": 1829,
      "ĠÑĩÐ°ÑģÑĤÐ½Ð¾ÑģÑĤÐ¸": 1830,
      "ĠÑĩÐ°ÑģÑĤÑĮÑİ": 1831,
      "ĠÐĿÐ°Ð¿ÑĢÐ¸Ð¼ÐµÑĢ": 1832,
      "ĠÐºÐ¾Ð½ÑģÑĤÑĢ": 1833,
      "ÑĤÐµÑĢÐ½Ð¾Ð²": 1834,
      "ĠÐ½ÐµÐ¿ÑĢÐ°Ð²": 1835,
      "ĠÐ½ÐµÐ¿ÑĢÐ¸ÑıÑĤ": 1836,
      "her": 1837,
      "ĠÑĤÐ¾ÑĤÐ°Ð»Ð¸ÑĤ": 1838,
      "Ð°ÑİÑīÐ¸Ñħ": 1839,
      "ĠÑģÐ²Ð¾Ñİ": 1840,
      "ĠÑģÐ²Ð¾Ð¸Ñħ": 1841,
      "ĠÐ¿Ð¾Ð·Ð¸ÑĨÐ¸Ð¾Ð½Ð½ÑĭÑħ": 1842,
      "Ð°Ð³Ð°ÐµÑĤ": 1843,
      "ĠÑģÑĥÑīÐµÑģÑĤÐ²Ð¾": 1844,
      "ĠÑĢÐµÐ·ÐºÐ¾": 1845,
      "ĠÑģÐ´ÐµÐ»Ð¾Ðº": 1846,
      "ÑĬÑĳÐ·": 1847,
      "ĠÐ¡Ð¾Ð²": 1848,
      "ĠÐºÐ¾Ð¼Ð°Ð½Ð´": 1849,
      "ĠÐ¿ÑĢÐ¸Ð½ÑĨÐ¸Ð¿": 1850,
      "ĠÑĨÐµÐ»ÐµÐ²Ð¾Ð¹": 1851,
      "ÑĨÐµÐ½Ð½Ð¾Ðµ": 1852,
      "Ð°ÑĪÐµ": 1853,
      "ĠÐ¾ÑĩÐµÐ½ÑĮ": 1854,
      "ĠÐ¾ÑĩÐµÑĢÐµÐ´": 1855,
      "ĠÐ¿ÐµÑĢÐ²Ð¾Ð¾ÑĩÐµÑĢÐµÐ´Ð½ÑĭÑħ": 1856,
      "ÑĥÐ·Ð½": 1857,
      "ĠÑĢÐ°Ð±Ð¾ÑĤÐ°ÐµÑĤ": 1858,
      "ĠÑĥÐºÐ»Ð°Ð´": 1859,
      "ĠÐ¾Ð¿ÑĢÐµÐ´ÐµÐ»ÑıÐµÑĤ": 1860,
      "ĠÑĤÑĢÐµÐ±Ð¾Ð²Ð°Ð½Ð¸Ð¹": 1861,
      "Ġst": 1862,
      "ĠÐ·Ð°Ð±Ð»Ð¾Ðº": 1863,
      "ÐµÐºÑĤÐ¸Ð²Ð½Ð¾": 1864,
      "ĠÐ²ÑĭÑģÐ¾ÐºÐ¾Ðµ": 1865,
      "ĠÐ²ÑĭÑģÐ¾ÐºÐ¾ÑĤÐµÑħÐ½Ð¾Ð»Ð¾Ð³": 1866,
      "ÑįÑĤ": 1867,
      "ÑįÐºÐ¾Ð½Ð¾Ð¼Ð¸ÑĩÐµÑģÐº": 1868,
      "ĠÐ¢Ð°Ð¼": 1869,
      "ĠÐ¢Ð°ÐºÐ¸Ð¼": 1870,
      "ĠÐĺÐ´ÐµÐ¹Ð½ÑĭÐµ": 1871,
      "ĠÐĺÐ½ÑĤÐµÑĢ": 1872,
      "Ð°ÑĤÐµÐ»ÑĮÐ½Ð¾Ð³Ð¾": 1873,
      "ĠÐ¾Ð±ÑīÐµÑģÑĤÐ²ÐµÐ½Ð½Ð¾Ð³Ð¾": 1874,
      "Ð¸Ð»ÑĮÐ½Ð¾Ðµ": 1875,
      "ĠÐºÐ¾Ð¼Ð¿Ð»ÐµÐºÑģ": 1876,
      "ĠÐ¿Ð¾ÐºÐ°Ð·Ð°ÑĤÑĮÑģÑı": 1877,
      "Ġwit": 1878,
      "Ġwhi": 1879,
      "ÑıÑīÐ¸ÐµÑģÑı": 1880,
      "Ð°Ð½ÑĤÐ¸ÑĩÐµÑģÐºÐ¸Ð¹": 1881,
      "ĠÑĦÐ¸Ð½Ð°Ð½ÑģÐ¾Ð²": 1882,
      "ĠÐ¾Ð³ÑĢÐ°Ð½Ð¸ÑĩÐµÐ½Ð¸Ð¹": 1883,
      "ĠÑģÐ¾Ð¾ÑĤÐ²ÐµÑĤÑģÑĤÐ²ÑĥÑİÑīÐ¸Ñħ": 1884,
      "ĠÑģÐ¾Ð¾ÑĤÐ²ÐµÑĤÑģÑĤÐ²ÑĥÑİÑīÐ¸Ð¼Ð¸": 1885,
      "ĠÐĹÐ°Ð´Ð°Ñĩ": 1886,
      "ĠÐĹÐ½Ð°ÑĩÐ¸Ð¼Ð¾ÑģÑĤÑĮ": 1887,
      "ĠÐ½Ð°Ð·Ð²": 1888,
      "ĠÐ³Ð¾ÑĢÐ¾Ð´Ðµ": 1889,
      "ĠÐ³Ð¾ÑĢÐ¸Ð·Ð¾Ð½ÑĤÑĭ": 1890,
      "ĠÐ²Ð½ÐµÑĪÐ½Ð¸Ñħ": 1891,
      "ĠÑģÐ»ÐµÐ´ÑĥÑİÑī": 1892,
      "ĠÑĤÐ¾ÑĩÐºÐ°": 1893,
      "ĠÑĥÐ±Ð»ÑİÐ´": 1894,
      "ĠÐĳÐµÐ·ÑĥÑģÐ»Ð¾Ð²Ð½Ð¾": 1895,
      "ÑĭÑĩÐ½ÑĭÐµ": 1896,
      "ĠÐ½Ð¾Ð²Ð°Ñı": 1897,
      "ÑĢÐ°Ð»ÑĮ": 1898,
      "ĠÑģÑĤÐ¾Ð¸ÑĤ": 1899,
      "ĠÐ¾Ð±ÑĬÐµÐºÑĤÐ¸Ð²Ð½Ð¾": 1900,
      "ĠÑĤÐ¾ÑĢÐ³Ð¾Ð²Ð»Ð¸": 1901,
      "ĠÐ¾ÑĤÐ½Ð¾ÑĪÐµÐ½Ð¸Ñı": 1902,
      "Ġlik": 1903,
      "Ġmat": 1904,
      "ÑıÑģÐ½": 1905,
      "ÑıÑģÑĮ": 1906,
      "ĠÐ´Ð°Ð»ÑĮÐ½ÐµÐ¹ÑĪÐ¸Ñħ": 1907,
      "ĠÑģÑĤÐ°Ð½Ð´Ð°ÑĢÑĤÐ¾Ð²": 1908,
      "ĠÐ¿ÑĢÐ¾ÑĦÐµÑģÑģÐ¸Ð¾Ð½Ð°Ð»Ð¾Ð²": 1909,
      "ĠÐ½Ð¾Ð²ÑĭÐµ": 1910,
      "ĠÐ½Ð¾Ð²ÑĭÐ¼": 1911,
      "ĠÑĢÐµÑĪÐµÐ½Ð¸Ð¹": 1912,
      "ĠÐ¾Ð±ÑīÐµÐ¹": 1913,
      "ĠÐ³Ð°Ð´ÐºÐ¾Ðµ": 1914,
      "ĠÑĨÐµÐ½Ð°": 1915,
      "ÑĢÐ¸Ð½Ð¸Ð¼": 1916,
      "ĠÐ¿Ð¾Ð½ÑıÑĤÐ¸Ñı": 1917,
      "ĠÐ¿ÑĢÐ¸Ð²ÑĭÑĩÐ½ÑĭÐµ": 1918,
      "ĠÐ¼ÐµÐ»Ð¾Ñĩ": 1919,
      "ĠÑĢÐ°ÑĨÐ¸Ð¾Ð½Ð°Ð»ÑĮÐ½ÑĭÑħ": 1920,
      "ĠÑģÑĤÐ¾ÑĢÐ¾Ð½Ð½Ð¸Ðº": 1921,
      "Ð¸ÑĢÐ¾Ð²Ð°Ð½Ñĭ": 1922,
      "ĠÑĦÐ°ÐºÑĤÐ°": 1923,
      "ĠÑĦÐ°Ð½ÑĤÐ°ÑģÑĤ": 1924,
      "Ð¾Ð¶ÐµÑģÑĤÐ²Ð¾": 1925,
      "ĠÑģÐ¿ÐµÑĨÐ¸ÑĦÐ¸ÐºÐ°": 1926,
      "ĠÐºÐ¾Ð½ÑĨÐµÐ¿ÑĨÐ¸Ñı": 1927,
      "ĠÑģÐ¾Ð±ÑģÑĤÐ²ÐµÐ½Ð½ÑĭÑħ": 1928,
      "ĠÐ¿Ð¾ÑģÐ»ÐµÐ´ÑģÑĤÐ²Ð¸Ñı": 1929,
      "ĠÐ½ÐµÐ½ÑĥÐ¶Ð½Ð¾Ðµ": 1930,
      "Ġof": 1931,
      "ĠÐ½Ð¸Ð·Ðº": 1932,
      "ĠÐ½ÐµÐ´Ð¾ÑģÑĤÐ¾Ð¹": 1933,
      "ĠÐ½ÐµÐºÐ¾ÑĤÐ¾ÑĢ": 1934,
      "ĠÐ¼Ð°Ð»Ð¾Ð·Ð½Ð°Ñĩ": 1935,
      "ĠÐ¿Ð¾Ð´Ð³Ð¾ÑĤÐ¾Ð²ÐºÐµ": 1936,
      "ĠÐ¿ÑĢÐµÐ´ÑģÑĤÐ°Ð²Ð»ÐµÐ½Ñĭ": 1937,
      "Ġthat": 1938,
      "ĠÐ¿ÑĢÐ¾Ð¸ÑģÑħÐ¾Ð´Ð¸ÑĤ": 1939,
      "ĠÐ¯Ð²Ð»Ñı": 1940,
      "ĠÐ¿Ð¾Ð±ÐµÐ´Ñĭ": 1941,
      "ĠÐ²Ð·Ð³Ð»ÑıÐ´": 1942,
      "ĠÐ´Ð²Ð¸Ð¶": 1943,
      "ĠÐ¿ÑĢÐ¾ÑģÑĤÐ¾Ð³Ð¾": 1944,
      "ĠÐ¿ÑĢÐ¾ÑĤÐ¸Ð²Ð¾Ð´ÐµÐ¹ÑģÑĤÐ²": 1945,
      "ĠÐ¼Ð°Ð»Ð¾ÑĨÐµÐ½Ð½Ð¾Ðµ": 1946,
      "ĠÐ±ÑĥÑĢÐ´Ð°": 1947,
      "ĠÐ¸Ð½ÑģÑĤÑĢÑĥÐ¼ÐµÐ½ÑĤ": 1948,
      "ĠÑģÐ²ÐµÑĤÐµ": 1949,
      "ĠÑģÐ²ÑıÐ·ÐµÐ¹": 1950,
      "ĠÐ¿Ð¾Ð»Ð¾Ð¶Ð¸ÑĤÐµÐ»ÑĮÐ½Ð¾Ð¼": 1951,
      "ĠÐŀÐ´Ð½Ð¾Ð·Ð½Ð°ÑĩÐ½Ð¾": 1952,
      "ĠÐºÐ¾Ð¼Ð¿ÑĮÑİÑĤÐµÑĢ": 1953,
      "ĠÐ²ÑĭÐ·ÑĭÐ²Ð°ÑİÑīÐµÐµ": 1954,
      "ĠÐµÑģÑĤÑĮ": 1955,
      "Ð½ÐµÐ·Ð°Ð¿Ð½Ð¾": 1956,
      "ĠÐ¿Ð°ÑĤÑĤÐµÑĢÐ½Ð¾Ð²": 1957,
      "ĠÐ¿Ð¾ÑĩÐµÐ¼Ñĥ": 1958,
      "ĠÑģÐµÐ¼Ð°Ð½ÑĤÐ¸ÑĩÐµÑģÐºÐ¸Ð¹": 1959,
      "ĠÑģÐ¼ÑĭÑģÐ»Ðµ": 1960,
      "ĠÐ½ÐµÑģÐºÐ¾Ð»ÑĮÐºÐ¾": 1961,
      "ĠÐ²Ð¾Ð²Ð»ÐµÑĩÐµÐ½Ð¸Ñı": 1962,
      "ĠÐºÑĢÐ°Ð¹Ð½Ðµ": 1963,
      "ĠÐºÐ¾ÑģÐ¼": 1964,
      "ĠÑĤÑıÐ¶ÑĳÐ»": 1965,
      "ĠÐ´Ð¾ÐºÐ°Ð·Ð°ÑĤÐµÐ»ÑĮ": 1966,
      "ĠÐ´Ð¸Ð°Ð³ÑĢÐ°Ð¼Ð¼Ñĭ": 1967,
      "ĠÐ¿ÑĢÐ¸Ð·ÑĭÐ²Ð°ÑİÑĤ": 1968,
      "ĠÐ¼ÐµÑħÐ°Ð½": 1969,
      "ĠÐ¼Ð¾Ð»Ð¾Ð´ÑĳÐ¶": 1970,
      "ÑĢÐµÐ´Ð²Ð°ÑĢÐ¸ÑĤÐµÐ»ÑĮÐ½ÑĭÐµ": 1971,
      "ĠÐ°ÑĥÐ´Ð¸ÑĤÐ¾ÑĢÐ¸Ð¸": 1972,
      "ĠÐ½ÐµÑĥÑĤÐµÑĪÐ¸ÑĤÐµÐ»ÑĮ": 1973,
      "ĠÐ±Ð¾Ð³Ð°ÑĤÑĭÐ¹": 1974,
      "ĠÐ½Ð°ÑĥÐºÐµ": 1975,
      "ĠÑįÑĦÑĦÐµÐºÑĤ": 1976,
      "ĠÐ¿ÑĢÐµÐ´Ð¿Ð¾Ð»Ð°Ð³Ð°ÐµÑĤ": 1977,
      "Ð°Ð·Ð½Ð¾Ð¾Ð±ÑĢÐ°Ð·Ð½ÑĭÐ¹": 1978,
      "ĠÐ¸Ð½ÑģÑĤÐ°Ð½ÑĨÐ¸ÑıÐ¼Ð¸": 1979,
      "ĠÑģÐ²ÐµÑĢÑĪÐµÐ½Ð¸ÑıÐ¼": 1980,
      "ĠÑģÐ²ÐµÐ¶Ð¸Ð¹": 1981,
      "ĠÑģÐ¿Ð»Ð¾ÑĩÑĳÐ½Ð½Ð¾ÑģÑĤÑĮ": 1982,
      "ĠÐºÐ¾Ð½ÑģÑĤÑĢÑĥÐº": 1983,
      "ĠÑĤÐ¾ÑĤÐ°Ð»Ð¸ÑĤÐ°ÑĢÐ¸Ð·Ð¼Ð°": 1984,
      "ĠÐºÐ¾Ð¼Ð°Ð½Ð´Ñĭ": 1985,
      "ĠÐ¾ÑĩÐµÑĢÐµÐ´ÑĮ": 1986,
      "ĠÑĥÐºÐ»Ð°Ð´Ð°": 1987,
      "ĠÐ·Ð°Ð±Ð»Ð¾ÐºÐ¸ÑĢÐ¾Ð²Ð°Ð½Ñĭ": 1988,
      "ĠÐ²ÑĭÑģÐ¾ÐºÐ¾ÑĤÐµÑħÐ½Ð¾Ð»Ð¾Ð³Ð¸ÑĩÐ½Ð°Ñı": 1989,
      "Ġwith": 1990,
      "ĠÐĹÐ°Ð´Ð°ÑĩÐ°": 1991,
      "Ġlikes": 1992,
      "ĠÑģÑĤÐ¾ÑĢÐ¾Ð½Ð½Ð¸ÐºÐ¸": 1993,
      "ĠÑģÐ¿ÐµÑĨÐ¸ÑĦÐ¸ÐºÐ°ÑĨÐ¸Ð¸": 1994,
      "ĠÐ¯Ð²Ð»ÑıÑıÑģÑĮ": 1995,
      "ĠÐ¿ÑĢÐ¾ÑĤÐ¸Ð²Ð¾Ð´ÐµÐ¹ÑģÑĤÐ²Ð¸Ð¹": 1996,
      "ĠÐ´Ð¾ÐºÐ°Ð·Ð°ÑĤÐµÐ»ÑĮÑģÑĤÐ²Ð¾Ð¼": 1997,
      "ĠÐ½ÐµÑĥÑĤÐµÑĪÐ¸ÑĤÐµÐ»ÑĮÐ½Ñĭ": 1998,
      "En": 1999,
      "He": 2000,
      "Ky": 2001,
      "The": 2002,
      "an": 2003,
      "av": 2004,
      "cs": 2005,
      "den": 2006,
      "eac": 2007,
      "gl": 2008,
      "im": 2009,
      "ir": 2010,
      "ics": 2011,
      "ou": 2012,
      "ows": 2013,
      "ul": 2014,
      "ut": 2015,
      "uden": 2016,
      "ym": 2017,
      "Ġn": 2018,
      "ĠÐµÐ±": 2019,
      "ĠÑĥÐ³": 2020,
      "ĠÐ¾ÐºÑĢ": 2021,
      "ĠHis": 2022,
      "ĠEn": 2023,
      "ĠHe": 2024,
      "ĠKy": 2025,
      "Ð¾ÑĨÐ¸ÑıÐ¼Ð¸": 2026,
      "ÐµÑĢÐµÐ·": 2027,
      "ÐµÐ¾Ð³ÑĢ": 2028,
      "ÐµÑĢÐ°Ð»": 2029,
      "ĠÐ¤": 2030,
      "Ð°ÑĢÐ°Ðº": 2031,
      "Ð°ÑĤÐ¾Ñĩ": 2032,
      "Ð¸ÑĨ": 2033,
      "Ð¸ÑĨÐ¸": 2034,
      "Ð¸ÑīÐµ": 2035,
      "Ð½Ð¾Ð³": 2036,
      "Ð½ÐµÐ³Ð¾": 2037,
      "Ð½Ð¸ÑĤÑĮ": 2038,
      "Ð½Ð¸Ð±": 2039,
      "Ð½Ð°Ð½Ð¸Ñı": 2040,
      "Ð½ÑĥÐ»": 2041,
      "ÑĤÐµÑģ": 2042,
      "ÑĤÐµÑħÐ½": 2043,
      "ÑĤÐµÑħÐ½Ð¾Ð»Ð¾Ð³": 2044,
      "ÑĢÐ¾Ñģ": 2045,
      "ÑĢÐ¸ÑĤÐµÐ»ÑĮ": 2046,
      "ÑĢÑıÐ´": 2047,
      "ÑĢÑıÐ¼": 2048,
      "ÑĭÐ»ÑĮ": 2049,
      "ÑĥÐµÐ¼": 2050,
      "ÑĥÑĢÐ°Ð»ÑĮ": 2051,
      "ÑıÑĪ": 2052,
      "ÑıÐ´Ð°": 2053,
      "ÑıÐ³Ð°": 2054,
      "ÑģÑĤÑĮ": 2055,
      "ĠÐ¿Ð¾Ð³": 2056,
      "ĠÐ¿Ð¸Ð·": 2057,
      "ĠÐ¿ÑĥÑĢ": 2058,
      "ĠÐ¿Ð¾Ð³ÑĢ": 2059,
      "ĠÐ¿Ð¾Ð½Ð¸Ð¼": 2060,
      "ÑĩÐµÑĢ": 2061,
      "ÑĩÐ¸ÑĤÑĮÑģÑı": 2062,
      "Ð»Ðµ": 2063,
      "Ð»Ð°Ð½": 2064,
      "Ð»ÑĥÑĩ": 2065,
      "Ð»ÑĭÐ»": 2066,
      "Ð»ÐµÐ½Ð½Ð¾Ðµ": 2067,
      "ÑĮÑĳ": 2068,
      "ÑĮÑģÑı": 2069,
      "ÑĮÐ·": 2070,
      "ÐµÐ½ÐµÐ±": 2071,
      "ÐµÐ½ÑĨÐ¸Ð¹": 2072,
      "ÐµÐ½ÑĨÐ¸Ñİ": 2073,
      "ÑħÐ¸Ð½": 2074,
      "Ð²ÐµÑī": 2075,
      "Ð²ÑĭÑĩ": 2076,
      "Ð²Ð¸Ð½ÑĤ": 2077,
      "ÐºÐ¾Ð»": 2078,
      "ĠÑģÐ½": 2079,
      "ĠÑģÐ¾Ð¼": 2080,
      "ĠÑģÐµÐ³": 2081,
      "ĠÑģÐµÑĤÑĮ": 2082,
      "ĠÑģÐ¸Ð½ÑĤ": 2083,
      "Ð¾Ð²Ð°ÑĢ": 2084,
      "Ð¾Ð²Ð°ÑĤÐµÐ»ÑĮÐ½Ð¾Ð³Ð¾": 2085,
      "ĠÐ½Ð°ÑĤ": 2086,
      "ĠÐ½Ð¸Ñĩ": 2087,
      "ĠÐ²Ð¾Ð½": 2088,
      "ĠÐ²ÐµÑĢÐ¸": 2089,
      "ĠÐ²Ð¾ÑģÐ¿": 2090,
      "Ð½Ð¾ÑĢ": 2091,
      "Ð½Ð¾ÑĤÐµÑħÐ½Ð¾Ð»Ð¾Ð³": 2092,
      "ÑĢÐµÐ¶": 2093,
      "ÐµÑĤÐ¸Ð·Ð°ÑĨÐ¸Ð¸": 2094,
      "ĠÐºÐ°Ñģ": 2095,
      "ĠÐºÐ°ÑĢ": 2096,
      "ĠÐºÐ²Ð¸Ð½ÑĤ": 2097,
      "ĠÐ¸Ð½Ð¾Ðµ": 2098,
      "ĠÐ¸ÑģÐ¿": 2099,
      "ÑĢÐ°Ð´Ð¸": 2100,
      "Ð´Ð¸": 2101,
      "ÐµÐ»Ð¾Ð¼": 2102,
      "Ð¼Ð¾Ð³": 2103,
      "Ð¼ÐµÐµÑĤÑģÑı": 2104,
      "Ð¾Ð´Ð¾ÑģÑĤ": 2105,
      "Ð¾Ð´ÑıÐ³Ð°": 2106,
      "ÑĪÐ¸Ð²": 2107,
      "ÐµÑĢÑĭ": 2108,
      "ÐµÑĢÐ´Ð°": 2109,
      "ÐµÑĢÐºÐ¸": 2110,
      "Ð¾Ð±Ð°Ð»ÑĮ": 2111,
      "ĠÑĤÑĥ": 2112,
      "ĠÑĤÐ¾Ð³Ð¾": 2113,
      "ĠÑĤÐµÑģÑĤ": 2114,
      "ĠÑĤÑĢÐ¾Ð¿": 2115,
      "ĠÑĤÐµÐ½Ð´": 2116,
      "ĠÑĤÐ¾Ð²Ð°ÑĢ": 2117,
      "ĠÑĤÑĢÐ°Ð´Ð¸": 2118,
      "ÐµÑģÐ¸": 2119,
      "ÐµÑģÐ½Ð¾": 2120,
      "ÐµÑģÑĥÑĢÑģ": 2121,
      "ÑīÐ°Ñı": 2122,
      "ÑīÑĥÑī": 2123,
      "ĠÐ´Ð¾ÑģÑĤ": 2124,
      "ĠÐ´Ð¾Ð¿": 2125,
      "ĠÐ´ÑĥÐ¼": 2126,
      "ĠÐ´Ð½Ñı": 2127,
      "ĠÐ´Ð°ÑĳÑĤ": 2128,
      "Ð¾Ð³Ð¸Ñĩ": 2129,
      "ĠÐ¿ÑĢÐ¸Ð·Ð²": 2130,
      "ĠÐ¿ÑĢÐµÐ½ÐµÐ±": 2131,
      "Ð¿Ð°ÑĤ": 2132,
      "Ð¿ÑĢÐ¾Ð¿": 2133,
      "ĠÐ¼Ð¾Ð½": 2134,
      "ĠÐ¼Ð¸Ð½": 2135,
      "ĠÐ¼Ð°Ñģ": 2136,
      "ĠÐ¼Ð½Ð¾Ð³Ð¾": 2137,
      "ĠÐ¼Ð°ÑģÑģ": 2138,
      "ĠÐ¼ÑĥÑĤÑĮ": 2139,
      "âĢĵ": 2140,
      "Ð¾Ð¼Ðµ": 2141,
      "Ð¾ÑĤÐ°": 2142,
      "ÑģÑĤÐ²ÐµÐ½Ð½ÑĭÐµ": 2143,
      "ÑĨÐ¸ÑĢ": 2144,
      "Ð°ÑĤÐ¸": 2145,
      "ĠÑĩÑĢÐµÐ·": 2146,
      "ĠÑĩÑĳÐ¼": 2147,
      "ĠÑĩÐµÑĢÐµÐ·": 2148,
      "Ð¸Ð²Ð°ÑİÑī": 2149,
      "ĠÐ·Ð°Ñģ": 2150,
      "Ð¸Ð¼ÐµÐ½": 2151,
      "Ð¸Ð¼Ð°ÑĤÑĮ": 2152,
      "Ð¾ÑĢÑĭ": 2153,
      "Ð¾ÑĢÐ¾Ð¶": 2154,
      "Ð¾ÑĢÐ½Ð°Ñı": 2155,
      "Ð¾ÑĢÐµÑĤÐ¸Ð·Ð°ÑĨÐ¸Ð¸": 2156,
      "ÑĢÐµÐ´ÑģÑĤÐ²ÐµÐ½Ð½ÑĭÐµ": 2157,
      "ĠÑĢÐ°Ð¹Ð¾Ð½": 2158,
      "ĠÑħÐµÑĢ": 2159,
      "ĠÑħÐ°ÑĢÐ°Ðº": 2160,
      "ĠÐ°Ð±": 2161,
      "ĠÐ°ÑħÐ¸Ð½": 2162,
      "Ð¾ÐºÑĥÐ¿": 2163,
      "Ð¾ÐºÐ°ÑĩÐµÑģÑĤÐ²": 2164,
      "Ð¾ÐºÐ¾Ð¼Ñĭ": 2165,
      "ĠÐ½ÐµÑĢÐ°Ð·ÑĥÐ¼": 2166,
      "ĠÐ±Ð¾Ð´ÑıÐ³Ð°": 2167,
      "ĠÐ½Ð°Ð½Ð¾ÑĤÐµÑħÐ½Ð¾Ð»Ð¾Ð³": 2168,
      "Ð¾ÑģÑĤÑĥÑİ": 2169,
      "Ð°Ð²Ð»ÐµÐ½Ð½Ð¾Ðµ": 2170,
      "ĠÑĢÑıÐ´Ð°": 2171,
      "ĠÑĢÐµÑģÑĥÑĢÑģ": 2172,
      "Ð¾Ð·Ð¼Ð¾Ð³": 2173,
      "Ð½Ð¾ÑģÑĤÑıÑħ": 2174,
      "Ð½Ð¾ÑģÑĤÑıÐ¼": 2175,
      "ĠÑĥÑģÐ¿": 2176,
      "Ð³Ð½ÑĥÑĤ": 2177,
      "ĠÑĢÐ°Ð·Ð´": 2178,
      "ĠÑĢÐ°Ð·Ð±": 2179,
      "Ð¾ÑģÑĢÐµÐ´ÑģÑĤÐ²ÐµÐ½Ð½ÑĭÐµ": 2180,
      "ĠÐ²ÑĭÐ±": 2181,
      "ĠÐ²ÑĭÐ±Ð¾ÑĢ": 2182,
      "ĠÐ²ÑĭÑĢÐ°ÑģÑĤ": 2183,
      "ĠÐ²ÑĭÑĤÐµÑģ": 2184,
      "Ð°Ð»ÑĮÐ½ÑĭÐµ": 2185,
      "Ð°Ð»ÑĮÐ½Ð¾Ð¹": 2186,
      "Ð°Ð»ÑĮÐ½Ð¾Ð¼": 2187,
      "ĠÑģÑĤÐ°ÑĤ": 2188,
      "ĠÑģÑĤÑĥÐ¿": 2189,
      "ĠÑģÑĤÑĢÐ°Ð½": 2190,
      "ĠÐ¾Ð±ÑĭÑĩ": 2191,
      "ÐµÐºÐ²Ð°ÑĤ": 2192,
      "ĠÐ³Ð¾ÑģÑĥÐ´": 2193,
      "ĠÐ³ÐµÐ¾Ð³ÑĢ": 2194,
      "ÑĥÑİÑģÑı": 2195,
      "Ð°Ð´Ð°Ð±": 2196,
      "ÐµÐ»ÑĮÐ½ÑĭÐµ": 2197,
      "Ð°ÐµÑĤÑģÑı": 2198,
      "Ð°ÑģÑĭ": 2199,
      "Ð°ÑģÐºÐ°": 2200,
      "Ð·Ð°": 2201,
      "Ð°ÑĢÐ¾Ð´": 2202,
      "ĠÐ¿ÑĢÐ¾Ð¸Ð·Ð²": 2203,
      "ÑĥÐ¹Ð½Ñı": 2204,
      "Ð¸ÑĩÐµÑģÐºÐ¾Ð¼": 2205,
      "ĠÐºÐ°ÐºÑĥÑİ": 2206,
      "ĠÐºÐ°ÐºÐ¾Ðµ": 2207,
      "ÑĤÐ¾ÑĢÐ¾Ð²": 2208,
      "Ð¾Ð²Ð°Ð½Ð¸Ðµ": 2209,
      "ÑģÐ»ÐµÐ½Ð½ÑĭÑħ": 2210,
      "Ð¾ÑĩÐ½Ð¸Ðº": 2211,
      "ĠÐ¸Ð½Ð¾Ð³Ð¾": 2212,
      "ĠÐ¸Ð½ÑĦÐ¾ÑĢÐ¼": 2213,
      "ĠÐ°ÐºÑĨÐ¸Ð¸": 2214,
      "ĠÑģÐ²ÐµÑĢ": 2215,
      "ĠÐ»Ð¸": 2216,
      "Ð¸Ð»ÑģÑı": 2217,
      "Ð¸Ð»ÐºÐ°": 2218,
      "ÑĦÐ¾Ð½": 2219,
      "ÑĦÐ¸ÑĨÐ¸": 2220,
      "ÑģÐºÐ°Ð·": 2221,
      "ÑģÐºÐ¾Ðµ": 2222,
      "ÑĨÐ¸Ð¾Ð½Ð½Ð¾Ðµ": 2223,
      "ĠÐ¿Ð¾Ð´Ð²ÐµÑĢ": 2224,
      "ĠÑĢÐ°Ð·Ð²Ð¸Ð²Ð°ÑİÑī": 2225,
      "ĠÑĤÐ°ÐºÐ¾Ð³Ð¾": 2226,
      "ÐµÑĩÐ½Ð¾": 2227,
      "ĠÐ¿Ð¾ÑįÑĤ": 2228,
      "ÑĢÐµÐ¼ÐµÐ½Ð½ÑĭÐµ": 2229,
      "ĠÐ¿Ð¾Ð»ÑĥÑĩ": 2230,
      "ĠÐ¿Ð¾Ð»ÑĮÐ·": 2231,
      "ÐµÑģÑĤÐ¸": 2232,
      "ÐµÑģÑĤÐºÐ°": 2233,
      "ĠÐŁÑĢÐµÐ´Ð²Ð°ÑĢÐ¸ÑĤÐµÐ»ÑĮÐ½ÑĭÐµ": 2234,
      "Ð°Ð¿Ð½Ð¾Ð³Ð¾": 2235,
      "ĠÑıÐ´": 2236,
      "ĠÑģÐ¿Ð¾ÑĢÐ½Ð°Ñı": 2237,
      "ÑĥÐ¼Ð°ÑĤÑĮÑģÑı": 2238,
      "ĠÐ°ÐºÑĤÐ¸Ð²Ð½Ð¾": 2239,
      "ĠÐ¿ÑĢÐµÐ´ÑģÑĤÐ°Ð²Ð»ÑıÐµÑĤ": 2240,
      "ĠÐĴÐ¾Ð½": 2241,
      "ĠÐĴÑĭÑģÐ¾ÐºÐ¸Ð¹": 2242,
      "Ð¾Ð´Ð½ÑıÑĪ": 2243,
      "ish": 2244,
      "Ð¸ÑģÑĤÐ¸ÐºÐ°": 2245,
      "Ð¸ÑģÑĤÑģÐºÐ¾Ðµ": 2246,
      "ĠÐļÐ°ÐºÐ°Ñı": 2247,
      "Ġteac": 2248,
      "ĠÐĿÑĥ": 2249,
      "ĠÐĿÐ°ÑĪÐµ": 2250,
      "ÑĢÐ¾Ð²Ð°Ð½Ñĭ": 2251,
      "ĠÐºÐ¾Ð½ÐºÑĢ": 2252,
      "ĠÐºÐ¾Ð½ÐµÑĩÐ½Ð¾": 2253,
      "ĠÐ¶Ð°Ð¶Ð´": 2254,
      "ÑĤÐµÑĢÐ¸ÑģÑĤÐ¸ÐºÐ°": 2255,
      "ĠÐ¿Ð¾Ð²ÐµÑģÑĤÐºÐ°": 2256,
      "ĠÐ½ÐµÐ¿ÑĢÐµÐ´": 2257,
      "ĠÐ½ÐµÐ¿Ð¾ÑģÑĢÐµÐ´ÑģÑĤÐ²ÐµÐ½Ð½ÑĭÐµ": 2258,
      "Ð»ÑİÑĩÐµÐ½Ð¸Ñı": 2259,
      "hemat": 2260,
      "ĠÐ¾ÑīÑĥÑī": 2261,
      "ĠÐ·Ð°Ð´ÑĥÐ¼Ð°ÑĤÑĮÑģÑı": 2262,
      "ĠÑģÐ¾Ð²ÑĢÐµÐ¼ÐµÐ½Ð½Ð¾Ð³Ð¾": 2263,
      "Ġart": 2264,
      "ĠÑĤÐ¾Ð½": 2265,
      "ĠÐ¸Ð·ÑĢÑıÐ´": 2266,
      "ÑĥÐ¶Ð°ÑİÑī": 2267,
      "Ð¸Ð±ÐµÑĢÐ´Ð°": 2268,
      "ĠÐ²ÑģÐµÑħ": 2269,
      "ĠÑģÑĤÑĢÐ°Ð½Ñĭ": 2270,
      "ĠÑģÑĤÑĢÐ°ÑĤÐµÐ³": 2271,
      "ĠÐ¾Ð´Ð½Ð°": 2272,
      "ÐµÐ½ÑĮÑİ": 2273,
      "ĠÑģÐ²Ð¾ÐµÐ¹": 2274,
      "ĠÑģÐ²Ð¾ÑĳÐ¼": 2275,
      "Ð°Ð³Ð°Ð½Ð´": 2276,
      "Ð°Ð¹Ð½Ð¾": 2277,
      "ÑĥÑīÐ¸Ð¹": 2278,
      "ÑĥÑīÐ½ÑĭÐ¼": 2279,
      "ĠÑģÑĥÑīÐµÑģÑĤÐ²ÐµÐ½Ð½ÑĭÑħ": 2280,
      "ÑĢÐ°ÐºÐ°Ð´Ð°Ð±": 2281,
      "ĠÑģÐ´ÐµÐ»Ð°Ð½Ð½Ð¾Ðµ": 2282,
      "ÑĢÐ°Ð²Ð»ÐµÐ½Ð¸Ñı": 2283,
      "ĠÑıÐ²Ð»ÐµÐ½Ð¸Ð¹": 2284,
      "ÑĬÑıÑģÐ½": 2285,
      "ÑĥÐ½Ð´Ð°": 2286,
      "ĠÐ±Ð°Ð·Ñĭ": 2287,
      "ĠÑĦÐ¾ÑĢÐ¼Ð¸ÑĢÐ¾Ð²Ð°Ð½Ð¸Ñı": 2288,
      "Ð°ÑİÑĤÑģÑı": 2289,
      "ĠÐ¿ÑĢÐ¸Ð½Ð¸Ð¼Ð°ÑĤÑĮ": 2290,
      "ĠÑĨÐµÐ»Ð¾Ð¹": 2291,
      "ĠÑĨÐµÐ»Ð¾Ð³Ð¾": 2292,
      "ĠÑģÐ¿Ð¾ÑģÐ¾Ð±Ñĭ": 2293,
      "ĠÑģÐ¿Ð¾ÑģÐ¾Ð±Ð½Ð¾Ð³Ð¾": 2294,
      "ĠÐ´Ð¾Ð»ÐµÐ¹": 2295,
      "Ð°ÐµÐ¼Ð¾": 2296,
      "ĠÐ½Ð°ÑģÑĥÑīÐ½ÑĭÐ¼": 2297,
      "ĠÑĪÐ¸ÑĢÐ¾ÐºÐ¾Ð¼": 2298,
      "Ð°ÑĨÐ¸Ð¾Ð½Ð½Ð¾": 2299,
      "ĠÐºÐ°ÑĩÐµÑģÑĤÐ²ÐµÐ½Ð½Ð¾": 2300,
      "ĠÐ¿Ð¾Ð²ÐµÐ´ÐµÐ½Ð¸Ðµ": 2301,
      "ĠÐ¼ÐµÑĤÐ¾Ð´Ð¾Ð²": 2302,
      "ĠÑĤÐ¾ÑĢÐ³ÑĥÐµÑĤ": 2303,
      "ĠÑĤÐ¾ÑĢÐ³ÑĥÑİÑĤ": 2304,
      "ĠÐ½ÐµÐ¸Ð·Ð²ÐµÑģÑĤÐ½ÑĭÐ¹": 2305,
      "Ġsci": 2306,
      "ĠÐĶÐ»Ñı": 2307,
      "ĠÐ½Ð°Ð¿ÑĢÑıÐ¼": 2308,
      "ĠÐºÑĢÐ¾Ð¼Ðµ": 2309,
      "ĠÐ·Ð°Ð±ÑĥÐ±": 2310,
      "ÑįÑģÑģ": 2311,
      "ĠÐĺÐ¼ÐµÐµÑĤÑģÑı": 2312,
      "ĠÐ¾Ð±ÑīÐµÑģÑĤÐ²Ð°": 2313,
      "ĠÐºÐ¾Ð¼Ð¿Ð°Ð½Ð¸Ð¹": 2314,
      "ĠÐ½ÐµÐ·Ð°Ð²Ð¸ÑģÐ¸Ð¼ÑĭÑħ": 2315,
      "ĠÑģÐ¾Ð·Ð½Ð°Ð½Ð¸Ñı": 2316,
      "Ð¼Ð¾ÑĤÑĢÐ¸": 2317,
      "ĠÑĤÐµÑħÐ½Ð¸ÑĩÐµÑģÐºÐ¾Ð³Ð¾": 2318,
      "ĠÐ¼Ð¾Ð¶Ð½Ð¾": 2319,
      "Ġ250": 2320,
      "ĠÐ³Ð»Ð°ÑģÑı": 2321,
      "ĠÐ³Ð»Ð¾Ð±Ð°Ð»ÑĮ": 2322,
      "ĠÐ¿ÑĢÐ¾ÑĨÐµÑģÑģÐ°": 2323,
      "ĠÐ¿ÑĢÐ¾ÑĨÐµÑģÑģÐ¾Ð²": 2324,
      "ĠÐ¿ÑĢÐ¾ÑĨÐµÑģÑģÐ°Ð¼Ð¸": 2325,
      "ĠÑģÐ»Ð¾Ð¶Ð¸Ð²ÑĪÑĥÑİÑģÑı": 2326,
      "Ġge": 2327,
      "Ġgoo": 2328,
      "Ġgym": 2329,
      "Ġhas": 2330,
      "ĠÐ¾Ð½Ð¸": 2331,
      "ĠÑĥÐ¿ÑĢÐ°Ð²Ð»ÐµÐ½Ð¸Ñı": 2332,
      "ÑıÑīÐµÐµ": 2333,
      "ĠÑģÐ°Ð¼Ð¾Ð¼": 2334,
      "ĠÑģÐ°Ð¼Ð¾Ð´Ð¾ÑģÑĤ": 2335,
      "ĠÐ¿ÑĢÐ¸Ð¾ÑĢÐµÑĤÐ¸Ð·Ð°ÑĨÐ¸Ð¸": 2336,
      "ĠÐ»Ð¸Ð±ÐµÑĢÐ°Ð»": 2337,
      "ĠÑģÐ¾Ð¾ÑĤÐ²ÐµÑĤÑģÑĤÐ²ÑĥÑİÑīÐµÐ¹": 2338,
      "Ð»Ð¾Ð¶Ð½Ð¾": 2339,
      "ĠÐ²Ð¸Ð´Ñĭ": 2340,
      "ĠÐ²ÐµÑīÐµÐ¹": 2341,
      "ĠÐºÐ»Ð°ÑģÑģ": 2342,
      "ĠÐ¸Ð³Ð½Ð¾ÑĢ": 2343,
      "ĠÐ¿ÑĢÐ¸Ð¼ÐµÑĢÐ½Ð¾": 2344,
      "Ð¾Ð¿ÑĢÐ¸ÑıÑĤÐ¸Ð¹": 2345,
      "ĠÑĤÐ¾ÑĩÐ½Ð¾": 2346,
      "ĠÑĥÑĩÐ°ÑģÑĤÐ½Ð¸ÐºÐ°": 2347,
      "ĠÑĥÑĩÐ°ÑģÑĤÐ½Ð¸ÐºÐ¸": 2348,
      "ĠÐ¼ÑĭÑĪÐ»ÐµÐ½Ð¸Ðµ": 2349,
      "Ġfor": 2350,
      "Ð¸Ð³Ð»Ð¸": 2351,
      "ĠÐ¿Ð¾ÑģÑĤÐ¾ÑıÐ½Ð½Ð¾Ðµ": 2352,
      "ĠÐ½Ð¾Ð²Ð¾Ð¹": 2353,
      "ĠÐ²Ð¾Ð·Ð´": 2354,
      "ĠÐ·Ð°Ð²Ð¸ÑģÐ¸Ð¼ÑĭÑħ": 2355,
      "ĠÑĢÐ°Ð·ÑĥÐ¼Ð°": 2356,
      "ĠÑĢÐ°Ð·ÑĥÐ¼Ð¾Ð¼": 2357,
      "ĠÑĢÐ°Ð·ÑĥÐ¼ÐµÐµÑĤÑģÑı": 2358,
      "ĠÑģÑĤÐ¾ÑıÑīÐµÐµ": 2359,
      "ĠÐ¾Ð±ÐµÑģÐ¿ÐµÑĩÐµÐ½Ð¸Ðµ": 2360,
      "ĠÑĤÐ¾ÑĢÐ³Ð¾Ð²Ð»Ñı": 2361,
      "ĠÐ¿Ð¾Ð²ÑĭÑĪÐµÐ½Ð¸Ðµ": 2362,
      "ĠÑģÐ¸ÑĤÑĥÐ°ÑĨÐ¸Ð¸": 2363,
      "ĠÑģÐ¸ÑĤÑĥÐ°ÑĨÐ¸Ñİ": 2364,
      "ĠÐºÐ°Ð´ÑĢÐ¾Ð²Ð¾Ð¹": 2365,
      "ĠÐ¸ÑģÑģÐ»ÐµÐ´Ð¾Ð²Ð°Ð½Ð¸Ñı": 2366,
      "Ġlun": 2367,
      "ÑĮÑİÑĩÐµÑĢ": 2368,
      "ĠÐ¼Ð°ÑĪÐ¸Ð½Ñĭ": 2369,
      "ĠÐ·Ð°ÐºÑĢ": 2370,
      "ĠÐ·Ð°Ð¿Ð°Ñħ": 2371,
      "ĠÑĢÐ°ÑģÑģÑĥÐ¶Ð´": 2372,
      "ĠÐ¸Ð½ÑĤÐµÑĢÐµÑģÐ½ÑĭÐµ": 2373,
      "ĠÐ¸Ð½ÑĤÐµÑĢÐµÑģÐ½ÑĭÐ¹": 2374,
      "ĠÐ¸Ð½ÑĤÐµÑĢÐµÑģÐ½Ð°Ñı": 2375,
      "ĠÑįÐºÐ¾Ð½Ð¾Ð¼Ð¸ÑĩÐµÑģÐºÐ°Ñı": 2376,
      "ĠÐ²ÑģÑıÐºÐ¾Ð¹": 2377,
      "ĠÐ²ÑģÑıÐºÑĥÑİ": 2378,
      "ĠÐ¼Ð°ÑĤÐµÑĢÐ¸Ð°Ð»ÑĮÐ½Ð¾": 2379,
      "ence": 2380,
      "Ġday": 2381,
      "ĠÐ¾ÑģÑĤÐ°Ð»": 2382,
      "ĠÐ¾ÑģÑĤÐ°ÑİÑĤÑģÑı": 2383,
      "ĠÐķÑģÐ»Ð¸": 2384,
      "ĠÐ¼Ð¾Ð³ÑĥÑī": 2385,
      "ĠÑĢÐµÑĪÐµÐ½Ð¸Ñı": 2386,
      "ĠÐ¾Ð±ÑīÐµÐ¼": 2387,
      "ĠÐ³ÑĢÑĥÐ¿Ð¿": 2388,
      "ĠÐ¿ÑĢÐ¾ÐµÐºÑĤÐ°": 2389,
      "ĠÐ³ÑĢÐ°Ð¶Ð´Ð°Ð½ÑģÐºÐ¾Ð³Ð¾": 2390,
      "ĠÐ¾ÑģÐ²ÐµÑī": 2391,
      "ĠÐ£ÑĩÐ¸ÑĤÑĭÐ²Ð°Ñı": 2392,
      "ĠÐłÐ°Ð²Ð½ÑĭÐ¼": 2393,
      "ĠÐ¿ÑĢÐµÐ·ÑĢÐµÐ½": 2394,
      "ĠÐ¿ÑĢÐ¾Ð²ÐµÑĢÐºÐ¸": 2395,
      "ĠÑĢÐ°ÑĨÐ¸Ð¾Ð½Ð°Ð»ÑĮÐ½Ð¾Ðµ": 2396,
      "ĠÑģÑĤÐ¾ÑĢÐ¾Ð½Ñĭ": 2397,
      "ĠÑĦÐ°ÐºÑĤÐ¾ÑĢÐ¾Ð²": 2398,
      "ĠÐ²Ð½ÐµÐ¾ÑĩÐµÑĢÐµÐ´Ð½ÑĭÑħ": 2399,
      "ĠÐºÐ¾Ð½ÑĨÐµÐ¿ÑĤÑĥ": 2400,
      "ĠÑģÐ¾Ð±ÑģÑĤÐ²ÐµÐ½Ð½ÑĭÐµ": 2401,
      "ĠÑĤÑĢÐµÐ¹Ð´Ð¸Ð½Ð³Ð°": 2402,
      "ĠÐ¿Ð¾ÑģÐ»ÐµÐ´Ð¾Ð²Ð°ÑĤÐµÐ»ÑĮÐ½Ð¾Ð³Ð¾": 2403,
      "ĠÐ¿ÑĢÐ¾Ð¸Ð·Ð²Ð¾Ð´ÑģÑĤÐ²Ð¾": 2404,
      "ĠÐ¿ÑĢÐ¾Ð¸Ð·Ð²Ð¾Ð´ÑģÑĤÐ²ÐµÐ½Ð½ÑĭÐ¹": 2405,
      "ĠÐ¼ÑĥÐ·ÑĭÐº": 2406,
      "ĠÐ¼ÑĥÐ·ÑĭÐºÐ¸": 2407,
      "ĠÑģÐ¾ÑģÑĤÐ¾ÑıÐ½Ð¸Ðµ": 2408,
      "ÐµÑĤÑĮÐµÐ³Ð¾": 2409,
      "ĠÐ¼ÐµÑĢÐ¾Ð¿ÑĢÐ¸ÑıÑĤÐ¸Ð¹": 2410,
      "ĠÑĩÑĥÑĪÑĮ": 2411,
      "ĠÑĩÑĥÐ²ÑģÑĤÐ²": 2412,
      "ĠÑįÐ¼Ð¾ÑĨÐ¸ÑıÐ¼Ð¸": 2413,
      "ĠÑįÐ¼Ð¿Ð°ÑĤ": 2414,
      "ĠÐ³ÑĢÐ°Ð½Ð¸ÑĨ": 2415,
      "ĠÑģÐ¾Ð±ÑĭÑĤÐ¸Ð¹": 2416,
      "ĠÐ¼Ð°ÑĪÐ¸Ð½Ð°": 2417,
      "ĠÑĥÐ´ÐµÐ»Ð¾Ð¼": 2418,
      "ĠÐĽÐ¸ÑĪÑĮ": 2419,
      "Ð°ÑĦÐ¸ÑĩÐµÑģÐºÐ¸Ñħ": 2420,
      "ĠÐ¿ÑĢÐµÐ²Ð¾Ð·Ð¼Ð¾Ð³": 2421,
      "ĠÑģÐµÑĢÐ¸Ð¸": 2422,
      "ĠÑĤÑĢÐµÑĤÑĮÐµÐ³Ð¾": 2423,
      "ĠÐ±ÐµÐ»Ð¸Ð±ÐµÑĢÐ´Ð°": 2424,
      "ĠÐ¾Ð¿Ð¿Ð¾Ð·Ð¸": 2425,
      "ĠÐ½ÐµÐ¿ÑĢÐ¾ÑģÑĤÑĥÑİ": 2426,
      "ĠÑģÐ²Ð¾ÐµÐ²ÑĢÐµÐ¼ÐµÐ½Ð½Ð¾": 2427,
      "ĠÑįÐºÑģÐ¿ÐµÑĢÐ¸Ð¼ÐµÐ½ÑĤ": 2428,
      "ĠÑĤÐµÑħÐ½Ð¾Ð»Ð¾Ð³Ð¸Ð¸": 2429,
      "ĠÐ³Ð»ÑĥÐ±Ð¾ÐºÐ¾Ð¼Ñĭ": 2430,
      "ĠÐ²Ð¾Ð·Ð¼Ð¾Ð¶Ð½Ð¾ÑģÑĤÑıÑħ": 2431,
      "ĠÐ¿Ð¾ÑĤÑĢÐµÐ±Ð½Ð¾ÑģÑĤÑıÐ¼": 2432,
      "ĠÑģÐºÐ°Ð·Ð°ÑĤÑĮ": 2433,
      "ĠÐ¼Ð°ÑĢÐºÐµÑĤÐ¸Ð½Ð³Ð°": 2434,
      "ĠÐ¸Ð½Ð½Ð¾Ð²Ð°ÑĨÐ¸Ð¾Ð½Ð½ÑĭÑħ": 2435,
      "ĠÐµÑĳ": 2436,
      "ĠÐµÑĢÑĥÐ½Ð´Ð°": 2437,
      "ÐµÑĢÐµÐ³": 2438,
      "ĠÐ¥ÑĥÐ¹Ð½Ñı": 2439,
      "ĠÐ¿Ð°ÑĢÑĪÐ¸Ð²": 2440,
      "ĠÐ²ÐºÐ»ÑİÑĩÐµÐ½Ð¸Ñı": 2441,
      "ĠÐ¸ÑģÑĤÐ¾ÑĩÐ½Ð¸Ðº": 2442,
      "ĠÑĤÐµÑĢÐ¼Ð¸Ð½": 2443,
      "ĠÐ´ÐµÐ½ÐµÐ³": 2444,
      "ĠÐ¿ÑĢÐ¸Ð±ÑĭÐ»ÑĮ": 2445,
      "ĠÐ·Ð´ÐµÑģÑĮ": 2446,
      "ÑĳÑĢÑĤ": 2447,
      "ĠÑĥÑģÑĤÑĢÐ¾Ð¹": 2448,
      "ĠÑģÑĤÑĢÐµÐ¼ÑıÑīÐ¸ÐµÑģÑı": 2449,
      "ĠÐ¾Ð±ÑģÑĤÐ°Ð½Ð¾Ð²ÐºÐ¸": 2450,
      "ĠÑĦÐ¸Ð»ÑĮÐ¼": 2451,
      "ĠÐ»ÑİÐ´ÑıÑħ": 2452,
      "ĠÐ¿Ð¾Ð´Ð¾Ð·ÑĢÐ¸ÑĤÐµÐ»ÑĮ": 2453,
      "ĠÐ½ÐµÐ¿ÑĢÐ°Ð²Ð¸Ð»ÑĮÐ½Ð¾Ðµ": 2454,
      "ĠÐ½ÐµÐ¿ÑĢÐ¸ÑıÑĤÐ½Ð¾Ðµ": 2455,
      "ĠÐ¡Ð¾Ð²ÑĢÐµÐ¼ÐµÐ½Ð½ÑĭÐµ": 2456,
      "ĠÐ¿ÑĢÐ¸Ð½ÑĨÐ¸Ð¿Ð¾Ð²": 2457,
      "Ġstuden": 2458,
      "ĠÐĺÐ½ÑĤÐµÑĢÐµÑģÐ½Ð¾": 2459,
      "ĠÐºÐ¾Ð¼Ð¿Ð»ÐµÐºÑģÐ°": 2460,
      "Ġwhich": 2461,
      "ĠÑĦÐ¸Ð½Ð°Ð½ÑģÐ¾Ð²Ð¾Ð¼": 2462,
      "ĠÑģÐ»ÐµÐ´ÑĥÑİÑīÐµÐµ": 2463,
      "Ġmathemat": 2464,
      "ĠÐ½ÐµÐºÐ¾ÑĤÐ¾ÑĢÑĭÑħ": 2465,
      "ĠÐ¼Ð°Ð»Ð¾Ð·Ð½Ð°ÑĩÐ¸ÑĤÐµÐ»ÑĮÐ½Ð¾Ðµ": 2466,
      "ĠÐ¸Ð½ÑģÑĤÑĢÑĥÐ¼ÐµÐ½ÑĤÐ°Ð¼Ð¸": 2467,
      "glish": 2468,
      "ĠÐ¾ÐºÑĢÑĥÐ¶Ð°ÑİÑī": 2469,
      "ĠEnglish": 2470,
      "ĠKyle": 2471,
      "Ð°ÑĤÐ¾ÑĩÐ½ÑĭÑħ": 2472,
      "Ð½Ð¸Ð±ÑĥÐ´ÑĮ": 2473,
      "ÑĤÐµÑħÐ½Ð¸ÑĩÐµÑģÐºÐ¾Ð¹": 2474,
      "ÑĥÑĢÐ°Ð»ÑĮÐ½Ð°Ñı": 2475,
      "ĠÐ¿ÑĥÑĢÐ³Ð°": 2476,
      "ĠÐ¿Ð¾Ð³ÑĢÑĥÐ¶": 2477,
      "Ð»ÑĭÐ»Ð°": 2478,
      "Ð²ÑĭÑĩÐ°Ð¹Ð½Ð¾": 2479,
      "ĠÑģÐµÐ³Ð¾Ð´Ð½ÑıÑĪ": 2480,
      "ĠÑģÐ¸Ð½ÑĤÐµÑĤÐ¸ÑĩÐµÑģÐºÐ¾Ðµ": 2481,
      "ĠÐ½Ð°ÑĤÑĥÑĢÐ°Ð»ÑĮÐ½Ð°Ñı": 2482,
      "ĠÐ²ÐµÑĢÐ¸ÑĦÐ¸ÑĨÐ¸": 2483,
      "ĠÐºÐ°ÑģÐ°ÐµÐ¼Ð¾": 2484,
      "ĠÐºÐ²Ð¸Ð½ÑĤÑįÑģÑģ": 2485,
      "ĠÐ¸ÑģÐ¿Ð¾Ð»ÑĮÐ·": 2486,
      "ĠÑĤÐµÑģÑĤÐ¸ÑĢÐ¾Ð²Ð°Ð½Ð¸Ðµ": 2487,
      "ĠÑĤÐµÐ½Ð´ÐµÐ½ÑĨÐ¸Ð¹": 2488,
      "ĠÑĤÑĢÐ°Ð´Ð¸ÑĨÐ¸Ð¾Ð½Ð½Ð¾Ðµ": 2489,
      "ĠÐ´Ð¾ÑģÑĤÐ¸Ð³Ð»Ð¸": 2490,
      "Ð¾Ð³Ð¸ÑĩÐ½Ð¾": 2491,
      "ĠÐ¿ÑĢÐµÐ½ÐµÐ±ÑĢÐµÐ¶": 2492,
      "Ð¿ÑĢÐ¾Ð¿Ð°Ð³Ð°Ð½Ð´": 2493,
      "ĠÐ¼Ð°ÑģÑģÐ¾Ð²Ð¾Ð³Ð¾": 2494,
      "ĠÑĩÑĢÐµÐ·Ð²ÑĭÑĩÐ°Ð¹Ð½Ð¾": 2495,
      "ĠÑħÐ°ÑĢÐ°ÐºÑĤÐµÑĢÐ¸ÑģÑĤÐ¸ÐºÐ°": 2496,
      "ĠÐ°Ð±ÑĢÐ°ÐºÐ°Ð´Ð°Ð±": 2497,
      "ĠÐ°ÑħÐ¸Ð½ÐµÑı": 2498,
      "ĠÐ½Ð°Ð½Ð¾ÑĤÐµÑħÐ½Ð¾Ð»Ð¾Ð³Ð¸Ð¸": 2499,
      "Ð³Ð½ÑĥÑĤÑĭ": 2500,
      "ĠÑĢÐ°Ð·Ð±Ð°Ð²Ð»ÐµÐ½Ð½Ð¾Ðµ": 2501,
      "ĠÐ²ÑĭÐ±Ð¾ÑĢÐ°": 2502,
      "ĠÐ²ÑĭÑĤÐµÑģÐ½Ð¸ÑĤÑĮ": 2503,
      "ĠÑģÑĤÑĥÐ¿ÐµÐ½ÑĮÑİ": 2504,
      "ĠÐ¾Ð±ÑĭÑĩÐ½Ð¾": 2505,
      "ĠÐ³Ð¾ÑģÑĥÐ´Ð°ÑĢ": 2506,
      "ĠÐ³ÐµÐ¾Ð³ÑĢÐ°ÑĦÐ¸ÑĩÐµÑģÐºÐ¸Ñħ": 2507,
      "ĠÐ¿ÑĢÐ¾Ð¸Ð·Ð²ÐµÐ´": 2508,
      "ĠÐ¸Ð½ÑĦÐ¾ÑĢÐ¼Ð°ÑĨÐ¸Ð¾Ð½Ð½Ð¾": 2509,
      "ĠÐ¿Ð¾Ð´Ð²ÐµÑĢÐ³Ð½ÑĥÑĤÑĭ": 2510,
      "ĠÑĢÐ°Ð·Ð²Ð¸Ð²Ð°ÑİÑīÐ¸ÐµÑģÑı": 2511,
      "ĠÐ¿Ð¾ÑįÑĤÐ°Ð¿Ð½Ð¾Ð³Ð¾": 2512,
      "Ġteacher": 2513,
      "ĠÐºÐ¾Ð½ÐºÑĢÐµÑĤÐ½ÑĭÐµ": 2514,
      "ĠÐ¶Ð°Ð¶Ð´ÑĥÑĤ": 2515,
      "ĠÐ¸Ð·ÑĢÑıÐ´Ð½Ð¾Ð¹": 2516,
      "ÑĬÑıÑģÐ½Ð¸Ð¼": 2517,
      "Ġscience": 2518,
      "ĠÐ½Ð°Ð¿ÑĢÑıÐ¼ÑĥÑİ": 2519,
      "ĠÐ³Ð»Ð°ÑģÑıÑīÐ°Ñı": 2520,
      "Ġgood": 2521,
      "ĠÑģÐ°Ð¼Ð¾Ð´Ð¾ÑģÑĤÐ°ÑĤÐ¾ÑĩÐ½ÑĭÑħ": 2522,
      "ĠÐ»Ð¸Ð±ÐµÑĢÐ°Ð»Ð¾Ð²": 2523,
      "Ġlunch": 2524,
      "ÑĮÑİÑĩÐµÑĢÑģ": 2525,
      "ĠÑĢÐ°ÑģÑģÑĥÐ¶Ð´ÐµÐ½Ð¸Ð¹": 2526,
      "ĠÐ¾ÑģÐ²ÐµÑīÐ°ÑİÑĤ": 2527,
      "ĠÐºÐ¾Ð½ÑĨÐµÐ¿ÑĤÑĥÐ°Ð»ÑĮÐ½ÑĭÑħ": 2528,
      "ĠÑįÐ¼Ð¿Ð°ÑĤÐ¸Ð¸": 2529,
      "ĠÐ³ÑĢÐ°Ð½Ð¸ÑĨÐ°": 2530,
      "ĠÐ¿ÑĢÐµÐ²Ð¾Ð·Ð¼Ð¾Ð³Ð°Ñı": 2531,
      "ĠÐ¾Ð¿Ð¿Ð¾Ð·Ð¸ÑĨÐ¸Ð¸": 2532,
      "ĠÐ³Ð»ÑĥÐ±Ð¾ÐºÐ¾Ð¼ÑĭÑģÐ»ÐµÐ½Ð½ÑĭÑħ": 2533,
      "Ġmathematics": 2534,
      "ĠÑģÐµÐ³Ð¾Ð´Ð½ÑıÑĪÐ½ÐµÐ³Ð¾": 2535,
      "ĠÐ²ÐµÑĢÐ¸ÑĦÐ¸ÑĨÐ¸ÑĢÐ¾Ð²Ð°Ð½Ñĭ": 2536,
      "ĠÐºÐ²Ð¸Ð½ÑĤÑįÑģÑģÐµÐ½ÑĨÐ¸Ñİ": 2537,
      "Ð¿ÑĢÐ¾Ð¿Ð°Ð³Ð°Ð½Ð´Ð¸ÑģÑĤÑģÐºÐ¾Ðµ": 2538,
      "ĠÐ°Ð±ÑĢÐ°ÐºÐ°Ð´Ð°Ð±ÑĢÐ°": 2539,
      ".!,": 2540,
      "It": 2541,
      "Win": 2542,
      "ad": 2543,
      "ak": 2544,
      "ar": 2545,
      "dows": 2546,
      "ex": 2547,
      "ig": 2548,
      "ju": 2549,
      "me": 2550,
      "ns": 2551,
      "ot": 2552,
      "ome": 2553,
      "ons": 2554,
      "rou": 2555,
      "ter": 2556,
      "tor": 2557,
      "ux": 2558,
      "²Ð½Ð¾Ð¹": 2559,
      "Â«": 2560,
      "Â»": 2561,
      "Ð¤": 2562,
      "Ðĳ": 2563,
      "ÐĹ": 2564,
      "Ðĺ": 2565,
      "ĠÐ¾Ðº": 2566,
      "ĠÑĥÐ¼": 2567,
      "Ġin": 2568,
      "ĠÑĢÐµÐ¿": 2569,
      "ĠÐµÐ¼Ñĥ": 2570,
      "ĠIt": 2571,
      "ĠWin": 2572,
      "Ġju": 2573,
      "ĠÂ«": 2574,
      "Ð¾Ñī": 2575,
      "Ð¾ÑĥÐ¼": 2576,
      "Ð¾ÑĢÐ°Ð»": 2577,
      "ÐµÐ¾Ñģ": 2578,
      "ĠÐĸ": 2579,
      "Ð°Ñī": 2580,
      "Ð°ÑĤÐ¾ÑĢ": 2581,
      "Ð°ÑīÐµ": 2582,
      "Ð¸Ð½Ð¾": 2583,
      "Ð¸ÐµÐ¼": 2584,
      "Ð¸ÑģÐ»": 2585,
      "Ð½ÑĮ": 2586,
      "Ð½Ð¸Ñħ": 2587,
      "Ð½ÐµÐ½Ð¸Ð¹": 2588,
      "Ð½ÐµÐ½Ð½Ð¾ÑģÑĤÐ¸": 2589,
      "Ð½ÑĥÐ¶Ð´": 2590,
      "Ð½Ð¸ÑĤÐ¾": 2591,
      "ÑĤÐ¸": 2592,
      "ÑĤÐ²": 2593,
      "ÑĤÐ°Ð»": 2594,
      "ÑĤÐ¾Ð³": 2595,
      "ÑĤÐ°Ð±": 2596,
      "ÑĤÐ¾Ð¶ÐµÑģÑĤÐ²Ð¾": 2597,
      "ÑģÐ½Ð¾ÑģÑĤÑĮ": 2598,
      "ÑĢÐ¾": 2599,
      "ÑĢÐµÑĤ": 2600,
      "ÑĢÐ¾Ð±": 2601,
      "ÑĢÐ¾Ð·": 2602,
      "ÑĢÐ°ÑĤÑĮ": 2603,
      "ÑĢÑĥÐ¿Ð¿": 2604,
      "ÑĢÑĥÑĪ": 2605,
      "ÑĥÑģÐº": 2606,
      "ÑĥÐºÐ¸": 2607,
      "ÑıÑİÑĤ": 2608,
      "ÑıÑİÑī": 2609,
      "ÑģÑĤÐ°ÑĤÐ¸": 2610,
      "ĠÐ¿Ð°": 2611,
      "ĠÐ¿ÐµÐ½": 2612,
      "ĠÐ¿Ð¸ÑĤ": 2613,
      "ĠÐ¿Ð¾Ð¼": 2614,
      "ĠÐ¿Ð¾Ð¹": 2615,
      "ĠÐ¿Ð¾Ðµ": 2616,
      "ĠÐ¿ÑĥÑĤÑĮ": 2617,
      "ĠÐ¿Ð¸ÑģÐº": 2618,
      "ÑĩÐ°Ñģ": 2619,
      "ÑĩÑĳÑĤ": 2620,
      "ÑĩÐµÑĢÐ°": 2621,
      "Ð»Ð¾": 2622,
      "Ð»Ð¸Ñı": 2623,
      "Ð»Ð¾Ð½": 2624,
      "Ð»Ð°Ð²": 2625,
      "Ð»Ð°Ñģ": 2626,
      "Ð»Ð¸Ð±": 2627,
      "Ð»ÐµÐ½Ð¸Ð¸": 2628,
      "Ð»ÐµÐºÑĤÐ¸Ð²": 2629,
      "Ð»ÑĤÐ¸": 2630,
      "ÑĮÑı": 2631,
      "ÑħÐ¾ÑĢ": 2632,
      "ÑħÐ·": 2633,
      "Ð²Ð°Ð¶": 2634,
      "ÐºÐ°Ð»": 2635,
      "ÐºÐ¸Ð²": 2636,
      "ÐºÐ°Ñı": 2637,
      "ĠÑģÐµÑĤ": 2638,
      "ĠÑģÐ¾Ð´": 2639,
      "ĠÑģÐ¾ÑĢ": 2640,
      "ĠÑģÑĢÐµÐ´": 2641,
      "ĠÑģÐµÐº": 2642,
      "ĠÑģÐ¸Ð»": 2643,
      "ĠÑģÑĥÐ¿": 2644,
      "ĠÑģÑĥÐ¼": 2645,
      "ĠÑģÐ°Ð¼Ð¸": 2646,
      "ĠÑģÐ¾ÑģÑĤÐ°Ð²": 2647,
      "ĠÑģÐ¼Ñĭ": 2648,
      "Ð¾Ð²ÐµÑĢ": 2649,
      "Ð¾Ð²Ð°ÑĤ": 2650,
      "Ð¾Ð²ÐºÐ°": 2651,
      "Ð¾Ð²Ð¸ÑīÐµ": 2652,
      "ĠÐ½ÐµÑĤ": 2653,
      "ĠÐ½Ð¸Ñħ": 2654,
      "ĠÐ½ÑĥÐ¶": 2655,
      "ĠÐ½Ð°Ð¼Ð¸": 2656,
      "ĠÐ½ÑĢÐ°Ð²": 2657,
      "ĠÐ½ÐµÐ±": 2658,
      "ĠÐ½ÑĳÐ¼": 2659,
      "ĠÐ²ÐµÑģ": 2660,
      "ĠÐ²Ð¿ÐµÑĩ": 2661,
      "ĠÐ²Ð»Ð¾Ð¶": 2662,
      "ĠÐ²ÐµÑģÑĮ": 2663,
      "ĠÐ²ÑĩÐµÑĢÐ°": 2664,
      "ÐµÑĤÐ°": 2665,
      "ÐµÑĤÐ°Ð»": 2666,
      "ÐµÑĤÐµÐ½Ð´": 2667,
      "ĠÐºÐ°ÑĤÐµÐ³": 2668,
      "ĠÐºÐ½Ð¸Ð³": 2669,
      "ĠÐºÐ¸ÑģÐ»": 2670,
      "ĠÐ¸ÑĤÐ¾Ð³": 2671,
      "Ð°Ð½Ð´Ð°": 2672,
      "Ð°Ð½ÑıÑĤ": 2673,
      "ÑĢÐ°Ð¹Ð¾Ð½": 2674,
      "ÑĤÐ¾Ð½": 2675,
      "Ð¸ÑıÑħ": 2676,
      "Ð¸ÑĤÑĢ": 2677,
      "Ð´ÑĮ": 2678,
      "Ð´ÐµÐ¼": 2679,
      "Ð´ÐµÑĨ": 2680,
      "Ð¼ÐµÐ½": 2681,
      "Ð¼ÐµÐ¹": 2682,
      "Ð¾Ð´Ð¸ÑĤ": 2683,
      "Ð¾Ð´Ð¾Ð±": 2684,
      "ÑĪÐ¸": 2685,
      "ÑĪÑĤÐ°Ð±": 2686,
      "ÐµÑĢÑĮ": 2687,
      "ÐµÑĢÑĬÑĳÐ·": 2688,
      "Ð¾Ð±Ð°Ð²": 2689,
      "Ð°Ð»Ð»Ñİ": 2690,
      "ĠÑĤÐ¾Ð¶": 2691,
      "ĠÑĤÐµÐ¿": 2692,
      "ĠÑĤÐ°Ð±": 2693,
      "ÑīÑĳ": 2694,
      "ĠÐ´Ð°": 2695,
      "ĠÐ´Ð¾Ñģ": 2696,
      "ĠÐ´Ð¾Ð¶": 2697,
      "ĠÐ´Ð°Ð¶": 2698,
      "ĠÐ´Ð½ÐµÐ¹": 2699,
      "ĠÐ´Ð¾Ð²ÐµÑĢ": 2700,
      "ĠÐ´Ð¾Ð±Ð°Ð²": 2701,
      "Ð°ÐºÑĤÐ¸Ð²": 2702,
      "ĠÐ¿ÑĢÐ¸Ñĩ": 2703,
      "ĠÐ¿ÑĢÐ¸Ð·Ð½": 2704,
      "ĠÐ¿ÑĢÐµÑĤÐµÐ½Ð´": 2705,
      "Ð¿Ð¸ÑĢ": 2706,
      "Ð¿Ð¸Ð½Ð³": 2707,
      "ĠÐ¼ÑĥÑĢ": 2708,
      "ĠÐ¼ÑĥÑĤ": 2709,
      "ĠÐ¼Ð¸ÑģÑĤ": 2710,
      "ĠÐ¼Ð½Ðµ": 2711,
      "ĠÐ¼ÐµÐ¶Ð´": 2712,
      "Ð¾ÑĤÐµÐ½ÑĮ": 2713,
      "Ð¾ÑĤÑĢÐµÐ±": 2714,
      "Ð¾Ð»Ð¾Ðº": 2715,
      "Ð¾Ð»Ð·": 2716,
      "Ð¾Ð»Ð½ÐµÐ½Ð½Ð¾ÑģÑĤÐ¸": 2717,
      "Ð¾Ð½Ð¾Ðº": 2718,
      "Ð¾Ð½ÐºÐ¸": 2719,
      "Ð¾Ð½ÐµÐ½ÑĤÐ¾Ð²": 2720,
      "Ð¾Ð½ÑĩÐ¸ÑĤÑĮÑģÑı": 2721,
      "ÑģÑĤÐ²Ð¾": 2722,
      "ÑĨÐ¸Ð½Ð°": 2723,
      "Ð°ÑĤÐ»ÐµÐ½Ð¸Ñı": 2724,
      "ĠÑĩÑĥÐ´": 2725,
      "ĠÑĩÐ°ÑģÐ¾Ð²": 2726,
      "Ð¸Ð²Ð½Ð¾Ð³Ð¾": 2727,
      "Ð¸Ð²Ð°Ð¹": 2728,
      "ĠÐ·Ð°Ð»": 2729,
      "ĠÐ·Ð°Ð²": 2730,
      "ĠÐ·Ð°ÑĢ": 2731,
      "Ð¸Ð¼Ð°Ð»ÑĮÐ½Ð¾Ð¼": 2732,
      "Ð¾ÑĢÐ¸Ñı": 2733,
      "Ð¾ÑĢÐ¾Ð´": 2734,
      "ĠÑĢÐ°Ð±": 2735,
      "ĠÑĢÐ°Ð´Ð¸": 2736,
      "ĠÑĢÐ°Ð²Ð½Ð¾Ð¹": 2737,
      "ĠÑħÐ¸Ð¼": 2738,
      "ĠÑħÐ°Ð¼": 2739,
      "ĠÑħÑĥÐ´": 2740,
      "ĠÑħÐ¾Ð»Ð¾Ð´": 2741,
      "ĠÑħÐ¸ÑĤÑĢ": 2742,
      "Ð¸Ð·Ð¼": 2743,
      "Ð¸Ð·Ð¾ÑĢ": 2744,
      "ĠÐ½ÐµÐ°Ð´": 2745,
      "ĠÐ½ÐµÑĥÐ·Ð½": 2746,
      "ÐµÐ¹ÑģÑı": 2747,
      "ÐµÐ¹ÑĤÑĢÐµÐ¹Ð´Ð¸Ð½Ð³": 2748,
      "ĠÐ±ÑĥÑĤ": 2749,
      "ĠÐ±ÑĭÐ»": 2750,
      "ĠÐ½Ð°Ð¸Ð¼ÐµÐ½": 2751,
      "ĠÐ½Ð°ÑĥÐºÐ¸": 2752,
      "Ġ300": 2753,
      "Ð°Ð²ÐºÐ°": 2754,
      "Ð°Ð²Ð°ÐµÐ¼": 2755,
      "Ð¸ÑĩÐ½ÑĭÐ¼": 2756,
      "ĠÑĢÑĥÑĩ": 2757,
      "ĠÑĢÐ¸ÑģÐº": 2758,
      "ÐµÐ½Ð¸ÑıÑħ": 2759,
      "Ð¸Ð½Ð¸": 2760,
      "Ð¸Ð½ÐµÐ½Ñĭ": 2761,
      "ÑģÑıÑĤ": 2762,
      "ÑģÑıÑĩ": 2763,
      "Ð¾Ð·Ð½Ð¾ÑģÑĤÐ¸": 2764,
      "Ð¾Ð¿Ð»Ð°Ð½": 2765,
      "Ð½Ð¾ÑģÑĤÐµÐ¹": 2766,
      "ĠÑĥÐ½Ð¸Ðº": 2767,
      "ĠÑĥÐ²Ð°Ð¶": 2768,
      "Ð³Ð¾Ð²Ð¾ÑĢ": 2769,
      "Ð³Ð¾ÑĢÐ¾Ð´": 2770,
      "ĠÑĢÐ°Ð·Ð½ÑĭÐµ": 2771,
      "ĠÑĢÐ°Ð·ÑĢÐµÐ·": 2772,
      "ĠÑĢÐ°Ð·Ð½Ð¾Ð³": 2773,
      "Ð¾ÑģÑģ": 2774,
      "Ð¾ÑģÑĮ": 2775,
      "Ð¾ÑģÐ±": 2776,
      "ĠÐ²ÑĭÑıÐ²": 2777,
      "ĠÐ²ÑĭÐ½ÑĥÐ¶Ð´": 2778,
      "Ð°ÑĩÐµÐ¼": 2779,
      "ÐµÐ¼Ðµ": 2780,
      "ÐµÐ¼ÑĭÑħ": 2781,
      "Ð°Ð»ÑĮÐ½Ð°Ñı": 2782,
      "Ð°Ð»ÑĮÐ½ÑĭÐ¼Ð¸": 2783,
      "Ð°Ð»ÑĮÐ¿Ð¸Ð½Ð³": 2784,
      "ĠÑģÑĤÐ°ÑĢ": 2785,
      "ĠÑģÑĤÐ¸Ð»": 2786,
      "ĠÑģÑĤÐ°Ð²ÐºÐ°": 2787,
      "ÐµÐ´Ð¸Ð½ÐµÐ½Ñĭ": 2788,
      "ÐµÐºÐ¾Ð¼": 2789,
      "Ð¸ÑĢÑĥÑİÑĤ": 2790,
      "Ð¸ÑĢÑĥÐµÐ¼": 2791,
      "ĠÐ³Ð½": 2792,
      "ĠÐ³Ð°Ð»Ð»Ñİ": 2793,
      "ĠÑĦÐ¾Ð½": 2794,
      "ĠÑĦÑĢÐ°Ðº": 2795,
      "ĠÑĦÑĮÑİÑĩÐµÑĢÑģ": 2796,
      "Ð¸ÐºÐ°Ñħ": 2797,
      "ÐµÐ³ÐºÐ¾Ð²": 2798,
      "ĠÐ¿ÑĢÐµÐ´Ð°Ð½Ñĭ": 2799,
      "ĠÐ¿ÑĢÐµÐ´Ð¾ÑģÑĤÐ°Ð²Ð»": 2800,
      "ĠÐ¿ÑĢÐµÐ´Ð¾ÑģÑĤÐ°Ð²Ð»ÑıÐµÑĤ": 2801,
      "Ð°ÐµÑĤÑĮÑģÑı": 2802,
      "Ð·Ñĭ": 2803,
      "Ð·ÐºÐ¾Ðµ": 2804,
      "Ð°ÑĢÐ¸Ðº": 2805,
      "Ð¾Ð¶Ð¸Ð´": 2806,
      "Ð¸ÑĩÐµÑģÐºÐ°Ñı": 2807,
      "Ð°Ð·Ð°Ð½Ñĭ": 2808,
      "ĠÐ¾ÑĤÐ´": 2809,
      "ĠÐ¾ÑĤÐ²ÐµÑĤ": 2810,
      "ĠÐ¾ÑĤÑĢÐ¸": 2811,
      "ĠÐ¾ÑĤÐ¼ÐµÑĤ": 2812,
      "ĠÐ¾ÑĤÑĤÐ°Ð»": 2813,
      "ĠÐºÐ°ÐºÐ¸Ð¼": 2814,
      "Ð¾Ð²ÑĭÐµ": 2815,
      "Ð¾Ð²Ð°Ð½Ð½ÑĭÐµ": 2816,
      "ÐµÐ²Ð¸Ð·Ð¾ÑĢ": 2817,
      "ÑĥÑĤÐ°Ð½": 2818,
      "ĠÐ¸Ð½Ð²ÐµÑģÑĤ": 2819,
      "ĠÐ°ÐºÑĨÐ¸Ð¾Ð½": 2820,
      "ĠÐ»Ñı": 2821,
      "ĠÐ»ÐµÐ¶": 2822,
      "ĠÐ»ÐµÐ³ÐºÐ¾Ð²": 2823,
      "ÐµÑĪÐ½Ð¾ÑģÑĤÐ¸": 2824,
      "ÐµÑĪÐ°Ð½Ñĭ": 2825,
      "Ð¸ÑĤÐµÐ»ÑĮÐ½Ð¾ÑģÑĤÐ¸": 2826,
      "ÑĥÐ¿Ð½ÐµÐ¹ÑĪ": 2827,
      "ÑģÐºÐ¾Ð¼": 2828,
      "ÑģÐºÐ¸Ðµ": 2829,
      "ÑģÐºÐ¸Ñħ": 2830,
      "ÑĨÐ¸Ð¾Ð½Ð½Ð°Ñı": 2831,
      "ÑĨÐ¸Ð¾Ð½Ð°Ð¼Ð¸": 2832,
      "ĠÐ¿Ð¾Ð´ÑĬ": 2833,
      "ĠÐ¿Ð¾Ð´ÑĨÐµÐ¿": 2834,
      "ĠÑĤÐ°ÐºÑĥÑİ": 2835,
      "ÐµÑĩÐµÑģÐº": 2836,
      "ĠÐ¿Ð¾ÑĢÐ°Ð¶": 2837,
      "ĠÐļÐ°Ð¶Ð´": 2838,
      "ĠÐļÑģÑĤÐ°ÑĤÐ¸": 2839,
      "ĠÑĨÐ²ÐµÑĤ": 2840,
      "ĠÑĨÐµÐ½Ð½Ð¾ÑģÑĤÐ¸": 2841,
      "ĠÐ¾Ð¿Ð¸Ñģ": 2842,
      "ĠÐ¾Ð¿ÑĨÐ¸Ð¾Ð½Ð°Ð¼Ð¸": 2843,
      "ĠÐ¿Ð¾Ð»ÐµÑĤ": 2844,
      "ÐµÑģÑĤÐ¾": 2845,
      "ĠÐŁÑĢ": 2846,
      "ĠÐŁÐ¾Ñģ": 2847,
      "ĠÐŁÐ°Ñħ": 2848,
      "ĠÐŁÑĢÐ¸": 2849,
      "ÑĨÐ¸ÑıÑħ": 2850,
      "ĠÑįÑĤÐ¾Ð¹": 2851,
      "ĠÑıÐ·Ñĭ": 2852,
      "Ð¸Ð´Ð¸ÑĤ": 2853,
      "ĠÐ°ÐºÑĤÐ¸Ð²Ð°Ð¼Ð¸": 2854,
      "ĠÐĴÑģ": 2855,
      "ĠÐĴÐ½ÐµÐ·Ð°Ð¿Ð½Ð¾": 2856,
      "ÑıÑĤÑĮ": 2857,
      "ÑĭÑĤÐ¸ÐµÐ¼": 2858,
      "Ð±Ð¾": 2859,
      "Ð±Ñĭ": 2860,
      "ĠÑĩÐ°ÑģÑĤÐ¾": 2861,
      "ĠÑĩÐ°ÑģÑĤÑĮ": 2862,
      "ĠÐĿÐ°Ð»": 2863,
      "ĠÐºÐ¾Ð½Ðº": 2864,
      "ÑĥÐ±ÐµÐ¶": 2865,
      "ÑİÑīÐ¸Ðµ": 2866,
      "ĠÑĪÐ°ÑĢÐ¸Ðº": 2867,
      "ĠÑĦÐ¾ÑĢÐ¼Ð¸ÑĢÑĥÑİÑĤ": 2868,
      "Ð»ÑİÑĩÐ°ÐµÑĤÑĮÑģÑı": 2869,
      "ÑĢÐ°Ð½Ð½ÑĭÐ¹": 2870,
      "ĠÑģÐ¾Ð²ÑĢÐµÐ¼ÐµÐ½Ð½ÑĭÐµ": 2871,
      "Ġare": 2872,
      "Ð°ÑİÑīÐµÐ¼": 2873,
      "ĠÐ¸Ð·Ð»ÑĥÑĩ": 2874,
      "ĠÐ¸Ð·Ð¼ÐµÐ½": 2875,
      "ÑģÐ»Ð¾Ð²Ð¾Ð¹": 2876,
      "ĠÐ²ÑģÐµ": 2877,
      "ĠÐ²ÑģÑĳ": 2878,
      "Ð´ÐµÐ»ÑıÑİÑĤ": 2879,
      "ĠÑģÐ²Ð¾Ð¸Ð¼": 2880,
      "Ð»Ð¸ÑĨÐ¸ÑĢ": 2881,
      "ĠÐ¿Ð¾Ð·Ð¸ÑĨÐ¸Ñİ": 2882,
      "Ð°Ð³Ð½Ð¸ÑĤÐ¾": 2883,
      "ÑıÐµÑĤÑģÑı": 2884,
      "ĠÑĢÐ°ÑģÐºÑĢ": 2885,
      "ĠÑıÐ²Ð»ÐµÐ½Ð¸Ðµ": 2886,
      "ĠÐ¡Ð»ÐµÐ´": 2887,
      "ĠÐ¡Ð¼Ð¾ÑĤÑĢÐ¸": 2888,
      "ĠÐ¡Ð»Ð¾Ð¶Ð½Ð¾": 2889,
      "ÑĥÐ½Ð´": 2890,
      "ÑĥÐ½Ð°ÑĢÐ¾Ð´": 2891,
      "ĠÐºÐ¾ÑĤÐ¾ÑĢÐ¾Ð¹": 2892,
      "ÐµÐ¹ÑģÑĤÐ²Ð¸Ðµ": 2893,
      "ĠÐ±Ð°Ð·Ð¾Ð²ÑĭÐµ": 2894,
      "ĠÑĨÐµÐ»ÑĭÐµ": 2895,
      "ÐµÐ»Ð¾Ð²ÐµÑĩÐµÑģÐº": 2896,
      "ĠÐ¿Ð¾Ð»Ð¸ÑĤÐ¸Ðº": 2897,
      "Ð°ÐµÐ¼Ð¾Ð³Ð¾": 2898,
      "ĠÐ½Ð°ÑģÐµÐºÐ¾Ð¼": 2899,
      "ĠÑĪÐ¸ÑĢÐ¾ÐºÐ¸Ðµ": 2900,
      "ĠÐ¿ÐµÑĢÐµÐ¾Ñģ": 2901,
      "ĠÐ¸ÑģÐºÑĥÑģ": 2902,
      "ĠÐ¿ÑĢÐ¾Ð´ÑĥÐº": 2903,
      "ĠÐ¼ÑĭÑģÐ»Ð¸": 2904,
      "ĠÐ°Ð½Ð°ÑĦ": 2905,
      "ÑĳÐ²ÐºÐ°": 2906,
      "ĠÑĥÐºÐ°Ð·Ð°Ð½Ñĭ": 2907,
      "ĠÐ¾Ð¿ÑĢÐµÐ´ÐµÐ»ÑıÑİÑī": 2908,
      "ĠÑĤÑĢÐµÐ±ÑĥÑİÑĤ": 2909,
      "ĠÐ¿Ð¾Ð²ÐµÐ´ÐµÐ½Ð¸Ð¸": 2910,
      "ĠÐ½ÐµÐ¸Ð·Ð²ÐµÑģÑĤÐ½ÑĭÐµ": 2911,
      "inux": 2912,
      "ÐĴÐ½ÐµÐ·Ð°Ð¿Ð½Ð¾": 2913,
      "Ġsch": 2914,
      "Ġsome": 2915,
      "ĠÐ½Ð°Ð¿ÑĢÐ¸Ð¼ÐµÑĢ": 2916,
      "ĠÐ½Ð°Ð¿Ð¾Ð»Ð½ÐµÐ½Ð½Ð¾ÑģÑĤÐ¸": 2917,
      "ĠÐºÑĢÑĥÑĤÐ¾": 2918,
      "ĠÐºÑĢÑĥÐ¿Ð½ÐµÐ¹ÑĪ": 2919,
      "ĠÐ·Ð°ÑĢÐ°Ð±Ð¾ÑĤ": 2920,
      "ÑįÐ½": 2921,
      "Ġcal": 2922,
      "ĠÐ¢ÑĢ": 2923,
      "ĠÐ¢Ñĭ": 2924,
      "Ð¸Ð»ÑĮÐ½ÑĭÐ¹": 2925,
      "Ð¸Ð»ÑĮÐ½Ð¸Ðº": 2926,
      "ĠÑĤÑĢÐµÐ¹Ð´ÐµÑĢÐ°": 2927,
      "ĠÐ°Ð½Ð°Ð»Ð¾Ð³Ð¸ÑĩÐ½Ð¾": 2928,
      "ĠÐ³Ð»ÑĥÐ¿": 2929,
      "ĠÐ¾ÑĤÐ½Ð¾ÑģÑıÑĤ": 2930,
      "ĠÑģÐ»Ð¾Ð¶Ð¸Ð²ÑĪÐµÐ¹ÑģÑı": 2931,
      "ĠÐ¿Ð¾ÐºÐ°Ð·Ð°ÑĤÐµÐ»Ð¸": 2932,
      "Ġgo": 2933,
      "Ġhar": 2934,
      "Ġwor": 2935,
      "ĠÑĥÐ¿Ð°Ðº": 2936,
      "ÑĥÑģÐ¼Ð¾ÑĤÑĢ": 2937,
      "ÑıÑīÐµÐ³Ð¾": 2938,
      "ĠÑģÐ°Ð¼ÑĭÑħ": 2939,
      "Ġ202": 2940,
      "Ġ263": 2941,
      "Ġ101": 2942,
      "ĠÐ´ÐµÑĪÑĳÐ²Ð¾Ðµ": 2943,
      "ĠÐ´ÐµÑĪÑĳÐ²ÑĭÐ¹": 2944,
      "ÐĿÐµ": 2945,
      "ĠÐ²Ð¸Ð´Ðµ": 2946,
      "ĠÐ²ÐµÑīÑĮ": 2947,
      "ĠÑģÐ¾Ð²ÐµÑĢÑĪÐµÐ½Ð½Ð¾Ð¹": 2948,
      "ĠÑĤÐ¾ÑĩÐºÐ°Ñħ": 2949,
      "ĠÑģÑĥÑīÐµÑģÑĤÐ²ÑĥÑİÑīÐµÐ³Ð¾": 2950,
      "ĠÑģÑĥÑīÐµÑģÑĤÐ²ÑĥÑİÑīÐµÐµ": 2951,
      "ĠÐ±ÐµÑģÐ¿Ð¾Ð»ÐµÐ·Ð½Ð¾ÑģÑĤÐ¸": 2952,
      "ĠÐ±ÐµÑģÐ¿Ð¾Ð»ÐµÐ·Ð½Ð¾ÑģÑĤÑĮ": 2953,
      "ĠÑĥÐ±ÐµÐ¶Ð´": 2954,
      "ĠÑĥÐ±Ð¾Ð¶ÐµÑģÑĤÐ²Ð¾": 2955,
      "ĠÑĥÐ¶Ð°ÑģÐ¾Ð²": 2956,
      "ĠÐĲÐ¼ÐµÑĢ": 2957,
      "Ð¸Ð³Ð°": 2958,
      "ĠÐ¿Ð¾ÑģÑĤÐ¾ÑıÐ½Ð½Ð¾": 2959,
      "ĠÐ½Ð¾Ð²Ð¾ÑģÑĤ": 2960,
      "ĠÐ²Ð¾Ð·ÑĢÐ°ÑģÑĤ": 2961,
      "ĠÑĤÑĭÑģÑıÑĩ": 2962,
      "ĠÐ´ÐµÐ»Ð°": 2963,
      "ĠÐ´ÐµÐ»Ð°ÐµÑĪÑĮ": 2964,
      "ĠÐ½ÐµÐ¾Ð±ÑĬÑıÑģÐ½Ð¸Ð¼": 2965,
      "ĠÑģÑĤÐ¾Ð¸Ð¼Ð¾ÑģÑĤÑĮ": 2966,
      "ĠÐ¾Ð±ÑĬÑıÐ²": 2967,
      "ĠÐ¾Ð±ÑĬÐµÐ´Ð¸Ð½ÐµÐ½Ñĭ": 2968,
      "ĠÑģÐ»ÑĥÑĩÐ¸ÑĤÑĮÑģÑı": 2969,
      "ĠÑĤÐ¾ÑĢÐ³Ð¾Ð²Ð»Ðµ": 2970,
      "ĠÑģÐ¸ÑĤÑĥÐ°ÑĨÐ¸Ð¹": 2971,
      "ĠÐ¿ÑĢÐ¾Ð³ÑĢÐµÑģÑģÐ¸Ð²Ð½Ð¾Ð³Ð¾": 2972,
      "ĠLinux": 2973,
      "ĠÐ¿Ð¾ÑĤÐ¾Ð¼": 2974,
      "ĠÐºÐ¾Ð»Ð»ÐµÐºÑĤÐ¸Ð²": 2975,
      "ĠÐ·Ð°ÐºÐ¾Ð½ÑĩÐ¸ÑĤÑĮÑģÑı": 2976,
      "ĠÐ·Ð°ÐºÐ»ÑİÑĩÐ°ÐµÑĤÑĮÑģÑı": 2977,
      "ĠÐ·Ð°Ð¿ÑĥÑĤÐ°Ð½": 2978,
      "Ð¸Ð¼Ð°ÐµÐ¼Ð¾Ð³Ð¾": 2979,
      "ĠÐ¿ÑĢÐµÐ´Ð¿ÑĢÐ¸Ð½Ð¸Ð¼": 2980,
      "ĠÐ¿ÑĢÐµÐ´Ð¼ÐµÑĤÐ°": 2981,
      "ĠÐ¿ÑĢÐµÐ´Ð¼ÐµÑĤÐ¾Ð²": 2982,
      "ĠÐ¿ÑĢÐµÐ´Ð¼ÐµÑĤÐ½Ð¾Ð³Ð¾": 2983,
      "ĠÐ²ÑģÑıÐºÐ°Ñı": 2984,
      "ĠÐ½ÐµÐ¾Ð¿Ð¾Ð·Ð½Ð°Ð½": 2985,
      "ĠÐ¼Ð°ÑĤÐµÑĢÐ¸Ð°Ð»ÑĮÐ½Ð¾Ð³Ð¾": 2986,
      "ĠÐ²ÑĭÐ¿Ð¾Ð»Ð½ÐµÐ½Ð¸Ñı": 2987,
      "ĠÐºÐ»ÑİÑĩÐµÐ²ÑĭÑħ": 2988,
      "Ġbut": 2989,
      "Ġdo": 2990,
      "ĠÐķÑģÑĤÑĮ": 2991,
      "ĠÐķÑīÑĳ": 2992,
      "ĠÐľÑĭ": 2993,
      "ĠÐľÐµÑĤÐ°Ð»": 2994,
      "ĠÐ²ÐµÑīÐµÑģÑĤÐ²Ð¾": 2995,
      "ĠÐ²ÐµÑīÐµÑģÑĤÐ²Ð°": 2996,
      "ĠÐ²ÐµÑīÐµÑģÑĤÐ²ÐµÐ½Ð½Ð¾Ð³Ð¾": 2997,
      "ĠÐ·Ð°Ð½Ð¸Ð¼": 2998,
      "ĠÐ³ÑĢÑĥÐ·": 2999,
      "ĠÐ²Ð½Ð¸Ð¼Ð°Ð½Ð¸Ðµ": 3000,
      "ĠÐ¾Ð¿Ð°ÑģÐ½Ð°Ñı": 3001,
      "ĠÐ¾ÑĩÐµÐ²Ð¸Ð´Ð½ÑĥÑİ": 3002,
      "Ð¾ÐºÑĢÐ°ÑĤÐ¸ÑĩÐµÑģÐºÐ¾Ð¹": 3003,
      "ĠÐ²Ð½ÑĥÑĤÑĢÐµÐ½Ð½Ð¸Ñħ": 3004,
      "Ð¢ÑĢÐµÐ¹Ð´": 3005,
      "ĠÐ¾ÑģÐ½Ð¾Ð²": 3006,
      "ĠÐłÐ°Ð·Ð½Ð¾Ð¾Ð±ÑĢÐ°Ð·Ð½ÑĭÐ¹": 3007,
      "ÑĢÐ¸Ð½Ð¸Ð¼Ð°ÐµÐ¼Ð¾Ð³Ð¾": 3008,
      "ÑĢÐ¾ÑĩÐ½Ð¾Ð¼": 3009,
      "ĠÐ¿Ð¾Ð¿Ð»ÑĭÐ»Ð°": 3010,
      "ĠÐ¿Ð¾Ð¿Ð¾Ð»Ð·": 3011,
      "ĠÐ¿ÑĢÐµÐ·ÑĢÐµÐ½Ð¸Ñı": 3012,
      "ĠÐ¿Ð¾Ð½ÑıÑĤÐ¸Ðµ": 3013,
      "ĠÐ´ÑĥÑĢÐ¾ÑģÑĤÐ¸": 3014,
      "ĠÐ¿ÑĢÐ¾Ð²Ð¾Ð»Ð¾Ðº": 3015,
      "ĠÐ¿ÑĢÐ¸Ð²ÐµÑģÑĤÐ¸": 3016,
      "ĠÐ¼ÐµÐ»ÐºÐ¾Ðµ": 3017,
      "Ð¸ÑĢÐ¾Ð²ÐºÐ°Ñħ": 3018,
      "ĠÑĦÐ°Ð½ÑĤÐ°Ð·": 3019,
      "ÐµÐ³Ð°ÑĤÐ¸Ð²Ð½Ð°Ñı": 3020,
      "Ð¾Ð¶ÐµÑģÑĤÐ²ÐµÐ½Ð½Ð¾Ð¹": 3021,
      "Ġthey": 3022,
      "ĠÐ¿Ð»Ð¾ÑħÐ¾Ð¹": 3023,
      "Ð¼ÑĭÑģÐ»ÐµÐ½Ð¸Ñı": 3024,
      "ĠÐºÐ»Ð°ÑģÑĤÐµÑĢÑĭ": 3025,
      "ĠÐ¿ÑĢÐµÐ´Ð¿Ð¾ÑģÑĭÐ»Ð¾Ðº": 3026,
      "ĠÑĢÐ°ÑģÐ¿ÑĢÐµÐ´ÐµÐ»ÐµÐ½Ð¸Ñı": 3027,
      "ack": 3028,
      "ool": 3029,
      "ÑıÐ²Ð»ÐµÐ½Ð¸Ðµ": 3030,
      "ĠÐ¿ÑĥÑģÑĤÐ¾Ðµ": 3031,
      "ĠÐ¿ÑĥÑģÑĤÐ¾ÑĤÐ°": 3032,
      "ĠÑģÐ¾ÑģÑĤÐ¾ÑıÐ½Ð¸Ð¹": 3033,
      "ĠÐ½ÐµÐ´Ð¾ÑĥÐ¼": 3034,
      "ĠÐ½ÐµÐºÐ°ÑĩÐµÑģÑĤÐ²": 3035,
      "ĠÐ¼ÐµÑĢÐ·ÐºÐ¾Ðµ": 3036,
      "ĠÐ³ÑĢÐ°Ð½Ð´Ð¸": 3037,
      "Ð°Ð´Ð°ÑĩÐ¸": 3038,
      "ĠÐ¿Ð¾Ð´Ð³Ð¾ÑĤÐ¾Ð²ÐºÐ¸": 3039,
      "ĠÐ¿ÑĢÐµÐ´ÑģÑĤÐ°Ð²Ð»ÐµÐ½Ð¸Ð¸": 3040,
      "ĠÑģÐ¾Ð±ÑĭÑĤÐ¸Ðµ": 3041,
      "ĠÐ¿Ð¸Ð´Ð¾ÑĢÐ°ÑģÑĭ": 3042,
      "ĠÐ¿ÑĢÐ¾Ð¸ÑģÑħÐ¾Ð´ÑıÑīÐµÐ³Ð¾": 3043,
      "ĠÑĢÐµÐ·ÑĥÐ»ÑĮÑĤÐ°ÑĤÐ°Ð¼": 3044,
      "ĠÐ°Ð¿Ð¿Ð°ÑĢÐ°ÑĤÐ¾Ð²": 3045,
      "alk": 3046,
      "Ð£ÑĩÐ¸ÑĤÑĭÐ²Ð°Ñı": 3047,
      "ĠÐĽÐ¸Ð½": 3048,
      "ĠÑģÐµÑĢÑĬÑĳÐ·": 3049,
      "ĠÑģÑĢÐ¾ÑĩÐ½ÑĥÑİ": 3050,
      "ĠÐ½ÐµÑģÐµÑĢÑĬÑĳÐ·": 3051,
      "ĠÐ²Ð°Ð¼Ð¿Ð¸ÑĢ": 3052,
      "ÐµÑĢÐ¶Ð°Ð½Ð¸Ð¸": 3053,
      "ĠÑĤÑĢÑĥÐ´Ð°": 3054,
      "ĠÐ´Ð°Ð½Ð½Ð¾Ð¹": 3055,
      "ĠÐ´Ð°Ð½Ð½ÑĭÐ¼Ð¸": 3056,
      "ĠÐ´ÑĢÑĥÐ³Ð¾Ð¹": 3057,
      "ĠÐ´ÑĢÑĥÐ³Ð¾Ð³Ð¾": 3058,
      "Ð¾Ð¼ÑĭÐ¼": 3059,
      "ĠÐ¿Ð¾Ð´Ð¾Ð±Ð½ÑĭÑħ": 3060,
      "ĠÐ¿Ð¾Ð´Ð¾Ð±Ð½ÑĭÐ¼": 3061,
      "ĠÑģÐ»Ð¾Ð²ÐµÑģ": 3062,
      "ĠÐ¾Ð¿Ð¿Ð¾Ð½ÐµÐ½ÑĤÐ¾Ð²": 3063,
      "ĠÑģÐ²Ð¾ÐµÐ²ÑĢÐµÐ¼ÐµÐ½Ð½Ð¾Ð³Ð¾": 3064,
      "....,": 3065,
      "ĠÑįÐºÑģÐ¿ÐµÑĢÐ¸Ð¼ÐµÐ½ÑĤÐ¾Ð²": 3066,
      "ĠÑĤÐµÑħÐ½Ð¾Ð»Ð¾Ð³Ð¸Ð¹": 3067,
      "ĠÐ³Ð»ÑĥÐ±Ð¾ÐºÐ¸Ð¹": 3068,
      "ĠÐ²Ð½ÐµÑĪÐ½ÐµÑįÐºÐ¾Ð½Ð¾Ð¼Ð¸ÑĩÐµÑģÐº": 3069,
      "ĠÐ²Ð¾Ð·Ð¼Ð¾Ð¶Ð½Ð¾ÑģÑĤÐ¸": 3070,
      "ĠÐ¿Ð¾ÑĤÑĢÐµÐ±Ð½Ð¾ÑģÑĤÑĮ": 3071,
      "ĠÑģÐºÐ°Ð·Ð¾Ðº": 3072,
      "ĠÐ¼Ð°ÑĢÐºÐµÑĤÐ¸Ð½Ð³Ð¾Ð²ÑĭÑħ": 3073,
      "ĠÐ¸Ð½Ð½Ð¾Ð²Ð°ÑĨÐ¸Ð¾Ð½Ð½ÑĭÐ¹": 3074,
      "ÐłÐ°Ð²Ð½ÑĭÐ¼": 3075,
      "ÐłÐ°Ð·Ð½Ð¾Ð¾Ð±ÑĢÐ°Ð·Ð½ÑĭÐ¹": 3076,
      "ĠÐ¾Ð´Ð½Ð¾Ð¹": 3077,
      "Ð¸ÑĤÐ¾Ðµ": 3078,
      "ĠÐ¿Ð°ÐºÐµÑĤ": 3079,
      "ĠÐ¿Ð°ÐºÐ¾ÑģÑĤÑĮ": 3080,
      "ĠÑģÐ¼ÐµÑĪÐ°Ð½Ñĭ": 3081,
      "ĠÐ½Ð¾ÑĢÐ¼Ð°Ð»ÑĮÐ½Ð¾": 3082,
      "ĠÐ²Ð¾Ð¾Ð±": 3083,
      "ĠÐ²Ð°Ð»ÑİÑĤÐ¾Ð¹": 3084,
      "ĠÑĤÐµÐ»ÐµÐ²Ð¸Ð·Ð¾ÑĢ": 3085,
      "ĠÐ±Ð¾Ð»ÐµÐ·": 3086,
      "ĠÑĢÐ°ÑģÑĤÐµÐ½Ð¸Ñı": 3087,
      "ĠÑĢÐ°ÑģÑĤÐµÐ½Ð¸Ðµ": 3088,
      "ĠÐ²ÑĭÐ¿Ð¸Ð»": 3089,
      "ĠÐ¾Ð±Ð»Ð¸Ð³Ð°": 3090,
      "ĠÐ¿Ð¾Ð»ÐµÐ·Ð»Ð°": 3091,
      "ÑįÐºÐ¾Ð½Ð¾Ð¼Ð¸ÑĩÐµÑģÐºÐ¾Ðµ": 3092,
      "ĠÑĥÐ±Ð»ÑİÐ´Ð¾Ðº": 3093,
      "ÑĢÐ¸Ð½Ð¸Ð¼Ð°Ñı": 3094,
      "ĠÐ¿Ð¾Ð½ÑıÑĤÐ¸ÑıÐ¼": 3095,
      "ĠÐ¼ÐµÐ»Ð¾ÑĩÑĮ": 3096,
      "ĠÐ¼ÐµÐ»Ð¾ÑĩÑĳÐ²ÐºÐ°": 3097,
      "ĠÑĦÐ°Ð½ÑĤÐ°ÑģÑĤÐ¸ÐºÐ¸": 3098,
      "ĠÑĦÐ°Ð½ÑĤÐ°ÑģÑĤÐ¸ÑĩÐµÑģÐºÐ¸Ð¹": 3099,
      "ĠÐ½Ð¸Ð·ÐºÐ¾ÐºÐ°ÑĩÐµÑģÑĤÐ²": 3100,
      "ĠÐ½ÐµÐ´Ð¾ÑģÑĤÐ¾Ð¹Ð½Ð¾Ðµ": 3101,
      "ĠÐ½ÐµÐ´Ð¾ÑģÑĤÐ¾Ð¹Ð½ÑĭÐ¹": 3102,
      "ĠÐ´Ð²Ð¸Ð¶ÐµÐ½Ð¸Ñı": 3103,
      "ĠÐºÐ¾Ð¼Ð¿ÑĮÑİÑĤÐµÑĢÐ½Ð°Ñı": 3104,
      "ĠÑĤÑıÐ¶ÑĳÐ»ÑĭÐµ": 3105,
      "ĠÐ¼ÐµÑħÐ°Ð½Ð¸Ð·Ð¼": 3106,
      "ĠÐ¼Ð¾Ð»Ð¾Ð´ÑĳÐ¶Ð¸": 3107,
      "ĠÑįÑĦÑĦÐµÐºÑĤÐ¾Ð²": 3108,
      "ĠÐºÐ¾Ð½ÑģÑĤÑĢÑĥÐºÑĨÐ¸Ð¸": 3109,
      "ĠÐºÐ¾Ð½ÑģÑĤÑĢÑĥÐºÑĨÐ¸Ð¹": 3110,
      "any": 3111,
      "Ġnex": 3112,
      "ĠÐµÐ±Ð¸Ð½Ð¸": 3113,
      "ĠÑĥÐ³ÑĢÐ¾Ð·": 3114,
      "ĠÐ¿Ð¾Ð³Ð°": 3115,
      "ĠÐ¿Ð¸Ð·Ð´ÐµÑĨ": 3116,
      "ĠÐ¿Ð¾Ð½Ð¸Ð¼Ð°ÐµÑĤ": 3117,
      "ÐºÐ¾Ð»Ð°": 3118,
      "ĠÑģÐ½ÐµÐ³": 3119,
      "ĠÑģÐ¾Ð¼Ð½ÐµÐ½Ð¸Ð¹": 3120,
      "ĠÐ½Ð¸ÑĩÑĤÐ¾Ð¶ÐµÑģÑĤÐ²Ð¾": 3121,
      "ĠÐ²Ð¾ÑģÐ¿ÑĢÐ¸Ð½Ð¸Ð¼Ð°ÐµÐ¼Ð¾Ð³Ð¾": 3122,
      "ĠÐºÐ°ÑĢÐ°Ð½Ð´Ð°": 3123,
      "ĠÑĤÑĢÐ¾Ð¿Ð¸ÐºÐ°Ñħ": 3124,
      "ĠÐ´Ð¾Ð¿ÑĥÑģÐº": 3125,
      "ĠÐ¿ÑĢÐ¸Ð·Ð²Ð°Ð½Ñĭ": 3126,
      "ĠÐ¼Ð¾Ð½ÑģÑĤÑĢ": 3127,
      "ĠÐ¼Ð¸Ð½Ð¸Ð¼Ð°Ð»ÑĮÐ½Ð¾Ð¼": 3128,
      "ĠÐ¼Ð°ÑģÑĪÑĤÐ°Ð±": 3129,
      "ĠÑĢÐ°Ð¹Ð¾Ð½Ðµ": 3130,
      "ĠÑħÐµÑĢÐ¾ÑĤÐµÐ½ÑĮ": 3131,
      "ĠÑĢÐµÑģÑĥÑĢÑģÐ¾Ð²": 3132,
      "ĠÑĥÑģÐ¿ÐµÑĪÐ½Ð¾ÑģÑĤÐ¸": 3133,
      "ĠÑĢÐ°Ð·Ð´ÑĢÐ°Ð¶ÐµÐ½Ð¸Ñı": 3134,
      "ĠÐ²ÑĭÐ±ÑĢÐ°Ð½Ð½ÑĭÐ¹": 3135,
      "ĠÑģÑĤÐ°ÑĤÑĥÑģ": 3136,
      "ĠÑģÐ²ÐµÑĢÑħÐ·": 3137,
      "ĠÐ¿Ð¾Ð»ÑĥÑĩÐ¸ÑĤÑĮ": 3138,
      "ĠÐ¿Ð¾Ð»ÑĮÐ·Ð¾Ð²Ð°ÑĤ": 3139,
      "ĠÑıÐ´Ð¾Ð²": 3140,
      "ĠÐ½ÐµÐ¿ÑĢÐµÐ´ÑĥÑģÐ¼Ð¾ÑĤÑĢ": 3141,
      "ĠÐ¾ÑīÑĥÑīÐ°ÐµÐ¼Ð¾Ð³Ð¾": 3142,
      "ĠÑĤÐ¾Ð½ÐºÐ¸Ð¹": 3143,
      "ĠÑģÑĤÑĢÐ°ÑĤÐµÐ³Ð¸Ñı": 3144,
      "ĠÐ·Ð°Ð±ÑĥÐ±ÐµÐ½": 3145,
      "ĠÐ³Ð»Ð¾Ð±Ð°Ð»ÑĮÐ½ÑĥÑİ": 3146,
      "Ġgets": 3147,
      "ĠÐºÐ»Ð°ÑģÑģÐ¸ÑĩÐµÑģÐºÐ¾Ð¼": 3148,
      "ĠÐ¸Ð³Ð½Ð¾ÑĢÐ¸ÑĢÑĥÐµÐ¼": 3149,
      "ĠÐ·Ð°ÐºÑĢÑĭÐ²Ð°ÐµÑĤ": 3150,
      "ĠÐ¾ÑģÑĤÐ°Ð»Ð¾ÑģÑĮ": 3151,
      "ĠÐ¼Ð¾Ð³ÑĥÑīÐ¸Ðµ": 3152,
      "ĠÐ³ÑĢÑĥÐ¿Ð¿Ð¸ÑĢÐ¾Ð²ÐºÐ°Ñħ": 3153,
      "ĠÐ¿ÑĢÐµÐ·ÑĢÐµÐ½Ð½Ð¾Ðµ": 3154,
      "ĠÐ¿Ð°ÑĢÑĪÐ¸Ð²Ð¾Ðµ": 3155,
      "ĠÐ¸ÑģÑĤÐ¾ÑĩÐ½Ð¸ÐºÐ¾Ð²": 3156,
      "ĠÑĥÑģÑĤÑĢÐ¾Ð¹ÑģÑĤÐ²Ð°": 3157,
      "ĠÑĦÐ¸Ð»ÑĮÐ¼Ð¾Ð²": 3158,
      "ĠÐ¿Ð¾Ð´Ð¾Ð·ÑĢÐ¸ÑĤÐµÐ»ÑĮÐ½Ð°Ñı": 3159,
      "Ġstudents": 3160,
      "ĠÐ¾ÐºÑĢÑĥÐ¶Ð°ÑİÑīÐµÐ¹": 3161,
      "ĠÐ¿Ð¾Ð³ÑĢÑĥÐ¶ÐµÐ½Ð¸Ñı": 3162,
      "ĠÐ¿ÑĢÐµÐ½ÐµÐ±ÑĢÐµÐ¶ÐµÐ½Ð¸Ñı": 3163,
      "ĠÐ³Ð¾ÑģÑĥÐ´Ð°ÑĢÑģÑĤÐ²Ð°": 3164,
      "tory": 3165,
      "ÐĹÐ°Ð½ÑıÑĤ": 3166,
      "ĠÑĢÐµÐ¿Ð»Ð¸ÑĨÐ¸ÑĢ": 3167,
      "ĠWindows": 3168,
      "Ġjust": 3169,
      "ĠÐ¿Ð¾ÐµÑħ": 3170,
      "Ð»Ð¸ÑıÐµÑĤ": 3171,
      "Ð»Ð°ÑģÐ¸Ð¹": 3172,
      "Ð»Ð¸Ð±Ð¾": 3173,
      "ÐºÐ¸Ð²Ð°ÑĤÑĮÑģÑı": 3174,
      "ĠÑģÐµÑĤÐ¸": 3175,
      "ĠÑģÐ¾Ð´ÐµÑĢÐ¶Ð°Ð½Ð¸Ð¸": 3176,
      "ĠÑģÐµÐºÑĥÐ½Ð´": 3177,
      "ĠÑģÑĥÐ¼Ð¼Ð°": 3178,
      "ĠÑģÐ¼ÑĭÑģÐ»Ð¾Ð²Ð¾Ð¹": 3179,
      "ĠÐ½ÑĥÐ¶Ð½Ð°": 3180,
      "ĠÐ²ÐµÑģÐ¾Ð¼ÑĭÐ¼": 3181,
      "ĠÐ²Ð¿ÐµÑĩÐ°ÑĤÐ»ÐµÐ½Ð¸Ñı": 3182,
      "Ð´ÐµÐ¼Ð¾ÐºÑĢÐ°ÑĤÐ¸ÑĩÐµÑģÐºÐ¾Ð¹": 3183,
      "ĠÑĤÐ¾Ð¶Ðµ": 3184,
      "ĠÑĤÐµÐ¿ÐµÑĢÑĮ": 3185,
      "ĠÐ´Ð¾Ð¶Ð´ÑĮ": 3186,
      "ĠÐ´Ð°Ð¶Ðµ": 3187,
      "ĠÐ´Ð¾Ð²ÐµÑĢÐ¸Ñı": 3188,
      "ĠÐ´Ð¾Ð±Ð°Ð²Ð»ÑıÑİÑĤ": 3189,
      "ĠÐ¿ÑĢÐ¸Ð·Ð½Ð°Ðº": 3190,
      "ĠÐ¿ÑĢÐµÑĤÐµÐ½Ð´ÐµÐ½ÑĤÑĭ": 3191,
      "ĠÐ¼ÑĥÑĢÐ°": 3192,
      "ĠÐ¼Ð¸ÑģÑĤÐ¸ÐºÐ¸": 3193,
      "ĠÐ¼ÐµÐ¶Ð´ÑĥÐ½Ð°ÑĢÐ¾Ð´": 3194,
      "ĠÑĩÑĥÐ´Ð¾Ð²Ð¸ÑīÐµ": 3195,
      "ĠÐ·Ð°ÑĢÑĥÐ±ÐµÐ¶": 3196,
      "ĠÑħÑĥÐ´Ð¾Ð¶ÐµÑģÑĤÐ²ÐµÐ½Ð½Ð¾Ð¹": 3197,
      "ĠÑħÐ¾Ð»Ð¾Ð´Ð¸Ð»ÑĮÐ½Ð¸Ðº": 3198,
      "ĠÐ½ÐµÐ°Ð´ÐµÐºÐ²Ð°ÑĤ": 3199,
      "ĠÐ½ÐµÑĥÐ·Ð½Ð°Ð²Ð°ÐµÐ¼": 3200,
      "ĠÐ±ÑĥÑĤÑĭÐ»": 3201,
      "ĠÐ±ÑĭÐ»Ð¾": 3202,
      "ĠÐ½Ð°Ð¸Ð¼ÐµÐ½Ð¾Ð²Ð°Ð½Ð¸Ðµ": 3203,
      "ĠÑĥÐ½Ð¸ÐºÐ°Ð»ÑĮÐ½ÑĭÐ¼Ð¸": 3204,
      "ĠÑĥÐ²Ð°Ð¶ÐµÐ½Ð¸Ñı": 3205,
      "ĠÑĢÐ°Ð·ÑĢÐµÐ·Ðµ": 3206,
      "ĠÑĢÐ°Ð·Ð½Ð¾Ð³Ð»Ð°ÑģÐ¸Ð¹": 3207,
      "ĠÐ²ÑĭÑıÐ²Ð»ÑıÐµÑĤ": 3208,
      "ĠÐ²ÑĭÐ½ÑĥÐ¶Ð´ÐµÐ½Ñĭ": 3209,
      "ĠÐ³Ð°Ð»Ð»ÑİÑĨÐ¸Ð½Ð°": 3210,
      "ĠÑĦÑĢÐ°ÐºÑĨÐ¸Ð¾Ð½Ð½ÑĭÑħ": 3211,
      "ĠÑĦÑĮÑİÑĩÐµÑĢÑģÐ°Ð¼Ð¸": 3212,
      "ĠÐ¿ÑĢÐµÐ´Ð¾ÑģÑĤÐ°Ð²Ð»ÐµÐ½Ñĭ": 3213,
      "ĠÐ¾ÑĤÐ²ÐµÑĤÑĥ": 3214,
      "ĠÐ¾ÑĤÑĢÐ¸ÑĨ": 3215,
      "ĠÐ¾ÑĤÐ¼ÐµÑĤÐ¸ÑĤÑĮ": 3216,
      "ĠÐ¾ÑĤÑĤÐ°Ð»ÐºÐ¸Ð²Ð°ÑĤÑĮÑģÑı": 3217,
      "ĠÐ°ÐºÑĨÐ¸Ð¾Ð½ÐµÑĢÑĭ": 3218,
      "ĠÐ»ÐµÐ³ÐºÐ¾Ð²ÐµÑģ": 3219,
      "ĠÐ¿Ð¾Ð´ÑĬÑĳÐ¼": 3220,
      "ĠÐ¿Ð¾ÑĢÐ°Ð¶Ð°ÑİÑīÐ¸Ñħ": 3221,
      "ĠÐļÐ°Ð¶Ð´ÑĭÐ¹": 3222,
      "ĠÐŁÐ°ÑħÐ½ÐµÑĤ": 3223,
      "Ð°Ð³Ð½Ð¸ÑĤÐ¾ÑĦÐ¾Ð½": 3224,
      "ĠÑĢÐ°ÑģÐºÑĢÐ°ÑģÐºÐ°": 3225,
      "ĠÐ¡Ð»ÐµÐ´ÑĥÐµÑĤ": 3226,
      "ĠÐ¿ÐµÑĢÐµÐ¾ÑģÐ¼ÑĭÑģÐ»ÐµÐ½Ð¸Ñı": 3227,
      "ĠÐ¸ÑģÐºÑĥÑģÑģÑĤÐ²Ð°": 3228,
      "ĠÐ°Ð½Ð°ÑĦÐµÐ¼Ðµ": 3229,
      "ĠÐ¾Ð¿ÑĢÐµÐ´ÐµÐ»ÑıÑİÑīÐµÐµ": 3230,
      "Ġschool": 3231,
      "ĠÐºÑĢÑĥÐ¿Ð½ÐµÐ¹ÑĪÐ¸Ñħ": 3232,
      "Ġcall": 3233,
      "Ġhard": 3234,
      "ĠÑĥÐ±ÐµÐ¶Ð´ÑĳÐ½Ð½Ð¾ÑģÑĤÑĮ": 3235,
      "ĠÐ²Ð¾Ð·ÑĢÐ°ÑģÑĤÐ°ÐµÑĤ": 3236,
      "ĠÐ½ÐµÐ¾Ð±ÑĬÑıÑģÐ½Ð¸Ð¼Ð¾Ðµ": 3237,
      "ĠÐºÐ¾Ð»Ð»ÐµÐºÑĤÐ¸Ð²Ð°Ñħ": 3238,
      "ĠÐ¿ÑĢÐµÐ´Ð¿ÑĢÐ¸Ð½Ð¸Ð¼Ð°ÑĤÐµÐ»Ð¸": 3239,
      "ĠÐľÐµÑĤÐ°Ð»Ð»": 3240,
      "Ð¢ÑĢÐµÐ¹Ð´ÐµÑĢ": 3241,
      "ĠÐ¿Ð¾Ð¿Ð¾Ð»Ð·Ð»Ð°": 3242,
      "ĠÐ½ÐµÐ´Ð¾ÑĥÐ¼ÐµÐ½Ð¸Ñı": 3243,
      "ĠÐ³ÑĢÐ°Ð½Ð´Ð¸Ð¾Ð·Ð½Ð¾ÑģÑĤÐ¸": 3244,
      "ĠÑģÐµÑĢÑĬÑĳÐ·Ð½Ð¾Ð³Ð¾": 3245,
      "ĠÐ½ÐµÑģÐµÑĢÑĬÑĳÐ·Ð½Ð¾Ðµ": 3246,
      "ĠÐ²Ð½ÐµÑĪÐ½ÐµÑįÐºÐ¾Ð½Ð¾Ð¼Ð¸ÑĩÐµÑģÐºÐ¸Ñħ": 3247,
      "ĠÐ½Ð¸Ð·ÐºÐ¾ÐºÐ°ÑĩÐµÑģÑĤÐ²ÐµÐ½Ð½Ð¾Ðµ": 3248,
      "Ġnext": 3249,
      "ĠÑĥÐ³ÑĢÐ¾Ð·Ñĭ": 3250,
      "ĠÐ´Ð¾Ð¿ÑĥÑģÐºÐ°ÐµÑĤ": 3251,
      "ĠÐ¼Ð°ÑģÑĪÑĤÐ°Ð±Ð½Ð¾ÑģÑĤÐ¸": 3252,
      "ĠÑģÐ²ÐµÑĢÑħÐ·Ð°Ð´Ð°ÑĩÐ¸": 3253,
      "ĠÐ¿Ð¾Ð»ÑĮÐ·Ð¾Ð²Ð°ÑĤÐµÐ»ÐµÐ¹": 3254,
      "ĠÐ¸Ð³Ð½Ð¾ÑĢÐ¸ÑĢÑĥÐµÐ¼ÑĭÐ¹": 3255,
      "ÐĹÐ°Ð½ÑıÑĤÐ¸Ðµ": 3256,
      "ĠÑĢÐµÐ¿Ð»Ð¸ÑĨÐ¸ÑĢÐ¾Ð²Ð°Ð½Ð½ÑĭÐµ": 3257,
      "ĠÐ¼ÐµÐ¶Ð´ÑĥÐ½Ð°ÑĢÐ¾Ð´Ð½Ð¾Ð¹": 3258,
      "ĠÐ·Ð°ÑĢÑĥÐ±ÐµÐ¶Ð½ÑĭÑħ": 3259,
      "ĠÐ½ÐµÑĥÐ·Ð½Ð°Ð²Ð°ÐµÐ¼Ð¾ÑģÑĤÐ¸": 3260
    },
    "merges": [
      [
        "Ð",
        "¾"
      ],
      [
        "Ð",
        "µ"
      ],
      [
        "Ġ",
        "Ð"
      ],
      [
        "Ð",
        "°"
      ],
      [
        "Ð",
        "¸"
      ],
      [
        "Ð",
        "½"
      ],
      [
        "Ñ",
        "Ĥ"
      ],
      [
        "Ñ",
        "ģ"
      ],
      [
        "Ð¾",
        "Ð"
      ],
      [
        "Ñ",
        "Ģ"
      ],
      [
        "Ðµ",
        "Ð"
      ],
      [
        "Ð°",
        "Ð"
      ],
      [
        "Ñ",
        "ĭ"
      ],
      [
        "Ñ",
        "ĥ"
      ],
      [
        "Ñ",
        "ı"
      ],
      [
        "Ð¸",
        "Ð"
      ],
      [
        "Ñģ",
        "ÑĤ"
      ],
      [
        "ĠÐ",
        "¿"
      ],
      [
        "Ñ",
        "ĩ"
      ],
      [
        "Ð",
        "»"
      ],
      [
        "Ñ",
        "Į"
      ],
      [
        "Ðµ",
        "Ð½"
      ],
      [
        "Ñ",
        "ħ"
      ],
      [
        "Ð",
        "²"
      ],
      [
        "Ð",
        "º"
      ],
      [
        "Ġ",
        "Ñģ"
      ],
      [
        "Ð¾Ð",
        "²"
      ],
      [
        "ĠÐ",
        "½"
      ],
      [
        "ĠÐ",
        "²"
      ],
      [
        "Ð½",
        "Ð¾"
      ],
      [
        "Ð½",
        "Ñĭ"
      ],
      [
        "Ñ",
        "Ĩ"
      ],
      [
        "ÑĢ",
        "ÐµÐ"
      ],
      [
        "Ðµ",
        "ÑĤ"
      ],
      [
        "ĠÐ",
        "º"
      ],
      [
        "ĠÐ",
        "¸"
      ],
      [
        "Ñĥ",
        "Ð"
      ],
      [
        "Ð°",
        "Ð½"
      ],
      [
        "ÑĢ",
        "Ð°Ð"
      ],
      [
        "ÑĤ",
        "Ð¾"
      ],
      [
        "Ñ",
        "İ"
      ],
      [
        "Ð¸",
        "Ñı"
      ],
      [
        "Ð¸",
        "ÑĤ"
      ],
      [
        "Ð",
        "´"
      ],
      [
        "ÐµÐ",
        "»"
      ],
      [
        "Ð",
        "¼"
      ],
      [
        "Ð¾Ð",
        "´"
      ],
      [
        "Ñ",
        "Ī"
      ],
      [
        "Ðµ",
        "ÑĢ"
      ],
      [
        "Ð¾Ð",
        "±"
      ],
      [
        "Ð°Ð",
        "»"
      ],
      [
        "Ġ",
        "ÑĤ"
      ],
      [
        "Ðµ",
        "Ñģ"
      ],
      [
        "Ñ",
        "ī"
      ],
      [
        "ĠÐ",
        "´"
      ],
      [
        "Ð¾Ð",
        "³"
      ],
      [
        "Ð°Ð",
        "º"
      ],
      [
        "ĠÐ¿",
        "ÑĢ"
      ],
      [
        "Ð",
        "¿"
      ],
      [
        "ĠÐ",
        "¼"
      ],
      [
        "â",
        "Ģ"
      ],
      [
        "Ð¾Ð",
        "¼"
      ],
      [
        "Ġ",
        "âĢ"
      ],
      [
        "ĠâĢ",
        "Ķ"
      ],
      [
        "Ð¾",
        "ÑĤ"
      ],
      [
        "Ð¾Ð",
        "»"
      ],
      [
        "Ð¾",
        "Ð½"
      ],
      [
        "ÑģÑĤ",
        "Ð²"
      ],
      [
        "ÑĨ",
        "Ð¸"
      ],
      [
        "Ġ",
        "Ñ"
      ],
      [
        "Ð°",
        "ÑĤ"
      ],
      [
        "Ġ",
        "Ñĩ"
      ],
      [
        "Ð¸Ð",
        "¹"
      ],
      [
        "Ð¸Ð",
        "²"
      ],
      [
        "ĠÐ",
        "·"
      ],
      [
        "Ð¸Ð",
        "¼"
      ],
      [
        "Ð¾",
        "ÑĢ"
      ],
      [
        "ÑĢÐµÐ",
        "´"
      ],
      [
        "Ġ",
        "ÑĢÐ°Ð"
      ],
      [
        "Ġ",
        "Ñħ"
      ],
      [
        "Ð½Ñĭ",
        "Ñħ"
      ],
      [
        "Ð°",
        "Ñı"
      ],
      [
        "Ð¸",
        "Ðµ"
      ],
      [
        "Ð¸Ð",
        "·"
      ],
      [
        "ĠÐ",
        "°"
      ],
      [
        "Ð¾Ð",
        "º"
      ],
      [
        "ĠÐ½",
        "Ðµ"
      ],
      [
        "ÐµÐ",
        "¹"
      ],
      [
        "Ġ",
        "2"
      ],
      [
        "Ð¾Ð",
        "¹"
      ],
      [
        "Ġ",
        "1"
      ],
      [
        "ĠÐ",
        "±"
      ],
      [
        "Ġ",
        "5"
      ],
      [
        "ĠÐ½",
        "Ð°"
      ],
      [
        "Ñ",
        "ĳ"
      ],
      [
        "Ġ",
        "3"
      ],
      [
        "Ð¾",
        "ÑģÑĤ"
      ],
      [
        "Ð°Ð",
        "²"
      ],
      [
        "Ġ",
        "4"
      ],
      [
        "Ġ",
        "6"
      ],
      [
        "Ġ",
        "7"
      ],
      [
        "Ġ",
        "9"
      ],
      [
        "Ġ",
        "8"
      ],
      [
        "Ð¸",
        "Ñĩ"
      ],
      [
        "č",
        "Ċ"
      ],
      [
        "Ġ",
        "ÑĢ"
      ],
      [
        "ÐµÐ½",
        "Ð¸Ñı"
      ],
      [
        "Ð¸",
        "Ð½"
      ],
      [
        "Ñģ",
        "Ñı"
      ],
      [
        "Ð¾Ð",
        "·"
      ],
      [
        "Ð",
        "¹"
      ],
      [
        "Ð¾Ð",
        "¿"
      ],
      [
        "Ð½Ð¾",
        "ÑģÑĤ"
      ],
      [
        "Ġ",
        "Ñĥ"
      ],
      [
        "Ð½Ð¾",
        "Ðµ"
      ],
      [
        "Ð",
        "³"
      ],
      [
        "Ð¾Ð³",
        "Ð¾"
      ],
      [
        "ĠÑĢÐ°Ð",
        "·"
      ],
      [
        "Ð»",
        "Ñı"
      ],
      [
        "Ð¾",
        "Ñģ"
      ],
      [
        "ĠÐ²",
        "Ñĭ"
      ],
      [
        "Ð°",
        "Ñĩ"
      ],
      [
        "ÐµÐ",
        "¼"
      ],
      [
        "Ð°Ð»",
        "ÑĮ"
      ],
      [
        "Ġ",
        "ÑģÑĤ"
      ],
      [
        "Ġ",
        "Ð¾Ð±"
      ],
      [
        "ÐµÐ",
        "´"
      ],
      [
        "Ġ",
        "/"
      ],
      [
        "ĠÑ",
        "į"
      ],
      [
        "Ðµ",
        "ÑģÑĤÐ²"
      ],
      [
        "ÐµÐ",
        "º"
      ],
      [
        "Ð¸",
        "ÑĢ"
      ],
      [
        "ĠÐ",
        "³"
      ],
      [
        "Ð°",
        "ÑģÑĤ"
      ],
      [
        "Ð°Ð",
        "¼"
      ],
      [
        "ĠÑ",
        "Ħ"
      ],
      [
        "Ñĥ",
        "Ñİ"
      ],
      [
        "Ð°Ð",
        "´"
      ],
      [
        "Ð¸Ð",
        "º"
      ],
      [
        "ÐµÐ»",
        "ÑĮ"
      ],
      [
        "ÐµÐ",
        "³"
      ],
      [
        "ĠÐ¿",
        "ÑĢÐµÐ´"
      ],
      [
        "Ð°",
        "ÐµÑĤ"
      ],
      [
        "Ð°",
        "Ñģ"
      ],
      [
        "ÐµÑģ",
        "Ðº"
      ],
      [
        "¹",
        "Ð½"
      ],
      [
        "Ð",
        "·"
      ],
      [
        "Ð°",
        "ÑĢ"
      ],
      [
        "Ð¾Ð",
        "¶"
      ],
      [
        "Ð½Ñĭ",
        "Ðµ"
      ],
      [
        "ĠÐ¿ÑĢ",
        "Ð¾"
      ],
      [
        "ÑĨÐ¸",
        "Ð¸"
      ],
      [
        "ÑĥÐ",
        "¹Ð½"
      ],
      [
        "Ð¸Ñĩ",
        "ÐµÑģÐº"
      ],
      [
        "Ð°Ð",
        "·"
      ],
      [
        "Ðº",
        "Ð°"
      ],
      [
        "Ð½Ñĭ",
        "Ð¹"
      ],
      [
        "ĠÑħ",
        "ÑĥÐ¹Ð½"
      ],
      [
        "Ð¸",
        "Ð¸"
      ],
      [
        "Ð¸",
        "Ñħ"
      ],
      [
        "Ġ",
        "Ð¾ÑĤ"
      ],
      [
        "ĠÐº",
        "Ð°Ðº"
      ],
      [
        "Ð¾Ð²",
        "Ñĭ"
      ],
      [
        "ÑĤÐ¾",
        "ÑĢ"
      ],
      [
        "ÐµÐ½",
        "Ð¸Ðµ"
      ],
      [
        "ÑĤ",
        "Ð¸Ð²"
      ],
      [
        "Ð¾Ð²",
        "Ð°Ð½"
      ],
      [
        "Ð¸Ð·",
        "Ð°"
      ],
      [
        "Ñĥ",
        "ÑĢ"
      ],
      [
        "ÐµÐ½",
        "Ð½ÑĭÑħ"
      ],
      [
        "Ñģ",
        "Ð»"
      ],
      [
        "ÐµÐ",
        "²"
      ],
      [
        "Ñĥ",
        "ÑĤ"
      ],
      [
        "Ð¾",
        "Ñĩ"
      ],
      [
        "ĠÐ¸",
        "Ð½"
      ],
      [
        "Ð°ÑĤ",
        "ÑĮ"
      ],
      [
        "ĠÑĩ",
        "ÑĤÐ¾"
      ],
      [
        "ÐµÐ",
        "¿"
      ],
      [
        "ĠÐ°",
        "Ðº"
      ],
      [
        "Ð¾",
        "Ðµ"
      ],
      [
        "ĠÑģ",
        "Ð²"
      ],
      [
        "ÐµÐ³",
        "Ð¾"
      ],
      [
        "ĠÐ",
        "»"
      ],
      [
        "Ð½",
        "Ð°Ñı"
      ],
      [
        "Ñĭ",
        "Ð²"
      ],
      [
        "Ð½Ð¾ÑģÑĤ",
        "Ð¸"
      ],
      [
        "Ñī",
        "ÐµÑģÑĤÐ²"
      ],
      [
        "Ð",
        "¶"
      ],
      [
        "Ðµ",
        "ÑĪ"
      ],
      [
        "ÐµÐ",
        "·"
      ],
      [
        "Ð¸Ð",
        "»"
      ],
      [
        "ÐµÐ½",
        "Ñĭ"
      ],
      [
        "Ñİ",
        "ÑĤ"
      ],
      [
        "Ð¸ÑĤ",
        "ÐµÐ»ÑĮ"
      ],
      [
        "Ñ",
        "Ħ"
      ],
      [
        "ÑĥÐ",
        "¿"
      ],
      [
        "ĠÑħÑĥÐ¹Ð½",
        "Ñı"
      ],
      [
        "Ð½",
        "Ð°Ñĩ"
      ],
      [
        "Ñģ",
        "Ðº"
      ],
      [
        "ĠÑģ",
        "Ð¾"
      ],
      [
        "ÑĨÐ¸",
        "Ð¾Ð½"
      ],
      [
        "ĠÐ¿",
        "Ð¾Ð´"
      ],
      [
        "ĠÑģ",
        "Ð¾Ð²"
      ],
      [
        "ĠÐ²",
        "Ð½"
      ],
      [
        "Ð´",
        "Ð°"
      ],
      [
        "ĠÑĢÐ°Ð·",
        "Ð²"
      ],
      [
        "Ñĥ",
        "ÐµÑĤ"
      ],
      [
        "ĠÑģ",
        "Ð»"
      ],
      [
        "ĠÑĤ",
        "Ð°Ðº"
      ],
      [
        "Ðµ",
        "Ñĩ"
      ],
      [
        "Ð½",
        "Ð¾Ð³Ð¾"
      ],
      [
        "Ð½Ð¾ÑģÑĤ",
        "ÑĮ"
      ],
      [
        "Ñĭ",
        "Ðµ"
      ],
      [
        "ĠÐ¿",
        "Ð¾"
      ],
      [
        "ÑĢÐµÐ",
        "¼"
      ],
      [
        "ĠÐ",
        "ļ"
      ],
      [
        "Ð»",
        "Ñİ"
      ],
      [
        "ĠÑĢÐ°Ð·Ð²",
        "Ð¸ÑĤ"
      ],
      [
        "!",
        ","
      ],
      [
        "Ġ",
        "ÑĨ"
      ],
      [
        "Ġ",
        "Ð¾Ð¿"
      ],
      [
        "Ð½",
        "Ð¾Ð¹"
      ],
      [
        "ĠÐ¿",
        "Ð¾Ð»"
      ],
      [
        "Ðº",
        "Ð¸"
      ],
      [
        "ÑĥÐ",
        "´"
      ],
      [
        "Ðµ",
        "ÑģÑĤ"
      ],
      [
        "ĠÐ",
        "Ł"
      ],
      [
        "Ð¸",
        "Ñģ"
      ],
      [
        "Ð¸ÑĤ",
        "ÑĮ"
      ],
      [
        "Ð¾ÑĢ",
        "Ð¼"
      ],
      [
        "Ð¸Ð·Ð°",
        "ÑĨÐ¸Ð¸"
      ],
      [
        "¶",
        "Ð´"
      ],
      [
        "Ð°Ð",
        "¿"
      ],
      [
        "ÑĨ",
        "Ð¸Ñı"
      ],
      [
        "ĠÑĤ",
        "ÑĢÐµÐ"
      ],
      [
        "ÐµÐ½",
        "ÑĤ"
      ],
      [
        "ÑĢÐµÐ",
        "·"
      ],
      [
        "ĠÑį",
        "ÑĤ"
      ],
      [
        "Ġ",
        "Ñı"
      ],
      [
        "Ð¸Ð",
        "´"
      ],
      [
        "ĠÑģ",
        "Ð¿"
      ],
      [
        "ÑĥÐ",
        "¼"
      ],
      [
        "ÐµÑģ",
        "Ñģ"
      ],
      [
        "ĠÐ°Ðº",
        "ÑĤÐ¸Ð²"
      ],
      [
        "ÑģÑĤ",
        "Ð°Ð²"
      ],
      [
        "ĠÐ¿",
        "Ð¾Ð·"
      ],
      [
        "ĠÐ¿ÑĢÐµÐ´",
        "ÑģÑĤÐ°Ð²"
      ],
      [
        "Ðµ",
        "Ñħ"
      ],
      [
        "ĠÐ",
        "Ĵ"
      ],
      [
        "Ñı",
        "ÑĤ"
      ],
      [
        "ÑĢÐ°Ð",
        "·"
      ],
      [
        "Ð¾Ð´",
        "Ð½"
      ],
      [
        "Ð¾Ð»",
        "ÑĮ"
      ],
      [
        "Ð¸ÑĢ",
        "Ð¾Ð²Ð°Ð½"
      ],
      [
        "Ñĭ",
        "ÑĤ"
      ],
      [
        "Ñĥ",
        "Ðº"
      ],
      [
        "Ð½Ñĭ",
        "Ð¼"
      ],
      [
        "ĠÐ´",
        "Ð»Ñı"
      ],
      [
        "i",
        "s"
      ],
      [
        "Ð",
        "±"
      ],
      [
        "Ðµ",
        "Ðµ"
      ],
      [
        "Ð¸",
        "ÑģÑĤ"
      ],
      [
        "Ð°Ð",
        "±"
      ],
      [
        "ĠÑĩ",
        "Ð°ÑģÑĤ"
      ],
      [
        "ĠÑĥ",
        "Ñĩ"
      ],
      [
        "ĠÐļ",
        "Ð°Ðº"
      ],
      [
        "Ġ",
        "t"
      ],
      [
        "ĠÐ",
        "Ŀ"
      ],
      [
        "ÑĢ",
        "Ð¾Ð²"
      ],
      [
        "ÐµÐ½",
        "Ð¸Ð¹"
      ],
      [
        "ĠÐº",
        "Ð¾Ð½"
      ],
      [
        "ÑĥÐ",
        "±"
      ],
      [
        "Ñİ",
        "Ñī"
      ],
      [
        "Ġ",
        "ÑĪ"
      ],
      [
        "ĠÐ",
        "¶"
      ],
      [
        "ÑĤ",
        "ÐµÑĢ"
      ],
      [
        "ĠÐ¿",
        "Ð¾Ð²"
      ],
      [
        "Ð²",
        "Ð¾Ð´"
      ],
      [
        "ĠÐ½",
        "ÐµÐ¿"
      ],
      [
        "ÑĢÐµÐ´",
        "ÐµÐ»"
      ],
      [
        "Ð°Ð²",
        "Ð¸Ñģ"
      ],
      [
        "Ð¾Ñģ",
        "Ð¾Ð±"
      ],
      [
        "ĠÑĦ",
        "Ð¾ÑĢÐ¼"
      ],
      [
        "Ð»Ñİ",
        "Ñĩ"
      ],
      [
        "h",
        "e"
      ],
      [
        "¹",
        "Ð´"
      ],
      [
        "Ġ",
        "Ð¾"
      ],
      [
        "ÑĢ",
        "Ð°Ð½"
      ],
      [
        "Ð°Ð»ÑĮ",
        "Ð½Ð¾"
      ],
      [
        "ÑĥÑİ",
        "Ñī"
      ],
      [
        "Ñĭ",
        "Ñħ"
      ],
      [
        "ĠÐ·",
        "Ð°Ð´"
      ],
      [
        "Ñĳ",
        "ÑĤ"
      ],
      [
        "ĠÑģÐ¾Ð²",
        "ÑĢÐµÐ¼"
      ],
      [
        "Ġ",
        "a"
      ],
      [
        "Ġ",
        "ÑĤÐ¾"
      ],
      [
        "Ð°",
        "ÑİÑī"
      ],
      [
        "Ñģ",
        "Ð¿"
      ],
      [
        "Ñĥ",
        "Ñĩ"
      ],
      [
        "ĠÐ¸",
        "Ð·"
      ],
      [
        "ÑĥÐ",
        "¶"
      ],
      [
        "Ð¾Ð²Ñĭ",
        "Ñħ"
      ],
      [
        "ÑģÐ»",
        "Ð¾Ð²"
      ],
      [
        "ĠÑĥÑĩ",
        "Ð°ÑģÑĤ"
      ],
      [
        "Ð½",
        "Ð¸Ðº"
      ],
      [
        "Ð¸Ð",
        "±"
      ],
      [
        "Ðº",
        "Ð¾"
      ],
      [
        "ĠÑģ",
        "Ð¾Ð±"
      ],
      [
        "ĠÐ²",
        "Ñģ"
      ],
      [
        "Ð¿",
        "Ð¾Ð»"
      ],
      [
        "ĠÑģÑĤ",
        "ÑĢ"
      ],
      [
        "Ð°Ð¼",
        "Ð¸"
      ],
      [
        "ĠÑĢÐ°Ð·Ð²Ð¸ÑĤ",
        "Ð¸Ñı"
      ],
      [
        "±",
        "Ð¾ÑĤ"
      ],
      [
        "Ġ",
        "Ð¾Ð´Ð½"
      ],
      [
        "Ð¾",
        "ÑĤÐ¾ÑĢ"
      ],
      [
        "ÑĤ",
        "ÑĥÑĢ"
      ],
      [
        "ÐµÐ½",
        "ÑĮ"
      ],
      [
        "Ñħ",
        "Ð¾Ð´"
      ],
      [
        "Ð´",
        "ÐµÐ»"
      ],
      [
        "Ð¾ÑģÑĤ",
        "Ð°Ð²"
      ],
      [
        "ĠÑģÐ²",
        "Ð¾"
      ],
      [
        "ÐµÑħ",
        "Ð½"
      ],
      [
        "Ð°Ð²Ð¸Ñģ",
        "Ð¸Ð¼"
      ],
      [
        "a",
        "s"
      ],
      [
        "Ð»",
        "Ð¸"
      ],
      [
        "ĠÐ¿Ð¾Ð·",
        "Ð¸"
      ],
      [
        "Ġ",
        "("
      ],
      [
        "Ð°Ð",
        "³"
      ],
      [
        "Ð°Ð",
        "¹"
      ],
      [
        "Ñĥ",
        "Ñī"
      ],
      [
        "Ñĥ",
        "ÑīÐµÑģÑĤÐ²"
      ],
      [
        "Ñı",
        "ÐµÑĤ"
      ],
      [
        "ĠÐ¿",
        "Ð»"
      ],
      [
        "ĠÐ¿",
        "Ð¾Ðº"
      ],
      [
        "Ð»",
        "ÑĮ"
      ],
      [
        "ĠÑģ",
        "ÑĥÑīÐµÑģÑĤÐ²"
      ],
      [
        "ÑĢÐ°Ð",
        "º"
      ],
      [
        "Ð¸Ð·",
        "Ð²"
      ],
      [
        "Ð¾ÑģÑĤ",
        "ÑĮ"
      ],
      [
        "Ð¾Ð·",
        "Ð½Ð°Ñĩ"
      ],
      [
        "Ġ",
        "ÑĢÐµÐ·"
      ],
      [
        "Ðµ",
        "Ñī"
      ],
      [
        "Ð°",
        "Ð½Ñĭ"
      ],
      [
        "Ð°Ð",
        "¶"
      ],
      [
        "Ñı",
        "Ð½"
      ],
      [
        "ÐµÐ½",
        "Ð¸"
      ],
      [
        "Ðº",
        "Ðµ"
      ],
      [
        "ĠÑģ",
        "Ð´ÐµÐ»"
      ],
      [
        "ÑĢÐ°Ð",
        "²"
      ],
      [
        "Ð¸Ñı",
        "ÑĤ"
      ],
      [
        "ĠÑĢ",
        "Ð°Ñģ"
      ],
      [
        "Ð¸Ð½",
        "Ð³"
      ],
      [
        "Ð»Ñı",
        "ÐµÑĤ"
      ],
      [
        "ĠÐ²Ñĭ",
        "Ñģ"
      ],
      [
        "ĠÐ²Ñĭ",
        "Ð²Ð¾Ð´"
      ],
      [
        "Ð°Ñĩ",
        "ÐµÑģÑĤÐ²"
      ],
      [
        "ĠÑĤÑĢÐµÐ",
        "¹Ð´"
      ],
      [
        "ĠÑı",
        "Ð²"
      ],
      [
        "ĠÑģÐ¾Ð²ÑĢÐµÐ¼",
        "ÐµÐ½Ð½ÑĭÑħ"
      ],
      [
        ".",
        "."
      ],
      [
        "Ñ",
        "Ĭ"
      ],
      [
        "ĠÐ",
        "¡"
      ],
      [
        "ÑĢ",
        "Ð¸ÑıÑĤ"
      ],
      [
        "Ñĥ",
        "Ð½"
      ],
      [
        "ĠÐº",
        "Ð¾Ð¼"
      ],
      [
        "ĠÐº",
        "Ð¾ÑĤÐ¾ÑĢ"
      ],
      [
        "ÐµÐ»",
        "Ð¸"
      ],
      [
        "ÐµÐ¹",
        "ÑģÑĤÐ²"
      ],
      [
        "ĠÐ±",
        "Ð°Ð·"
      ],
      [
        "ĠÐ±",
        "ÑĭÑĤ"
      ],
      [
        "ĠÐ¾Ð±",
        "ÑĢÐ°Ð·"
      ],
      [
        "ĠÑĦÐ¾ÑĢÐ¼",
        "Ð¸ÑĢÐ¾Ð²Ð°Ð½"
      ],
      [
        "ĠÐ±ÑĭÑĤ",
        "ÑĮ"
      ],
      [
        "Ðµ",
        "Ð°Ð»"
      ],
      [
        "Ð°",
        "Ñħ"
      ],
      [
        "Ð°",
        "ÑİÑĤ"
      ],
      [
        "Ð½",
        "Ð¾Ð¼"
      ],
      [
        "Ð½",
        "ÐµÐ¹"
      ],
      [
        "ÐµÐ",
        "±"
      ],
      [
        "Ð°Ð½",
        "Ñģ"
      ],
      [
        "ĠÐ¿ÑĢ",
        "Ð¸Ð½"
      ],
      [
        "ĠÑĢ",
        "ÐµÐ°Ð»"
      ],
      [
        "ĠÑģÐ¾",
        "ÑĨÐ¸"
      ],
      [
        "ĠÑĨ",
        "ÐµÐ»"
      ],
      [
        "ĠÑģÐ¿",
        "Ð¾ÑģÐ¾Ð±"
      ],
      [
        "Ð¾Ð»ÑĮ",
        "ÐºÐ¾"
      ],
      [
        "0",
        "0"
      ],
      [
        "Ð¸Ð",
        "¿"
      ],
      [
        "Ð»",
        "ÐµÐ½Ð¸Ðµ"
      ],
      [
        "Ð²",
        "ÐµÑĤ"
      ],
      [
        "ÑĨ",
        "ÐµÐ½"
      ],
      [
        "ÑĨ",
        "Ð¸Ð¹"
      ],
      [
        "Ð°Ð½",
        "Ð¸Ñı"
      ],
      [
        "ÐµÐ»",
        "Ð¾Ð²"
      ],
      [
        "ĠÐ´",
        "Ð¾Ð»"
      ],
      [
        "Ð°ÑĢ",
        "ÑĤ"
      ],
      [
        "Ð¶",
        "Ðµ"
      ],
      [
        "ĠÑĤÐ°Ðº",
        "Ð¶Ðµ"
      ],
      [
        "ĠÐ¿Ð¾Ð»",
        "Ð¸ÑĤ"
      ],
      [
        "ÑĥÐº",
        "ÑĤÑĥÑĢ"
      ],
      [
        "ĠÑģÑĤÑĢ",
        "ÑĥÐºÑĤÑĥÑĢ"
      ],
      [
        "ĠÐ¾Ð±ÑĢÐ°Ð·",
        "Ð¾Ð¼"
      ],
      [
        "Ð°",
        "ÑĪ"
      ],
      [
        "Ð°",
        "ÐµÐ¼"
      ],
      [
        "Ñĭ",
        "Ð¹"
      ],
      [
        "Ñĥ",
        "Ð»ÑĮ"
      ],
      [
        "Ð»",
        "ÐµÐ½Ð¸Ñı"
      ],
      [
        "ÑĢÐ°Ð",
        "¶"
      ],
      [
        "Ð¼",
        "Ð¸"
      ],
      [
        "Ð¾Ð³",
        "Ð´Ð°"
      ],
      [
        "ĠÐ¼",
        "ÐµÑĤ"
      ],
      [
        "Ð°ÑĤ",
        "Ð¸Ð²"
      ],
      [
        "ĠÐ·",
        "Ð½Ð°Ñĩ"
      ],
      [
        "Ð¸Ð¼",
        "ÐµÑĢ"
      ],
      [
        "ĠÐ½Ð°",
        "Ñģ"
      ],
      [
        "Ð°Ð»ÑĮ",
        "Ð½ÑĭÑħ"
      ],
      [
        "Ð¸ÑĢ",
        "Ð¾Ðº"
      ],
      [
        "ĠÐºÐ°Ðº",
        "Ð°Ñı"
      ],
      [
        "ĠÐ¸Ð½",
        "ÑĤÐµÑĢ"
      ],
      [
        "ÑĭÐ²",
        "Ð°ÐµÑĤ"
      ],
      [
        "ĠÑĪ",
        "Ð¸ÑĢÐ¾Ðº"
      ],
      [
        "Ġ",
        "ÑĤÐ¾ÑĢ"
      ],
      [
        "Ġ",
        "Ð¾Ñĩ"
      ],
      [
        "Ð¾",
        "ÑıÐ½"
      ],
      [
        "ĠÐ",
        "ŀ"
      ],
      [
        "Ð°",
        "ÑĨÐ¸Ð¾Ð½"
      ],
      [
        "Ð½",
        "Ñı"
      ],
      [
        "ÑģÑĤ",
        "ÑĢ"
      ],
      [
        "ĠÐ¿",
        "ÐµÑĢ"
      ],
      [
        "ÐµÐ½",
        "Ð¸Ð¸"
      ],
      [
        "ĠÐ½",
        "ÐµÐ·"
      ],
      [
        "ĠÐº",
        "Ð°ÑĩÐµÑģÑĤÐ²"
      ],
      [
        "ĠÐ¸",
        "ÑģÐº"
      ],
      [
        "ÑĥÐ",
        "·"
      ],
      [
        "Ð°Ð½",
        "Ð´"
      ],
      [
        "ÑĪ",
        "ÑĮ"
      ],
      [
        "Ð¾Ð³",
        "ÑĢ"
      ],
      [
        "ĠÐ¿ÑĢ",
        "Ð¾Ð´"
      ],
      [
        "ĠÐ¼",
        "Ñĭ"
      ],
      [
        "ĠÑĩ",
        "ÐµÐ»Ð¾Ð²"
      ],
      [
        "ĠÑĢÐ°Ð",
        "±Ð¾ÑĤ"
      ],
      [
        "ĠÐ°",
        "Ð½"
      ],
      [
        "ĠÐ½Ðµ",
        "Ð¸Ð·Ð²"
      ],
      [
        "Ñĳ",
        "Ð²"
      ],
      [
        "Ð¾ÑģÑĤ",
        "Ð¾ÑıÐ½"
      ],
      [
        "ĠÑĥ",
        "Ðº"
      ],
      [
        "ĠÑĥ",
        "ÑĢÐ¾Ð²"
      ],
      [
        "Ð»Ñı",
        "ÑİÑĤ"
      ],
      [
        "ĠÑį",
        "Ðº"
      ],
      [
        "Ð¸Ðº",
        "Ð°"
      ],
      [
        "ĠÐ¾Ð¿",
        "ÑĢÐµÐ´ÐµÐ»"
      ],
      [
        "ĠÑĤÑĢÐµÐ",
        "±"
      ],
      [
        "ĠÐ¿ÑĢÐµÐ´ÑģÑĤÐ°Ð²",
        "Ð¸ÑĤ"
      ],
      [
        "ĠÐ¿Ð¾Ð²",
        "ÐµÐ´"
      ],
      [
        "Ð¾Ð·Ð½Ð°Ñĩ",
        "Ð½Ð¾"
      ],
      [
        "ĠÐ¼ÐµÑĤ",
        "Ð¾Ð´"
      ],
      [
        "ĠÑĤÐ¾ÑĢ",
        "Ð³"
      ],
      [
        "ĠÑĩÐµÐ»Ð¾Ð²",
        "ÐµÐº"
      ],
      [
        "ĠÐ½ÐµÐ¸Ð·Ð²",
        "ÐµÑģÑĤ"
      ],
      [
        "i",
        "n"
      ],
      [
        "Ð",
        "Ĵ"
      ],
      [
        "Ġ",
        "s"
      ],
      [
        "ĠÐ",
        "Ķ"
      ],
      [
        "ÐµÐ½",
        "Ð½Ð¾ÑģÑĤÐ¸"
      ],
      [
        "ĠÐ½",
        "Ð°Ð¿"
      ],
      [
        "ĠÐ²",
        "Ð°Ð¶"
      ],
      [
        "ĠÐº",
        "ÑĢ"
      ],
      [
        "ĠÐ¸",
        "Ñħ"
      ],
      [
        "ÑĥÐ",
        "³"
      ],
      [
        "ÐµÑĢ",
        "Ð¸"
      ],
      [
        "ÐµÑĢ",
        "ÑĪ"
      ],
      [
        "Ð¾Ð½",
        "Ð¾Ð¼"
      ],
      [
        "Ð¸Ð²",
        "Ð°ÐµÑĤ"
      ],
      [
        "ĠÐ·",
        "Ð°"
      ],
      [
        "ĠÐ·",
        "Ð°Ð±"
      ],
      [
        "ÐµÐº",
        "ÑĤÐ¸Ð²"
      ],
      [
        "Ð¸ÑĤÐµÐ»ÑĮ",
        "Ð½Ð¾"
      ],
      [
        "ĠÑĢÐ°Ð·Ð²Ð¸ÑĤ",
        "Ð¸Ðµ"
      ],
      [
        "ĠÐ²Ñģ",
        "ÐµÐ³Ð¾"
      ],
      [
        "ĠÐ²ÑĭÑģ",
        "Ð¾Ðº"
      ],
      [
        "ĠÐ¿Ð¾Ð»Ð¸ÑĤ",
        "Ð¸ÑĩÐµÑģÐº"
      ],
      [
        "!",
        "."
      ],
      [
        "Ñ",
        "į"
      ],
      [
        "Ġ",
        "c"
      ],
      [
        "Ġ",
        "Ð¾Ð³"
      ],
      [
        "Ġ",
        "Ð¾ÑĢ"
      ],
      [
        "ĠÐ",
        "¢"
      ],
      [
        "ĠÐ",
        "ĺ"
      ],
      [
        "Ð½",
        "ÐµÐ²"
      ],
      [
        "ÑĢ",
        "ÐµÐ½"
      ],
      [
        "Ñĭ",
        "Ð»"
      ],
      [
        "Ñĥ",
        "ÑģÐ»Ð¾Ð²"
      ],
      [
        "Ð»",
        "ÐµÐ¼"
      ],
      [
        "Ðº",
        "ÑĢ"
      ],
      [
        "ĠÐ½",
        "Ð°Ð¼"
      ],
      [
        "ĠÐ²",
        "ÑģÑı"
      ],
      [
        "Ð¼",
        "Ñĭ"
      ],
      [
        "Ð¾ÑĤ",
        "Ð²ÐµÑĤ"
      ],
      [
        "Ð¾Ð½",
        "ÑıÑĤ"
      ],
      [
        "ÑģÑĤÐ²",
        "ÑĥÐµÑĤ"
      ],
      [
        "Ð°ÑĤ",
        "ÐµÐ»ÑĮ"
      ],
      [
        "Ð¸Ð²",
        "ÑĪ"
      ],
      [
        "Ð¸Ð¼",
        "Ð¾ÑģÑĤÑĮ"
      ],
      [
        "ĠÐ½Ðµ",
        "Ñĩ"
      ],
      [
        "Ð³",
        "Ð°Ð½"
      ],
      [
        "ĠÐ¾Ð±",
        "ÑīÐµÑģÑĤÐ²"
      ],
      [
        "ÐµÐº",
        "ÑĤ"
      ],
      [
        "Ð¾Ð¶",
        "Ð¸Ð²ÑĪ"
      ],
      [
        "ÐºÐ°",
        "Ñħ"
      ],
      [
        "Ð¸Ð»",
        "ÑĮ"
      ],
      [
        "Ð»ÑİÑĩ",
        "Ð¸ÑĤÐµÐ»ÑĮÐ½Ð¾"
      ],
      [
        "ĠÐ²ÑĭÐ²Ð¾Ð´",
        "Ñĭ"
      ],
      [
        "ĠÑĤÑĢÐµÐ¹Ð´",
        "ÐµÑĢ"
      ],
      [
        "ĠÐºÐ¾Ð¼",
        "Ð¿"
      ],
      [
        "ĠÐºÐ¾ÑĤÐ¾ÑĢ",
        "ÑĭÐµ"
      ],
      [
        "ĠÐ½ÐµÐ·",
        "Ð°Ð²Ð¸ÑģÐ¸Ð¼"
      ],
      [
        "ĠÐ¸ÑģÐº",
        "Ð»ÑİÑĩÐ¸ÑĤÐµÐ»ÑĮÐ½Ð¾"
      ],
      [
        "ĠÐ°Ð½",
        "Ð°Ð»"
      ],
      [
        "ĠÐ¾ÑĢ",
        "Ð³Ð°Ð½"
      ],
      [
        ".",
        "!"
      ],
      [
        "a",
        "t"
      ],
      [
        "Ġ",
        "is"
      ],
      [
        "Ðµ",
        "ÑĨÐ¸"
      ],
      [
        "Ð½",
        "ÐµÑĤ"
      ],
      [
        "Ð½",
        "ÑĥÑİ"
      ],
      [
        "Ñģ",
        "ÐµÐ´"
      ],
      [
        "Ðº",
        "Ð¸Ð¹"
      ],
      [
        "ĠÑģ",
        "Ð¾Ð·"
      ],
      [
        "ÑĨ",
        "ÐµÑģÑģ"
      ],
      [
        "Ð¼",
        "Ð¾ÑĤ"
      ],
      [
        "ĠÑĤ",
        "ÐµÑħÐ½"
      ],
      [
        "ĠÐ´",
        "ÐµÑĪ"
      ],
      [
        "ĠÐ´",
        "ÐµÐ¹ÑģÑĤÐ²"
      ],
      [
        "ĠÐ¼",
        "Ð¾Ð¶"
      ],
      [
        "Ð¾Ð»",
        "Ð¾Ð³"
      ],
      [
        "ÑģÑĤÐ²",
        "ÑĥÑİÑī"
      ],
      [
        "Ġ2",
        "5"
      ],
      [
        "Ġ5",
        "0"
      ],
      [
        "Ð¸Ð½",
        "Ð°Ð½Ñģ"
      ],
      [
        "ĠÑį",
        "ÑĤÐ¾"
      ],
      [
        "ĠÐ³",
        "Ð»"
      ],
      [
        "Ð¸Ðº",
        "Ð¸"
      ],
      [
        "ĠÐ¿ÑĢÐ¾",
        "ÑĨÐµÑģÑģ"
      ],
      [
        "ĠÐ¾ÑĤ",
        "Ð½Ð¾"
      ],
      [
        "ĠÑģÐ¾",
        "Ð¾ÑĤÐ²ÐµÑĤ"
      ],
      [
        "ĠÑģÐ»",
        "Ð¾Ð¶Ð¸Ð²ÑĪ"
      ],
      [
        "ÑĨÐ¸Ñı",
        "Ð¼Ð¸"
      ],
      [
        "ĠÑįÑĤ",
        "Ð°"
      ],
      [
        "Ð¾ÑģÑĤÐ°Ð²",
        "Ð»"
      ],
      [
        "ĠÐ¿Ð»",
        "Ð°Ð½"
      ],
      [
        "ĠÐ¿Ð¾Ðº",
        "Ð°Ð·"
      ],
      [
        "ĠÑģÐ¿Ð¾ÑģÐ¾Ð±",
        "ÑģÑĤÐ²ÑĥÐµÑĤ"
      ],
      [
        "Ð¾Ð½Ð¾Ð¼",
        "Ð¸ÑĩÐµÑģÐº"
      ],
      [
        "ĠÐ¾ÑĢÐ³Ð°Ð½",
        "Ð¸Ð·Ð°ÑĨÐ¸Ð¸"
      ],
      [
        "ÑģÐµÐ´",
        "Ð½ÐµÐ²"
      ],
      [
        "Ð",
        "ŀ"
      ],
      [
        "Ġ",
        "g"
      ],
      [
        "Ġ",
        "h"
      ],
      [
        "Ġ",
        "w"
      ],
      [
        "Ġ",
        "Ð¾Ð½"
      ],
      [
        "Ġ",
        "ÑĥÐ¿"
      ],
      [
        "Ðµ",
        "ÑĢÐµÐ´"
      ],
      [
        "Ð½",
        "Ð°"
      ],
      [
        "Ð½",
        "Ð¾Ð²"
      ],
      [
        "ÑĢ",
        "Ð¸"
      ],
      [
        "ÑĢ",
        "Ð¾Ð¿"
      ],
      [
        "ÐµÐ",
        "¶"
      ],
      [
        "Ñĥ",
        "Ñģ"
      ],
      [
        "Ñı",
        "Ñī"
      ],
      [
        "ÐµÐ½",
        "Ð½Ð¾Ð³Ð¾"
      ],
      [
        "ĠÑģ",
        "Ð°Ð¼"
      ],
      [
        "ÑĢÐµÐ",
        "±"
      ],
      [
        "Ð°Ð½",
        "ÑĤ"
      ],
      [
        "Ð¼",
        "ÐµÑĤ"
      ],
      [
        "Ð°Ð»",
        "Ð¾"
      ],
      [
        "ĠÐ¿ÑĢ",
        "Ð¸"
      ],
      [
        "Ð¿",
        "ÐµÑĩ"
      ],
      [
        "ĠÐ½Ðµ",
        "Ð¾Ð¿"
      ],
      [
        "Ġ2",
        "0"
      ],
      [
        "Ġ2",
        "2"
      ],
      [
        "Ġ2",
        "4"
      ],
      [
        "Ġ2",
        "6"
      ],
      [
        "Ġ1",
        "0"
      ],
      [
        "ĠÐ±",
        "ÐµÑģ"
      ],
      [
        "Ñĳ",
        "Ð¼"
      ],
      [
        "ĠÑĢ",
        "Ñĭ"
      ],
      [
        "ĠÑĦ",
        "Ð¸Ð½Ð°Ð½Ñģ"
      ],
      [
        "ĠÑħÑĥÐ¹Ð½",
        "Ñİ"
      ],
      [
        "Ð¾Ð²Ñĭ",
        "Ð¹"
      ],
      [
        "ĠÐ»",
        "Ð¸Ð±"
      ],
      [
        "Ð¶",
        "Ð½Ñĭ"
      ],
      [
        "ÐµÑĪ",
        "Ð½"
      ],
      [
        "ÐµÐ½ÑĤ",
        "Ñĭ"
      ],
      [
        "ÑĢÐ°Ð½",
        "Ð¸Ñĩ"
      ],
      [
        "ĠÑģÐ¾Ð±",
        "Ð¾Ð¹"
      ],
      [
        "ĠÐ¾Ð´Ð½",
        "Ð¾Ð·Ð½Ð°ÑĩÐ½Ð¾"
      ],
      [
        "ĠÐ´Ð¾Ð»",
        "Ð¶Ð½Ñĭ"
      ],
      [
        "ĠÐ¾Ð³",
        "ÑĢÐ°Ð½Ð¸Ñĩ"
      ],
      [
        "ĠÐ½ÐµÑĩ",
        "ÑĤÐ¾"
      ],
      [
        "ĠÐ´ÐµÑĪ",
        "ÑĳÐ²"
      ],
      [
        "ĠÑģÐ¾Ð¾ÑĤÐ²ÐµÑĤ",
        "ÑģÑĤÐ²ÑĥÑİÑī"
      ],
      [
        "?",
        "!"
      ],
      [
        "l",
        "as"
      ],
      [
        "n",
        "d"
      ],
      [
        "Ð",
        "Ŀ"
      ],
      [
        "ĠÐ",
        "ĵ"
      ],
      [
        "ĠÐ",
        "Ĺ"
      ],
      [
        "Ð¸",
        "Ð½Ñĭ"
      ],
      [
        "Ð¸",
        "ÑĪÑĮ"
      ],
      [
        "Ð°Ð",
        "¶Ð´"
      ],
      [
        "Ñı",
        "Ð´"
      ],
      [
        "ĠÐ¿",
        "Ð¾Ð²Ñĭ"
      ],
      [
        "ĠÐ¿",
        "Ð¾ÑģÑĤÐ°Ð²Ð»"
      ],
      [
        "Ñĩ",
        "Ð¸ÑĤ"
      ],
      [
        "Ð»",
        "Ð¾Ð¶"
      ],
      [
        "ÐµÐ½",
        "Ð½ÑĭÐµ"
      ],
      [
        "Ð²",
        "Ð¾Ð²"
      ],
      [
        "Ð²",
        "Ð¾Ð»"
      ],
      [
        "Ð¾Ð²",
        "Ð¾ÑĢ"
      ],
      [
        "ĠÐ½",
        "Ð°Ð·"
      ],
      [
        "ĠÐ²",
        "Ð¸Ð´"
      ],
      [
        "ĠÐ²",
        "ÐµÑī"
      ],
      [
        "ÑĢÐµÐ",
        "¿"
      ],
      [
        "ĠÐº",
        "Ð»"
      ],
      [
        "ĠÐº",
        "Ð¾Ð³Ð´Ð°"
      ],
      [
        "ĠÐ¸",
        "Ð³"
      ],
      [
        "Ð°Ð½",
        "Ð¸Ð¹"
      ],
      [
        "Ð¸ÑĤ",
        "Ñĥ"
      ],
      [
        "ÑĪ",
        "ÐµÐ¹"
      ],
      [
        "ÐµÑĢ",
        "Ð²Ð¾Ð²"
      ],
      [
        "ĠÐ¿ÑĢ",
        "Ð¸Ð¼ÐµÑĢ"
      ],
      [
        "Ð¾Ðº",
        "ÑĢ"
      ],
      [
        "Ġ2",
        "1"
      ],
      [
        "Ġ2",
        "3"
      ],
      [
        "Ġ2",
        "7"
      ],
      [
        "Ġ2",
        "8"
      ],
      [
        "Ġ2",
        "9"
      ],
      [
        "Ġ1",
        "1"
      ],
      [
        "Ġ1",
        "2"
      ],
      [
        "Ġ1",
        "3"
      ],
      [
        "Ġ1",
        "4"
      ],
      [
        "Ġ1",
        "5"
      ],
      [
        "Ġ1",
        "6"
      ],
      [
        "Ġ1",
        "7"
      ],
      [
        "Ġ1",
        "8"
      ],
      [
        "Ġ1",
        "9"
      ],
      [
        "Ġ5",
        "1"
      ],
      [
        "Ġ5",
        "2"
      ],
      [
        "Ġ5",
        "3"
      ],
      [
        "Ġ5",
        "4"
      ],
      [
        "Ġ5",
        "5"
      ],
      [
        "Ġ5",
        "6"
      ],
      [
        "Ġ5",
        "7"
      ],
      [
        "Ġ5",
        "9"
      ],
      [
        "Ġ3",
        "1"
      ],
      [
        "Ġ3",
        "2"
      ],
      [
        "Ġ3",
        "4"
      ],
      [
        "Ġ3",
        "5"
      ],
      [
        "Ġ3",
        "6"
      ],
      [
        "Ġ3",
        "7"
      ],
      [
        "Ġ3",
        "8"
      ],
      [
        "Ġ3",
        "9"
      ],
      [
        "Ð¾ÑģÑĤ",
        "Ð¸"
      ],
      [
        "Ġ4",
        "1"
      ],
      [
        "Ġ4",
        "2"
      ],
      [
        "Ġ4",
        "3"
      ],
      [
        "Ġ4",
        "4"
      ],
      [
        "Ġ4",
        "5"
      ],
      [
        "Ġ4",
        "6"
      ],
      [
        "Ġ4",
        "7"
      ],
      [
        "Ġ4",
        "8"
      ],
      [
        "Ġ4",
        "9"
      ],
      [
        "Ġ6",
        "1"
      ],
      [
        "Ġ6",
        "2"
      ],
      [
        "Ġ6",
        "3"
      ],
      [
        "Ġ6",
        "4"
      ],
      [
        "Ġ6",
        "5"
      ],
      [
        "Ġ6",
        "6"
      ],
      [
        "Ġ6",
        "7"
      ],
      [
        "Ġ6",
        "8"
      ],
      [
        "Ġ6",
        "9"
      ],
      [
        "Ġ7",
        "1"
      ],
      [
        "Ġ7",
        "2"
      ],
      [
        "Ġ7",
        "3"
      ],
      [
        "Ġ7",
        "4"
      ],
      [
        "Ġ7",
        "5"
      ],
      [
        "Ġ7",
        "6"
      ],
      [
        "Ġ7",
        "7"
      ],
      [
        "Ġ7",
        "8"
      ],
      [
        "Ġ7",
        "9"
      ],
      [
        "Ġ9",
        "1"
      ],
      [
        "Ġ9",
        "2"
      ],
      [
        "Ġ9",
        "3"
      ],
      [
        "Ġ9",
        "4"
      ],
      [
        "Ġ9",
        "5"
      ],
      [
        "Ġ9",
        "6"
      ],
      [
        "Ġ9",
        "7"
      ],
      [
        "Ġ9",
        "8"
      ],
      [
        "Ġ9",
        "9"
      ],
      [
        "Ġ8",
        "1"
      ],
      [
        "Ġ8",
        "2"
      ],
      [
        "Ġ8",
        "4"
      ],
      [
        "Ġ8",
        "5"
      ],
      [
        "Ġ8",
        "6"
      ],
      [
        "Ġ8",
        "7"
      ],
      [
        "Ġ8",
        "8"
      ],
      [
        "Ġ8",
        "9"
      ],
      [
        "Ð¾Ð¿",
        "ÑĢÐ¸ÑıÑĤ"
      ],
      [
        "ĠÑģÑĤ",
        "ÐµÐ¿"
      ],
      [
        "ĠÐ³",
        "Ð¾ÑĢ"
      ],
      [
        "Ð¾Ð²Ð°Ð½",
        "Ð¸Ð¹"
      ],
      [
        "Ð°ÑĤÑĮ",
        "ÑģÑı"
      ],
      [
        "ĠÑģÐ¾Ð²",
        "ÐµÑĢÑĪ"
      ],
      [
        "ĠÐ²Ð½",
        "ÐµÑĪÐ½"
      ],
      [
        "ĠÑģÐ»",
        "ÐµÐ´"
      ],
      [
        "ĠÐ¿Ð¾Ð·",
        "Ð²Ð¾Ð»"
      ],
      [
        "ĠÐ·Ð°Ð´",
        "Ð°Ñĩ"
      ],
      [
        "ĠÑĤÐ¾",
        "Ñĩ"
      ],
      [
        "Ð°ÑİÑī",
        "ÐµÐµ"
      ],
      [
        "ĠÑĥÑĩÐ°ÑģÑĤ",
        "Ð½Ð¸Ðº"
      ],
      [
        "Ð¿Ð¾Ð»",
        "ÐµÐ·"
      ],
      [
        "ĠÐ¿Ð¾Ð·Ð¸",
        "ÑĨÐ¸Ð¸"
      ],
      [
        "ĠÑģÑĥÑīÐµÑģÑĤÐ²",
        "ÑĥÑİÑī"
      ],
      [
        "ĠÑĢÐµÐ·",
        "ÐµÑĢÐ²Ð¾Ð²"
      ],
      [
        "ĠÑĦÐ¾ÑĢÐ¼Ð¸ÑĢÐ¾Ð²Ð°Ð½",
        "Ð¸Ð¸"
      ],
      [
        "Ð½ÐµÐ¹",
        "ÑĪ"
      ],
      [
        "ÑĥÐ»ÑĮ",
        "ÑĤ"
      ],
      [
        "ĠÐ¼Ñĭ",
        "ÑĪ"
      ],
      [
        "ĠÐ¿Ð¾Ð²ÐµÐ´",
        "ÐµÐ½Ð¸Ñı"
      ],
      [
        "ĠÐ½ÐµÐ·Ð°Ð²Ð¸ÑģÐ¸Ð¼",
        "ÑĭÐµ"
      ],
      [
        "ĠÐ°Ð½Ð°Ð»",
        "Ð¸Ð·Ð°"
      ],
      [
        "ĠÐ±ÐµÑģ",
        "Ð¿Ð¾Ð»ÐµÐ·"
      ],
      [
        "ĠÑĢÑĭ",
        "Ð½"
      ],
      [
        "ĠÐ¿Ð¾ÑģÑĤÐ°Ð²Ð»",
        "ÐµÐ½Ð½ÑĭÑħ"
      ],
      [
        "ĠÑģÑĤÐµÐ¿",
        "ÐµÐ½Ð¸"
      ],
      [
        "ĠÐ¿Ð¾Ð·Ð²Ð¾Ð»",
        "ÑıÐµÑĤ"
      ],
      [
        "c",
        "h"
      ],
      [
        "e",
        "r"
      ],
      [
        "o",
        "r"
      ],
      [
        "Ġ",
        "f"
      ],
      [
        "Ġ",
        "ÑĥÐ±"
      ],
      [
        "Ġ",
        "Ð¾ÑģÐ¾Ð±"
      ],
      [
        "Ġ",
        "ÑĥÐ¶"
      ],
      [
        "Ð¾",
        "Ñħ"
      ],
      [
        "ĠÐ",
        "§"
      ],
      [
        "ĠÐ",
        "Ĳ"
      ],
      [
        "ĠÐ",
        "ĳ"
      ],
      [
        "Ð¸",
        "Ð¾Ð½"
      ],
      [
        "Ñģ",
        "ÑģÐ»"
      ],
      [
        "Ñĭ",
        "Ñĩ"
      ],
      [
        "Ð¸Ð",
        "³"
      ],
      [
        "ĠÐ¿",
        "Ð¾Ñģ"
      ],
      [
        "ĠÐ¿",
        "Ð¾ÑģÑĤÐ¾ÑıÐ½"
      ],
      [
        "Ð»",
        "ÐµÐ´"
      ],
      [
        "ÐµÐ½",
        "Ð½ÑĭÐ¹"
      ],
      [
        "Ðº",
        "Ð¾Ðµ"
      ],
      [
        "ĠÑģ",
        "Ð¸ÑĤÑĥ"
      ],
      [
        "ĠÐ½",
        "Ð¾Ð²"
      ],
      [
        "ĠÐ½",
        "Ð°Ð´"
      ],
      [
        "ĠÐ²",
        "Ð¾Ð·"
      ],
      [
        "ĠÐº",
        "Ð°Ð´"
      ],
      [
        "ĠÐ¸",
        "ÑģÑģÐ»"
      ],
      [
        "Ð°Ð½",
        "Ð½Ð¾Ðµ"
      ],
      [
        "ÑĢÐ°Ð",
        "»"
      ],
      [
        "ÐµÐ»",
        "ÐµÐ¹"
      ],
      [
        "ÐµÑĢ",
        "Ð°"
      ],
      [
        "Ð°Ð»",
        "Ð¸ÑĤ"
      ],
      [
        "ĠÑĤ",
        "Ñĭ"
      ],
      [
        "ÐµÑģ",
        "Ð¿ÐµÑĩ"
      ],
      [
        "ĠÐ´",
        "ÐµÐ»"
      ],
      [
        "ĠÐ´",
        "Ð°Ð»ÑĮ"
      ],
      [
        "ĠÐ¿ÑĢ",
        "Ð¾Ð³ÑĢ"
      ],
      [
        "ĠÐ¼",
        "Ð¾Ð´"
      ],
      [
        "ĠÐ¼",
        "Ð°ÑĤ"
      ],
      [
        "ĠÑĩ",
        "ÐµÐ³Ð¾"
      ],
      [
        "ĠÐ·",
        "Ð°Ð²Ð¸ÑģÐ¸Ð¼"
      ],
      [
        "ĠÑĢÐ°Ð",
        "¼"
      ],
      [
        "ĠÐ½Ðµ",
        "Ð¾Ð±"
      ],
      [
        "ĠÐ±",
        "ÑĥÐ´"
      ],
      [
        "Ġ5",
        "8"
      ],
      [
        "ĠÐ½Ð°",
        "ÑĪÐµÐ¹"
      ],
      [
        "Ġ3",
        "0"
      ],
      [
        "Ġ3",
        "3"
      ],
      [
        "Ġ4",
        "0"
      ],
      [
        "Ġ6",
        "0"
      ],
      [
        "Ġ7",
        "0"
      ],
      [
        "Ġ9",
        "0"
      ],
      [
        "Ġ8",
        "0"
      ],
      [
        "Ġ8",
        "3"
      ],
      [
        "ĠÑĥ",
        "ÑģÐ»Ð¾Ð²"
      ],
      [
        "ĠÑĢÐ°Ð·",
        "ÑĥÐ¼"
      ],
      [
        "ĠÐ²Ñĭ",
        "Ð¿Ð¾Ð»"
      ],
      [
        "ĠÑģÑĤ",
        "Ð¾"
      ],
      [
        "ĠÐ¾Ð±",
        "ÑĬ"
      ],
      [
        "ĠÐ¾Ð±",
        "ÐµÑģÐ¿ÐµÑĩ"
      ],
      [
        "ÑĭÐ²",
        "Ð°ÑİÑĤ"
      ],
      [
        "ĠÑģÐ¾",
        "Ð¾Ð±"
      ],
      [
        "ĠÐ²Ð½",
        "ÑĥÑĤ"
      ],
      [
        "ĠÑģÐ»",
        "ÑĥÑĩ"
      ],
      [
        "ĠÑĩÐ°ÑģÑĤ",
        "Ð½Ð¾ÑģÑĤÑĮ"
      ],
      [
        "ĠÐ¶",
        "Ðµ"
      ],
      [
        "ĠÑĢÐµÐ°Ð»",
        "Ð¸Ð·Ð°ÑĨÐ¸Ð¸"
      ],
      [
        "ĠÑģÐ¾ÑĨÐ¸",
        "Ð°Ð»ÑĮÐ½Ð¾"
      ],
      [
        "ĠÑģÑĤÑĢÑĥÐºÑĤÑĥÑĢ",
        "Ñĭ"
      ],
      [
        "ĠÑĥÑĢÐ¾Ð²",
        "Ð½Ñı"
      ],
      [
        "ĠÑĤÑĢÐµÐ±",
        "ÑĥÐµÑĤ"
      ],
      [
        "ĠÑĤÐ¾ÑĢÐ³",
        "Ð¾Ð²"
      ],
      [
        "ĠÐĶ",
        "Ð°"
      ],
      [
        "Ġc",
        "las"
      ],
      [
        "ĠÐ¼Ð¾Ð¶",
        "ÐµÑĤ"
      ],
      [
        "ĠÐ¾ÑĤÐ½Ð¾",
        "ÑĪ"
      ],
      [
        "ĠÐ¿Ð¾Ð²Ñĭ",
        "ÑĪ"
      ],
      [
        "ĠÐ¾ÑģÐ¾Ð±",
        "ÐµÐ½Ð½Ð¾ÑģÑĤÐ¸"
      ],
      [
        "ĠÑģÐ¸ÑĤÑĥ",
        "Ð°"
      ],
      [
        "ĠÐºÐ°Ð´",
        "ÑĢÐ¾Ð²"
      ],
      [
        "ĠÐ¸ÑģÑģÐ»",
        "ÐµÐ´"
      ],
      [
        "ĠÐ¿ÑĢÐ¾Ð³ÑĢ",
        "ÐµÑģÑģ"
      ],
      [
        "ĠÑĥÑģÐ»Ð¾Ð²",
        "Ð¸Ð¹"
      ],
      [
        "Ġclas",
        "s"
      ],
      [
        "e",
        "s"
      ],
      [
        "Ð",
        "Ł"
      ],
      [
        "Ġ",
        "L"
      ],
      [
        "Ġ",
        "l"
      ],
      [
        "Ġ",
        "m"
      ],
      [
        "Ġ",
        "he"
      ],
      [
        "ÑĢ",
        "Ð°"
      ],
      [
        "Ñĥ",
        "ÑģÑĤ"
      ],
      [
        "Ñı",
        "Ñģ"
      ],
      [
        "ĠÐ¿",
        "Ð¾ÑĤ"
      ],
      [
        "Ð»",
        "ÐµÐ½Ð¸Ð¹"
      ],
      [
        "ÑĮ",
        "Ñİ"
      ],
      [
        "ĠÑģ",
        "Ðº"
      ],
      [
        "ĠÐ½",
        "Ð¾Ð²ÑĭÑħ"
      ],
      [
        "ĠÐ²",
        "ÐµÐº"
      ],
      [
        "ÑĨ",
        "ÐµÐ¿"
      ],
      [
        "ÑĢÐµÐ",
        "¶Ð´"
      ],
      [
        "ĠÐº",
        "Ð¾Ð»"
      ],
      [
        "ĠÐº",
        "ÑĥÐ¿"
      ],
      [
        "ĠÐº",
        "Ð»ÑİÑĩ"
      ],
      [
        "Ð¼",
        "Ð°"
      ],
      [
        "ĠÑĤ",
        "Ð¾Ð»ÑĮÐºÐ¾"
      ],
      [
        "ĠÐ´",
        "Ðµ"
      ],
      [
        "Ð°Ðº",
        "Ð¾"
      ],
      [
        "ĠÐ¼",
        "Ð°ÑĪ"
      ],
      [
        "Ð¾Ð¼",
        "Ñĥ"
      ],
      [
        "ÑĨÐ¸",
        "Ñİ"
      ],
      [
        "ĠÐ·",
        "Ð°Ðº"
      ],
      [
        "ĠÐ·",
        "Ð°Ð¿"
      ],
      [
        "Ð¸Ð¼",
        "Ð°ÐµÐ¼"
      ],
      [
        "Ñĳ",
        "Ð½"
      ],
      [
        "Ñĳ",
        "Ð»"
      ],
      [
        "Ð¾Ð·",
        "Ð½"
      ],
      [
        "Ð¾Ñģ",
        "Ð¿"
      ],
      [
        "ĠÑģÑĤ",
        "Ð°Ð½Ð´"
      ],
      [
        "ÐµÐ´",
        "ÑĢ"
      ],
      [
        "ĠÑį",
        "Ð»ÐµÐ¼"
      ],
      [
        "ĠÑĦ",
        "ÑĥÐ½"
      ],
      [
        "ĠÐ¿ÑĢÐµÐ´",
        "Ð¿"
      ],
      [
        "ĠÐ¿ÑĢÐµÐ´",
        "Ð¼ÐµÑĤ"
      ],
      [
        "ĠÐ¿ÑĢÐ¾",
        "Ñĩ"
      ],
      [
        "ĠÐ¿ÑĢÐ¾",
        "ÑĦ"
      ],
      [
        "ĠÐ¾ÑĤ",
        "ÐºÑĢ"
      ],
      [
        "ÑĥÑĢ",
        "Ñģ"
      ],
      [
        "ÐµÐ·",
        "ÑĥÑģÐ»Ð¾Ð²"
      ],
      [
        "Ð»Ñİ",
        "Ð´"
      ],
      [
        "ĠÐŁ",
        "ÑĢÐµÐ¶Ð´"
      ],
      [
        "Ð¸ÑĤÑĮ",
        "ÑģÑı"
      ],
      [
        "ÐµÑģÑģ",
        "Ð¸Ð¾Ð½"
      ],
      [
        "Ġt",
        "o"
      ],
      [
        "Ġa",
        "nd"
      ],
      [
        "ĠÑĥÑĩÐ°ÑģÑĤ",
        "Ð¸Ñı"
      ],
      [
        "ĠÐ¾Ð´Ð½",
        "Ð°ÐºÐ¾"
      ],
      [
        "Ð¾ÑģÑĤÐ°Ð²",
        "Ð»ÑıÐµÑĤ"
      ],
      [
        "ĠÑĢÐ°Ñģ",
        "Ñģ"
      ],
      [
        "ĠÐ±Ð°Ð·",
        "Ð¾Ð²ÑĭÐ¹"
      ],
      [
        "ĠÑģÐ¾ÑĨÐ¸",
        "Ð°Ð»ÑĮÐ½ÑĭÑħ"
      ],
      [
        "ĠÐ¸Ð½ÑĤÐµÑĢ",
        "ÐµÑģ"
      ],
      [
        "ĠÑĥÐº",
        "ÑĢÐµÐ¿"
      ],
      [
        "ĠÑįÐº",
        "Ð¾Ð½Ð¾Ð¼Ð¸ÑĩÐµÑģÐº"
      ],
      [
        "ĠÐ¿ÑĢÐµÐ´ÑģÑĤÐ°Ð²Ð¸ÑĤ",
        "ÐµÐ»Ð¸"
      ],
      [
        "ĠÑĩÐµÐ»Ð¾Ð²ÐµÐº",
        "Ð°"
      ],
      [
        "ĠÐ¿Ð¾Ð»Ð¸ÑĤÐ¸ÑĩÐµÑģÐº",
        "Ð¾Ð³Ð¾"
      ],
      [
        "ĠÐ²ÑģÑı",
        "Ðº"
      ],
      [
        "ĠÑģÐ¾Ð·",
        "Ð´Ð°"
      ],
      [
        "Ð¼Ð¾ÑĤ",
        "ÑĢ"
      ],
      [
        "ĠÐ½ÐµÐ¾Ð¿",
        "Ð¾Ð·Ð½"
      ],
      [
        "ĠÐ»Ð¸Ð±",
        "Ð¾"
      ],
      [
        "ĠÐ´Ð°Ð»ÑĮ",
        "Ð½ÐµÐ¹ÑĪ"
      ],
      [
        "ĠÐ¼Ð°ÑĤ",
        "ÐµÑĢÐ¸"
      ],
      [
        "ĠÑĢÐ°Ð¼",
        "ÐºÐ°Ñħ"
      ],
      [
        "ĠÐ²ÑĭÐ¿Ð¾Ð»",
        "Ð½"
      ],
      [
        "ĠÐ²ÐµÐº",
        "ÑĤÐ¾ÑĢ"
      ],
      [
        "ĠÐºÐ»ÑİÑĩ",
        "ÐµÐ²"
      ],
      [
        "ĠÑģÑĤÐ°Ð½Ð´",
        "Ð°ÑĢÑĤ"
      ],
      [
        "ĠÑįÐ»ÐµÐ¼",
        "ÐµÐ½ÑĤÑĭ"
      ],
      [
        "ĠÑĦÑĥÐ½",
        "Ðº"
      ],
      [
        "ĠÐ¿ÑĢÐ¾ÑĦ",
        "ÐµÑģÑģÐ¸Ð¾Ð½"
      ],
      [
        "ÐµÐ·ÑĥÑģÐ»Ð¾Ð²",
        "Ð½Ð¾"
      ],
      [
        "ĠÐŁÑĢÐµÐ¶Ð´",
        "Ðµ"
      ],
      [
        "?",
        "!,"
      ],
      [
        "H",
        "is"
      ],
      [
        "c",
        "as"
      ],
      [
        "e",
        "n"
      ],
      [
        "u",
        "cas"
      ],
      [
        "Ð",
        "¡"
      ],
      [
        "Ġ",
        "b"
      ],
      [
        "Ġ",
        "d"
      ],
      [
        "Ġ",
        "Ð¾ÑģÑĤ"
      ],
      [
        "Ðµ",
        "ÑīÐµÑģÑĤÐ²"
      ],
      [
        "ĠÐ",
        "ķ"
      ],
      [
        "ĠÐ",
        "ľ"
      ],
      [
        "ĠÐ",
        "Ń"
      ],
      [
        "Ð°",
        "ÑĳÑĤ"
      ],
      [
        "Ð½",
        "ÐµÑģ"
      ],
      [
        "Ñģ",
        "Ñģ"
      ],
      [
        "ÑĢ",
        "ÐºÐ¸Ð¹"
      ],
      [
        "Ñı",
        "Ñħ"
      ],
      [
        "ÑģÑĤ",
        "Ð°Ð½"
      ],
      [
        "ĠÐ¿",
        "ÑĢÐ°Ðº"
      ],
      [
        "Ð»",
        "Ð°Ð³"
      ],
      [
        "ÐµÐ½",
        "Ð½Ð¾"
      ],
      [
        "ÐµÐ½",
        "Ð½Ð¾Ðµ"
      ],
      [
        "ĠÐ½",
        "ÐµÐ½"
      ],
      [
        "ĠÐ½",
        "Ð¾Ð²Ñĭ"
      ],
      [
        "ĠÐ²",
        "ÐµÑīÐµÑģÑĤÐ²"
      ],
      [
        "ÑĢÐµÐ",
        "²"
      ],
      [
        "ÑĢÐ°Ð",
        "¶Ð´"
      ],
      [
        "ÑĢÐ°Ð",
        "±Ð¾ÑĤ"
      ],
      [
        "ÑĤÐ¾",
        "ÑĤ"
      ],
      [
        "ÑĤÐ¾",
        "Ñĩ"
      ],
      [
        "Ð¼",
        "Ð¸Ð½"
      ],
      [
        "Ð¾Ð´",
        "Ð°"
      ],
      [
        "ÐµÑģ",
        "Ñı"
      ],
      [
        "ĠÐ´",
        "ÐµÐ½ÑĮ"
      ],
      [
        "ĠÐ¼",
        "Ð¾Ð³"
      ],
      [
        "ĠÐ¼",
        "Ð¸ÑĢ"
      ],
      [
        "ÑģÑĤÐ²",
        "Ð°"
      ],
      [
        "ĠÐ·",
        "Ð°Ð½"
      ],
      [
        "Ð¸Ð¼",
        "Ð¸"
      ],
      [
        "Ð°Ñı",
        "ÑģÑı"
      ],
      [
        "Ð¸Ð·",
        "Ð½"
      ],
      [
        "ĠÑĢ",
        "ÐµÑĪ"
      ],
      [
        "Ð³",
        "Ð¾ÑĤ"
      ],
      [
        "ÐµÐ¼",
        "Ñĥ"
      ],
      [
        "ĠÐ¾Ð±",
        "Ñī"
      ],
      [
        "ĠÐ³",
        "ÑĢ"
      ],
      [
        "ĠÐ³",
        "Ð°Ð´"
      ],
      [
        "ĠÐ³",
        "ÑĢÐ°Ð¶Ð´"
      ],
      [
        "ÑĥÑİ",
        "ÑĤ"
      ],
      [
        "ÐµÐ»ÑĮ",
        "Ð½Ð¾ÑģÑĤÐ¸"
      ],
      [
        "ĠÐ¿ÑĢÐ¾",
        "Ð¸Ð·"
      ],
      [
        "ĠÐ¿ÑĢÐ¾",
        "ÐµÐºÑĤ"
      ],
      [
        "Ð¸ÑĩÐµÑģÐº",
        "Ð¸Ð¹"
      ],
      [
        "Ð¸ÑĩÐµÑģÐº",
        "Ð¾Ðµ"
      ],
      [
        "Ð¸Ð·Ð°",
        "ÑĨÐ¸Ñı"
      ],
      [
        "ÐµÐ²",
        "Ð¸Ð´"
      ],
      [
        "ÑģÐº",
        "Ð¾Ð³Ð¾"
      ],
      [
        "ĠÐ²Ð½",
        "Ð¸Ð¼"
      ],
      [
        "ĠÐ²Ð½",
        "ÐµÐ´ÑĢ"
      ],
      [
        "ÐµÑĩ",
        "ÐµÐ½Ð½ÑĭÑħ"
      ],
      [
        "ĠÑĨ",
        "ÐµÐ½"
      ],
      [
        "ĠÐ¾Ð¿",
        "Ð°Ñģ"
      ],
      [
        "ĠÑįÑĤ",
        "Ñĥ"
      ],
      [
        "ĠÑı",
        "ÑĢÐºÐ¸Ð¹"
      ],
      [
        "ĠÐ¿ÑĢÐµÐ´ÑģÑĤÐ°Ð²",
        "Ð»ÑıÑİÑĤ"
      ],
      [
        "ÑıÑĤ",
        "ÐµÐ»ÑĮÐ½Ð¾ÑģÑĤÐ¸"
      ],
      [
        "Ð±",
        "Ð¾ÑĢ"
      ],
      [
        "ĠÑĩÐ°ÑģÑĤ",
        "Ð½ÑĭÐ¹"
      ],
      [
        "ĠÐĿ",
        "Ð¾"
      ],
      [
        "ĠÐ¶",
        "Ð¸Ð²"
      ],
      [
        "ĠÐ·Ð°Ð´",
        "Ð°Ð½Ð¸Ð¹"
      ],
      [
        "ÑģÐ¿",
        "ÐµÐºÑĤÐ¸Ð²"
      ],
      [
        "ÑħÐ¾Ð´",
        "Ð¸Ð¼Ð¾ÑģÑĤÑĮ"
      ],
      [
        "ÑĥÑī",
        "Ð¸Ñħ"
      ],
      [
        "ÐµÐ½Ð¸",
        "Ñİ"
      ],
      [
        "ĠÑĢÐ°Ñģ",
        "Ð¿"
      ],
      [
        "ĠÑĢÐµÐ°Ð»",
        "Ð¸Ð·Ð°ÑĨÐ¸Ñı"
      ],
      [
        "ĠÑģÑĤÑĢÑĥÐºÑĤÑĥÑĢ",
        "Ð°"
      ],
      [
        "ĠÐ·Ð½Ð°Ñĩ",
        "ÐµÐ½Ð¸Ðµ"
      ],
      [
        "ĠÐ¸Ð½ÑĤÐµÑĢ",
        "Ð½ÐµÑĤ"
      ],
      [
        "ĠÐ¾Ñĩ",
        "ÐµÐ²Ð¸Ð´"
      ],
      [
        "ĠÐ¿ÐµÑĢ",
        "ÑģÐ¿ÐµÐºÑĤÐ¸Ð²"
      ],
      [
        "ĠÐ¾Ð¿ÑĢÐµÐ´ÐµÐ»",
        "ÐµÐ½Ð¸Ñı"
      ],
      [
        "ĠÐ½Ð°Ð¿",
        "ÑĢÐ°Ð²"
      ],
      [
        "ĠÐ½Ð°Ð¼",
        "ÐµÑĩÐµÐ½Ð½ÑĭÑħ"
      ],
      [
        "ĠÑģÐ»Ð¾Ð¶Ð¸Ð²ÑĪ",
        "Ð°ÑıÑģÑı"
      ],
      [
        "ĠÐ¿Ð»Ð°Ð½",
        "Ð¾Ð²ÑĭÑħ"
      ],
      [
        "ĠÐ¾Ð³ÑĢÐ°Ð½Ð¸Ñĩ",
        "ÐµÐ½Ñĭ"
      ],
      [
        "Ð¾ÐºÑĢ",
        "Ð°ÑĤ"
      ],
      [
        "ĠÐ¼ÑĭÑĪ",
        "Ð»ÐµÐ½Ð¸Ñı"
      ],
      [
        "ĠÑĥÐ¶",
        "Ðµ"
      ],
      [
        "ĠÐ½ÐµÐ¾Ð±",
        "ÑħÐ¾Ð´Ð¸Ð¼Ð¾ÑģÑĤÑĮ"
      ],
      [
        "ĠÐ²Ð½ÑĥÑĤ",
        "ÑĢÐµÐ½"
      ],
      [
        "ĠÑģÐ»ÑĥÑĩ",
        "Ð°Ð¹"
      ],
      [
        "ĠÐ¿ÑĢÐ¾Ð³ÑĢÐµÑģÑģ",
        "Ð°"
      ],
      [
        "ĠÐ´Ðµ",
        "ÑıÑĤÐµÐ»ÑĮÐ½Ð¾ÑģÑĤÐ¸"
      ],
      [
        "ĠÑĥÐºÑĢÐµÐ¿",
        "Ð»ÐµÐ½Ð¸Ðµ"
      ],
      [
        "ĠÑģÐ¾Ð·Ð´Ð°",
        "ÑĳÑĤ"
      ],
      [
        "ĠÑĦÑĥÐ½Ðº",
        "ÑĨÐ¸Ð¾Ð½"
      ],
      [
        "ĠÐ¿ÑĢÐ°Ðº",
        "ÑĤ"
      ],
      [
        "Ð»Ð°Ð³",
        "Ð¾Ð¿ÑĢÐ¸ÑıÑĤ"
      ],
      [
        "ĠÐ³ÑĢÐ°Ð¶Ð´",
        "Ð°Ð½"
      ],
      [
        "Ð",
        "¢"
      ],
      [
        "Ġ",
        "Ð¾Ñģ"
      ],
      [
        "ĠÐ",
        "£"
      ],
      [
        "ĠÐ",
        "ł"
      ],
      [
        "Ð°",
        "ÑĨÐ¸Ñı"
      ],
      [
        "Ð¸",
        "Ñİ"
      ],
      [
        "Ð¸",
        "ÐµÑģÑı"
      ],
      [
        "ÑĤ",
        "Ðµ"
      ],
      [
        "ÑĢ",
        "Ð¸Ð½"
      ],
      [
        "ÑĢ",
        "Ð°ÐµÑĤ"
      ],
      [
        "ÑĢ",
        "Ð¾Ñĩ"
      ],
      [
        "Ñĥ",
        "ÑĤÐ¾"
      ],
      [
        "Ñı",
        "Ð¼"
      ],
      [
        "ĠÐ¿",
        "Ð¾ÑĢ"
      ],
      [
        "ĠÐ¿",
        "Ð¾Ð¿"
      ],
      [
        "ĠÐ¿",
        "ÑĢÐµÐ·"
      ],
      [
        "ĠÐ¿",
        "Ð¾Ð½ÑıÑĤ"
      ],
      [
        "Ð»",
        "ÐµÐ¹"
      ],
      [
        "Ð²",
        "Ð°ÑĢ"
      ],
      [
        "ĠÑģ",
        "ÐµÐ±"
      ],
      [
        "ĠÑģ",
        "ÑĨÐµÐ½"
      ],
      [
        "Ð¾Ð²",
        "ÑģÐµÐ´Ð½ÐµÐ²"
      ],
      [
        "ÑĢÐµÐ",
        "¹Ð´"
      ],
      [
        "ÐµÑĤ",
        "ÑģÑı"
      ],
      [
        "ĠÐº",
        "Ð°ÑĢÑĤ"
      ],
      [
        "ĠÐ¸",
        "Ð¼"
      ],
      [
        "Ð°Ð½",
        "Ð½ÑĭÐµ"
      ],
      [
        "ÑĢÐ°Ð",
        "¼"
      ],
      [
        "Ð¾Ð±",
        "ÑĢÐ°Ð·"
      ],
      [
        "ĠÑĤ",
        "ÐµÐº"
      ],
      [
        "ÐµÑģ",
        "ÑĮ"
      ],
      [
        "Ñī",
        "Ðµ"
      ],
      [
        "ĠÐ´",
        "Ð¾"
      ],
      [
        "ĠÐ´",
        "ÑĥÑĢ"
      ],
      [
        "ĠÐ¿ÑĢ",
        "Ð¾Ð²"
      ],
      [
        "ĠÐ¿ÑĢ",
        "Ð¸Ð²"
      ],
      [
        "ĠÐ¼",
        "ÐµÐ»"
      ],
      [
        "ĠÐ¼",
        "ÑĥÐ·"
      ],
      [
        "ĠÑĩ",
        "ÐµÐ¼"
      ],
      [
        "ĠÐ°",
        "Ð¿"
      ],
      [
        "ĠÐ±",
        "Ð»Ð°Ð³Ð¾Ð¿ÑĢÐ¸ÑıÑĤ"
      ],
      [
        "ĠÐ½Ð°",
        "Ñĩ"
      ],
      [
        "ĠÑĢ",
        "Ð¾Ð»ÑĮ"
      ],
      [
        "ĠÑĢ",
        "ÑĥÐ±"
      ],
      [
        "ĠÑĢ",
        "Ð°ÑĨÐ¸Ð¾Ð½"
      ],
      [
        "Ð³",
        "Ð°"
      ],
      [
        "Ð¾Ñģ",
        "ÑĭÐ»"
      ],
      [
        "Ð°Ð»ÑĮ",
        "Ð½Ð¾Ð³Ð¾"
      ],
      [
        "ĠÑģÑĤ",
        "Ð¾ÑĢ"
      ],
      [
        "ĠÐ¾Ð±",
        "ÑĥÑĩ"
      ],
      [
        "Ð¸ÑĢ",
        "Ð¾Ð²"
      ],
      [
        "ĠÐ³",
        "Ð¾Ð²Ð¾ÑĢ"
      ],
      [
        "Ð°ÑģÑĤ",
        "ÐµÑĢ"
      ],
      [
        "ĠÑĦ",
        "Ð°Ðº"
      ],
      [
        "ĠÑĦ",
        "Ð°Ð½ÑĤ"
      ],
      [
        "ÐµÐ³",
        "Ð°ÑĤÐ¸Ð²"
      ],
      [
        "Ð°Ñģ",
        "Ñģ"
      ],
      [
        "Ð°ÑĢ",
        "Ð¸Ð¸"
      ],
      [
        "Ð¾Ð¶",
        "ÐµÑģÑĤÐ²"
      ],
      [
        "ĠÐ¿ÑĢÐ¾",
        "ÑĤÐ¾ÑĤ"
      ],
      [
        "ÑĥÑĤ",
        "ÑĮ"
      ],
      [
        "Ð¾Ñĩ",
        "ÐµÑĢÐµÐ´"
      ],
      [
        "ÑĭÐ²",
        "Ð°ÑĤÑĮ"
      ],
      [
        "Ð¸ÑĤÐµÐ»ÑĮ",
        "Ð½Ð¾Ð¹"
      ],
      [
        "ĠÐ¿Ð¾Ð´",
        "ÑħÐ¾Ð´"
      ],
      [
        "ĠÐ²Ð½",
        "Ðµ"
      ],
      [
        "ĠÑĤÐ°Ðº",
        "Ð°Ñı"
      ],
      [
        "ĠÑģÐ¿",
        "ÐµÑĨÐ¸"
      ],
      [
        "ĠÐ°ÐºÑĤÐ¸Ð²",
        "Ð¾Ð²"
      ],
      [
        "Ġt",
        "he"
      ],
      [
        "ĠÐºÐ¾Ð½",
        "ÑĨÐµÐ¿"
      ],
      [
        "Ð²Ð¾Ð´",
        "ÑģÑĤÐ²"
      ],
      [
        "ĠÐ½ÐµÐ¿",
        "Ð¾Ð½ÑıÑĤ"
      ],
      [
        "ĠÐ¾",
        "ÑĨÐµÐ½"
      ],
      [
        "ĠÑģÐ¾Ð±",
        "ÑģÑĤÐ²"
      ],
      [
        "ÐµÑħÐ½",
        "Ð¾Ð»Ð¾Ð³"
      ],
      [
        "ĠÐ¿Ð»",
        "Ð¾Ñħ"
      ],
      [
        "ĠÐ¿Ð¾Ðº",
        "ÑĥÐ¿"
      ],
      [
        "Ð»ÑıÐµÑĤ",
        "ÑģÑı"
      ],
      [
        "ĠÐ²ÑĭÐ²Ð¾Ð´",
        "Ð°"
      ],
      [
        "ĠÑĤÑĢÐµÐ¹Ð´",
        "Ð¸Ð½Ð³"
      ],
      [
        "ĠÑıÐ²",
        "Ð»ÑıÐµÑĤÑģÑı"
      ],
      [
        "ÑĢÐ°Ð¶",
        "ÐµÐ½Ð¸Ñı"
      ],
      [
        "ĠÐºÐ°ÑĩÐµÑģÑĤÐ²",
        "Ð°"
      ],
      [
        "ĠÑĢÐ°Ð±Ð¾ÑĤ",
        "Ñĭ"
      ],
      [
        "ĠÐ¿ÑĢÐµÐ´ÑģÑĤÐ°Ð²Ð¸ÑĤ",
        "ÐµÐ»ÐµÐ¹"
      ],
      [
        "ĠÐ½ÐµÐ¸Ð·Ð²ÐµÑģÑĤ",
        "Ð½Ð¾Ðµ"
      ],
      [
        "in",
        "g"
      ],
      [
        "Ð¼Ñĭ",
        "ÑģÐ»"
      ],
      [
        "ĠÐ¿Ð¾ÐºÐ°Ð·",
        "ÑĭÐ²Ð°ÐµÑĤ"
      ],
      [
        "ĠÑĦÐ¸Ð½Ð°Ð½Ñģ",
        "Ð¾Ð²ÑĭÑħ"
      ],
      [
        "ĠÐºÐ»",
        "Ð°ÑģÑĤÐµÑĢ"
      ],
      [
        "ĠÐ¸Ð³",
        "ÑĢÐ°ÐµÑĤ"
      ],
      [
        "ĠÐ§",
        "ÑĤÐ¾"
      ],
      [
        "ĠÐ¿Ð¾Ñģ",
        "Ð»ÐµÐ´"
      ],
      [
        "ĠÐ¼Ð¾Ð´",
        "ÐµÐ»Ð¸"
      ],
      [
        "ĠÐ±ÑĥÐ´",
        "ÑĥÑĤ"
      ],
      [
        "ĠÐ¾Ð±ÐµÑģÐ¿ÐµÑĩ",
        "Ð¸Ð²Ð°ÐµÑĤ"
      ],
      [
        "ĠÐ¿Ð¾Ð²ÑĭÑĪ",
        "ÐµÐ½Ð¸Ñİ"
      ],
      [
        "ĠÐ¸ÑģÑģÐ»ÐµÐ´",
        "Ð¾Ð²Ð°Ð½Ð¸Ð¹"
      ],
      [
        "ĠL",
        "ucas"
      ],
      [
        "ĠÐ¿ÑĢÐµÐ´Ð¿",
        "Ð¾ÑģÑĭÐ»"
      ],
      [
        "ĠÐ¾ÑĤÐºÑĢ",
        "ÑĭÐ²Ð°ÐµÑĤ"
      ],
      [
        "ĠÐºÐ»ÑİÑĩÐµÐ²",
        "ÑĭÐµ"
      ],
      [
        "ĠÐ½ÐµÐ½",
        "ÑĥÐ¶"
      ],
      [
        "ĠÐ¼Ð¸ÑĢ",
        "Ð°"
      ],
      [
        "Ð³Ð¾ÑĤ",
        "Ð¾Ð²"
      ],
      [
        "ĠÐ¿ÑĢÐ¾Ð¸Ð·",
        "Ð²Ð¾Ð´ÑģÑĤÐ²"
      ],
      [
        "ĠÐ²Ð½ÐµÐ´ÑĢ",
        "ÐµÐ½Ð¸Ðµ"
      ],
      [
        "ĠÑĢÐ°ÑģÐ¿",
        "ÑĢÐµÐ´ÐµÐ»"
      ],
      [
        "ĠÐ¿ÑĢÐ°ÐºÑĤ",
        "Ð¸ÐºÐ°"
      ],
      [
        "ĠÑģÑĨÐµÐ½",
        "Ð°ÑĢÐ¸Ð¸"
      ],
      [
        "Ð¾Ð²ÑģÐµÐ´Ð½ÐµÐ²",
        "Ð½Ð°Ñı"
      ],
      [
        "ĠÐºÐ°ÑĢÑĤ",
        "Ð¸Ð½Ñĭ"
      ],
      [
        "ĠÑĤÐµÐº",
        "ÑĥÑīÐ¸Ñħ"
      ],
      [
        "ĠÐ¼ÑĥÐ·",
        "Ñĭ"
      ],
      [
        "ĠÐ±Ð»Ð°Ð³Ð¾Ð¿ÑĢÐ¸ÑıÑĤ",
        "Ð½ÑĭÑħ"
      ],
      [
        "ĠÑĢÑĥÐ±",
        "Ð»ÐµÐ¹"
      ],
      [
        "ĠÐ¾Ð±ÑĥÑĩ",
        "ÐµÐ½Ð¸Ñı"
      ],
      [
        "ĠÐ¿ÑĢÐ¾ÑĤÐ¾ÑĤ",
        "Ð¸Ð¿"
      ],
      [
        "Ð¾ÑĩÐµÑĢÐµÐ´",
        "Ð½ÑĭÑħ"
      ],
      [
        ".",
        ","
      ],
      [
        "a",
        "c"
      ],
      [
        "a",
        "y"
      ],
      [
        "i",
        "t"
      ],
      [
        "o",
        "o"
      ],
      [
        "r",
        "e"
      ],
      [
        "Ð",
        "Ķ"
      ],
      [
        "Ġ",
        "o"
      ],
      [
        "Ġ",
        "ÐµÑī"
      ],
      [
        "Ġ",
        "Ð¾ÑģÑĤÐ°Ð²Ð»ÑıÐµÑĤ"
      ],
      [
        "Ðµ",
        "ÐµÑĤÑģÑı"
      ],
      [
        "Ð½",
        "ÐµÐ½Ð¸Ñı"
      ],
      [
        "ÑĢ",
        "ÐµÐ½Ð¸Ñı"
      ],
      [
        "ÑĢ",
        "Ð°Ñģ"
      ],
      [
        "ÑĢ",
        "Ð¸Ð¼ÐµÑĢ"
      ],
      [
        "ÑĢ",
        "ÑĥÐ³"
      ],
      [
        "Ñı",
        "Ð²"
      ],
      [
        "Ñı",
        "ÑĤÐ¾"
      ],
      [
        "Ñı",
        "Ð·"
      ],
      [
        "Ð¸Ð",
        "¶"
      ],
      [
        "ĠÐ¿",
        "Ð¸Ð´"
      ],
      [
        "ĠÐ¿",
        "ÑĥÑģÑĤ"
      ],
      [
        "Ð»",
        "Ð°"
      ],
      [
        "Ð»",
        "Ð¸Ñĩ"
      ],
      [
        "Ð»",
        "Ð¸Ð²Ð°ÐµÑĤ"
      ],
      [
        "ÐµÐ½",
        "Ð´"
      ],
      [
        "ĠÑģ",
        "ÑĦ"
      ],
      [
        "ĠÑģ",
        "Ð¸ÑģÑĤ"
      ],
      [
        "ĠÑģ",
        "Ð¾ÑģÑĤÐ¾ÑıÐ½"
      ],
      [
        "ĠÑģ",
        "ÑĩÐ¸ÑĤ"
      ],
      [
        "ĠÐ½",
        "Ð¸Ð¼"
      ],
      [
        "ĠÐ½",
        "Ð¸Ð·"
      ],
      [
        "ĠÐ½",
        "ÐµÐ´"
      ],
      [
        "ĠÐ½",
        "ÐµÐº"
      ],
      [
        "ĠÐ½",
        "Ð°Ð±"
      ],
      [
        "ĠÐ²",
        "Ð¾ÑĤ"
      ],
      [
        "ÐµÑĤ",
        "ÑĮ"
      ],
      [
        "ĠÐº",
        "ÑĥÐ»ÑĮ"
      ],
      [
        "ĠÐº",
        "Ð°Ð¶Ð´"
      ],
      [
        "Ð°Ð½",
        "Ð¸Ðµ"
      ],
      [
        "Ð°Ð½",
        "Ð°Ð»Ð¸ÑĤ"
      ],
      [
        "Ð¼",
        "Ð¾Ð¶"
      ],
      [
        "Ð¾Ð´",
        "Ðµ"
      ],
      [
        "Ð°Ð»",
        "Ð¸ÑģÑĤ"
      ],
      [
        "ĠÑĤ",
        "Ð°Ð¼"
      ],
      [
        "ĠÑĤ",
        "Ð¸Ð¿"
      ],
      [
        "Ð¿",
        "Ð°ÑĢ"
      ],
      [
        "ĠÐ¼",
        "ÐµÑĢ"
      ],
      [
        "ĠÐ¼",
        "Ð°Ð»"
      ],
      [
        "Ð¾ÑĤ",
        "Ð¸Ð²"
      ],
      [
        "Ð¾Ð»",
        "Ð¾Ð´"
      ],
      [
        "ĠÑĩ",
        "Ñĥ"
      ],
      [
        "ĠÐ°",
        "Ð´"
      ],
      [
        "Ð¾Ðº",
        "Ð¸Ð¹"
      ],
      [
        "ĠÐ½Ðµ",
        "Ð¾Ð´Ð½"
      ],
      [
        "ÐµÐ¹",
        "Ð½ÑĭÐµ"
      ],
      [
        "Ð¸Ñĩ",
        "ÐµÑģÑĤÐ²"
      ],
      [
        "Ð¸Ð½",
        "ÑĤ"
      ],
      [
        "ĠÑĢÐ°Ð·",
        "Ð½ÐµÑģ"
      ],
      [
        "ĠÑĢÐ°Ð·",
        "ÑĢÐ°Ð±Ð¾ÑĤ"
      ],
      [
        "ĠÑĢÐ°Ð·",
        "Ð»Ð¸Ñĩ"
      ],
      [
        "Ð°Ð»ÑĮ",
        "Ð½ÑĭÐ¹"
      ],
      [
        "ĠÑį",
        "Ð¼"
      ],
      [
        "Ð¸ÑĢ",
        "ÑĥÐµÑĤ"
      ],
      [
        "ĠÐ³",
        "ÑĢÐ°Ð½"
      ],
      [
        "Ð°Ð´",
        "Ð°Ñĩ"
      ],
      [
        "ĠÐ¿ÑĢÐµÐ´",
        "Ð»Ð¾Ð¶"
      ],
      [
        "ĠÐ¿ÑĢÐ¾",
        "Ð¸Ñģ"
      ],
      [
        "Ð¸ÑĩÐµÑģÐº",
        "Ð¾Ð¹"
      ],
      [
        "ÑĤÐ¸Ð²",
        "Ð½ÑĭÐµ"
      ],
      [
        "ĠÐ¸Ð½",
        "Ð¾Ð³Ð´Ð°"
      ],
      [
        "ĠÐ¸Ð½",
        "ÑĤÐµ"
      ],
      [
        "ĠÐ»",
        "Ð¸ÑĪÑĮ"
      ],
      [
        "ÑĨÐ¸Ð¾Ð½",
        "Ð½ÑĭÑħ"
      ],
      [
        "ĠÐ¿Ð¾Ð´",
        "Ð³Ð¾ÑĤÐ¾Ð²"
      ],
      [
        "ĠÐŁ",
        "Ð¾Ð²ÑģÐµÐ´Ð½ÐµÐ²Ð½Ð°Ñı"
      ],
      [
        "ĠÐ¿ÑĢÐµÐ´ÑģÑĤÐ°Ð²",
        "Ð»"
      ],
      [
        "Ð½ÑĭÐ¼",
        "Ð¸"
      ],
      [
        "Ġt",
        "h"
      ],
      [
        "ĠÑĪ",
        "Ð°Ð½Ñģ"
      ],
      [
        "ĠÐ¶",
        "Ð¸Ð·Ð½"
      ],
      [
        "ĠÐ¿Ð¾Ð²",
        "ÑģÐµÐ´Ð½ÐµÐ²"
      ],
      [
        "ÑģÐ¿",
        "ÐµÑĨÐ¸"
      ],
      [
        "ĠÑĥÑĩÐ°ÑģÑĤ",
        "Ð¸Ðµ"
      ],
      [
        "ĠÑģÐ¾Ð±",
        "ÑĭÑĤ"
      ],
      [
        "ÑĢÐ°Ðº",
        "ÑĤÐ¸Ð²Ð½ÑĭÐµ"
      ],
      [
        "ĠÑĢÐµÐ·",
        "ÑĥÐ»ÑĮÑĤ"
      ],
      [
        "ĠÑģÐ´ÐµÐ»",
        "ÐºÐ¸"
      ],
      [
        "ĠÑģÐ´ÐµÐ»",
        "Ð°Ð½Ð½ÑĭÐµ"
      ],
      [
        "ĠÑıÐ²",
        "Ð»ÑıÑİÑĤ"
      ],
      [
        "ĠÐ±Ð°Ð·",
        "Ðµ"
      ],
      [
        "ĠÑĦÐ¾ÑĢÐ¼Ð¸ÑĢÐ¾Ð²Ð°Ð½",
        "Ð¸Ñİ"
      ],
      [
        "ĠÐ¿ÑĢÐ¸Ð½",
        "ÑıÑĤÐ¾"
      ],
      [
        "ĠÑĨÐµÐ»",
        "Ð¾Ð¼"
      ],
      [
        "ĠÐ·Ð½Ð°Ñĩ",
        "Ð¸ÑĤÐµÐ»ÑĮÐ½Ð¾Ð¹"
      ],
      [
        "ĠÑĪÐ¸ÑĢÐ¾Ðº",
        "Ð¾Ð¼Ñĥ"
      ],
      [
        "ĠÐŀ",
        "Ð½"
      ],
      [
        "ĠÐºÐ°ÑĩÐµÑģÑĤÐ²",
        "Ð¾"
      ],
      [
        "ĠÐ¿ÑĢÐ¾Ð´",
        "Ð°ÑĤÑĮ"
      ],
      [
        "ĠÑĥÑĢÐ¾Ð²",
        "ÐµÐ½ÑĮ"
      ],
      [
        "ĠÐ¼ÐµÑĤÐ¾Ð´",
        "Ð¾Ð¼"
      ],
      [
        "ĠÐºÑĢ",
        "ÑĥÐ³"
      ],
      [
        "ĠÐ·Ð°Ð±",
        "ÑĭÐ²Ð°ÑĤÑĮ"
      ],
      [
        "ĠÐ¾Ð±ÑīÐµÑģÑĤÐ²",
        "Ð¾Ð¼"
      ],
      [
        "ĠÐ´ÐµÑĪÑĳÐ²",
        "ÐºÐ°"
      ],
      [
        "ĠÐĵ",
        "Ð¾ÑģÐ¿"
      ],
      [
        "ĠÐ²ÐµÑī",
        "Ð¸"
      ],
      [
        "ĠÑģÐ»ÐµÐ´",
        "ÑĥÐµÑĤ"
      ],
      [
        "ĠÑģÑĥÑīÐµÑģÑĤÐ²ÑĥÑİÑī",
        "Ð¸Ñħ"
      ],
      [
        "ĠÑĢÑĭÐ½",
        "ÐºÐµ"
      ],
      [
        "ĠÐ·Ð°Ð²Ð¸ÑģÐ¸Ð¼",
        "Ð¾ÑģÑĤÐ¸"
      ],
      [
        "ĠÐºÐ¾Ð»",
        "Ð¸ÑĩÐµÑģÑĤÐ²"
      ],
      [
        "ĠÐºÑĥÐ¿",
        "Ð¸ÑĤÑĮ"
      ],
      [
        "ĠÐ¼Ð°ÑĪ",
        "Ð¸Ð½"
      ],
      [
        "Ð¸Ð¼Ð°ÐµÐ¼",
        "ÑĭÑħ"
      ],
      [
        "ÑĳÐ½",
        "Ð½Ð¾ÑģÑĤÑĮ"
      ],
      [
        "ĠÑĢÐ°ÑģÑģ",
        "Ð¼Ð¾ÑĤÑĢ"
      ],
      [
        "ĠÐ½ÐµÐ¾Ð¿Ð¾Ð·Ð½",
        "Ð°Ð½Ð½Ð¾Ðµ"
      ],
      [
        "ĠÐ²Ð½Ð¸Ð¼",
        "Ð°Ð½Ð¸Ñı"
      ],
      [
        "ĠÐ¶Ð¸Ð²",
        "Ð¾ÑĤ"
      ],
      [
        "ĠÐ¾ÑĩÐµÐ²Ð¸Ð´",
        "Ð½Ð°"
      ],
      [
        "ĠÐ½Ð°Ð¿ÑĢÐ°Ð²",
        "Ð»ÐµÐ½Ð¸Ð¹"
      ],
      [
        "ĠÐ²Ð½ÑĥÑĤÑĢÐµÐ½",
        "Ð½ÐµÐ¹"
      ],
      [
        "ĠÑĦÑĥÐ½ÐºÑĨÐ¸Ð¾Ð½",
        "Ð°Ð»ÑĮÐ½Ð¾"
      ],
      [
        "ĠÐ¿Ð¾ÑĢ",
        "ÑıÐ´"
      ],
      [
        "ĠÑģÐµÐ±",
        "Ðµ"
      ],
      [
        "ĠÐ°Ð¿",
        "Ð¿Ð°ÑĢ"
      ],
      [
        "ĠÐ½Ð°Ñĩ",
        "Ð°Ð»Ð¾"
      ],
      [
        "ĠÐ³Ð¾Ð²Ð¾ÑĢ",
        "Ð¸ÑĤ"
      ],
      [
        "ĠÐ¿ÑĢÐ¾ÑĤÐ¾ÑĤÐ¸Ð¿",
        "Ñĭ"
      ],
      [
        "ĠÐµÑī",
        "Ñĳ"
      ],
      [
        "ĠÐ¿Ð¸Ð´",
        "Ð¾ÑĢ"
      ],
      [
        "ĠÑģÐ¸ÑģÑĤ",
        "ÐµÐ¼"
      ],
      [
        "ĠÑģÑĩÐ¸ÑĤ",
        "Ð°ÑĤÑĮ"
      ],
      [
        "ĠÐºÑĥÐ»ÑĮ",
        "ÑĤÑĥÑĢ"
      ],
      [
        "Ð°Ð½Ð°Ð»Ð¸ÑĤ",
        "Ð¸ÐºÐ¸"
      ],
      [
        "Ð°Ð»Ð¸ÑģÑĤ",
        "Ð¾Ð²"
      ],
      [
        "ĠÑĤÐ¸Ð¿",
        "Ð°"
      ],
      [
        "ĠÑĢÐ°Ð·Ð½ÐµÑģ",
        "ÐµÐ½Ñĭ"
      ],
      [
        "ĠÑĢÐ°Ð·Ð»Ð¸Ñĩ",
        "Ð½ÑĭÑħ"
      ],
      [
        "ĠÐ¿ÑĢÐµÐ´Ð»Ð¾Ð¶",
        "ÐµÐ½Ð¸Ð¹"
      ],
      [
        "ĠÐ¿ÑĢÐ¾Ð¸Ñģ",
        "ÑħÐ¾Ð´"
      ],
      [
        "ĠÐ¸Ð½ÑĤÐµ",
        "ÑĢÐ°ÐºÑĤÐ¸Ð²Ð½ÑĭÐµ"
      ],
      [
        "ĠÑĪÐ°Ð½Ñģ",
        "Ð°"
      ],
      [
        "ĠÐ¿Ð¾Ð²ÑģÐµÐ´Ð½ÐµÐ²",
        "Ð½Ð¾Ð¹"
      ],
      [
        "ÑģÐ¿ÐµÑĨÐ¸",
        "Ð°Ð»Ð¸ÑģÑĤÐ¾Ð²"
      ],
      [
        "ĠÑĢÐµÐ·ÑĥÐ»ÑĮÑĤ",
        "Ð°ÑĤ"
      ],
      [
        "ĠÑıÐ²Ð»ÑıÑİÑĤ",
        "ÑģÑı"
      ],
      [
        "ĠÐºÑĢÑĥÐ³",
        "Ñĥ"
      ],
      [
        "ĠÐĵÐ¾ÑģÐ¿",
        "Ð¾Ð´Ð°"
      ],
      [
        "ĠÑĢÐ°ÑģÑģÐ¼Ð¾ÑĤÑĢ",
        "ÐµÐ½Ñĭ"
      ],
      [
        "ĠÐ°Ð¿Ð¿Ð°ÑĢ",
        "Ð°ÑĤ"
      ],
      [
        "a",
        "l"
      ],
      [
        "c",
        "i"
      ],
      [
        "l",
        "e"
      ],
      [
        "t",
        "s"
      ],
      [
        "v",
        "er"
      ],
      [
        "´",
        "Ð¸"
      ],
      [
        "¹",
        "Ð¾Ð½"
      ],
      [
        "Ð",
        "£"
      ],
      [
        "Ð",
        "Ĳ"
      ],
      [
        "Ð",
        "ļ"
      ],
      [
        "Ġ",
        "p"
      ],
      [
        "Ġ",
        "ÐµÑģ"
      ],
      [
        "Ġ",
        "ÐµÐ³Ð¾"
      ],
      [
        "Ġ",
        "ÑĥÐ´"
      ],
      [
        "Ð¾",
        "ÑĨÐ¸"
      ],
      [
        "ĠÐ",
        "¯"
      ],
      [
        "ĠÐ",
        "Ľ"
      ],
      [
        "Ð°",
        "ÑĦ"
      ],
      [
        "Ð¸",
        "ÐµÐ½ÑĤ"
      ],
      [
        "ÑĤ",
        "Ð°"
      ],
      [
        "ÑĤ",
        "Ñĥ"
      ],
      [
        "ÑĤ",
        "Ð¾Ð±"
      ],
      [
        "ÑĤ",
        "Ð¸Ð½"
      ],
      [
        "Ñģ",
        "Ð¸Ð»"
      ],
      [
        "Ñģ",
        "ÑĥÐ»ÑĮÑĤ"
      ],
      [
        "Ñģ",
        "Ð¸ÑĢÑĥÐµÑĤ"
      ],
      [
        "ÑĢ",
        "Ð°ÑģÑĤ"
      ],
      [
        "ÑĢ",
        "Ð°ÑĤÐ¸Ð²"
      ],
      [
        "ĠÐ¿",
        "Ð¾Ð±"
      ],
      [
        "ĠÐ¿",
        "ÑĢÐµÐ²"
      ],
      [
        "Ð»",
        "Ð°Ñĩ"
      ],
      [
        "Ð»",
        "Ð°Ð´"
      ],
      [
        "Ð»",
        "ÐµÑĩ"
      ],
      [
        "ÑĮ",
        "ÑİÑĤ"
      ],
      [
        "Ð²",
        "ÐµÑĢ"
      ],
      [
        "Ðº",
        "ÐµÑĤ"
      ],
      [
        "ĠÑģ",
        "ÐµÑĢ"
      ],
      [
        "ĠÑģ",
        "ÑĢÐ¾Ñĩ"
      ],
      [
        "ĠÐ½",
        "ÐµÑģ"
      ],
      [
        "ĠÐ½",
        "ÐµÐ³Ð°ÑĤÐ¸Ð²"
      ],
      [
        "ĠÐ²",
        "Ð¾ÑģÑĤ"
      ],
      [
        "ĠÐ²",
        "Ð°Ð¼"
      ],
      [
        "ĠÐ²",
        "Ð·"
      ],
      [
        "ĠÐº",
        "ÑĥÑĢÑģ"
      ],
      [
        "ĠÐ¸",
        "Ð»Ð¸"
      ],
      [
        "ÑĥÐ",
        "¶Ð´"
      ],
      [
        "Ð°Ð½",
        "Ð¸Ð¸"
      ],
      [
        "Ð´",
        "ÐµÐ¹Ð½ÑĭÐµ"
      ],
      [
        "Ð¼",
        "ÐµÑĢ"
      ],
      [
        "ÑĪ",
        "ÐµÐ³Ð¾"
      ],
      [
        "ÐµÑĢ",
        "Ð¸Ð¼"
      ],
      [
        "ÐµÑĢ",
        "Ð¶"
      ],
      [
        "Ð¾Ð±",
        "Ð»ÐµÐ¼"
      ],
      [
        "Ð¾Ð±",
        "Ð»Ð°Ñĩ"
      ],
      [
        "Ð°Ð»",
        "Ð°"
      ],
      [
        "Ð°Ð»",
        "ÑİÑĤ"
      ],
      [
        "ĠÑĤ",
        "ÑĢ"
      ],
      [
        "ĠÐ´",
        "Ð²"
      ],
      [
        "ĠÐ´",
        "Ð°Ð½"
      ],
      [
        "ĠÐ´",
        "ÑĢÑĥÐ³"
      ],
      [
        "Ð°Ðº",
        "Ð¸Ð¼"
      ],
      [
        "ĠÐ¿ÑĢ",
        "Ð¾ÑģÑĤ"
      ],
      [
        "ĠÐ¿ÑĢ",
        "Ð¾ÑĤÐ¸Ð²"
      ],
      [
        "ĠÐ¿ÑĢ",
        "Ð¾Ð±Ð»ÐµÐ¼"
      ],
      [
        "ĠÐ¼",
        "Ð°ÑĢ"
      ],
      [
        "ĠÐ¼",
        "Ð°Ð»Ð¾"
      ],
      [
        "Ð¾Ð¼",
        "Ñĭ"
      ],
      [
        "Ð¾Ð¼",
        "ÑıÐ½"
      ],
      [
        "Ð°ÑĤ",
        "ÐµÐ³"
      ],
      [
        "ĠÑĩ",
        "ÑĤÐ¾Ð±"
      ],
      [
        "ĠÐ·",
        "Ð°Ð²Ð¸Ñģ"
      ],
      [
        "Ð¾ÑĢ",
        "Ð¸ÐµÐ½ÑĤ"
      ],
      [
        "Ð¸Ð·",
        "Ð¼Ð°"
      ],
      [
        "ĠÐ°",
        "ÑģÑģ"
      ],
      [
        "ÐµÐ¹",
        "ÑģÐºÐ¾Ð³Ð¾"
      ],
      [
        "ĠÐ±",
        "ÐµÐ»"
      ],
      [
        "ĠÐ±",
        "ÑĥÑĢ"
      ],
      [
        "ĠÐ½Ð°",
        "ÑĨÐ¸Ð¾Ð½"
      ],
      [
        "Ñĳ",
        "Ð¶"
      ],
      [
        "Ð°Ð²",
        "Ð½ÑĭÐ¼"
      ],
      [
        "ĠÑĢ",
        "Ð¾ÑģÑĤ"
      ],
      [
        "Ð¾Ð¿",
        "ÑĢÐµÐ´ÐµÐ»"
      ],
      [
        "ĠÑĥ",
        "ÑĤÐ¾Ñĩ"
      ],
      [
        "ĠÑĥ",
        "ÑģÐ¸Ð»"
      ],
      [
        "ĠÑĢÐ°Ð·",
        "Ð¾Ð±Ð»Ð°Ñĩ"
      ],
      [
        "Ð»Ñı",
        "Ð´"
      ],
      [
        "Ð»Ñı",
        "Ð¼"
      ],
      [
        "ĠÐ²Ñĭ",
        "Ð·"
      ],
      [
        "ĠÐ²Ñĭ",
        "ÑĢÐ°Ð¶"
      ],
      [
        "ĠÐ¾Ð±",
        "ÑĥÑģÐ»Ð¾Ð²"
      ],
      [
        "ÐµÐº",
        "Ñģ"
      ],
      [
        "ĠÑĦ",
        "Ð¸Ðº"
      ],
      [
        "ĠÐ¿ÑĢÐµÐ´",
        "Ð¾Ð¿ÑĢÐµÐ´ÐµÐ»"
      ],
      [
        "Ð°Ñģ",
        "Ð¾Ð²"
      ],
      [
        "Ð¸ÑĩÐµÑģÐº",
        "Ð¸Ñħ"
      ],
      [
        "ĠÐ¾ÑĤ",
        "ÑĢÐ°Ñģ"
      ],
      [
        "ÑĤÐ¾ÑĢ",
        "Ð¸Ð¸"
      ],
      [
        "Ð¾Ð²Ð°Ð½",
        "Ð½Ð¾ÑģÑĤÑĮ"
      ],
      [
        "ÑģÐ»",
        "Ð¸"
      ],
      [
        "ÐµÐ²",
        "Ð¾Ð¹"
      ],
      [
        "ÐµÐ²",
        "ÑĢÐµÐ¼"
      ],
      [
        "ÐµÐ²",
        "ÑĢÐ¾Ð¿"
      ],
      [
        "ĠÐ¸Ð½",
        "ÑģÑĤÑĢ"
      ],
      [
        "ĠÐ¸Ð½",
        "Ð½Ð¾Ð²"
      ],
      [
        "ĠÐ°Ðº",
        "ÑĨÐ¸ÑıÐ¼Ð¸"
      ],
      [
        "ĠÑģÐ²",
        "ÐµÑĤ"
      ],
      [
        "ĠÑģÐ²",
        "ÑıÐ·"
      ],
      [
        "ÑĭÐ²",
        "Ð°Ñı"
      ],
      [
        "ÑīÐµÑģÑĤÐ²",
        "Ð°"
      ],
      [
        "ÐµÑĪ",
        "ÑĮ"
      ],
      [
        "Ð¸ÑĤÐµÐ»ÑĮ",
        "Ð½Ð¾Ðµ"
      ],
      [
        "ÑĦ",
        "ÑĦ"
      ],
      [
        "ÑĦ",
        "Ð¾ÑĢÐ¼"
      ],
      [
        "ÑĥÐ¿",
        "Ð¿"
      ],
      [
        "ĠÐ¿Ð¾Ð´",
        "Ð¾Ð±"
      ],
      [
        "ĠÑģÐ»",
        "Ð¾Ð²"
      ],
      [
        "ÐµÑĩ",
        "ÑĤÐ¾"
      ],
      [
        "ĠÐ¾Ð¿",
        "Ð¿"
      ],
      [
        "ĠÐ¿Ð¾Ð»",
        "Ð¾Ð¶"
      ],
      [
        "ÑĥÐ´",
        "Ð°"
      ],
      [
        "ÑĥÐ´",
        "Ð¸"
      ],
      [
        "ÑĥÐ´",
        "ÑĮ"
      ],
      [
        "ÐµÐ½ÑĤ",
        "Ð¾Ð²"
      ],
      [
        "ÐµÐ½ÑĤ",
        "Ð°Ð»ÑĮÐ½Ð¾"
      ],
      [
        "ĠÑįÑĤ",
        "Ð¾Ð¼"
      ],
      [
        "ĠÐ°ÐºÑĤÐ¸Ð²",
        "Ð¾Ð¼"
      ],
      [
        "ĠÐ°ÐºÑĤÐ¸Ð²",
        "Ð½Ð¾ÑģÑĤÐ¸"
      ],
      [
        "ĠÐ°ÐºÑĤÐ¸Ð²",
        "Ð¸Ð·Ð°ÑĨÐ¸Ð¸"
      ],
      [
        "ĠÐĴ",
        "Ð¾ÑĤ"
      ],
      [
        "Ð¸ÑĢÐ¾Ð²Ð°Ð½",
        "Ð¸Ðµ"
      ],
      [
        "Ð¸ÑĢÐ¾Ð²Ð°Ð½",
        "Ð½ÑĭÐ¹"
      ],
      [
        "Ð¸ÑģÑĤ",
        "ÑĢÐ°ÑĤÐ¸Ð²"
      ],
      [
        "ĠÑĥÑĩ",
        "ÑĳÑĤ"
      ],
      [
        "ĠÐĿ",
        "Ðµ"
      ],
      [
        "ĠÐºÐ¾Ð½",
        "ÑĤÐ¸Ð½"
      ],
      [
        "ĠÐºÐ¾Ð½",
        "ÑģÑĥÐ»ÑĮÑĤ"
      ],
      [
        "ĠÐ½ÐµÐ¿",
        "ÑĢ"
      ],
      [
        "ĠÐ·Ð°Ð´",
        "Ð°Ð½Ð¸Ñı"
      ],
      [
        "ÑģÐ¿",
        "ÐµÑĢÐ¸Ð¼"
      ],
      [
        "ĠÑģÐ²Ð¾",
        "ÐµÐ²ÑĢÐµÐ¼"
      ],
      [
        "ĠÐ¿Ð¾Ð·Ð¸",
        "ÑĨÐ¸Ð¹"
      ],
      [
        "ĠÐ²ÑĭÑģ",
        "ÑĪÐµÐ³Ð¾"
      ],
      [
        "..",
        ".."
      ],
      [
        "ÑĢÐ¸ÑıÑĤ",
        "Ð½Ð¾"
      ],
      [
        "Ð°ÑĤÐ¸Ð²",
        "Ð½Ð¾"
      ],
      [
        "ĠÑĪÐ¸ÑĢÐ¾Ðº",
        "Ð¸Ð¼"
      ],
      [
        "ĠÐŀ",
        "Ð´"
      ],
      [
        "ĠÐ¿ÑĢÐ¾Ð´",
        "Ð°ÑĳÑĤ"
      ],
      [
        "ĠÑįÐº",
        "ÑģÐ¿ÐµÑĢÐ¸Ð¼"
      ],
      [
        "ĠÐ¼ÐµÑĤÐ¾Ð´",
        "Ð¸Ðº"
      ],
      [
        "ĠÐ²Ð°Ð¶",
        "Ð½ÑĭÐµ"
      ],
      [
        "ĠÐ²Ð°Ð¶",
        "Ð½Ð¾ÑģÑĤÑĮ"
      ],
      [
        "ĠÐ²Ð°Ð¶",
        "Ð½ÑĥÑİ"
      ],
      [
        "ĠÐ²ÑĭÑģÐ¾Ðº",
        "ÑĥÑİ"
      ],
      [
        "ĠÐ¿Ð¾Ð»Ð¸ÑĤÐ¸ÑĩÐµÑģÐº",
        "Ð¾Ð¹"
      ],
      [
        "ĠÐºÐ¾Ð¼Ð¿",
        "ÑĮÑİÑĤ"
      ],
      [
        "ĠÑĤÐµÑħÐ½",
        "Ð¾Ð»Ð¾Ð³"
      ],
      [
        "ĠÐ´ÐµÐ¹ÑģÑĤÐ²",
        "Ð¸Ñı"
      ],
      [
        "ĠÐ´ÐµÐ¹ÑģÑĤÐ²",
        "Ð¸Ð¹"
      ],
      [
        "ĠÐ³Ð»",
        "ÑĥÐ±"
      ],
      [
        "Ġh",
        "is"
      ],
      [
        "ĠÑĥÐ¿",
        "Ð¾Ð¼ÑıÐ½"
      ],
      [
        "ÑĢÐµÐ±",
        "Ð¾Ð²Ð°Ð½Ð½Ð¾ÑģÑĤÑĮ"
      ],
      [
        "ÐĿ",
        "ÐµÑĩÑĤÐ¾"
      ],
      [
        "ÑĩÐ¸ÑĤ",
        "ÑĭÐ²Ð°Ñı"
      ],
      [
        "ĠÐ½Ð°Ð·",
        "ÑĭÐ²Ð°ÑİÑĤ"
      ],
      [
        "ĠÑģÐ¾Ð²ÐµÑĢÑĪ",
        "Ð°ÐµÑĤ"
      ],
      [
        "ĠÐ²Ð½ÐµÑĪÐ½",
        "Ðµ"
      ],
      [
        "ĠÑĥÑĩÐ°ÑģÑĤÐ½Ð¸Ðº",
        "Ð°Ð¼Ð¸"
      ],
      [
        "ĠÐ±ÐµÑģÐ¿Ð¾Ð»ÐµÐ·",
        "Ð½Ð¾Ðµ"
      ],
      [
        "ĠÑĢÑĭÐ½",
        "Ð¾Ðº"
      ],
      [
        "ĠÐ¿Ð¾ÑģÑĤÐ¾ÑıÐ½",
        "Ð½ÑĭÐ¹"
      ],
      [
        "ĠÐ²Ð¾Ð·",
        "Ð¼Ð¾Ð¶"
      ],
      [
        "ĠÐ´ÐµÐ»",
        "Ð¾"
      ],
      [
        "ĠÑģÐ¾Ð¾Ð±",
        "ÑĢÐ°Ð¶ÐµÐ½Ð¸Ñı"
      ],
      [
        "ĠÑģÐ¾Ð¾Ð±",
        "ÑīÐµÑģÑĤÐ²Ð°"
      ],
      [
        "ĠÐ¾ÑĤÐ½Ð¾ÑĪ",
        "ÐµÐ½Ð¸Ð¸"
      ],
      [
        "ĠÐ¿Ð¾ÑĤ",
        "ÑĢÐµÐ±"
      ],
      [
        "ĠÑģÐº",
        "Ð°Ð·"
      ],
      [
        "Ð»ÑİÐ´",
        "Ð°ÑĤÑĮ"
      ],
      [
        "ĠÑįÐºÐ¾Ð½Ð¾Ð¼Ð¸ÑĩÐµÑģÐº",
        "ÑĥÑİ"
      ],
      [
        "ĠÐ´Ð°Ð»ÑĮÐ½ÐµÐ¹ÑĪ",
        "ÐµÐµ"
      ],
      [
        "ĠÐ²ÑĭÐ¿Ð¾Ð»Ð½",
        "Ð¸ÑĤÑĮ"
      ],
      [
        "ĠÑģÑĤÐ°Ð½Ð´Ð°ÑĢÑĤ",
        "Ð½ÑĭÑħ"
      ],
      [
        "ĠÐ¿ÑĢÐ¾ÑĦÐµÑģÑģÐ¸Ð¾Ð½",
        "Ð°Ð»ÑĮÐ½Ð¾Ð³Ð¾"
      ],
      [
        "ĠÐŃ",
        "ÑĤÐ¾"
      ],
      [
        "Ð¼Ð¸Ð½",
        "Ð¸ÑģÑĤÑĢÐ°ÑĤÐ¸Ð²"
      ],
      [
        "ĠÐ¼Ð¾Ð³",
        "ÑĥÑĤ"
      ],
      [
        "ĠÐ·Ð°Ð½",
        "Ð¸Ð¼Ð°ÐµÐ¼ÑĭÑħ"
      ],
      [
        "ĠÐ¾Ð¿Ð°Ñģ",
        "Ð½Ð¾Ðµ"
      ],
      [
        "Ð¾ÐºÑĢÐ°ÑĤ",
        "Ð½Ð¾"
      ],
      [
        "ĠÐ³ÑĢÐ°Ð¶Ð´Ð°Ð½",
        "Ðµ"
      ],
      [
        "ÑĢÐµÐ¹Ð´",
        "Ð¸Ð½Ð³"
      ],
      [
        "ÑĢÐ°Ð¼",
        "Ð¼Ñĭ"
      ],
      [
        "ĠÐ¿Ð¾Ð´ÑħÐ¾Ð´",
        "Ð¾Ð²"
      ],
      [
        "ĠÐ½ÐµÐ¿Ð¾Ð½ÑıÑĤ",
        "Ð½Ð¾Ðµ"
      ],
      [
        "ĠÐ¾ÑĨÐµÐ½",
        "Ð¸ÑĤÑĮ"
      ],
      [
        "ĠÐ¿Ð»Ð¾Ñħ",
        "Ð¾"
      ],
      [
        "ĠÐ¿Ð¾ÐºÑĥÐ¿",
        "Ð°ÐµÑĤ"
      ],
      [
        "ĠÐºÐ»Ð°ÑģÑĤÐµÑĢ",
        "Ð¸Ð·Ð°ÑĨÐ¸Ð¸"
      ],
      [
        "ĠÐ¿ÑĢÐµÐ´Ð¿Ð¾ÑģÑĭÐ»",
        "ÐºÐ¸"
      ],
      [
        "ĠÑĢÐ°ÑģÐ¿ÑĢÐµÐ´ÐµÐ»",
        "ÐµÐ½Ñĭ"
      ],
      [
        "ĠÑģÑĦ",
        "ÐµÑĢÐ°"
      ],
      [
        "ĠÐ½Ð°Ð±",
        "Ð»ÑİÐ´Ð°ÑĤÑĮ"
      ],
      [
        "ĠÐºÐ°Ð¶Ð´",
        "Ð¾Ð³Ð¾"
      ],
      [
        "ĠÐ°Ð´",
        "Ð¼Ð¸Ð½Ð¸ÑģÑĤÑĢÐ°ÑĤÐ¸Ð²"
      ],
      [
        "ĠÐ½ÐµÐ¾Ð´Ð½",
        "Ð¾ÐºÑĢÐ°ÑĤÐ½Ð¾"
      ],
      [
        "ĠÑĢÐ°Ð·ÑĢÐ°Ð±Ð¾ÑĤ",
        "ÐºÐµ"
      ],
      [
        "ĠÐ¶Ð¸Ð·Ð½",
        "Ð¸"
      ],
      [
        "ĠÐºÐ¾Ð»Ð¸ÑĩÐµÑģÑĤÐ²",
        "ÐµÐ½Ð½ÑĭÐ¹"
      ],
      [
        "ĠÐ¶Ð¸Ð²Ð¾ÑĤ",
        "Ð½Ð¾Ðµ"
      ],
      [
        "ĠÐ¿Ð¾ÑĢÑıÐ´",
        "ÐºÐ°"
      ],
      [
        "ĠÑģÐ¸ÑģÑĤÐµÐ¼",
        "Ñĭ"
      ],
      [
        "ĠÐºÑĥÐ»ÑĮÑĤÑĥÑĢ",
        "Ñĭ"
      ],
      [
        "ver",
        "y"
      ],
      [
        "Ðļ",
        "Ð°Ðº"
      ],
      [
        "ĠÐµÑģ",
        "Ð»Ð¸"
      ],
      [
        "Ð¾ÑĨÐ¸",
        "Ð°ÑĤÐ¸Ð²Ð½Ð¾"
      ],
      [
        "ÐºÐµÑĤ",
        "Ð¸Ð½Ð³"
      ],
      [
        "ĠÐ²Ð¾ÑģÑĤ",
        "ÑĢÐµÐ±Ð¾Ð²Ð°Ð½Ð½Ð¾ÑģÑĤÑĮ"
      ],
      [
        "ĠÐ¼Ð°ÑĢ",
        "ÐºÐµÑĤÐ¸Ð½Ð³"
      ],
      [
        "ĠÑĩÑĤÐ¾Ð±",
        "Ñĭ"
      ],
      [
        "ĠÐ·Ð°Ð²Ð¸Ñģ",
        "Ð¸ÑĤ"
      ],
      [
        "Ð¾ÑĢÐ¸ÐµÐ½ÑĤ",
        "Ð¸ÑĢÐ¾Ð²Ð°Ð½Ð½ÑĭÐ¹"
      ],
      [
        "ĠÐ°ÑģÑģ",
        "Ð¾ÑĨÐ¸Ð°ÑĤÐ¸Ð²Ð½Ð¾"
      ],
      [
        "ĠÐ½Ð°ÑĨÐ¸Ð¾Ð½",
        "Ð°Ð»ÑĮÐ½ÑĭÐ¹"
      ],
      [
        "ĠÑĥÑĤÐ¾Ñĩ",
        "Ð½ÐµÐ½Ð¸Ñı"
      ],
      [
        "ĠÑĥÑģÐ¸Ð»",
        "Ð¸Ð¹"
      ],
      [
        "ĠÑĢÐ°Ð·Ð¾Ð±Ð»Ð°Ñĩ",
        "ÐµÐ½Ñĭ"
      ],
      [
        "ĠÐ²ÑĭÐ·",
        "ÑĭÐ²"
      ],
      [
        "ĠÐ²ÑĭÑĢÐ°Ð¶",
        "ÐµÐ½Ð¸Ðµ"
      ],
      [
        "ĠÐ¾Ð±ÑĥÑģÐ»Ð¾Ð²",
        "Ð»Ð¸Ð²Ð°ÐµÑĤ"
      ],
      [
        "ĠÑĦÐ¸Ðº",
        "ÑģÐ¸ÑĢÑĥÐµÑĤ"
      ],
      [
        "ĠÐ¿ÑĢÐµÐ´Ð¾Ð¿ÑĢÐµÐ´ÐµÐ»",
        "ÑıÐµÑĤ"
      ],
      [
        "ĠÐ¾ÑĤÑĢÐ°Ñģ",
        "Ð»ÑıÐ¼"
      ],
      [
        "ÐµÐ²ÑĢÐ¾Ð¿",
        "ÐµÐ¹ÑģÐºÐ¾Ð³Ð¾"
      ],
      [
        "ĠÐ¸Ð½Ð½Ð¾Ð²",
        "Ð°ÑĨÐ¸Ð¾Ð½"
      ],
      [
        "ĠÑĥÑĩÑĳÑĤ",
        "Ð¾Ð¼"
      ],
      [
        "ĠÐºÐ¾Ð½ÑĤÐ¸Ð½",
        "ÐµÐ½ÑĤÐ°Ð»ÑĮÐ½Ð¾"
      ],
      [
        "ĠÐºÐ¾Ð½ÑģÑĥÐ»ÑĮÑĤ",
        "Ð°ÑĨÐ¸Ñı"
      ],
      [
        "ĠÑĥÐ¿Ð¾Ð¼ÑıÐ½",
        "ÑĥÑĤÐ¾"
      ],
      [
        "ĠÐ°Ð´Ð¼Ð¸Ð½Ð¸ÑģÑĤÑĢÐ°ÑĤÐ¸Ð²",
        "Ð½ÑĭÑħ"
      ],
      [
        ")",
        ","
      ],
      [
        "c",
        "e"
      ],
      [
        "h",
        "i"
      ],
      [
        "i",
        "k"
      ],
      [
        "k",
        "s"
      ],
      [
        "m",
        "at"
      ],
      [
        "r",
        "t"
      ],
      [
        "s",
        "t"
      ],
      [
        "u",
        "n"
      ],
      [
        "w",
        "s"
      ],
      [
        "Ð",
        "ł"
      ],
      [
        "Ġ",
        "e"
      ],
      [
        "Ġ",
        "Ðµ"
      ],
      [
        "Ġ",
        "Ð¾Ð´"
      ],
      [
        "Ġ",
        "ÐµÑĢ"
      ],
      [
        "Ġ",
        "ÐµÑģÑĤ"
      ],
      [
        "Ġ",
        "very"
      ],
      [
        "Ð¾",
        "Ð½Ñĭ"
      ],
      [
        "Ð¾",
        "ÑĪ"
      ],
      [
        "Ð¾",
        "Ð¾ÑĩÐµÑĢÐµÐ´Ð½ÑĭÑħ"
      ],
      [
        "Ðµ",
        "Ñı"
      ],
      [
        "Ðµ",
        "ÑĨ"
      ],
      [
        "Ðµ",
        "ÑĢÐµÐ"
      ],
      [
        "ĠÐ",
        "¥"
      ],
      [
        "Ð°",
        "Ð½Ð¾"
      ],
      [
        "Ð°",
        "ÑģÑı"
      ],
      [
        "Ð°",
        "ÐµÑĪÑĮ"
      ],
      [
        "Ð¸",
        "ÑĤÐ¾"
      ],
      [
        "Ð¸",
        "ÑģÐº"
      ],
      [
        "Ð¸",
        "Ð°Ð³"
      ],
      [
        "Ð½",
        "Ðµ"
      ],
      [
        "Ð½",
        "ÑĥÑĤ"
      ],
      [
        "Ð½",
        "ÐµÐ·"
      ],
      [
        "Ð½",
        "ÑĤÐµÑĢ"
      ],
      [
        "Ð½",
        "Ð¾Ð·Ð½Ð°ÑĩÐ½Ð¾"
      ],
      [
        "Ð½",
        "Ð¸Ð³"
      ],
      [
        "ÑĤ",
        "Ñĭ"
      ],
      [
        "ÑĤ",
        "Ð°Ð»Ð¸ÑĤ"
      ],
      [
        "ÑĤ",
        "ÑĢÐµÐ¹Ð´Ð¸Ð½Ð³"
      ],
      [
        "Ñģ",
        "ÐµÐ¼"
      ],
      [
        "Ñģ",
        "Ð¾ÐºÐ¸Ð¹"
      ],
      [
        "ÐµÐ",
        "¶Ð´"
      ],
      [
        "Ñĭ",
        "ÑģÐ¾ÐºÐ¸Ð¹"
      ],
      [
        "Ñĥ",
        "Ð»"
      ],
      [
        "Ñĥ",
        "ÑĪ"
      ],
      [
        "Ñı",
        "Ð¶"
      ],
      [
        "ÑģÑĤ",
        "Ð¾Ð»ÑĮÐºÐ¾"
      ],
      [
        "ĠÐ¿",
        "Ð°Ðº"
      ],
      [
        "ĠÐ¿",
        "Ð°ÑĤ"
      ],
      [
        "ĠÐ¿",
        "Ð°ÑĢ"
      ],
      [
        "ĠÐ¿",
        "Ð¾Ñĩ"
      ],
      [
        "Ð»",
        "Ð¾Ðº"
      ],
      [
        "Ð»",
        "Ð¾Ñĩ"
      ],
      [
        "Ð»",
        "ÐµÐºÑģ"
      ],
      [
        "ÐµÐ½",
        "Ð½Ð¾Ð¹"
      ],
      [
        "Ð²",
        "ÑģÑĤÐ²"
      ],
      [
        "Ð²",
        "Ð°ÑĤ"
      ],
      [
        "Ð²",
        "Ð»Ñı"
      ],
      [
        "Ð²",
        "ÐµÑģÑĤ"
      ],
      [
        "Ð²",
        "Ð¾Ð¾ÑĩÐµÑĢÐµÐ´Ð½ÑĭÑħ"
      ],
      [
        "Ðº",
        "Ñĥ"
      ],
      [
        "Ðº",
        "Ð¾Ð²"
      ],
      [
        "Ðº",
        "Ð¸Ð¼"
      ],
      [
        "Ðº",
        "Ð¾Ð½Ð¾Ð¼Ð¸ÑĩÐµÑģÐº"
      ],
      [
        "ĠÑģ",
        "Ð¼"
      ],
      [
        "ĠÑģ",
        "ÐµÐ¹"
      ],
      [
        "ĠÑģ",
        "ÐµÐ¼"
      ],
      [
        "ĠÑģ",
        "Ð¼ÑĭÑģÐ»"
      ],
      [
        "Ð¾Ð²",
        "Ð¾Ð³Ð¾"
      ],
      [
        "Ð¾Ð²",
        "ÐºÐ¸"
      ],
      [
        "Ð¾Ð²",
        "Ð»ÐµÑĩ"
      ],
      [
        "ĠÐ½",
        "Ð¾"
      ],
      [
        "ĠÐ½",
        "ÐµÑģÐº"
      ],
      [
        "ĠÐ½",
        "Ð¾ÑĢÐ¼"
      ],
      [
        "ĠÐ²",
        "Ð¾"
      ],
      [
        "ĠÐ²",
        "Ðº"
      ],
      [
        "ĠÐ²",
        "Ð¾Ð´"
      ],
      [
        "ĠÐ²",
        "Ð°Ð»ÑİÑĤ"
      ],
      [
        "ĠÐ²",
        "Ð¾Ð²Ð»ÐµÑĩ"
      ],
      [
        "Ð½Ð¾",
        "Ð¾Ð±ÑĢÐ°Ð·"
      ],
      [
        "ÑĨ",
        "Ð¸Ð¿"
      ],
      [
        "ÐµÑĤ",
        "Ð½ÑĭÐµ"
      ],
      [
        "ÐµÑĤ",
        "Ð¸ÑĩÐµÑģÐºÐ¾Ðµ"
      ],
      [
        "ÐµÑĤ",
        "ÐºÐ¸Ð¼"
      ],
      [
        "ĠÐº",
        "ÑĢÐ°Ð"
      ],
      [
        "ĠÐº",
        "Ð¾Ñģ"
      ],
      [
        "ĠÐ¸",
        "ÑģÑĤ"
      ],
      [
        "Ñİ",
        "Ð´"
      ],
      [
        "Ð¾Ð´",
        "ÐµÐ¹ÑģÑĤÐ²"
      ],
      [
        "ÑĪ",
        "Ðµ"
      ],
      [
        "Ð°Ð»",
        "Ð¸"
      ],
      [
        "Ð°Ð»",
        "Ð¾Ð²"
      ],
      [
        "ĠÑĤ",
        "ÐµÐ»"
      ],
      [
        "ĠÑĤ",
        "ÐµÑĢ"
      ],
      [
        "ĠÑĤ",
        "ÑıÐ¶"
      ],
      [
        "ĠÐ´",
        "ÐµÐ½"
      ],
      [
        "ĠÐ´",
        "Ð¾Ðº"
      ],
      [
        "ĠÐ´",
        "Ð¸Ð°Ð³"
      ],
      [
        "Ð¾Ð³",
        "Ð°ÑĤ"
      ],
      [
        "ĠÐ¿ÑĢ",
        "Ð¸Ð·"
      ],
      [
        "ĠÐ¿ÑĢ",
        "Ð¸Ð±"
      ],
      [
        "ĠÐ¼",
        "ÐµÑħ"
      ],
      [
        "ĠÐ¼",
        "Ð¾Ð»Ð¾Ð´"
      ],
      [
        "Ð¾ÑĤ",
        "ÐµÑħÐ½Ð¾Ð»Ð¾Ð³"
      ],
      [
        "Ð¾Ð½",
        "Ð¸Ð¼"
      ],
      [
        "Ð¾Ð½",
        "Ð½Ð¸Ðº"
      ],
      [
        "Ð¾Ð½",
        "ÑĤÑĭ"
      ],
      [
        "ÑģÑĤÐ²",
        "Ð¸Ñı"
      ],
      [
        "ÑģÑĤÐ²",
        "Ð¾Ð¼"
      ],
      [
        "Ð°ÑĤ",
        "ÐµÐ»Ð¸"
      ],
      [
        "ĠÑĩ",
        "ÐµÑĤÐºÐ¸Ð¼"
      ],
      [
        "ĠÐ·",
        "Ð´"
      ],
      [
        "ĠÐ·",
        "ÑĢÐµÐ½Ð¸Ñı"
      ],
      [
        "ÑĢÐµÐ´",
        "Ð²Ð°ÑĢ"
      ],
      [
        "Ð¸Ð·",
        "Ð¾Ð½ÑĤÑĭ"
      ],
      [
        "ĠÐ°",
        "ÑĥÐ´Ð¸"
      ],
      [
        "ĠÐ½Ðµ",
        "ÑĥÑĤ"
      ],
      [
        "Ġ1",
        "00"
      ],
      [
        "ĠÐ±",
        "Ñĭ"
      ],
      [
        "ĠÐ±",
        "Ð¾Ð»"
      ],
      [
        "ĠÐ±",
        "ÑĢÐµÐ´"
      ],
      [
        "ĠÐ±",
        "ÐµÐ·ÑĥÑģÐ»Ð¾Ð²Ð½Ð¾"
      ],
      [
        "ĠÐ±",
        "Ð¾Ð³Ð°ÑĤ"
      ],
      [
        "ĠÐ½Ð°",
        "ÑĥÐº"
      ],
      [
        "ĠÐ½Ð°",
        "ÑģÑĤÐ¾Ð»ÑĮÐºÐ¾"
      ],
      [
        "Ñĳ",
        "ÑĢ"
      ],
      [
        "Ñĳ",
        "Ð¹"
      ],
      [
        "Ñĳ",
        "Ð·"
      ],
      [
        "Ð¾ÑģÑĤ",
        "Ð¾Ð¹"
      ],
      [
        "Ð¸Ñĩ",
        "Ð½Ð°Ñı"
      ],
      [
        "ĠÑĢ",
        "Ð°ÑģÑĤ"
      ],
      [
        "ÐµÐ½Ð¸Ñı",
        "Ð¼"
      ],
      [
        "Ð¾Ð·",
        "Ð¸"
      ],
      [
        "ĠÑĥ",
        "ÑģÑĤÑĢ"
      ],
      [
        "Ð³",
        "Ð»ÑıÐ´"
      ],
      [
        "ĠÑĢÐ°Ð·",
        "Ð±Ð¾ÑĢ"
      ],
      [
        "Ð¾Ñģ",
        "ÑĥÐ´"
      ],
      [
        "ĠÐ²Ñĭ",
        "Ð¿"
      ],
      [
        "Ð°Ð»ÑĮ",
        "Ð½Ð¾Ðµ"
      ],
      [
        "ĠÑģÑĤ",
        "ÑĢÐµÐ¼"
      ],
      [
        "ĠÐ¾Ð±",
        "Ð»"
      ],
      [
        "ĠÐ¾Ð±",
        "ÑģÑĤÐ°Ð½"
      ],
      [
        "ÐµÐ´",
        "Ñĭ"
      ],
      [
        "ĠÑį",
        "ÑĦÑĦ"
      ],
      [
        "ĠÑĦ",
        "Ð¸Ð»ÑĮ"
      ],
      [
        "ĠÐ¿ÑĢÐµÐ´",
        "Ð¿Ð¾Ð»"
      ],
      [
        "Ð°Ñģ",
        "ÑĮ"
      ],
      [
        "¹Ð½",
        "Ðµ"
      ],
      [
        "Ð°ÑĢ",
        "Ð¸Ð·Ð¼Ð°"
      ],
      [
        "Ð¸ÑĩÐµÑģÐº",
        "Ð¾Ð³Ð¾"
      ],
      [
        "Ð°Ð·",
        "Ð°ÑĤÐµÐ»ÑĮ"
      ],
      [
        "Ð°Ð·",
        "Ð½Ð¾Ð¾Ð±ÑĢÐ°Ð·"
      ],
      [
        "ĠÑħÑĥÐ¹Ð½",
        "ÑĳÐ¹"
      ],
      [
        "ĠÐºÐ°Ðº",
        "Ð¾Ð¹"
      ],
      [
        "ĠÐºÐ°Ðº",
        "Ð¸Ñħ"
      ],
      [
        "Ð¾Ð²Ð°Ð½",
        "Ð¸Ñı"
      ],
      [
        "ĠÐ¸Ð½",
        "ÑģÑĤÐ°Ð½"
      ],
      [
        "ĠÐ°Ðº",
        "ÑĨÐ¸Ð¹"
      ],
      [
        "ĠÑģÐ²",
        "ÐµÑĢÑĪ"
      ],
      [
        "ĠÑģÐ²",
        "ÐµÐ¶"
      ],
      [
        "ĠÐ»",
        "ÐµÑĤ"
      ],
      [
        "ĠÐ»",
        "ÑİÐ´"
      ],
      [
        "ÐµÑĪ",
        "Ð¸ÑĤÐµÐ»ÑĮ"
      ],
      [
        "Ð¸Ð»",
        "Ð°"
      ],
      [
        "Ð¸Ð»",
        "Ð¸"
      ],
      [
        "Ð¸ÑĤÐµÐ»ÑĮ",
        "Ð½ÑĭÐµ"
      ],
      [
        "Ð¸ÑĤÐµÐ»ÑĮ",
        "Ð½Ð¾Ð¼"
      ],
      [
        "ÑĦ",
        "Ð¸ÐºÐ°"
      ],
      [
        "Ð½Ð°Ñĩ",
        "Ð¸Ð¼Ð¾ÑģÑĤÑĮ"
      ],
      [
        "ĠÐ¿Ð¾Ð´",
        "Ð¾Ð·"
      ],
      [
        "ĠÑģÐ¾Ð²",
        "ÑģÐµÐ¼"
      ],
      [
        "ĠÑĨ",
        "ÐµÐ½Ñĭ"
      ],
      [
        "ĠÐ¾Ð¿",
        "ÑĭÑĤ"
      ],
      [
        "ĠÐ¿Ð¾Ð»",
        "ÐµÐ·"
      ],
      [
        "ĠÐŁ",
        "ÑĢÐ¸ÑıÑĤÐ½Ð¾"
      ],
      [
        "Ð°Ð¿",
        "Ð½Ð¾"
      ],
      [
        "Ð°Ð¿",
        "ÑĢÐ¸Ð¼ÐµÑĢ"
      ],
      [
        "ĠÑįÑĤ",
        "Ð¸Ñħ"
      ],
      [
        "ĠÑģÐ¿",
        "Ð»Ð¾Ñĩ"
      ],
      [
        "ÑĥÐ¼",
        "ÐµÐ½ÑĤ"
      ],
      [
        "ÑĢÐ°Ð·",
        "ÑĥÐ¼"
      ],
      [
        "Ð¾Ð»ÑĮ",
        "Ð·"
      ],
      [
        "ĠÑĩÐ°ÑģÑĤ",
        "Ð½Ð¾ÑģÑĤÐ¸"
      ],
      [
        "ĠÑĩÐ°ÑģÑĤ",
        "ÑĮÑİ"
      ],
      [
        "ĠÐĿ",
        "Ð°Ð¿ÑĢÐ¸Ð¼ÐµÑĢ"
      ],
      [
        "ĠÐºÐ¾Ð½",
        "ÑģÑĤÑĢ"
      ],
      [
        "ÑĤÐµÑĢ",
        "Ð½Ð¾Ð²"
      ],
      [
        "ĠÐ½ÐµÐ¿",
        "ÑĢÐ°Ð²"
      ],
      [
        "ĠÐ½ÐµÐ¿",
        "ÑĢÐ¸ÑıÑĤ"
      ],
      [
        "he",
        "r"
      ],
      [
        "ĠÑĤÐ¾",
        "ÑĤÐ°Ð»Ð¸ÑĤ"
      ],
      [
        "Ð°ÑİÑī",
        "Ð¸Ñħ"
      ],
      [
        "ĠÑģÐ²Ð¾",
        "Ñİ"
      ],
      [
        "ĠÑģÐ²Ð¾",
        "Ð¸Ñħ"
      ],
      [
        "ĠÐ¿Ð¾Ð·Ð¸",
        "ÑĨÐ¸Ð¾Ð½Ð½ÑĭÑħ"
      ],
      [
        "Ð°Ð³",
        "Ð°ÐµÑĤ"
      ],
      [
        "ĠÑģÑĥÑīÐµÑģÑĤÐ²",
        "Ð¾"
      ],
      [
        "ĠÑĢÐµÐ·",
        "ÐºÐ¾"
      ],
      [
        "ĠÑģÐ´ÐµÐ»",
        "Ð¾Ðº"
      ],
      [
        "ÑĬ",
        "ÑĳÐ·"
      ],
      [
        "ĠÐ¡",
        "Ð¾Ð²"
      ],
      [
        "ĠÐºÐ¾Ð¼",
        "Ð°Ð½Ð´"
      ],
      [
        "ĠÐ¿ÑĢÐ¸Ð½",
        "ÑĨÐ¸Ð¿"
      ],
      [
        "ĠÑĨÐµÐ»",
        "ÐµÐ²Ð¾Ð¹"
      ],
      [
        "ÑĨÐµÐ½",
        "Ð½Ð¾Ðµ"
      ],
      [
        "Ð°ÑĪ",
        "Ðµ"
      ],
      [
        "ĠÐ¾Ñĩ",
        "ÐµÐ½ÑĮ"
      ],
      [
        "ĠÐ¾Ñĩ",
        "ÐµÑĢÐµÐ´"
      ],
      [
        "ĠÐ¿ÐµÑĢ",
        "Ð²Ð¾Ð¾ÑĩÐµÑĢÐµÐ´Ð½ÑĭÑħ"
      ],
      [
        "ÑĥÐ·",
        "Ð½"
      ],
      [
        "ĠÑĢÐ°Ð±Ð¾ÑĤ",
        "Ð°ÐµÑĤ"
      ],
      [
        "ĠÑĥÐº",
        "Ð»Ð°Ð´"
      ],
      [
        "ĠÐ¾Ð¿ÑĢÐµÐ´ÐµÐ»",
        "ÑıÐµÑĤ"
      ],
      [
        "ĠÑĤÑĢÐµÐ±",
        "Ð¾Ð²Ð°Ð½Ð¸Ð¹"
      ],
      [
        "Ġs",
        "t"
      ],
      [
        "ĠÐ·Ð°Ð±",
        "Ð»Ð¾Ðº"
      ],
      [
        "ÐµÐºÑĤÐ¸Ð²",
        "Ð½Ð¾"
      ],
      [
        "ĠÐ²ÑĭÑģÐ¾Ðº",
        "Ð¾Ðµ"
      ],
      [
        "ĠÐ²ÑĭÑģÐ¾Ðº",
        "Ð¾ÑĤÐµÑħÐ½Ð¾Ð»Ð¾Ð³"
      ],
      [
        "Ñį",
        "ÑĤ"
      ],
      [
        "Ñį",
        "ÐºÐ¾Ð½Ð¾Ð¼Ð¸ÑĩÐµÑģÐº"
      ],
      [
        "ĠÐ¢",
        "Ð°Ð¼"
      ],
      [
        "ĠÐ¢",
        "Ð°ÐºÐ¸Ð¼"
      ],
      [
        "ĠÐĺ",
        "Ð´ÐµÐ¹Ð½ÑĭÐµ"
      ],
      [
        "ĠÐĺ",
        "Ð½ÑĤÐµÑĢ"
      ],
      [
        "Ð°ÑĤÐµÐ»ÑĮ",
        "Ð½Ð¾Ð³Ð¾"
      ],
      [
        "ĠÐ¾Ð±ÑīÐµÑģÑĤÐ²",
        "ÐµÐ½Ð½Ð¾Ð³Ð¾"
      ],
      [
        "Ð¸Ð»ÑĮ",
        "Ð½Ð¾Ðµ"
      ],
      [
        "ĠÐºÐ¾Ð¼Ð¿",
        "Ð»ÐµÐºÑģ"
      ],
      [
        "ĠÐ¿Ð¾ÐºÐ°Ð·",
        "Ð°ÑĤÑĮÑģÑı"
      ],
      [
        "Ġw",
        "it"
      ],
      [
        "Ġw",
        "hi"
      ],
      [
        "ÑıÑī",
        "Ð¸ÐµÑģÑı"
      ],
      [
        "Ð°Ð½ÑĤ",
        "Ð¸ÑĩÐµÑģÐºÐ¸Ð¹"
      ],
      [
        "ĠÑĦÐ¸Ð½Ð°Ð½Ñģ",
        "Ð¾Ð²"
      ],
      [
        "ĠÐ¾Ð³ÑĢÐ°Ð½Ð¸Ñĩ",
        "ÐµÐ½Ð¸Ð¹"
      ],
      [
        "ĠÑģÐ¾Ð¾ÑĤÐ²ÐµÑĤÑģÑĤÐ²ÑĥÑİÑī",
        "Ð¸Ñħ"
      ],
      [
        "ĠÑģÐ¾Ð¾ÑĤÐ²ÐµÑĤÑģÑĤÐ²ÑĥÑİÑī",
        "Ð¸Ð¼Ð¸"
      ],
      [
        "ĠÐĹ",
        "Ð°Ð´Ð°Ñĩ"
      ],
      [
        "ĠÐĹ",
        "Ð½Ð°ÑĩÐ¸Ð¼Ð¾ÑģÑĤÑĮ"
      ],
      [
        "ĠÐ½Ð°Ð·",
        "Ð²"
      ],
      [
        "ĠÐ³Ð¾ÑĢ",
        "Ð¾Ð´Ðµ"
      ],
      [
        "ĠÐ³Ð¾ÑĢ",
        "Ð¸Ð·Ð¾Ð½ÑĤÑĭ"
      ],
      [
        "ĠÐ²Ð½ÐµÑĪÐ½",
        "Ð¸Ñħ"
      ],
      [
        "ĠÑģÐ»ÐµÐ´",
        "ÑĥÑİÑī"
      ],
      [
        "ĠÑĤÐ¾Ñĩ",
        "ÐºÐ°"
      ],
      [
        "ĠÑĥÐ±",
        "Ð»ÑİÐ´"
      ],
      [
        "ĠÐĳ",
        "ÐµÐ·ÑĥÑģÐ»Ð¾Ð²Ð½Ð¾"
      ],
      [
        "ÑĭÑĩ",
        "Ð½ÑĭÐµ"
      ],
      [
        "ĠÐ½Ð¾Ð²",
        "Ð°Ñı"
      ],
      [
        "ÑĢÐ°Ð»",
        "ÑĮ"
      ],
      [
        "ĠÑģÑĤÐ¾",
        "Ð¸ÑĤ"
      ],
      [
        "ĠÐ¾Ð±ÑĬ",
        "ÐµÐºÑĤÐ¸Ð²Ð½Ð¾"
      ],
      [
        "ĠÑĤÐ¾ÑĢÐ³Ð¾Ð²",
        "Ð»Ð¸"
      ],
      [
        "ĠÐ¾ÑĤÐ½Ð¾ÑĪ",
        "ÐµÐ½Ð¸Ñı"
      ],
      [
        "Ġl",
        "ik"
      ],
      [
        "Ġm",
        "at"
      ],
      [
        "ÑıÑģ",
        "Ð½"
      ],
      [
        "ÑıÑģ",
        "ÑĮ"
      ],
      [
        "ĠÐ´Ð°Ð»ÑĮÐ½ÐµÐ¹ÑĪ",
        "Ð¸Ñħ"
      ],
      [
        "ĠÑģÑĤÐ°Ð½Ð´Ð°ÑĢÑĤ",
        "Ð¾Ð²"
      ],
      [
        "ĠÐ¿ÑĢÐ¾ÑĦÐµÑģÑģÐ¸Ð¾Ð½",
        "Ð°Ð»Ð¾Ð²"
      ],
      [
        "ĠÐ½Ð¾Ð²Ñĭ",
        "Ðµ"
      ],
      [
        "ĠÐ½Ð¾Ð²Ñĭ",
        "Ð¼"
      ],
      [
        "ĠÑĢÐµÑĪ",
        "ÐµÐ½Ð¸Ð¹"
      ],
      [
        "ĠÐ¾Ð±Ñī",
        "ÐµÐ¹"
      ],
      [
        "ĠÐ³Ð°Ð´",
        "ÐºÐ¾Ðµ"
      ],
      [
        "ĠÑĨÐµÐ½",
        "Ð°"
      ],
      [
        "ÑĢÐ¸Ð½",
        "Ð¸Ð¼"
      ],
      [
        "ĠÐ¿Ð¾Ð½ÑıÑĤ",
        "Ð¸Ñı"
      ],
      [
        "ĠÐ¿ÑĢÐ¸Ð²",
        "ÑĭÑĩÐ½ÑĭÐµ"
      ],
      [
        "ĠÐ¼ÐµÐ»",
        "Ð¾Ñĩ"
      ],
      [
        "ĠÑĢÐ°ÑĨÐ¸Ð¾Ð½",
        "Ð°Ð»ÑĮÐ½ÑĭÑħ"
      ],
      [
        "ĠÑģÑĤÐ¾ÑĢ",
        "Ð¾Ð½Ð½Ð¸Ðº"
      ],
      [
        "Ð¸ÑĢÐ¾Ð²",
        "Ð°Ð½Ñĭ"
      ],
      [
        "ĠÑĦÐ°Ðº",
        "ÑĤÐ°"
      ],
      [
        "ĠÑĦÐ°Ð½ÑĤ",
        "Ð°ÑģÑĤ"
      ],
      [
        "Ð¾Ð¶ÐµÑģÑĤÐ²",
        "Ð¾"
      ],
      [
        "ĠÑģÐ¿ÐµÑĨÐ¸",
        "ÑĦÐ¸ÐºÐ°"
      ],
      [
        "ĠÐºÐ¾Ð½ÑĨÐµÐ¿",
        "ÑĨÐ¸Ñı"
      ],
      [
        "ĠÑģÐ¾Ð±ÑģÑĤÐ²",
        "ÐµÐ½Ð½ÑĭÑħ"
      ],
      [
        "ĠÐ¿Ð¾ÑģÐ»ÐµÐ´",
        "ÑģÑĤÐ²Ð¸Ñı"
      ],
      [
        "ĠÐ½ÐµÐ½ÑĥÐ¶",
        "Ð½Ð¾Ðµ"
      ],
      [
        "Ġo",
        "f"
      ],
      [
        "ĠÐ½Ð¸Ð·",
        "Ðº"
      ],
      [
        "ĠÐ½ÐµÐ´",
        "Ð¾ÑģÑĤÐ¾Ð¹"
      ],
      [
        "ĠÐ½ÐµÐº",
        "Ð¾ÑĤÐ¾ÑĢ"
      ],
      [
        "ĠÐ¼Ð°Ð»",
        "Ð¾Ð·Ð½Ð°Ñĩ"
      ],
      [
        "ĠÐ¿Ð¾Ð´Ð³Ð¾ÑĤÐ¾Ð²",
        "ÐºÐµ"
      ],
      [
        "ĠÐ¿ÑĢÐµÐ´ÑģÑĤÐ°Ð²Ð»",
        "ÐµÐ½Ñĭ"
      ],
      [
        "Ġth",
        "at"
      ],
      [
        "ĠÐ¿ÑĢÐ¾Ð¸ÑģÑħÐ¾Ð´",
        "Ð¸ÑĤ"
      ],
      [
        "ĠÐ¯",
        "Ð²Ð»Ñı"
      ],
      [
        "ĠÐ¿Ð¾Ð±",
        "ÐµÐ´Ñĭ"
      ],
      [
        "ĠÐ²Ð·",
        "Ð³Ð»ÑıÐ´"
      ],
      [
        "ĠÐ´Ð²",
        "Ð¸Ð¶"
      ],
      [
        "ĠÐ¿ÑĢÐ¾ÑģÑĤ",
        "Ð¾Ð³Ð¾"
      ],
      [
        "ĠÐ¿ÑĢÐ¾ÑĤÐ¸Ð²",
        "Ð¾Ð´ÐµÐ¹ÑģÑĤÐ²"
      ],
      [
        "ĠÐ¼Ð°Ð»Ð¾",
        "ÑĨÐµÐ½Ð½Ð¾Ðµ"
      ],
      [
        "ĠÐ±ÑĥÑĢ",
        "Ð´Ð°"
      ],
      [
        "ĠÐ¸Ð½ÑģÑĤÑĢ",
        "ÑĥÐ¼ÐµÐ½ÑĤ"
      ],
      [
        "ĠÑģÐ²ÐµÑĤ",
        "Ðµ"
      ],
      [
        "ĠÑģÐ²ÑıÐ·",
        "ÐµÐ¹"
      ],
      [
        "ĠÐ¿Ð¾Ð»Ð¾Ð¶",
        "Ð¸ÑĤÐµÐ»ÑĮÐ½Ð¾Ð¼"
      ],
      [
        "ĠÐŀÐ´",
        "Ð½Ð¾Ð·Ð½Ð°ÑĩÐ½Ð¾"
      ],
      [
        "ĠÐºÐ¾Ð¼Ð¿ÑĮÑİÑĤ",
        "ÐµÑĢ"
      ],
      [
        "ĠÐ²ÑĭÐ·ÑĭÐ²",
        "Ð°ÑİÑīÐµÐµ"
      ],
      [
        "ĠÐµÑģÑĤ",
        "ÑĮ"
      ],
      [
        "Ð½ÐµÐ·",
        "Ð°Ð¿Ð½Ð¾"
      ],
      [
        "ĠÐ¿Ð°ÑĤ",
        "ÑĤÐµÑĢÐ½Ð¾Ð²"
      ],
      [
        "ĠÐ¿Ð¾Ñĩ",
        "ÐµÐ¼Ñĥ"
      ],
      [
        "ĠÑģÐµÐ¼",
        "Ð°Ð½ÑĤÐ¸ÑĩÐµÑģÐºÐ¸Ð¹"
      ],
      [
        "ĠÑģÐ¼ÑĭÑģÐ»",
        "Ðµ"
      ],
      [
        "ĠÐ½ÐµÑģÐº",
        "Ð¾Ð»ÑĮÐºÐ¾"
      ],
      [
        "ĠÐ²Ð¾Ð²Ð»ÐµÑĩ",
        "ÐµÐ½Ð¸Ñı"
      ],
      [
        "ĠÐºÑĢÐ°Ð",
        "¹Ð½Ðµ"
      ],
      [
        "ĠÐºÐ¾Ñģ",
        "Ð¼"
      ],
      [
        "ĠÑĤÑıÐ¶",
        "ÑĳÐ»"
      ],
      [
        "ĠÐ´Ð¾Ðº",
        "Ð°Ð·Ð°ÑĤÐµÐ»ÑĮ"
      ],
      [
        "ĠÐ´Ð¸Ð°Ð³",
        "ÑĢÐ°Ð¼Ð¼Ñĭ"
      ],
      [
        "ĠÐ¿ÑĢÐ¸Ð·",
        "ÑĭÐ²Ð°ÑİÑĤ"
      ],
      [
        "ĠÐ¼ÐµÑħ",
        "Ð°Ð½"
      ],
      [
        "ĠÐ¼Ð¾Ð»Ð¾Ð´",
        "ÑĳÐ¶"
      ],
      [
        "ÑĢÐµÐ´Ð²Ð°ÑĢ",
        "Ð¸ÑĤÐµÐ»ÑĮÐ½ÑĭÐµ"
      ],
      [
        "ĠÐ°ÑĥÐ´Ð¸",
        "ÑĤÐ¾ÑĢÐ¸Ð¸"
      ],
      [
        "ĠÐ½ÐµÑĥÑĤ",
        "ÐµÑĪÐ¸ÑĤÐµÐ»ÑĮ"
      ],
      [
        "ĠÐ±Ð¾Ð³Ð°ÑĤ",
        "ÑĭÐ¹"
      ],
      [
        "ĠÐ½Ð°ÑĥÐº",
        "Ðµ"
      ],
      [
        "ĠÑįÑĦÑĦ",
        "ÐµÐºÑĤ"
      ],
      [
        "ĠÐ¿ÑĢÐµÐ´Ð¿Ð¾Ð»",
        "Ð°Ð³Ð°ÐµÑĤ"
      ],
      [
        "Ð°Ð·Ð½Ð¾Ð¾Ð±ÑĢÐ°Ð·",
        "Ð½ÑĭÐ¹"
      ],
      [
        "ĠÐ¸Ð½ÑģÑĤÐ°Ð½",
        "ÑĨÐ¸ÑıÐ¼Ð¸"
      ],
      [
        "ĠÑģÐ²ÐµÑĢÑĪ",
        "ÐµÐ½Ð¸ÑıÐ¼"
      ],
      [
        "ĠÑģÐ²ÐµÐ¶",
        "Ð¸Ð¹"
      ],
      [
        "ĠÑģÐ¿Ð»Ð¾Ñĩ",
        "ÑĳÐ½Ð½Ð¾ÑģÑĤÑĮ"
      ],
      [
        "ĠÐºÐ¾Ð½ÑģÑĤÑĢ",
        "ÑĥÐº"
      ],
      [
        "ĠÑĤÐ¾ÑĤÐ°Ð»Ð¸ÑĤ",
        "Ð°ÑĢÐ¸Ð·Ð¼Ð°"
      ],
      [
        "ĠÐºÐ¾Ð¼Ð°Ð½Ð´",
        "Ñĭ"
      ],
      [
        "ĠÐ¾ÑĩÐµÑĢÐµÐ´",
        "ÑĮ"
      ],
      [
        "ĠÑĥÐºÐ»Ð°Ð´",
        "Ð°"
      ],
      [
        "ĠÐ·Ð°Ð±Ð»Ð¾Ðº",
        "Ð¸ÑĢÐ¾Ð²Ð°Ð½Ñĭ"
      ],
      [
        "ĠÐ²ÑĭÑģÐ¾ÐºÐ¾ÑĤÐµÑħÐ½Ð¾Ð»Ð¾Ð³",
        "Ð¸ÑĩÐ½Ð°Ñı"
      ],
      [
        "Ġwit",
        "h"
      ],
      [
        "ĠÐĹÐ°Ð´Ð°Ñĩ",
        "Ð°"
      ],
      [
        "Ġlik",
        "es"
      ],
      [
        "ĠÑģÑĤÐ¾ÑĢÐ¾Ð½Ð½Ð¸Ðº",
        "Ð¸"
      ],
      [
        "ĠÑģÐ¿ÐµÑĨÐ¸ÑĦÐ¸ÐºÐ°",
        "ÑĨÐ¸Ð¸"
      ],
      [
        "ĠÐ¯Ð²Ð»Ñı",
        "ÑıÑģÑĮ"
      ],
      [
        "ĠÐ¿ÑĢÐ¾ÑĤÐ¸Ð²Ð¾Ð´ÐµÐ¹ÑģÑĤÐ²",
        "Ð¸Ð¹"
      ],
      [
        "ĠÐ´Ð¾ÐºÐ°Ð·Ð°ÑĤÐµÐ»ÑĮ",
        "ÑģÑĤÐ²Ð¾Ð¼"
      ],
      [
        "ĠÐ½ÐµÑĥÑĤÐµÑĪÐ¸ÑĤÐµÐ»ÑĮ",
        "Ð½Ñĭ"
      ],
      [
        "E",
        "n"
      ],
      [
        "H",
        "e"
      ],
      [
        "K",
        "y"
      ],
      [
        "T",
        "he"
      ],
      [
        "a",
        "n"
      ],
      [
        "a",
        "v"
      ],
      [
        "c",
        "s"
      ],
      [
        "d",
        "en"
      ],
      [
        "e",
        "ac"
      ],
      [
        "g",
        "l"
      ],
      [
        "i",
        "m"
      ],
      [
        "i",
        "r"
      ],
      [
        "i",
        "cs"
      ],
      [
        "o",
        "u"
      ],
      [
        "o",
        "ws"
      ],
      [
        "u",
        "l"
      ],
      [
        "u",
        "t"
      ],
      [
        "u",
        "den"
      ],
      [
        "y",
        "m"
      ],
      [
        "Ġ",
        "n"
      ],
      [
        "Ġ",
        "ÐµÐ±"
      ],
      [
        "Ġ",
        "ÑĥÐ³"
      ],
      [
        "Ġ",
        "Ð¾ÐºÑĢ"
      ],
      [
        "Ġ",
        "His"
      ],
      [
        "Ġ",
        "En"
      ],
      [
        "Ġ",
        "He"
      ],
      [
        "Ġ",
        "Ky"
      ],
      [
        "Ð¾",
        "ÑĨÐ¸ÑıÐ¼Ð¸"
      ],
      [
        "Ðµ",
        "ÑĢÐµÐ·"
      ],
      [
        "Ðµ",
        "Ð¾Ð³ÑĢ"
      ],
      [
        "Ðµ",
        "ÑĢÐ°Ð»"
      ],
      [
        "ĠÐ",
        "¤"
      ],
      [
        "Ð°",
        "ÑĢÐ°Ðº"
      ],
      [
        "Ð°",
        "ÑĤÐ¾Ñĩ"
      ],
      [
        "Ð¸",
        "ÑĨ"
      ],
      [
        "Ð¸",
        "ÑĨÐ¸"
      ],
      [
        "Ð¸",
        "ÑīÐµ"
      ],
      [
        "Ð½",
        "Ð¾Ð³"
      ],
      [
        "Ð½",
        "ÐµÐ³Ð¾"
      ],
      [
        "Ð½",
        "Ð¸ÑĤÑĮ"
      ],
      [
        "Ð½",
        "Ð¸Ð±"
      ],
      [
        "Ð½",
        "Ð°Ð½Ð¸Ñı"
      ],
      [
        "Ð½",
        "ÑĥÐ»"
      ],
      [
        "ÑĤ",
        "ÐµÑģ"
      ],
      [
        "ÑĤ",
        "ÐµÑħÐ½"
      ],
      [
        "ÑĤ",
        "ÐµÑħÐ½Ð¾Ð»Ð¾Ð³"
      ],
      [
        "ÑĢ",
        "Ð¾Ñģ"
      ],
      [
        "ÑĢ",
        "Ð¸ÑĤÐµÐ»ÑĮ"
      ],
      [
        "ÑĢ",
        "ÑıÐ´"
      ],
      [
        "ÑĢ",
        "ÑıÐ¼"
      ],
      [
        "Ñĭ",
        "Ð»ÑĮ"
      ],
      [
        "Ñĥ",
        "ÐµÐ¼"
      ],
      [
        "Ñĥ",
        "ÑĢÐ°Ð»ÑĮ"
      ],
      [
        "Ñı",
        "ÑĪ"
      ],
      [
        "Ñı",
        "Ð´Ð°"
      ],
      [
        "Ñı",
        "Ð³Ð°"
      ],
      [
        "ÑģÑĤ",
        "ÑĮ"
      ],
      [
        "ĠÐ¿",
        "Ð¾Ð³"
      ],
      [
        "ĠÐ¿",
        "Ð¸Ð·"
      ],
      [
        "ĠÐ¿",
        "ÑĥÑĢ"
      ],
      [
        "ĠÐ¿",
        "Ð¾Ð³ÑĢ"
      ],
      [
        "ĠÐ¿",
        "Ð¾Ð½Ð¸Ð¼"
      ],
      [
        "Ñĩ",
        "ÐµÑĢ"
      ],
      [
        "Ñĩ",
        "Ð¸ÑĤÑĮÑģÑı"
      ],
      [
        "Ð»",
        "Ðµ"
      ],
      [
        "Ð»",
        "Ð°Ð½"
      ],
      [
        "Ð»",
        "ÑĥÑĩ"
      ],
      [
        "Ð»",
        "ÑĭÐ»"
      ],
      [
        "Ð»",
        "ÐµÐ½Ð½Ð¾Ðµ"
      ],
      [
        "ÑĮ",
        "Ñĳ"
      ],
      [
        "ÑĮ",
        "ÑģÑı"
      ],
      [
        "ÑĮ",
        "Ð·"
      ],
      [
        "ÐµÐ½",
        "ÐµÐ±"
      ],
      [
        "ÐµÐ½",
        "ÑĨÐ¸Ð¹"
      ],
      [
        "ÐµÐ½",
        "ÑĨÐ¸Ñİ"
      ],
      [
        "Ñħ",
        "Ð¸Ð½"
      ],
      [
        "Ð²",
        "ÐµÑī"
      ],
      [
        "Ð²",
        "ÑĭÑĩ"
      ],
      [
        "Ð²",
        "Ð¸Ð½ÑĤ"
      ],
      [
        "Ðº",
        "Ð¾Ð»"
      ],
      [
        "ĠÑģ",
        "Ð½"
      ],
      [
        "ĠÑģ",
        "Ð¾Ð¼"
      ],
      [
        "ĠÑģ",
        "ÐµÐ³"
      ],
      [
        "ĠÑģ",
        "ÐµÑĤÑĮ"
      ],
      [
        "ĠÑģ",
        "Ð¸Ð½ÑĤ"
      ],
      [
        "Ð¾Ð²",
        "Ð°ÑĢ"
      ],
      [
        "Ð¾Ð²",
        "Ð°ÑĤÐµÐ»ÑĮÐ½Ð¾Ð³Ð¾"
      ],
      [
        "ĠÐ½",
        "Ð°ÑĤ"
      ],
      [
        "ĠÐ½",
        "Ð¸Ñĩ"
      ],
      [
        "ĠÐ²",
        "Ð¾Ð½"
      ],
      [
        "ĠÐ²",
        "ÐµÑĢÐ¸"
      ],
      [
        "ĠÐ²",
        "Ð¾ÑģÐ¿"
      ],
      [
        "Ð½Ð¾",
        "ÑĢ"
      ],
      [
        "Ð½Ð¾",
        "ÑĤÐµÑħÐ½Ð¾Ð»Ð¾Ð³"
      ],
      [
        "ÑĢÐµÐ",
        "¶"
      ],
      [
        "ÐµÑĤ",
        "Ð¸Ð·Ð°ÑĨÐ¸Ð¸"
      ],
      [
        "ĠÐº",
        "Ð°Ñģ"
      ],
      [
        "ĠÐº",
        "Ð°ÑĢ"
      ],
      [
        "ĠÐº",
        "Ð²Ð¸Ð½ÑĤ"
      ],
      [
        "ĠÐ¸",
        "Ð½Ð¾Ðµ"
      ],
      [
        "ĠÐ¸",
        "ÑģÐ¿"
      ],
      [
        "ÑĢÐ°Ð",
        "´Ð¸"
      ],
      [
        "Ð´",
        "Ð¸"
      ],
      [
        "ÐµÐ»",
        "Ð¾Ð¼"
      ],
      [
        "Ð¼",
        "Ð¾Ð³"
      ],
      [
        "Ð¼",
        "ÐµÐµÑĤÑģÑı"
      ],
      [
        "Ð¾Ð´",
        "Ð¾ÑģÑĤ"
      ],
      [
        "Ð¾Ð´",
        "ÑıÐ³Ð°"
      ],
      [
        "ÑĪ",
        "Ð¸Ð²"
      ],
      [
        "ÐµÑĢ",
        "Ñĭ"
      ],
      [
        "ÐµÑĢ",
        "Ð´Ð°"
      ],
      [
        "ÐµÑĢ",
        "ÐºÐ¸"
      ],
      [
        "Ð¾Ð±",
        "Ð°Ð»ÑĮ"
      ],
      [
        "ĠÑĤ",
        "Ñĥ"
      ],
      [
        "ĠÑĤ",
        "Ð¾Ð³Ð¾"
      ],
      [
        "ĠÑĤ",
        "ÐµÑģÑĤ"
      ],
      [
        "ĠÑĤ",
        "ÑĢÐ¾Ð¿"
      ],
      [
        "ĠÑĤ",
        "ÐµÐ½Ð´"
      ],
      [
        "ĠÑĤ",
        "Ð¾Ð²Ð°ÑĢ"
      ],
      [
        "ĠÑĤ",
        "ÑĢÐ°Ð´Ð¸"
      ],
      [
        "ÐµÑģ",
        "Ð¸"
      ],
      [
        "ÐµÑģ",
        "Ð½Ð¾"
      ],
      [
        "ÐµÑģ",
        "ÑĥÑĢÑģ"
      ],
      [
        "Ñī",
        "Ð°Ñı"
      ],
      [
        "Ñī",
        "ÑĥÑī"
      ],
      [
        "ĠÐ´",
        "Ð¾ÑģÑĤ"
      ],
      [
        "ĠÐ´",
        "Ð¾Ð¿"
      ],
      [
        "ĠÐ´",
        "ÑĥÐ¼"
      ],
      [
        "ĠÐ´",
        "Ð½Ñı"
      ],
      [
        "ĠÐ´",
        "Ð°ÑĳÑĤ"
      ],
      [
        "Ð¾Ð³",
        "Ð¸Ñĩ"
      ],
      [
        "ĠÐ¿ÑĢ",
        "Ð¸Ð·Ð²"
      ],
      [
        "ĠÐ¿ÑĢ",
        "ÐµÐ½ÐµÐ±"
      ],
      [
        "Ð¿",
        "Ð°ÑĤ"
      ],
      [
        "Ð¿",
        "ÑĢÐ¾Ð¿"
      ],
      [
        "ĠÐ¼",
        "Ð¾Ð½"
      ],
      [
        "ĠÐ¼",
        "Ð¸Ð½"
      ],
      [
        "ĠÐ¼",
        "Ð°Ñģ"
      ],
      [
        "ĠÐ¼",
        "Ð½Ð¾Ð³Ð¾"
      ],
      [
        "ĠÐ¼",
        "Ð°ÑģÑģ"
      ],
      [
        "ĠÐ¼",
        "ÑĥÑĤÑĮ"
      ],
      [
        "âĢ",
        "ĵ"
      ],
      [
        "Ð¾Ð¼",
        "Ðµ"
      ],
      [
        "Ð¾ÑĤ",
        "Ð°"
      ],
      [
        "ÑģÑĤÐ²",
        "ÐµÐ½Ð½ÑĭÐµ"
      ],
      [
        "ÑĨÐ¸",
        "ÑĢ"
      ],
      [
        "Ð°ÑĤ",
        "Ð¸"
      ],
      [
        "ĠÑĩ",
        "ÑĢÐµÐ·"
      ],
      [
        "ĠÑĩ",
        "ÑĳÐ¼"
      ],
      [
        "ĠÑĩ",
        "ÐµÑĢÐµÐ·"
      ],
      [
        "Ð¸Ð²",
        "Ð°ÑİÑī"
      ],
      [
        "ĠÐ·",
        "Ð°Ñģ"
      ],
      [
        "Ð¸Ð¼",
        "ÐµÐ½"
      ],
      [
        "Ð¸Ð¼",
        "Ð°ÑĤÑĮ"
      ],
      [
        "Ð¾ÑĢ",
        "Ñĭ"
      ],
      [
        "Ð¾ÑĢ",
        "Ð¾Ð¶"
      ],
      [
        "Ð¾ÑĢ",
        "Ð½Ð°Ñı"
      ],
      [
        "Ð¾ÑĢ",
        "ÐµÑĤÐ¸Ð·Ð°ÑĨÐ¸Ð¸"
      ],
      [
        "ÑĢÐµÐ´",
        "ÑģÑĤÐ²ÐµÐ½Ð½ÑĭÐµ"
      ],
      [
        "ĠÑĢÐ°Ð",
        "¹Ð¾Ð½"
      ],
      [
        "ĠÑħ",
        "ÐµÑĢ"
      ],
      [
        "ĠÑħ",
        "Ð°ÑĢÐ°Ðº"
      ],
      [
        "ĠÐ°",
        "Ð±"
      ],
      [
        "ĠÐ°",
        "ÑħÐ¸Ð½"
      ],
      [
        "Ð¾Ðº",
        "ÑĥÐ¿"
      ],
      [
        "Ð¾Ðº",
        "Ð°ÑĩÐµÑģÑĤÐ²"
      ],
      [
        "Ð¾Ðº",
        "Ð¾Ð¼Ñĭ"
      ],
      [
        "ĠÐ½Ðµ",
        "ÑĢÐ°Ð·ÑĥÐ¼"
      ],
      [
        "ĠÐ±",
        "Ð¾Ð´ÑıÐ³Ð°"
      ],
      [
        "ĠÐ½Ð°",
        "Ð½Ð¾ÑĤÐµÑħÐ½Ð¾Ð»Ð¾Ð³"
      ],
      [
        "Ð¾ÑģÑĤ",
        "ÑĥÑİ"
      ],
      [
        "Ð°Ð²",
        "Ð»ÐµÐ½Ð½Ð¾Ðµ"
      ],
      [
        "ĠÑĢ",
        "ÑıÐ´Ð°"
      ],
      [
        "ĠÑĢ",
        "ÐµÑģÑĥÑĢÑģ"
      ],
      [
        "Ð¾Ð·",
        "Ð¼Ð¾Ð³"
      ],
      [
        "Ð½Ð¾ÑģÑĤ",
        "ÑıÑħ"
      ],
      [
        "Ð½Ð¾ÑģÑĤ",
        "ÑıÐ¼"
      ],
      [
        "ĠÑĥ",
        "ÑģÐ¿"
      ],
      [
        "Ð³",
        "Ð½ÑĥÑĤ"
      ],
      [
        "ĠÑĢÐ°Ð·",
        "Ð´"
      ],
      [
        "ĠÑĢÐ°Ð·",
        "Ð±"
      ],
      [
        "Ð¾Ñģ",
        "ÑĢÐµÐ´ÑģÑĤÐ²ÐµÐ½Ð½ÑĭÐµ"
      ],
      [
        "ĠÐ²Ñĭ",
        "Ð±"
      ],
      [
        "ĠÐ²Ñĭ",
        "Ð±Ð¾ÑĢ"
      ],
      [
        "ĠÐ²Ñĭ",
        "ÑĢÐ°ÑģÑĤ"
      ],
      [
        "ĠÐ²Ñĭ",
        "ÑĤÐµÑģ"
      ],
      [
        "Ð°Ð»ÑĮ",
        "Ð½ÑĭÐµ"
      ],
      [
        "Ð°Ð»ÑĮ",
        "Ð½Ð¾Ð¹"
      ],
      [
        "Ð°Ð»ÑĮ",
        "Ð½Ð¾Ð¼"
      ],
      [
        "ĠÑģÑĤ",
        "Ð°ÑĤ"
      ],
      [
        "ĠÑģÑĤ",
        "ÑĥÐ¿"
      ],
      [
        "ĠÑģÑĤ",
        "ÑĢÐ°Ð½"
      ],
      [
        "ĠÐ¾Ð±",
        "ÑĭÑĩ"
      ],
      [
        "ÐµÐº",
        "Ð²Ð°ÑĤ"
      ],
      [
        "ĠÐ³",
        "Ð¾ÑģÑĥÐ´"
      ],
      [
        "ĠÐ³",
        "ÐµÐ¾Ð³ÑĢ"
      ],
      [
        "ÑĥÑİ",
        "ÑģÑı"
      ],
      [
        "Ð°Ð´",
        "Ð°Ð±"
      ],
      [
        "ÐµÐ»ÑĮ",
        "Ð½ÑĭÐµ"
      ],
      [
        "Ð°ÐµÑĤ",
        "ÑģÑı"
      ],
      [
        "Ð°Ñģ",
        "Ñĭ"
      ],
      [
        "Ð°Ñģ",
        "ÐºÐ°"
      ],
      [
        "Ð·",
        "Ð°"
      ],
      [
        "Ð°ÑĢ",
        "Ð¾Ð´"
      ],
      [
        "ĠÐ¿ÑĢÐ¾",
        "Ð¸Ð·Ð²"
      ],
      [
        "ÑĥÐ¹Ð½",
        "Ñı"
      ],
      [
        "Ð¸ÑĩÐµÑģÐº",
        "Ð¾Ð¼"
      ],
      [
        "ĠÐºÐ°Ðº",
        "ÑĥÑİ"
      ],
      [
        "ĠÐºÐ°Ðº",
        "Ð¾Ðµ"
      ],
      [
        "ÑĤÐ¾ÑĢ",
        "Ð¾Ð²"
      ],
      [
        "Ð¾Ð²Ð°Ð½",
        "Ð¸Ðµ"
      ],
      [
        "ÑģÐ»",
        "ÐµÐ½Ð½ÑĭÑħ"
      ],
      [
        "Ð¾Ñĩ",
        "Ð½Ð¸Ðº"
      ],
      [
        "ĠÐ¸Ð½",
        "Ð¾Ð³Ð¾"
      ],
      [
        "ĠÐ¸Ð½",
        "ÑĦÐ¾ÑĢÐ¼"
      ],
      [
        "ĠÐ°Ðº",
        "ÑĨÐ¸Ð¸"
      ],
      [
        "ĠÑģÐ²",
        "ÐµÑĢ"
      ],
      [
        "ĠÐ»",
        "Ð¸"
      ],
      [
        "Ð¸Ð»",
        "ÑģÑı"
      ],
      [
        "Ð¸Ð»",
        "ÐºÐ°"
      ],
      [
        "ÑĦ",
        "Ð¾Ð½"
      ],
      [
        "ÑĦ",
        "Ð¸ÑĨÐ¸"
      ],
      [
        "ÑģÐº",
        "Ð°Ð·"
      ],
      [
        "ÑģÐº",
        "Ð¾Ðµ"
      ],
      [
        "ÑĨÐ¸Ð¾Ð½",
        "Ð½Ð¾Ðµ"
      ],
      [
        "ĠÐ¿Ð¾Ð´",
        "Ð²ÐµÑĢ"
      ],
      [
        "ĠÑĢÐ°Ð·Ð²",
        "Ð¸Ð²Ð°ÑİÑī"
      ],
      [
        "ĠÑĤÐ°Ðº",
        "Ð¾Ð³Ð¾"
      ],
      [
        "ÐµÑĩ",
        "Ð½Ð¾"
      ],
      [
        "ĠÐ¿Ð¾",
        "ÑįÑĤ"
      ],
      [
        "ÑĢÐµÐ¼",
        "ÐµÐ½Ð½ÑĭÐµ"
      ],
      [
        "ĠÐ¿Ð¾Ð»",
        "ÑĥÑĩ"
      ],
      [
        "ĠÐ¿Ð¾Ð»",
        "ÑĮÐ·"
      ],
      [
        "ÐµÑģÑĤ",
        "Ð¸"
      ],
      [
        "ÐµÑģÑĤ",
        "ÐºÐ°"
      ],
      [
        "ĠÐŁ",
        "ÑĢÐµÐ´Ð²Ð°ÑĢÐ¸ÑĤÐµÐ»ÑĮÐ½ÑĭÐµ"
      ],
      [
        "Ð°Ð¿",
        "Ð½Ð¾Ð³Ð¾"
      ],
      [
        "ĠÑı",
        "Ð´"
      ],
      [
        "ĠÑģÐ¿",
        "Ð¾ÑĢÐ½Ð°Ñı"
      ],
      [
        "ÑĥÐ¼",
        "Ð°ÑĤÑĮÑģÑı"
      ],
      [
        "ĠÐ°ÐºÑĤÐ¸Ð²",
        "Ð½Ð¾"
      ],
      [
        "ĠÐ¿ÑĢÐµÐ´ÑģÑĤÐ°Ð²",
        "Ð»ÑıÐµÑĤ"
      ],
      [
        "ĠÐĴ",
        "Ð¾Ð½"
      ],
      [
        "ĠÐĴ",
        "ÑĭÑģÐ¾ÐºÐ¸Ð¹"
      ],
      [
        "Ð¾Ð´Ð½",
        "ÑıÑĪ"
      ],
      [
        "is",
        "h"
      ],
      [
        "Ð¸ÑģÑĤ",
        "Ð¸ÐºÐ°"
      ],
      [
        "Ð¸ÑģÑĤ",
        "ÑģÐºÐ¾Ðµ"
      ],
      [
        "ĠÐļÐ°Ðº",
        "Ð°Ñı"
      ],
      [
        "Ġt",
        "eac"
      ],
      [
        "ĠÐĿ",
        "Ñĥ"
      ],
      [
        "ĠÐĿ",
        "Ð°ÑĪÐµ"
      ],
      [
        "ÑĢÐ¾Ð²",
        "Ð°Ð½Ñĭ"
      ],
      [
        "ĠÐºÐ¾Ð½",
        "ÐºÑĢ"
      ],
      [
        "ĠÐºÐ¾Ð½",
        "ÐµÑĩÐ½Ð¾"
      ],
      [
        "ĠÐ¶",
        "Ð°Ð¶Ð´"
      ],
      [
        "ÑĤÐµÑĢ",
        "Ð¸ÑģÑĤÐ¸ÐºÐ°"
      ],
      [
        "ĠÐ¿Ð¾Ð²",
        "ÐµÑģÑĤÐºÐ°"
      ],
      [
        "ĠÐ½ÐµÐ¿",
        "ÑĢÐµÐ´"
      ],
      [
        "ĠÐ½ÐµÐ¿",
        "Ð¾ÑģÑĢÐµÐ´ÑģÑĤÐ²ÐµÐ½Ð½ÑĭÐµ"
      ],
      [
        "Ð»ÑİÑĩ",
        "ÐµÐ½Ð¸Ñı"
      ],
      [
        "he",
        "mat"
      ],
      [
        "ĠÐ¾",
        "ÑīÑĥÑī"
      ],
      [
        "ĠÐ·Ð°Ð´",
        "ÑĥÐ¼Ð°ÑĤÑĮÑģÑı"
      ],
      [
        "ĠÑģÐ¾Ð²ÑĢÐµÐ¼",
        "ÐµÐ½Ð½Ð¾Ð³Ð¾"
      ],
      [
        "Ġa",
        "rt"
      ],
      [
        "ĠÑĤÐ¾",
        "Ð½"
      ],
      [
        "ĠÐ¸Ð·",
        "ÑĢÑıÐ´"
      ],
      [
        "ÑĥÐ¶",
        "Ð°ÑİÑī"
      ],
      [
        "Ð¸Ð±",
        "ÐµÑĢÐ´Ð°"
      ],
      [
        "ĠÐ²Ñģ",
        "ÐµÑħ"
      ],
      [
        "ĠÑģÑĤÑĢ",
        "Ð°Ð½Ñĭ"
      ],
      [
        "ĠÑģÑĤÑĢ",
        "Ð°ÑĤÐµÐ³"
      ],
      [
        "ĠÐ¾Ð´Ð½",
        "Ð°"
      ],
      [
        "ÐµÐ½ÑĮ",
        "Ñİ"
      ],
      [
        "ĠÑģÐ²Ð¾",
        "ÐµÐ¹"
      ],
      [
        "ĠÑģÐ²Ð¾",
        "ÑĳÐ¼"
      ],
      [
        "Ð°Ð³",
        "Ð°Ð½Ð´"
      ],
      [
        "Ð°Ð¹",
        "Ð½Ð¾"
      ],
      [
        "ÑĥÑī",
        "Ð¸Ð¹"
      ],
      [
        "ÑĥÑī",
        "Ð½ÑĭÐ¼"
      ],
      [
        "ĠÑģÑĥÑīÐµÑģÑĤÐ²",
        "ÐµÐ½Ð½ÑĭÑħ"
      ],
      [
        "ÑĢÐ°Ðº",
        "Ð°Ð´Ð°Ð±"
      ],
      [
        "ĠÑģÐ´ÐµÐ»",
        "Ð°Ð½Ð½Ð¾Ðµ"
      ],
      [
        "ÑĢÐ°Ð²",
        "Ð»ÐµÐ½Ð¸Ñı"
      ],
      [
        "ĠÑıÐ²",
        "Ð»ÐµÐ½Ð¸Ð¹"
      ],
      [
        "ÑĬ",
        "ÑıÑģÐ½"
      ],
      [
        "ÑĥÐ½",
        "Ð´Ð°"
      ],
      [
        "ĠÐ±Ð°Ð·",
        "Ñĭ"
      ],
      [
        "ĠÑĦÐ¾ÑĢÐ¼Ð¸ÑĢÐ¾Ð²Ð°Ð½",
        "Ð¸Ñı"
      ],
      [
        "Ð°ÑİÑĤ",
        "ÑģÑı"
      ],
      [
        "ĠÐ¿ÑĢÐ¸Ð½",
        "Ð¸Ð¼Ð°ÑĤÑĮ"
      ],
      [
        "ĠÑĨÐµÐ»",
        "Ð¾Ð¹"
      ],
      [
        "ĠÑĨÐµÐ»",
        "Ð¾Ð³Ð¾"
      ],
      [
        "ĠÑģÐ¿Ð¾ÑģÐ¾Ð±",
        "Ñĭ"
      ],
      [
        "ĠÑģÐ¿Ð¾ÑģÐ¾Ð±",
        "Ð½Ð¾Ð³Ð¾"
      ],
      [
        "ĠÐ´Ð¾Ð»",
        "ÐµÐ¹"
      ],
      [
        "Ð°ÐµÐ¼",
        "Ð¾"
      ],
      [
        "ĠÐ½Ð°Ñģ",
        "ÑĥÑīÐ½ÑĭÐ¼"
      ],
      [
        "ĠÑĪÐ¸ÑĢÐ¾Ðº",
        "Ð¾Ð¼"
      ],
      [
        "Ð°ÑĨÐ¸Ð¾Ð½",
        "Ð½Ð¾"
      ],
      [
        "ĠÐºÐ°ÑĩÐµÑģÑĤÐ²",
        "ÐµÐ½Ð½Ð¾"
      ],
      [
        "ĠÐ¿Ð¾Ð²ÐµÐ´",
        "ÐµÐ½Ð¸Ðµ"
      ],
      [
        "ĠÐ¼ÐµÑĤÐ¾Ð´",
        "Ð¾Ð²"
      ],
      [
        "ĠÑĤÐ¾ÑĢÐ³",
        "ÑĥÐµÑĤ"
      ],
      [
        "ĠÑĤÐ¾ÑĢÐ³",
        "ÑĥÑİÑĤ"
      ],
      [
        "ĠÐ½ÐµÐ¸Ð·Ð²ÐµÑģÑĤ",
        "Ð½ÑĭÐ¹"
      ],
      [
        "Ġs",
        "ci"
      ],
      [
        "ĠÐĶ",
        "Ð»Ñı"
      ],
      [
        "ĠÐ½Ð°Ð¿",
        "ÑĢÑıÐ¼"
      ],
      [
        "ĠÐºÑĢ",
        "Ð¾Ð¼Ðµ"
      ],
      [
        "ĠÐ·Ð°Ð±",
        "ÑĥÐ±"
      ],
      [
        "Ñį",
        "ÑģÑģ"
      ],
      [
        "ĠÐĺ",
        "Ð¼ÐµÐµÑĤÑģÑı"
      ],
      [
        "ĠÐ¾Ð±ÑīÐµÑģÑĤÐ²",
        "Ð°"
      ],
      [
        "ĠÐºÐ¾Ð¼Ð¿",
        "Ð°Ð½Ð¸Ð¹"
      ],
      [
        "ĠÐ½ÐµÐ·Ð°Ð²Ð¸ÑģÐ¸Ð¼",
        "ÑĭÑħ"
      ],
      [
        "ĠÑģÐ¾Ð·",
        "Ð½Ð°Ð½Ð¸Ñı"
      ],
      [
        "Ð¼Ð¾ÑĤ",
        "ÑĢÐ¸"
      ],
      [
        "ĠÑĤÐµÑħÐ½",
        "Ð¸ÑĩÐµÑģÐºÐ¾Ð³Ð¾"
      ],
      [
        "ĠÐ¼Ð¾Ð¶",
        "Ð½Ð¾"
      ],
      [
        "Ġ25",
        "0"
      ],
      [
        "ĠÐ³Ð»",
        "Ð°ÑģÑı"
      ],
      [
        "ĠÐ³Ð»",
        "Ð¾Ð±Ð°Ð»ÑĮ"
      ],
      [
        "ĠÐ¿ÑĢÐ¾ÑĨÐµÑģÑģ",
        "Ð°"
      ],
      [
        "ĠÐ¿ÑĢÐ¾ÑĨÐµÑģÑģ",
        "Ð¾Ð²"
      ],
      [
        "ĠÐ¿ÑĢÐ¾ÑĨÐµÑģÑģ",
        "Ð°Ð¼Ð¸"
      ],
      [
        "ĠÑģÐ»Ð¾Ð¶Ð¸Ð²ÑĪ",
        "ÑĥÑİÑģÑı"
      ],
      [
        "Ġg",
        "e"
      ],
      [
        "Ġg",
        "oo"
      ],
      [
        "Ġg",
        "ym"
      ],
      [
        "Ġh",
        "as"
      ],
      [
        "ĠÐ¾Ð½",
        "Ð¸"
      ],
      [
        "ĠÑĥÐ¿",
        "ÑĢÐ°Ð²Ð»ÐµÐ½Ð¸Ñı"
      ],
      [
        "ÑıÑī",
        "ÐµÐµ"
      ],
      [
        "ĠÑģÐ°Ð¼",
        "Ð¾Ð¼"
      ],
      [
        "ĠÑģÐ°Ð¼",
        "Ð¾Ð´Ð¾ÑģÑĤ"
      ],
      [
        "ĠÐ¿ÑĢÐ¸",
        "Ð¾ÑĢÐµÑĤÐ¸Ð·Ð°ÑĨÐ¸Ð¸"
      ],
      [
        "ĠÐ»Ð¸Ð±",
        "ÐµÑĢÐ°Ð»"
      ],
      [
        "ĠÑģÐ¾Ð¾ÑĤÐ²ÐµÑĤÑģÑĤÐ²ÑĥÑİÑī",
        "ÐµÐ¹"
      ],
      [
        "Ð»Ð¾Ð¶",
        "Ð½Ð¾"
      ],
      [
        "ĠÐ²Ð¸Ð´",
        "Ñĭ"
      ],
      [
        "ĠÐ²ÐµÑī",
        "ÐµÐ¹"
      ],
      [
        "ĠÐºÐ»",
        "Ð°ÑģÑģ"
      ],
      [
        "ĠÐ¸Ð³",
        "Ð½Ð¾ÑĢ"
      ],
      [
        "ĠÐ¿ÑĢÐ¸Ð¼ÐµÑĢ",
        "Ð½Ð¾"
      ],
      [
        "Ð¾Ð¿ÑĢÐ¸ÑıÑĤ",
        "Ð¸Ð¹"
      ],
      [
        "ĠÑĤÐ¾Ñĩ",
        "Ð½Ð¾"
      ],
      [
        "ĠÑĥÑĩÐ°ÑģÑĤÐ½Ð¸Ðº",
        "Ð°"
      ],
      [
        "ĠÑĥÑĩÐ°ÑģÑĤÐ½Ð¸Ðº",
        "Ð¸"
      ],
      [
        "ĠÐ¼ÑĭÑĪ",
        "Ð»ÐµÐ½Ð¸Ðµ"
      ],
      [
        "Ġf",
        "or"
      ],
      [
        "Ð¸Ð³",
        "Ð»Ð¸"
      ],
      [
        "ĠÐ¿Ð¾ÑģÑĤÐ¾ÑıÐ½",
        "Ð½Ð¾Ðµ"
      ],
      [
        "ĠÐ½Ð¾Ð²",
        "Ð¾Ð¹"
      ],
      [
        "ĠÐ²Ð¾Ð·",
        "Ð´"
      ],
      [
        "ĠÐ·Ð°Ð²Ð¸ÑģÐ¸Ð¼",
        "ÑĭÑħ"
      ],
      [
        "ĠÑĢÐ°Ð·ÑĥÐ¼",
        "Ð°"
      ],
      [
        "ĠÑĢÐ°Ð·ÑĥÐ¼",
        "Ð¾Ð¼"
      ],
      [
        "ĠÑĢÐ°Ð·ÑĥÐ¼",
        "ÐµÐµÑĤÑģÑı"
      ],
      [
        "ĠÑģÑĤÐ¾",
        "ÑıÑīÐµÐµ"
      ],
      [
        "ĠÐ¾Ð±ÐµÑģÐ¿ÐµÑĩ",
        "ÐµÐ½Ð¸Ðµ"
      ],
      [
        "ĠÑĤÐ¾ÑĢÐ³Ð¾Ð²",
        "Ð»Ñı"
      ],
      [
        "ĠÐ¿Ð¾Ð²ÑĭÑĪ",
        "ÐµÐ½Ð¸Ðµ"
      ],
      [
        "ĠÑģÐ¸ÑĤÑĥÐ°",
        "ÑĨÐ¸Ð¸"
      ],
      [
        "ĠÑģÐ¸ÑĤÑĥÐ°",
        "ÑĨÐ¸Ñİ"
      ],
      [
        "ĠÐºÐ°Ð´ÑĢÐ¾Ð²",
        "Ð¾Ð¹"
      ],
      [
        "ĠÐ¸ÑģÑģÐ»ÐµÐ´",
        "Ð¾Ð²Ð°Ð½Ð¸Ñı"
      ],
      [
        "Ġl",
        "un"
      ],
      [
        "ÑĮÑİ",
        "ÑĩÐµÑĢ"
      ],
      [
        "ĠÐ¼Ð°ÑĪ",
        "Ð¸Ð½Ñĭ"
      ],
      [
        "ĠÐ·Ð°Ðº",
        "ÑĢ"
      ],
      [
        "ĠÐ·Ð°Ð¿",
        "Ð°Ñħ"
      ],
      [
        "ĠÑĢÐ°ÑģÑģ",
        "ÑĥÐ¶Ð´"
      ],
      [
        "ĠÐ¸Ð½ÑĤÐµÑĢÐµÑģ",
        "Ð½ÑĭÐµ"
      ],
      [
        "ĠÐ¸Ð½ÑĤÐµÑĢÐµÑģ",
        "Ð½ÑĭÐ¹"
      ],
      [
        "ĠÐ¸Ð½ÑĤÐµÑĢÐµÑģ",
        "Ð½Ð°Ñı"
      ],
      [
        "ĠÑįÐºÐ¾Ð½Ð¾Ð¼Ð¸ÑĩÐµÑģÐº",
        "Ð°Ñı"
      ],
      [
        "ĠÐ²ÑģÑıÐº",
        "Ð¾Ð¹"
      ],
      [
        "ĠÐ²ÑģÑıÐº",
        "ÑĥÑİ"
      ],
      [
        "ĠÐ¼Ð°ÑĤÐµÑĢÐ¸",
        "Ð°Ð»ÑĮÐ½Ð¾"
      ],
      [
        "en",
        "ce"
      ],
      [
        "Ġd",
        "ay"
      ],
      [
        "ĠÐ¾ÑģÑĤ",
        "Ð°Ð»"
      ],
      [
        "ĠÐ¾ÑģÑĤ",
        "Ð°ÑİÑĤÑģÑı"
      ],
      [
        "ĠÐķ",
        "ÑģÐ»Ð¸"
      ],
      [
        "ĠÐ¼Ð¾Ð³",
        "ÑĥÑī"
      ],
      [
        "ĠÑĢÐµÑĪ",
        "ÐµÐ½Ð¸Ñı"
      ],
      [
        "ĠÐ¾Ð±Ñī",
        "ÐµÐ¼"
      ],
      [
        "ĠÐ³ÑĢ",
        "ÑĥÐ¿Ð¿"
      ],
      [
        "ĠÐ¿ÑĢÐ¾ÐµÐºÑĤ",
        "Ð°"
      ],
      [
        "ĠÐ³ÑĢÐ°Ð¶Ð´Ð°Ð½",
        "ÑģÐºÐ¾Ð³Ð¾"
      ],
      [
        "ĠÐ¾Ñģ",
        "Ð²ÐµÑī"
      ],
      [
        "ĠÐ£",
        "ÑĩÐ¸ÑĤÑĭÐ²Ð°Ñı"
      ],
      [
        "ĠÐł",
        "Ð°Ð²Ð½ÑĭÐ¼"
      ],
      [
        "ĠÐ¿ÑĢÐµÐ·",
        "ÑĢÐµÐ½"
      ],
      [
        "ĠÐ¿ÑĢÐ¾Ð²",
        "ÐµÑĢÐºÐ¸"
      ],
      [
        "ĠÑĢÐ°ÑĨÐ¸Ð¾Ð½",
        "Ð°Ð»ÑĮÐ½Ð¾Ðµ"
      ],
      [
        "ĠÑģÑĤÐ¾ÑĢ",
        "Ð¾Ð½Ñĭ"
      ],
      [
        "ĠÑĦÐ°Ðº",
        "ÑĤÐ¾ÑĢÐ¾Ð²"
      ],
      [
        "ĠÐ²Ð½Ðµ",
        "Ð¾ÑĩÐµÑĢÐµÐ´Ð½ÑĭÑħ"
      ],
      [
        "ĠÐºÐ¾Ð½ÑĨÐµÐ¿",
        "ÑĤÑĥ"
      ],
      [
        "ĠÑģÐ¾Ð±ÑģÑĤÐ²",
        "ÐµÐ½Ð½ÑĭÐµ"
      ],
      [
        "ĠÑĤÑĢÐµÐ¹Ð´Ð¸Ð½Ð³",
        "Ð°"
      ],
      [
        "ĠÐ¿Ð¾ÑģÐ»ÐµÐ´",
        "Ð¾Ð²Ð°ÑĤÐµÐ»ÑĮÐ½Ð¾Ð³Ð¾"
      ],
      [
        "ĠÐ¿ÑĢÐ¾Ð¸Ð·Ð²Ð¾Ð´ÑģÑĤÐ²",
        "Ð¾"
      ],
      [
        "ĠÐ¿ÑĢÐ¾Ð¸Ð·Ð²Ð¾Ð´ÑģÑĤÐ²",
        "ÐµÐ½Ð½ÑĭÐ¹"
      ],
      [
        "ĠÐ¼ÑĥÐ·Ñĭ",
        "Ðº"
      ],
      [
        "ĠÐ¼ÑĥÐ·Ñĭ",
        "ÐºÐ¸"
      ],
      [
        "ĠÑģÐ¾ÑģÑĤÐ¾ÑıÐ½",
        "Ð¸Ðµ"
      ],
      [
        "ÐµÑĤÑĮ",
        "ÐµÐ³Ð¾"
      ],
      [
        "ĠÐ¼ÐµÑĢ",
        "Ð¾Ð¿ÑĢÐ¸ÑıÑĤÐ¸Ð¹"
      ],
      [
        "ĠÑĩÑĥ",
        "ÑĪÑĮ"
      ],
      [
        "ĠÑĩÑĥ",
        "Ð²ÑģÑĤÐ²"
      ],
      [
        "ĠÑįÐ¼",
        "Ð¾ÑĨÐ¸ÑıÐ¼Ð¸"
      ],
      [
        "ĠÑįÐ¼",
        "Ð¿Ð°ÑĤ"
      ],
      [
        "ĠÐ³ÑĢÐ°Ð½",
        "Ð¸ÑĨ"
      ],
      [
        "ĠÑģÐ¾Ð±ÑĭÑĤ",
        "Ð¸Ð¹"
      ],
      [
        "ĠÐ¼Ð°ÑĪÐ¸Ð½",
        "Ð°"
      ],
      [
        "ĠÑĥÐ´",
        "ÐµÐ»Ð¾Ð¼"
      ],
      [
[...]
