{
  "version": "1.0",
  "truncation": {
    "direction": "Right",
    "max_length": 256,
    "strategy": "LongestFirst",
    "stride": 0
  },
  "padding": {
    "strategy": {
      "Fixed": 256
    },
    "direction": "Right",
    "pad_to_multiple_of": null,
    "pad_id": 0,
    "pad_type_id": 0,
    "pad_token": "[PAD]"
  },
  "added_tokens": [
    {
      "id": 0,
      "content": "[PAD]",
      "single_word": false,
      "lstrip": false,
      "rstrip": false,
      "normalized": false,
      "special": true
    },
    {
      "id": 1,
      "content": "[UNK]",
      "single_word": false,
      "lstrip": false,
      "rstrip": false,
      "normalized": false,
      "special": true
    },
    {
      "id": 2,
      "content": "[SOS]",
      "single_word": false,
      "lstrip": false,
      "rstrip": false,
      "normalized": false,
      "special": true
    },
    {
      "id": 3,
      "content": "[EOS]",
      "single_word": false,
      "lstrip": false,
      "rstrip": false,
      "normalized": false,
      "special": true
    },
    {
      "id": 4,
      "content": "[NEWS]",
      "single_word": false,
      "lstrip": false,
      "rstrip": false,
      "normalized": false,
      "special": true
    },
    {
      "id": 5,
      "content": "[MESSAGE]",
      "single_word": false,
      "lstrip": false,
      "rstrip": false,
      "normalized": false,
      "special": true
    },
    {
      "id": 6,
      "content": "[ENDOFTEXT]",
      "single_word": false,
      "lstrip": false,
      "rstrip": false,
      "normalized": false,
      "special": true
    }
  ],
  "normalizer": null,
  "pre_tokenizer": {
    "type": "ByteLevel",
    "add_prefix_space": false,
    "trim_offsets": true,
    "use_regex": true
  },
  "post_processor": null,
  "decoder": {
    "type": "ByteLevel",
    "add_prefix_space": true,
    "trim_offsets": true,
    "use_regex": true
  },
  "model": {
    "type": "BPE",
    "dropout": null,
    "unk_token": "[UNK]",
    "continuing_subword_prefix": null,
    "end_of_word_suffix": null,
    "fuse_unk": false,
    "byte_fallback": false,
    "ignore_merges": false,
    "vocab": {
      "[PAD]": 0,
      "[UNK]": 1,
      "[SOS]": 2,
      "[EOS]": 3,
      "[NEWS]": 4,
      "[MESSAGE]": 5,
      "[ENDOFTEXT]": 6,
      "!": 7,
      "\"": 8,
      "'": 9,
      "(": 10,
      ")": 11,
      "+": 12,
      ",": 13,
      "-": 14,
      ".": 15,
      "/": 16,
      "0": 17,
      "1": 18,
      "2": 19,
      "3": 20,
      "4": 21,
      "5": 22,
      "6": 23,
      "7": 24,
      "8": 25,
      "9": 26,
      ":": 27,
      ";": 28,
      "?": 29,
      "A": 30,
      "B": 31,
      "C": 32,
      "D": 33,
      "E": 34,
      "F": 35,
      "G": 36,
      "I": 37,
      "J": 38,
      "K": 39,
      "L": 40,
      "M": 41,
      "N": 42,
      "O": 43,
      "P": 44,
      "R": 45,
      "S": 46,
      "T": 47,
      "U": 48,
      "V": 49,
      "W": 50,
      "X": 51,
      "Y": 52,
      "[": 53,
      "]": 54,
      "a": 55,
      "b": 56,
      "c": 57,
      "d": 58,
      "e": 59,
      "f": 60,
      "g": 61,
      "h": 62,
      "i": 63,
      "j": 64,
      "k": 65,
      "l": 66,
      "m": 67,
      "n": 68,
      "o": 69,
      "p": 70,
      "q": 71,
      "r": 72,
      "s": 73,
      "t": 74,
      "u": 75,
      "v": 76,
      "w": 77,
      "x": 78,
      "y": 79,
      "¡": 80,
      "¢": 81,
      "£": 82,
      "¤": 83,
      "¥": 84,
      "¦": 85,
      "§": 86,
      "¨": 87,
      "©": 88,
      "¬": 89,
      "¯": 90,
      "°": 91,
      "±": 92,
      "²": 93,
      "³": 94,
      "´": 95,
      "µ": 96,
      "¶": 97,
      "·": 98,
      "¸": 99,
      "¹": 100,
      "º": 101,
      "»": 102,
      "¼": 103,
      "½": 104,
      "¾": 105,
      "¿": 106,
      "Ð": 107,
      "Ñ": 108,
      "â": 109,
      "Ċ": 110,
      "č": 111,
      "Ġ": 112,
      "Ģ": 113,
      "ģ": 114,
      "Ĥ": 115,
      "ĥ": 116,
      "Ħ": 117,
      "ħ": 118,
      "Ĩ": 119,
      "ĩ": 120,
      "Ī": 121,
      "ī": 122,
      "Ĭ": 123,
      "ĭ": 124,
      "Į": 125,
      "į": 126,
      "İ": 127,
      "ı": 128,
      "Ĳ": 129,
      "ĳ": 130,
      "Ĵ": 131,
      "ĵ": 132,
      "Ķ": 133,
      "ķ": 134,
      "ĸ": 135,
      "Ĺ": 136,
      "ĺ": 137,
      "Ļ": 138,
      "ļ": 139,
      "Ľ": 140,
      "ľ": 141,
      "Ŀ": 142,
      "ŀ": 143,
      "Ł": 144,
      "ł": 145,
      "Ń": 146,
      "ĠÐ": 147,
      "Ð¾": 148,
      "Ðµ": 149,
      "Ð°": 150,
      "ÑĤ": 151,
      "Ð¸": 152,
      "Ñģ": 153,
      "Ð¾Ð": 154,
      "Ð½": 155,
      "ÑĢ": 156,
      "Ð»": 157,
      "Ñĥ": 158,
      "Ð°Ð": 159,
      "Ñı": 160,
      "ÑĮ": 161,
      "ÐµÐ": 162,
      "Ñĭ": 163,
      "ĠÐ¿": 164,
      "ĠÐ½": 165,
      "ĠÐ²": 166,
      "Ñĩ": 167,
      "ĠÑģ": 168,
      "Ðº": 169,
      "Ð´": 170,
      "ĠÐ¸": 171,
      "ÑĤÐ¾": 172,
      "Ð²": 173,
      "ĠÐ¾": 174,
      "ĠÐº": 175,
      "Ñħ": 176,
      "Ð¼": 177,
      "ĠÑĤ": 178,
      "ĠÐ¼": 179,
      "ÑĤÑĮ": 180,
      "ĠÐ´": 181,
      "Ð°Ð»": 182,
      "ÑĪ": 183,
      "ÐµÐ½": 184,
      "ĠÐ±": 185,
      "Ñİ": 186,
      "ĠÑĩ": 187,
      "Ð¾Ð²": 188,
      "ÐµÑĢ": 189,
      "ÑģÑĤ": 190,
      "Ð¾Ð»": 191,
      "ÐµÐ»": 192,
      "Ð½Ð¾": 193,
      "Ð¾Ð¼": 194,
      "Ð°Ðº": 195,
      "ĠÐ¿ÑĢ": 196,
      "ÑĥÐ": 197,
      "³Ð¾": 198,
      "ÐµÑĤ": 199,
      "ĠÐ½Ðµ": 200,
      "ĠÐ·": 201,
      "Ð¸Ð»": 202,
      "Ð¾Ð¹": 203,
      "Ð¾Ð´": 204,
      "Ð½Ð¸": 205,
      "ĠÐ½Ð°": 206,
      "Ð¿": 207,
      "Ð¾ÑĢ": 208,
      "ÑģÑı": 209,
      "ÐµÐ¼": 210,
      "Ð½Ð°": 211,
      "Ð±": 212,
      "ĠÑĢ": 213,
      "Ð¾Ñģ": 214,
      "ĠÑ": 215,
      "Ð·": 216,
      "ĠÑı": 217,
      "ĠÐµ": 218,
      "ĠÑĩÑĤÐ¾": 219,
      "Ð¾ÑĤ": 220,
      "Ð°Ð¼": 221,
      "Ð°Ñģ": 222,
      "Ð¹": 223,
      "Ð°Ð·": 224,
      "ÐĲ": 225,
      "¶Ðµ": 226,
      "ĠÐ±Ñĭ": 227,
      "ÑĨ": 228,
      "ÐĲÐĲ": 229,
      "Ð´Ð°": 230,
      "Ð¾Ð±": 231,
      "..": 232,
      "Ð½Ñĭ": 233,
      "Ñī": 234,
      "ÑĤÐ¸": 235,
      "ĠÑĥ": 236,
      "ĠÑį": 237,
      "Ð°ÑĤÑĮ": 238,
      "Ð¾Ð½": 239,
      "Ð°Ð²": 240,
      "Ð»Ð¸": 241,
      "Ð¾Ð³": 242,
      "ÐµÐ´": 243,
      "Ð³": 244,
      "čĊ": 245,
      "ĠÐ³": 246,
      "ĠÐ»": 247,
      "Ð¸ÑĤ": 248,
      "Ð°Ð´": 249,
      "ĠÐ²Ñģ": 250,
      "ĠÐ¿Ð¾": 251,
      "Ð°Ð½": 252,
      "Ð¾Ð³Ð¾": 253,
      "ĠÐºÐ°Ðº": 254,
      "ÐµÐ¹": 255,
      "Ð°ÑĢ": 256,
      "Ð½Ñĥ": 257,
      "ĠÐ¾ÑĤ": 258,
      "Ð¾Ð»ÑĮ": 259,
      "ÑģÑĮ": 260,
      "Ð½Ðµ": 261,
      "Ð¸Ð¼": 262,
      "ĠÑĥÐ": 263,
      "Ð¸Ð²": 264,
      "ÑĤÐ¾ÑĢ": 265,
      "ĠÐ°": 266,
      "Ð¾Ð¶": 267,
      "ÐºÐ°": 268,
      "ÐµÐº": 269,
      "ÐµÐ±": 270,
      "Ð¾Ðº": 271,
      "ĠÑģÑĤ": 272,
      "ĠÑĤÐ°Ðº": 273,
      "Ð»Ð°": 274,
      "ĠÑħ": 275,
      "ÐµÐ·": 276,
      "ĠÐ¾Ð±": 277,
      "ĠÐ¾Ð½": 278,
      "ĠÐ²Ñĭ": 279,
      "ÐºÐ¸": 280,
      "ĠÐŁ": 281,
      "ĠÑįÑĤÐ¾": 282,
      "ÑĥÐ´": 283,
      "Ð¸ÑĤÑĮ": 284,
      "Ð°ÑĤ": 285,
      "ÑģÑĤÐ²": 286,
      "Ð°Ñı": 287,
      "ĠÐĿ": 288,
      "ÐµÐ½Ð¸": 289,
      "ÐĲÐĲÐĲÐĲ": 290,
      "Ð¸Ð´": 291,
      "ĠÐ¿ÑĢÐ¸": 292,
      "ĠÐ¶": 293,
      "...": 294,
      "ÐºÐ¾": 295,
      "ĠÐ±ÑĭÐ»": 296,
      "ÑĢÑĥÐ": 297,
      "ÐµÐ¿": 298,
      "Ð°Ð»Ð°": 299,
      "ĠÐ·Ð°": 300,
      "Ð¾Ð·": 301,
      "Ð¶": 302,
      "ĠÐŀ": 303,
      "Ð»Ñı": 304,
      "ÐµÐ³Ð¾": 305,
      "ĠÑĢÐ°Ð·": 306,
      "ÑħÐ¾": 307,
      "ĠÐ½Ð¾": 308,
      "ĠÑģÐ»": 309,
      "ĠÐĺ": 310,
      "ÐµÐ²": 311,
      "ĠÐ¡": 312,
      "Ð¸Ð½": 313,
      "ÐµÐ»ÑĮ": 314,
      "ĠÐ¶Ðµ": 315,
      "Ñĳ": 316,
      "ÐµÑģ": 317,
      "Ð³Ð¾": 318,
      "ĠÐ¢": 319,
      "ĠÐĶ": 320,
      "Ð¾Ð¼Ñĥ": 321,
      "ĠÐĲ": 322,
      "ĠÐľ": 323,
      "Ð°Ð¶": 324,
      "ĠÐ¿Ð¾Ð´": 325,
      "ĠÐĴ": 326,
      "Ð°Ð¹": 327,
      "ĠÐ¸Ð·": 328,
      "Ð¸Ðº": 329,
      "ÑĭÐ¹": 330,
      "ÐµÐ½ÑĮ": 331,
      "ĠÑĤÐ¾": 332,
      "ĠÐļ": 333,
      "ÐµÑĩ": 334,
      "ÐµÑĢÑĮ": 335,
      "ÑĥÐ¶": 336,
      "ÑĢÐ°": 337,
      "Ð¾Ñĩ": 338,
      "ÑīÐµ": 339,
      "ĠÐ¯": 340,
      "Ð¾Ð¿": 341,
      "Ð½Ð¾Ð¹": 342,
      "ĠÑģÐ²": 343,
      "Ð¾ÑĤÐ¾ÑĢ": 344,
      "Ð°Ñİ": 345,
      "Ð°Ð¿": 346,
      "ÐµÐ½Ñı": 347,
      "Ð°Ð»ÑĮ": 348,
      "Ð¸Ñĩ": 349,
      "ÑĤÐ¸ÑħÐ¾": 350,
      "Ð¾Ð³Ð´Ð°": 351,
      "ÐµÑĪ": 352,
      "ĠÐ¼ÐµÐ½Ñı": 353,
      "ĠÐ²ÑģÐµ": 354,
      "ĠÑĥÐ¶Ðµ": 355,
      "ÑĥÑĩ": 356,
      "Ð½Ð¾Ð³Ð¾": 357,
      "ĠÑģÐ¿": 358,
      "Ð´Ðµ": 359,
      "Ð¾Ðµ": 360,
      "ÑıÑĤ": 361,
      "ĠÐµÐ³Ð¾": 362,
      "ĠÐ¼Ð½Ðµ": 363,
      "Ġ-": 364,
      "ÐµÑģÑĤ": 365,
      "ÑĢÑĭ": 366,
      "ĠÐ¿Ð¾Ð»": 367,
      "ĠÐ´Ð²": 368,
      "Ð°Ð»Ð¸": 369,
      "Ð°Ð±": 370,
      "ĠÐ¿ÐµÑĢ": 371,
      "ÐºÑĥ": 372,
      "Ð¸Ñħ": 373,
      "ÑĢÑĥÐ³": 374,
      "Ð¼Ð¸": 375,
      "Ð¾ÑĪ": 376,
      "ĠÑģÐº": 377,
      "Ð¾Ð»ÑĮÐºÐ¾": 378,
      "ĠÐºÐ¾ÑĤÐ¾ÑĢ": 379,
      "ÑħÐ¾Ð´": 380,
      "Ð¾ÑģÑĤ": 381,
      "ÑĥÑĤ": 382,
      "ĠÑģÐ°Ð¼": 383,
      "ĠÐ¾Ð½Ð°": 384,
      "ĠÐ¿Ð¾Ñģ": 385,
      "ĠÑįÑĤ": 386,
      "Ð¸Ñģ": 387,
      "Ð½ÑĭÐ¹": 388,
      "ĠÐºÑĢ": 389,
      "ÑĥÐ´Ð°": 390,
      "ÐµÐ¶": 391,
      "ĠÐ±ÑĭÐ»Ð¾": 392,
      "Ð°ÐµÑĤ": 393,
      "Ð¾ÑģÑĮ": 394,
      "ÑģÑĤÑĮ": 395,
      "ĠÐ¾Ð´": 396,
      "ĠÑĤÐµÐ±": 397,
      "ĠÐ²ÑģÑĳ": 398,
      "ÑĥÑİ": 399,
      "Ð½ÑĭÐµ": 400,
      "ĠÐ³Ð¾": 401,
      "ÐĲÐĲÐĲÐĲÐĲÐĲÐĲÐĲ": 402,
      "ĠÐ²Ð¸Ð´": 403,
      "ÑģÐº": 404,
      "ĠÑĤÑĭ": 405,
      "ĠÐ¼Ñĭ": 406,
      "Ð½Ð°Ñı": 407,
      "ÑĪÐµ": 408,
      "ÑĪÐ¸": 409,
      "Ð½Ð¾Ðµ": 410,
      "Ð°ÑģÑĮ": 411,
      "ÑĦ": 412,
      "Ð¸Ð»Ð°": 413,
      "Ð°Ð¶Ðµ": 414,
      "Ð¾Ð²Ð¾ÑĢ": 415,
      "ÐµÐ»Ð¾Ð²": 416,
      "ĠÐ»Ð¸": 417,
      "ĠÑĦ": 418,
      "Ð°Ð¼Ð¸": 419,
      "ÑĥÐ¼": 420,
      "ÐµÐ³": 421,
      "ÑĭÐ²": 422,
      "ÐµÐ¿ÐµÑĢÑĮ": 423,
      "Ð¸Ð·": 424,
      "ÑĢÐ¾Ð²": 425,
      "ĠÐ´Ð°Ð¶Ðµ": 426,
      "Ð½ÑĥÐ»": 427,
      "ÑıÑĤÑĮ": 428,
      "ĠÐ´Ð°": 429,
      "ĠÐ±ÑĥÐ´": 430,
      "Ð¸Ð»Ð¸": 431,
      "ĠÐ½Ð°Ð´": 432,
      "Ð°Ð½Ð¸": 433,
      "ÑĤÐ¾Ð±": 434,
      "ÑĥÑĪ": 435,
      "Ð¾ÑĤÑĢ": 436,
      "âĢ": 437,
      "Ð°Ð³": 438,
      "ĠÑĩÐµÐ»Ð¾Ð²": 439,
      "ÐµÐ½Ð¸Ðµ": 440,
      "ĠÐŃ": 441,
      "ĠÑģÐ¼": 442,
      "ĠÐ¼Ð¾Ð¶": 443,
      "ĠÐ¿ÑĢÐ¾": 444,
      "ĠÐµÑīÐµ": 445,
      "Ð½Ð¸Ðº": 446,
      "ĠâĢ": 447,
      "ĠÐł": 448,
      "ĠÑĤÐµÐ¿ÐµÑĢÑĮ": 449,
      "ĠÐ¾Ñĩ": 450,
      "Ð½Ð¸Ð¼": 451,
      "ĠÑĩÐµÐ»Ð¾Ð²ÐµÐº": 452,
      "ÑģÐ¿": 453,
      "ĠÐ²Ð·": 454,
      "ĠÐºÐ¾Ð¼": 455,
      "ĠÐ¼Ð¾Ð³": 456,
      "ĠÐ´Ð¾": 457,
      "ĠÑĩÑĤÐ¾Ð±": 458,
      "ĠÑģÐ²Ð¾": 459,
      "ÑģÐ»": 460,
      "Ð½Ñı": 461,
      "ÑĥÐ±": 462,
      "Ð½ÑĭÑħ": 463,
      "ĠÑĪ": 464,
      "Ð»Ñİ": 465,
      "ĠÐ¿Ð¾ÑĤ": 466,
      "ÐµÐ½Ð½Ð¾": 467,
      "ÐµÐ»Ð°": 468,
      "ĠâĢĶ": 469,
      "Ð°Ñħ": 470,
      "ÑģÐ»Ð¸": 471,
      "ÑĢÐ°Ð²": 472,
      "ÑĨÐ¸": 473,
      "ĠÐ¿ÑĢÐ¾Ñģ": 474,
      "ĠÐ»Ñİ": 475,
      "ĠÐ§": 476,
      "ÑĤÐµ": 477,
      "ÑĢÐµÐ¼": 478,
      "ĠÑħÐ¾ÑĤ": 479,
      "ĠÐĶÑĥ": 480,
      "ĠÐ¸Ð³": 481,
      "ĠÐ¾Ð¿": 482,
      "ĠÑĤÐ¾Ð»ÑĮÐºÐ¾": 483,
      "ÑģÑĤÐ¸": 484,
      "ĠÐ³Ð»": 485,
      "ĠÐŃÑĤÐ¾": 486,
      "Ð¸Ð»ÑģÑı": 487,
      "ĠÑĢÐ°Ñģ": 488,
      "Ð°Ð½Ð¾Ð²": 489,
      "ÑĢÐ°Ð·": 490,
      "ÑĩÐ°Ñģ": 491,
      "ÐºÐ¾Ð¹": 492,
      "ĠÐ´ÑĢÑĥÐ³": 493,
      "ĠÑĩÑĤÐ¾Ð±Ñĭ": 494,
      "ĠÐĳ": 495,
      "ÑĢÐ¸": 496,
      "ĠÐ¼Ð¾": 497,
      "Ð°Ð»ÑģÑı": 498,
      "ĠÐµÐµ": 499,
      "Ð°ÑĤÑĮÑģÑı": 500,
      "ĠÑģÐ¾": 501,
      "ĠÑģÐµÐ±": 502,
      "Ð¸ÑĤÐµÐ»ÑĮ": 503,
      "ÐµÐ½Ð¸Ñı": 504,
      "ĠÐĹ": 505,
      "ÐµÐµ": 506,
      "ÑĥÑħ": 507,
      "ĠÐ¾Ñģ": 508,
      "Ð¸Ðµ": 509,
      "ĠÐ½Ð°Ñģ": 510,
      "ÐµÐ¼Ñĥ": 511,
      "ĠÐ±ÑĭÑĤÑĮ": 512,
      "ĠÐŀÐ½": 513,
      "ĠÐ½Ð°Ð¿": 514,
      "Ð¼Ñĥ": 515,
      "ÑĥÐ¿": 516,
      "ÑĭÑħ": 517,
      "ĠÐ¿Ð¾Ð½": 518,
      "ĠÐ´Ð¾Ð¼": 519,
      "ĠÑĤÐµÐ±Ñı": 520,
      "ĠÐ¾ÑĩÐµÐ½ÑĮ": 521,
      "ÐµÑħ": 522,
      "Ð¸ÑĢ": 523,
      "ÑİÐ´Ð°": 524,
      "ĠÐ³Ð¾Ð²Ð¾ÑĢ": 525,
      "ĠÐ¢Ð°Ðº": 526,
      "Ð¸Ð½Ð°": 527,
      "ÐºÐµ": 528,
      "ĠÑĤÑĢ": 529,
      "ĠÐµÑģÑĤÑĮ": 530,
      "ĠÐŁÐµÑĤ": 531,
      "ĠÐĿÐ¾": 532,
      "Ð´ÐµÑģÑĮ": 533,
      "Ġ\"": 534,
      "ĠÐ¿Ð¾Ðº": 535,
      "ĠÐ²Ð¾": 536,
      "ĠÐ±Ð¾Ð»ÑĮ": 537,
      "ÐµÑĢÐ°": 538,
      "ÑģÑĤÐ°Ð²": 539,
      "ÐµÑĤÑĮ": 540,
      "ÐµÑĨ": 541,
      "ÑĢÐ¾Ñģ": 542,
      "ÑĭÐµ": 543,
      "ÑĤÐ¾Ñı": 544,
      "ĠÐºÐ¾Ð³Ð´Ð°": 545,
      "ĠÐ±Ð¾Ð»": 546,
      "ĠÑĩÐµÑĢ": 547,
      "ĠÐ·Ð½Ð°": 548,
      "ĠÐºÐ¾Ð¼Ð½Ð°": 549,
      "Ð¸Ð½Ñĥ": 550,
      "ĠÐ½Ð¸": 551,
      "ĠÐ²Ð¾Ð·": 552,
      "ÑģÑĤÑĢ": 553,
      "Ð¾Ð»Ð¶": 554,
      "ĠÐ¾ÑĤÐ²": 555,
      "ĠÐ¿Ð¾ÑĢ": 556,
      "ĠÐ½ÑĥÐ¶": 557,
      "ĠÐ²ÐµÑĢ": 558,
      "ĠÐ²Ð¾ÑĤ": 559,
      "ĠÐ±ÐµÐ·": 560,
      "ÐµÐ»Ð¸": 561,
      "ĠÐ¿ÑĢÐµÐ´": 562,
      "ĠÐ±ÑĭÐ»Ð°": 563,
      "Ð½ÑĥÑİ": 564,
      "Ð½Ð¾Ð¼": 565,
      "ÑĮÑı": 566,
      "ĠÐ²Ð¿": 567,
      "ĠÑģÐ¾Ð±": 568,
      "ĠÐ¸Ð»Ð¸": 569,
      "ĠÐºÐ¾Ð½": 570,
      "ĠÑĤÐµÐ¼": 571,
      "Ð¾Ð»Ð¾Ð´": 572,
      "ÐµÑĤÑģÑı": 573,
      "ĠÐ»ÑİÐ±": 574,
      "Ð¾Ð¶Ðµ": 575,
      "Ð»Ðµ": 576,
      "ÑĭÑĪ": 577,
      "ĠÐ²ÑĢÐµÐ¼": 578,
      "Ð´Ñĥ": 579,
      "Ð²ÐµÑĢ": 580,
      "ĠÐ¾Ðº": 581,
      "ÑĪÐµÐ»": 582,
      "ĠÑĩÑĥ": 583,
      "ÐĲÐĲÐĲÐĲÐĲÐĲÐĲÐĲÐĲÐĲÐĲÐĲÐĲÐĲÐĲÐĲ": 584,
      "ÑĢÐµÐ´": 585,
      "ĠÐ½ÐµÑĤ": 586,
      "ĠÑĨ": 587,
      "ÑĨÐµ": 588,
      "ÐµÑĪÑĮ": 589,
      "Ð½Ð¸ÐºÐ¾Ð²": 590,
      "ĠÐ¤": 591,
      "Ð¸Ð³": 592,
      "ĠÐ¿Ð¾Ð¼": 593,
      "Ð´Ð¸": 594,
      "ĠÐ·Ð´ÐµÑģÑĮ": 595,
      "Ð½ÑĭÐ¼": 596,
      "ĠÐ¼Ð¾Ð¶ÐµÑĤ": 597,
      "ĠÐ¼Ð¾Ð³Ñĥ": 598,
      "Ð°Ñĩ": 599,
      "ÑĤÑĥ": 600,
      "ÑĢÐ¾Ð´": 601,
      "ĠÐ½Ð¸Ðº": 602,
      "Ð¼Ð¾": 603,
      "ĠÑĤÐ¾Ð³Ð¾": 604,
      "ĠÑĩÐ°Ñģ": 605,
      "ĠÐµÑģÐ»Ð¸": 606,
      "ĠÐµÐ¼Ñĥ": 607,
      "Ð¸Ð¼Ð¸": 608,
      "ĠÑģÑĤÑĢ": 609,
      "ÑĥÐ´ÑĮ": 610,
      "Ð°Ð±Ð¾ÑĤ": 611,
      "ĠÑĤÐµÐ±Ðµ": 612,
      "ĠÐ¿Ð¾ÑĤÐ¾Ð¼Ñĥ": 613,
      "ĠÐ¿ÑĢÐ¾ÑģÑĤÐ¾": 614,
      "ĠÐĽ": 615,
      "ÑĭÑĩ": 616,
      "ĠÐ¸Ð¼": 617,
      "Ð¼Ð¾ÑĤÑĢ": 618,
      "ĠÐ´ÐµÐ»": 619,
      "ÑĪÑĮ": 620,
      "ĠÑĢÑĥ": 621,
      "ÑĨÐ°": 622,
      "ĠÑĥÐ¶": 623,
      "ĠÑģÐºÐ°Ð·": 624,
      "ÑĬ": 625,
      "ÑĢÑĮ": 626,
      "ĠÐ½Ð°Ð¼": 627,
      "ĠÐ¸Ð½": 628,
      "ĠÐºÐ°Ð¶": 629,
      "ÐµÐ½ÑĤ": 630,
      "Ð¾ÑĢÐ¾ÑĪ": 631,
      "Ð±Ð¾": 632,
      "ĠÐ³Ð¾Ð»": 633,
      "ĠÐ¾ÑĤÐº": 634,
      "ĠÑĤÐ¾ÑĤ": 635,
      "Ð»ÑİÑĩ": 636,
      "ÐµÑģÑı": 637,
      "ĠÐ½Ð°Ð·": 638,
      "ĠÐ²ÑģÑı": 639,
      "Ð²ÑģÑĤÐ²": 640,
      "ĠÐºÐ¾ÑĢ": 641,
      "Ð¸Ð»Ð°ÑģÑĮ": 642,
      "Ð½Ð¸Ð±": 643,
      "Ð¸ÑĤÐµ": 644,
      "ĠÐ¿Ð¾Ñĩ": 645,
      "Ð»ÑıÐ´": 646,
      "ĠÐ¸Ð³ÑĢ": 647,
      "Ð½Ð¸Ð±ÑĥÐ´ÑĮ": 648,
      "Ð¸Ð¹": 649,
      "Ð½ÐµÐ¹": 650,
      "ĠÑģÐ¾Ð²": 651,
      "ĠÑģÑİÐ´Ð°": 652,
      "ÐºÐ¾Ð¼": 653,
      "ĠÑĤÐ°Ð¼": 654,
      "Ð°Ð»Ð¾": 655,
      "Ð°Ð»Ð°ÑģÑĮ": 656,
      "ĠÐ·Ð°Ð´": 657,
      "Ð¾Ð±ÑĢ": 658,
      "Ð°ÑĢÐ¼": 659,
      "ĠÐ½Ð°Ð´Ð¾": 660,
      "ĠÑģÐµÐ±Ñı": 661,
      "ĠÐ½ÑĥÐ¶Ð½Ð¾": 662,
      "Ð¾Ñİ": 663,
      "ÐµÑī": 664,
      "Ð½Ð¾Ð²": 665,
      "Ð»Ð¾": 666,
      "ĠÐ½ÐµÐ¼": 667,
      "ÐºÐ¾Ð»ÑĮ": 668,
      "ĠÐ¼ÑĥÐ¶": 669,
      "ĠÐ¿ÑĢÐ¾Ð´": 670,
      "ĠÐ·Ð°Ð¿": 671,
      "ĠÐ³ÐµÐ½": 672,
      "ĠÐ£": 673,
      "ĠÐ¿Ð¾Ð·": 674,
      "ĠÐ·Ð°Ðº": 675,
      "Ð¸Ð»Ð¾ÑģÑĮ": 676,
      "ĠÐ½Ð°ÑĪ": 677,
      "Ð¾ÑĢÐ³": 678,
      "Ð»Ð¸Ð²": 679,
      "ÐµÐ¹ÑĩÐ°Ñģ": 680,
      "ĠÐĺÐ²": 681,
      "ĠÐķ": 682,
      "ÑĤÐ°": 683,
      "ÑıÐ»": 684,
      "ÑĭÑĤ": 685,
      "ĠÐ²Ð´": 686,
      "ĠÐ¾ÑģÑĤ": 687,
      "ĠÑĤÑĥÑĤ": 688,
      "ĠÐ±Ð»": 689,
      "ĠÑĩÐµÐ¼": 690,
      "Ð¾ÑĢÐ¼": 691,
      "ĠÑģÑĤÐ°ÑĢ": 692,
      "Ð°ÑİÑĤ": 693,
      "ĠÐ´Ð²ÐµÑĢÑĮ": 694,
      "ÐµÑĢÐ°ÑĤÐ¾ÑĢ": 695,
      "Ðŀ": 696,
      "Ð½Ñİ": 697,
      "ÑĢÑĥ": 698,
      "ĠÐ½ÐµÐº": 699,
      "ĠÐ½ÐµÐ³Ð¾": 700,
      "ĠÐ²Ð¾Ð»": 701,
      "ĠÑĤÐ¸": 702,
      "ĠÐ´ÐµÐ½ÑĮ": 703,
      "Ð°Ð»Ð¾ÑģÑĮ": 704,
      "Ð½Ð¾ÑģÑĤÐ¸": 705,
      "ĠÐ¿ÑĢÐ°Ð²": 706,
      "Ð¸Ð»ÑĮ": 707,
      "ĠÐŁÑĢ": 708,
      "ÑĥÐ´Ð°ÑĢÑĮ": 709,
      "Ð°ÐµÑĤÑģÑı": 710,
      "ĠÐ²ÑĢÐµÐ¼Ñı": 711,
      "ĠÑĩÑĥÐ²ÑģÑĤÐ²": 712,
      "ÑĢÑı": 713,
      "ÑĭÐ¼": 714,
      "ĠÐ½Ð°Ðº": 715,
      "Ð²Ð¸Ð´": 716,
      "ÑģÑĤÐ°": 717,
      "ĠÐ¿ÑĢÑı": 718,
      "ĠÐ·Ð°Ð±": 719,
      "Ð½Ð°Ñĩ": 720,
      "Ð°ÑĢÑĤÐ¸": 721,
      "Ð½ÐµÐµ": 722,
      "ÑģÑĤÐ²ÐµÐ½": 723,
      "ĠÐ¿ÐµÑĢÐµÐ´": 724,
      "Ð°Ð½Ð¸Ñı": 725,
      "ĠÑħÐ¾ÑĤÑı": 726,
      "ĠÐĶÑĥÐ½Ðµ": 727,
      "ĠÐ³Ð»Ð°Ð·": 728,
      "ĠÐ³ÐµÐ½ÐµÑĢÐ°ÑĤÐ¾ÑĢ": 729,
      "ĠÐĺÐ²Ð°Ð½Ð¾Ð²": 730,
      "ĠÐĵ": 731,
      "ÐµÑİ": 732,
      "ÑĥÑģ": 733,
      "ÑĥÐº": 734,
      "ĠÐ¿Ð¾Ð¹": 735,
      "Ð´ÐµÐ»": 736,
      "ĠÐ¸Ð´": 737,
      "ĠÐ¸ÑģÐ¿": 738,
      "ĠÐ¼Ð½Ð¾Ð³Ð¾": 739,
      "ÐµÐ½Ð°": 740,
      "ĠÐ¿ÑĢÐ¸Ð²": 741,
      "Ð°ÑģÐºÐ¾Ð»ÑĮ": 742,
      "Ð½ÑĭÐ¼Ð¸": 743,
      "ĠÐ»ÐµÑĤ": 744,
      "Ð°Ð»ÑĮÐ½Ð¾": 745,
      "ĠÐ¿Ð¾Ð»ÑĥÑĩ": 746,
      "ĠÐ²Ð´ÑĢÑĥÐ³": 747,
      "Ð°ÑģÐºÐ¾Ð»ÑĮÐ½Ð¸ÐºÐ¾Ð²": 748,
      "Ġ(": 749,
      "ÑĤÐµÑĢ": 750,
      "Ð¸Ñı": 751,
      "Ð¸ÑĨ": 752,
      "Ð½Ð°Ðº": 753,
      "Ð´Ð¾ÑĢ": 754,
      "ĠÐºÐ¾Ð»": 755,
      "ĠÑĤÐ¾Ð±": 756,
      "ĠÐ´Ð¾ÑĢ": 757,
      "ĠÐ´Ð»Ñı": 758,
      "ĠÐ´ÐµÐ²": 759,
      "ÑĥÐ³": 760,
      "ĠÐ·Ð°Ð¼": 761,
      "Ð°ÑĤÐµÑĢ": 762,
      "Ð°Ð»Ð¸ÑģÑĮ": 763,
      "ĠÐ¿ÐµÑĢÐ²": 764,
      "ĠÐ¾Ð´Ð¸Ð½": 765,
      "ĠÐ±Ð¾Ð»ÑĮÑĪÐµ": 766,
      "ĠÑĩÐµÑĢÐµÐ·": 767,
      "ĠÐ¾ÑĤÐºÑĢÑĭ": 768,
      "Ñį": 769,
      "ÑĥÑĢ": 770,
      "ÑĥÑģÑĤ": 771,
      "ÑıÐ¹": 772,
      "ĠÐ²Ð¾Ñģ": 773,
      "ĠÐ¸Ñģ": 774,
      "Ð²Ð¾Ð»": 775,
      "ĠÐ¾Ð½Ð¸": 776,
      "ĠÐ¼ÐµÑģÑı": 777,
      "ĠÐ½Ð°Ñĩ": 778,
      "ĠÑĢÑĥÐ±": 779,
      "ÑĨÐ°ÑĤÑĮ": 780,
      "ĠÑĥÐ¼": 781,
      "ĠÑįÑĤÐ¸": 782,
      "ĠÐ³Ð´Ðµ": 783,
      "Ð¸ÑĤÑģÑı": 784,
      "ÐºÐ°Ñı": 785,
      "ĠÑħÐ¾Ñĩ": 786,
      "Ð¸ÑĤÑĮÑģÑı": 787,
      "Ð°ÑĤÑĢ": 788,
      "ĠÐĿÑĥ": 789,
      "Ð¸ÑĩÐµÐ³Ð¾": 790,
      "ĠÐ³Ð¾Ñģ": 791,
      "ĠÐ¾ÑģÐ¾Ð±": 792,
      "ĠÐŁÐµÑĤÑĢÐ¾Ð²": 793,
      "ĠÐ±Ð¾Ð»ÐµÐµ": 794,
      "ĠÐ¥": 795,
      "Ð°ÑĪ": 796,
      "ÑĢÐ¾Ð¼": 797,
      "ĠÐ½ÐµÐ¹": 798,
      "ÑĩÐ°": 799,
      "ĠÑģÐµÐ¹ÑĩÐ°Ñģ": 800,
      "ĠÑĤÐ¾Ð¼Ñĥ": 801,
      "ĠÐ¼Ð¾ÑĢÐ³": 802,
      "ÐµÐ´ÑĮ": 803,
      "Ð°Ð´Ð¾Ð²": 804,
      "ĠÑĥÐ³": 805,
      "Ð¾Ð¶Ð°Ð»": 806,
      "ĠÑįÑĤÐ¾ÑĤ": 807,
      "ĠÑģÐ»ÑĥÑĩ": 808,
      "ĠÐĶÐ°": 809,
      "ÑĢÐ°Ñī": 810,
      "ĠÐ±ÑĥÐ´ÑĤÐ¾": 811,
      "ĠÐĶÑĥÐ½ÐµÑĩ": 812,
      "ĠÑĤÐ¾Ð±Ð¾Ð¹": 813,
      "lo": 814,
      "ÐĿ": 815,
      "Ġ1": 816,
      "ÑĤÑĭ": 817,
      "ÑĢÐ°ÑĤ": 818,
      "Ð»ÐµÐ´": 819,
      "ĠÐ½Ð°Ð²": 820,
      "ÑĩÐ¸ÑĤ": 821,
      "ĠÐºÑĤÐ¾": 822,
      "ĠÑĤÐ¾Ð³Ð´Ð°": 823,
      "ĠÐ¼Ð¸Ð»": 824,
      "ÐµÑĢÐ¶": 825,
      "ÐµÐ»Ð°Ð´Ð¾Ð²": 826,
      "Ð½Ð¾ÑģÑĤÑĮ": 827,
      "ĠÐ²ÑģÐµÐ³Ð¾": 828,
      "ÐºÐ°Ñħ": 829,
      "ĠÑĤÐ°ÐºÐ¾Ðµ": 830,
      "ÐºÐ¸Ð¹": 831,
      "ĠÐĿÐµ": 832,
      "Ð½ÑĥÐ»ÑģÑı": 833,
      "ĠÐ±ÑĥÐ´ÐµÑĤ": 834,
      "ĠÐ¼Ð¾Ð¶Ð½Ð¾": 835,
      "ĠÐłÐ°ÑģÐºÐ¾Ð»ÑĮÐ½Ð¸ÐºÐ¾Ð²": 836,
      "ĠÑĢÐ°ÑģÐ¿": 837,
      "Ð¾Ð»Ð¾Ð´Ð¾Ð¹": 838,
      "Ð¾ÑĢÐ¾ÑĪÐ¾": 839,
      "Ð°ÑĢÐ¼ÐµÐ»Ð°Ð´Ð¾Ð²": 840,
      "in": 841,
      "Ð¾Ñħ": 842,
      "ÑĢÐµ": 843,
      "ÑıÑģ": 844,
      "ÑĭÐ»": 845,
      "ĠÐ¿Ð»": 846,
      "ĠÐ¿ÑĮÑı": 847,
      "ĠÐ½ÐµÐ¿": 848,
      "ĠÑģÐ¾Ñģ": 849,
      "ĠÐ¸Ñħ": 850,
      "Ð²Ð°ÑĢÑĤÐ¸": 851,
      "ĠÐ¼Ð¾Ð¹": 852,
      "ĠÐ±ÐµÑģ": 853,
      "ĠÐ½ÐµÑģÐº": 854,
      "ĠÑĢÐµÑĪ": 855,
      "ĠÑĢÐ°Ð±Ð¾ÑĤ": 856,
      "ÑĨÑĥ": 857,
      "Ð¾Ð±ÑīÐµ": 858,
      "Ð³Ð»ÑıÐ´": 859,
      "ĠÐ¾Ð±ÑĢÐ°Ð·": 860,
      "ĠÐ¾Ð±ÑĬ": 861,
      "ĠÐ¶Ð¸Ð·": 862,
      "ĠÐļÐ°ÑĤÐµÑĢ": 863,
      "ĠÐ²ÑģÐµÑħ": 864,
      "ĠÑģÐºÐ¾ÑĢ": 865,
      "ĠÐ¿Ð¾ÑģÐ»Ðµ": 866,
      "ĠÑįÑĤÐ¾Ð³Ð¾": 867,
      "ĠÐ³Ð¾ÑģÐ¿": 868,
      "ĠÐ½Ð°Ð·Ð°Ð´": 869,
      "ĠÐ¿ÑĢÐ¾Ð´Ð¾Ð»Ð¶": 870,
      "ĠÐ´Ð¾ÑĢÐ¾Ð³": 871,
      "!..": 872,
      "DO": 873,
      "EN": 874,
      "EX": 875,
      "FT": 876,
      "ÐĴ": 877,
      "Ðľ": 878,
      "ÑĢÐ°Ð½": 879,
      "ĠÐ½ÐµÐ´": 880,
      "ĠÐ²Ð°Ð¼": 881,
      "ĠÑģÐµÑĢ": 882,
      "ĠÑĤÐ²": 883,
      "ĠÑĤÐ¾Ð¼": 884,
      "ĠÑĤÐ¾Ð¶Ðµ": 885,
      "ĠÐ´Ð°Ð²": 886,
      "ĠÐ´ÑĥÐ¼": 887,
      "Ð½Ð¾Ñİ": 888,
      "ĠÐ¿Ð¾ÑĪ": 889,
      "Ð¾Ð»ÑĮÐ·": 890,
      "Ð¸Ð¼ÐµÑĢ": 891,
      "ĠÑĥÐ±": 892,
      "ĠÐ°Ð½Ð¸Ð¼": 893,
      "Ð¾ÐºÐ¾Ð¹": 894,
      "ĠÑħÐ¾Ð·": 895,
      "ĠÐľÑĭ": 896,
      "ÑĢÐ°ÑĪ": 897,
      "ĠÑģÐ¼Ð¾ÑĤÑĢ": 898,
      "ĠÑħÐ¾ÑĤÐµÐ»": 899,
      "Ð¸ÑĤÐµÐ»ÑĮÐ½Ð¾": 900,
      "ĠÑĨÐµÐ»": 901,
      "ĠÑĤÐ¸ÑħÐ¾": 902,
      "Ð°ÑĤÑĢÐ¾Ð½": 903,
      "ĠÐ³Ð¾ÑģÑĥÐ´Ð°ÑĢÑĮ": 904,
      "ĠÐ³Ð¾ÑģÐ¿Ð¾Ð´": 905,
      "DOFT": 906,
      "ENDOFT": 907,
      "EXT": 908,
      "ENDOFTEXT": 909,
      "ob": 910,
      "ÐµÑģÑĮ": 911,
      "Ð¸ÑģÑĤ": 912,
      "Ð»ÐµÐ½": 913,
      "ÑĥÑī": 914,
      "ÑıÐ·": 915,
      "ÑĮÑİ": 916,
      "ĠÐ½Ñĥ": 917,
      "ĠÐ½Ð¾Ð³": 918,
      "ĠÐºÑĥÐ´Ð°": 919,
      "ĠÐºÐ²Ð°ÑĢÑĤÐ¸": 920,
      "ÑĪÐºÐ¾Ð¼": 921,
      "ÑģÑĤÐµÑĢ": 922,
      "ĠÐ±ÑĭÐ»Ð¸": 923,
      "Ð°ÑĢÐ¸": 924,
      "ĠÐ½Ð¾Ñĩ": 925,
      "ÐµÑģÑĤÐ½Ð¸": 926,
      "ĠÐ´Ð²Ð¾ÑĢ": 927,
      "ĠÑįÑĤÐ¾Ð¼": 928,
      "Ð¸Ð»Ð¸ÑģÑĮ": 929,
      "ĠÐ¿ÑĢÐ¾Ð¸Ð·": 930,
      "ĠÑģÐµÐ±Ðµ": 931,
      "ÐĲÐĲÐĲÐĲÐĲÐĲÐĲÐĲÐĲÐĲÐĲÐĲÐĲÐĲÐĲÐĲÐĲÐĲÐĲÐĲÐĲÐĲÐĲÐĲÐĲÐĲÐĲÐĲÐĲÐĲÐĲÐĲ": 932,
      "ĠÐºÐ°Ð¶ÐµÑĤÑģÑı": 933,
      "ĠÐ³Ð¾Ð»Ð¾Ð²": 934,
      "ĠÐ½ÐµÑģÐºÐ¾Ð»ÑĮÐºÐ¾": 935,
      "ĠÐ°Ð½Ð¸Ð¼Ð°ÑĤÑĢÐ¾Ð½": 936,
      "Rob": 937,
      "Ð¶Ðµ": 938,
      "Ġa": 939,
      "Ð¸Ð¶": 940,
      "Ð»Ð°Ð´": 941,
      "Ð°Ð³Ð¾": 942,
      "ÑıÐ²": 943,
      "ÑıÑĤÐ¸": 944,
      "ĠÐ¿Ð¾Ð¿": 945,
      "ĠÐ¿Ð¾Ð¶Ð°Ð»": 946,
      "ĠÐ½Ð¸ÑĩÐµÐ³Ð¾": 947,
      "ĠÐ²Ð°Ñģ": 948,
      "ÑĩÐ½Ð¾": 949,
      "ĠÑģÐ¸Ñħ": 950,
      "ÑħÐ²": 951,
      "ĠÐ´Ð¾Ð»Ð¶": 952,
      "ÐµÑĢÐµÐ´": 953,
      "ÑĥÐ¹": 954,
      "Ð¾Ð´Ñı": 955,
      "Ð·Ñı": 956,
      "Ð»Ð¸Ð½": 957,
      "Ð»Ð¸ÑĪÐºÐ¾Ð¼": 958,
      "Ð¸Ð²Ð°ÑĤÑĮ": 959,
      "ĠÐ¶ÐµÐ»": 960,
      "ĠÐ¢Ñĭ": 961,
      "Ð¾ÑģÑĤÐ¸": 962,
      "ĠÑģÐ²Ð¾Ñİ": 963,
      "ĠÐ§ÑĤÐ¾": 964,
      "ĠÐ²Ð¾Ð¾Ð±ÑīÐµ": 965,
      "ĠÐ½ÐµÐºÐ¾ÑĤÐ¾ÑĢ": 966,
      "ĠÐ¿ÑĢÑıÐ¼Ð¾": 967,
      "ĠÐ¶Ð¸Ð·Ð½Ð¸": 968,
      "Ð¯": 969,
      "ÐŁ": 970,
      "ĠRob": 971,
      "Ð¾ÑĤÑĮ": 972,
      "Ð°ÐµÐ¼": 973,
      "ÑĢÐ°Ñģ": 974,
      "ÑĢÐ°ÑĤÑĮ": 975,
      "ĠÐ¿Ð¾Ð²": 976,
      "ĠÐ¿ÑıÑĤÑĮ": 977,
      "ĠÑģÐ¾Ð·": 978,
      "ĠÑģÐ´ÐµÐ»": 979,
      "ĠÑģÐ»Ð¸ÑĪÐºÐ¾Ð¼": 980,
      "ĠÑĤÑĥÐ´Ð°": 981,
      "ĠÐ´ÐµÑĤ": 982,
      "ÑİÑĤ": 983,
      "ÐµÑĢÐ±": 984,
      "ĠÑĢÐµ": 985,
      "Ð¾ÑģÑĤÑĮ": 986,
      "ĠÐµÐ¹": 987,
      "ĠÑĥÐ»Ð¸": 988,
      "ĠÑĥÐ²Ð¸Ð´": 989,
      "Ð¾Ð½ÐµÑĨ": 990,
      "ĠÐ³Ð¾Ð´": 991,
      "ĠÐ»ÐµÑģÑĤÐ½Ð¸": 992,
      "Ð°Ð´Ð½Ð¾": 993,
      "Ð¸Ð²ÑĭÐ¹": 994,
      "Ð»Ð°ÑģÑĤÐµÑĢ": 995,
      "ĠÑħÐ¾ÑĤÑĮ": 996,
      "ÑģÑĤÐ²Ð¾": 997,
      "ĠÐ¶Ð°Ð»": 998,
      "ĠÐ¶Ð¸Ð²": 999,
      "ÑĢÑĥÐ¶": 1000,
      "ĠÑģÐ»Ð¾Ð²": 1001,
      "ĠÑģÐ»ÑĥÐ¶": 1002,
      "ĠÑģÐ»ÑĭÑĪ": 1003,
      "ÐµÐ»ÑĮÐ·Ñı": 1004,
      "ĠÐľÐ½Ðµ": 1005,
      "ÑıÑĤÐ½Ð¾": 1006,
      "ĠÐ¿Ð¾ÑģÐ¼Ð¾ÑĤÑĢ": 1007,
      "ĠÐ¼Ð¾Ñı": 1008,
      "ĠÐºÐ¾Ð¼Ð½Ð°ÑĤÐµ": 1009,
      "ĠÐĺÐ²Ð°Ð½Ð¾Ð²Ð½Ð°": 1010,
      "ĠÐ¼ÐµÑģÑıÑĨ": 1011,
      "ĠÑħÐ¾ÑĩÑĥ": 1012,
      "lox": 1013,
      "Ð¸Ð¸": 1014,
      "Ð¸ÐºÐ°": 1015,
      "ÑģÐµÐ¼": 1016,
      "Ð½Ð°Ð´": 1017,
      "Ð»Ð¾Ð²": 1018,
      "ĠÐ¿Ð»Ð°": 1019,
      "ĠÑģÐµÐ¼": 1020,
      "ĠÑģÑĤÐ¾Ñı": 1021,
      "ÐºÐ°Ð¼Ð¸": 1022,
      "ÐºÐ»ÑİÑĩ": 1023,
      "Ð²ÐµÑģÑĤ": 1024,
      "Ð¼Ð¾Ð¶": 1025,
      "ĠÐ¼Ð°Ð»": 1026,
      "ĠÐ´Ð¾ÑģÑĤ": 1027,
      "ĠÐ¿ÑĢÐ¾ÑģÑĤ": 1028,
      "ĠÐ½ÐµÑģ": 1029,
      "Ð½Ð¸Ð¹": 1030,
      "Ð¾Ð½Ð½Ð¸": 1031,
      "ÐµÐ´Ð¾ÑĢ": 1032,
      "ĠÐ»ÐµÐ¶": 1033,
      "ĠÐ²ÑģÑİ": 1034,
      "Ð½ÑĥÑĤÑĮ": 1035,
      "ĠÑģÑĤÐ¾Ð»": 1036,
      "ĠÐ²ÑĭÑģ": 1037,
      "Ð°ÑĤÐµÐ»ÑĮ": 1038,
      "ÑģÑĤÐ²Ð°": 1039,
      "ĠÐĿÐ°": 1040,
      "ÐµÐ½Ð¸Ð¸": 1041,
      "ĠÐ¶Ð¸ÑĤÑĮ": 1042,
      "ĠÐ¡Ð¾Ð½": 1043,
      "ĠÐľÐ°ÑĢÐ¼ÐµÐ»Ð°Ð´Ð¾Ð²": 1044,
      "ÐµÑģÑĤÐµ": 1045,
      "ĠÐºÐ¾ÑĤÐ¾ÑĢÑĭÐ¹": 1046,
      "ĠÑģÐ°Ð¼Ð°": 1047,
      "ĠÑįÑĤÐ°": 1048,
      "Ð°Ð½Ð¸Ðµ": 1049,
      "ĠÐ¾Ð¿ÑıÑĤÑĮ": 1050,
      "ĠÐ´Ð¾Ð¼Ð°": 1051,
      "ĠÐ¿Ð¾ÐºÐ°": 1052,
      "ĠÐ·Ð½Ð°Ñİ": 1053,
      "ÑģÑĤÑĢÐ¾": 1054,
      "ĠÑģÐºÐ°Ð·Ð°Ð»": 1055,
      "ĠÐ¿Ð¾ÑĩÑĤÐ¸": 1056,
      "ĠÐ½ÐµÐ¼Ð½Ð¾Ð³Ð¾": 1057,
      "Ð½Ð°ÐºÐ¾Ð¼": 1058,
      "ĠÐ½Ð°Ð²ÐµÑĢ": 1059,
      "ĠRoblox": 1060,
      "Ð¡": 1061,
      "Ðł": 1062,
      "ÑĤÑĢ": 1063,
      "ÑĤÐ¾Ð¼Ñĥ": 1064,
      "Ð¸ÑĢÐ¾Ð²": 1065,
      "ĠÐ½ÐµÐ²": 1066,
      "ĠÐ½Ð¸Ñħ": 1067,
      "ĠÐ½ÐµÐ»ÑĮÐ·Ñı": 1068,
      "ĠÐ²Ð¾ÑĢ": 1069,
      "ĠÐ²ÐµÐ´ÑĮ": 1070,
      "ÐºÐ¾Ð²": 1071,
      "ĠÐ¸Ð±Ð¾": 1072,
      "ĠÐºÐ¾Ð¿": 1073,
      "ĠÐ¼Ð½": 1074,
      "ĠÐ¼Ð¾Ð»": 1075,
      "ĠÐ¼Ð°Ð¼": 1076,
      "ÐµÐ½Ð½Ð¾Ð¹": 1077,
      "ĠÑĩÐ°": 1078,
      "ĠÑĢÐ¾Ð´": 1079,
      "Ð¾ÑģÐ¾Ð±": 1080,
      "ĠÐ»ÑĥÑĩ": 1081,
      "ĠÐºÐ°ÐºÐ¾Ð¹": 1082,
      "ĠÑĥÐ¿": 1083,
      "ĠÑħÐ¾Ð´": 1084,
      "ĠÐ²ÑĭÐ¿": 1085,
      "ÐºÐ¸Ñħ": 1086,
      "ĠÐ¡ÑĤ": 1087,
      "ĠÐĴÑģ": 1088,
      "ĠÐļÐ°Ðº": 1089,
      "ÐµÑĩÐ½Ð¾": 1090,
      "ĠÑģÐ¿Ð¾ÑģÐ¾Ð±": 1091,
      "ĠÐºÐ¾ÑĤÐ¾ÑĢÑĭÐµ": 1092,
      "ÑħÐ¾Ð´Ð¸ÑĤ": 1093,
      "Ð¾ÑģÑĤÐ¸Ð²ÑĭÐ¹": 1094,
      "ĠÑįÑĤÐ¾Ð¹": 1095,
      "ĠÐºÑĢÐ°Ñģ": 1096,
      "ĠÐ²Ð¸Ð´ÐµÐ»": 1097,
      "ĠÐ»Ð¸ÑĨ": 1098,
      "ĠÐłÐ¾Ð´Ñı": 1099,
      "ĠÐĶÑĥÐ½Ñı": 1100,
      "ĠÐ¿Ð¾Ð½Ð¸Ð¼": 1101,
      "ĠÐºÐ°Ð¶Ð´": 1102,
      "ĠÐºÐ¾ÑĢÐ¾Ð±": 1103,
      "ĠÐ½Ð°ÐºÐ¾Ð½ÐµÑĨ": 1104,
      "),": 1105,
      "ĠÐĸ": 1106,
      "Ð°ÑĪÐ¸": 1107,
      "ÑĤÐ¾Ð²": 1108,
      "Ð¸Ð´Ð°": 1109,
      "Ð¸ÑģÑĮ": 1110,
      "Ð½Ð°Ð»": 1111,
      "ÑĢÐ°Ð¶": 1112,
      "Ð»ÑĮ": 1113,
      "ÑıÐ¼Ð¸": 1114,
      "ÑĮÐµ": 1115,
      "ĠÐ¿Ð¾Ð±": 1116,
      "ĠÐ²ÑģÑĤÑĢ": 1117,
      "ĠÐ²ÐµÑģÑĮ": 1118,
      "ĠÑģÐ¸Ð´": 1119,
      "Ð²Ð°Ð»": 1120,
      "ĠÑĤÐµÐº": 1121,
      "ĠÐ¼Ð¸Ð½Ñĥ": 1122,
      "ĠÐ´ÑĢ": 1123,
      "ĠÐ´Ð°Ð»ÑĮ": 1124,
      "ĠÐ¿ÑĢÐ¾Ð³": 1125,
      "ĠÐ¿ÑĢÐ¾ÑĪ": 1126,
      "ĠÐ¿ÑĢÐµÐ¶": 1127,
      "ÐµÑĤÐµ": 1128,
      "ĠÐ·Ð²": 1129,
      "Ð¸Ð»Ð¾": 1130,
      "Ð¿ÑĢ": 1131,
      "ĠÑĥÐ·": 1132,
      "ĠÑħÐ¾ÑĢÐ¾ÑĪÐ¾": 1133,
      "ÐµÐ·Ð´": 1134,
      "ĠÐŁÐ¾ÑĤ": 1135,
      "ĠÐŀÐ½Ð°": 1136,
      "ÐµÑģÑĤÑĮ": 1137,
      "ĠÐ¢Ð¾": 1138,
      "ĠÐĴÐ¾ÑĤ": 1139,
      "ÑĥÑİÑĤ": 1140,
      "ÑĪÐ¸Ð¹": 1141,
      "ÑĪÐ¸ÑģÑĮ": 1142,
      "ÑĦÐ°": 1143,
      "ĠÐ½Ð°Ð¿Ð¸Ñģ": 1144,
      "ĠÐ¾ÑĤÐ²ÐµÑĤ": 1145,
      "ĠÑĩÐ°ÑģÑĤÐ¾": 1146,
      "ĠÑģÐ¾Ð²ÑģÐµÐ¼": 1147,
      "ĠÐ±Ð»Ð°Ð³Ð¾": 1148,
      "ĠÐ²Ð¾Ð»Ð¾Ñģ": 1149,
      "ĠÐļÐ°ÑĤÐµÑĢÐ¸Ð½Ð°": 1150,
      "ĠÑģÐµÑĢÐ´": 1151,
      "ĠÑħÐ¾Ð·ÑıÐ¹": 1152,
      "Ð¢": 1153,
      "Ðĺ": 1154,
      "Ġ2": 1155,
      "Ġo": 1156,
      "Ð°Ð½Ð¾": 1157,
      "Ð°ÑĨÐ¸": 1158,
      "Ð°ÐµÑĪÑĮ": 1159,
      "Ð¸Ð¿": 1160,
      "Ð½ÐµÐ¼": 1161,
      "ÑĥÐ½": 1162,
      "ÑĭÑģÐ»": 1163,
      "ĠÐ¿Ð°ÑĢ": 1164,
      "ÑĩÐ¸": 1165,
      "ÑĩÑĥ": 1166,
      "ÑĩÐµÑĤ": 1167,
      "ÑĩÐµÐ¼": 1168,
      "ĠÑģÑĥÐ´": 1169,
      "ÐºÐ°Ð·": 1170,
      "ĠÐ¸ÑģÐº": 1171,
      "ĠÐ¾ÑģÑĤÐ°Ð²": 1172,
      "ĠÐ¼Ð½Ð¾Ð¹": 1173,
      "ĠÐ¼Ð¾Ð»Ð¾Ð´Ð¾Ð¹": 1174,
      "ĠÐ´Ð¾Ð±ÑĢ": 1175,
      "ĠÑĩÐµÐ³Ð¾": 1176,
      "Ð¾Ð»Ð½": 1177,
      "ĠÐ¿ÑĢÐ¾Ð²": 1178,
      "Ð½Ð¸ÑĤÑĮ": 1179,
      "ĠÑī": 1180,
      "ÑĨÑĭ": 1181,
      "Ð³Ð°": 1182,
      "ĠÐ¿Ð¾Ñħ": 1183,
      "ĠÐ¿Ð¾ÑĪÐµÐ»": 1184,
      "ÐµÐ¹ÑģÑĤÐ²": 1185,
      "Ð½ÑĥÐ»Ð°": 1186,
      "Ð½ÐµÑģ": 1187,
      "ÑĤÐ¾ÑĢÐ¾Ð½": 1188,
      "ĠÐ¶ÐµÐ½": 1189,
      "ÑĢÑĥÐ¿": 1190,
      "ĠÑĢÐ°Ð·Ð´": 1191,
      "Ð¸Ð½Ð¾Ð²": 1192,
      "ĠÐľÐ°ÑĢ": 1193,
      "Ð°Ð¹ÑĤÐµ": 1194,
      "ÑĢÐ°Ñħ": 1195,
      "ĠÑģÐ¿Ð¾ÐºÐ¾Ð¹": 1196,
      "ĠÑįÑĤÑĥ": 1197,
      "Ð°ÐµÑĤÐµ": 1198,
      "ĠÑĩÐµÐ»Ð¾Ð²ÐµÐºÐ°": 1199,
      "ĠÐ±Ð¾Ð»ÑĮÑĪ": 1200,
      "ĠÐ²Ð¿ÐµÑĢÐµÐ´": 1201,
      "ĠÐ½Ð¸ÐºÐ°Ðº": 1202,
      "ĠÐ¸Ð½ÑĤÐµÑĢ": 1203,
      "Ð¾ÑİÑģÑĮ": 1204,
      "ÑįÑĤÐ¾Ð¼Ñĥ": 1205,
      "ÑĩÐ°ÑģÑĤ": 1206,
      "ĠÐ»ÑĥÑĩÑĪÐµ": 1207,
      "!\"": 1208,
      "te": 1209,
      "Ðļ": 1210,
      "Ð¸ÑĪÑĮ": 1211,
      "ÑģÐ¸": 1212,
      "ÑĢÐ¸Ð¼ÐµÑĢ": 1213,
      "Ð»Ð°Ñģ": 1214,
      "ÑıÐ»Ð°": 1215,
      "ĠÐ¿ÑıÑĤ": 1216,
      "ĠÐ½Ð¾Ð²": 1217,
      "ĠÐ½Ð¸Ð¼": 1218,
      "ĠÐ²Ð¼": 1219,
      "ĠÐ²ÐµÑĩ": 1220,
      "ÑĩÐµÑģ": 1221,
      "ĠÑģÑĤÐ¾ÑĢÐ¾Ð½": 1222,
      "ÐºÑĢ": 1223,
      "ĠÐ¾Ð³": 1224,
      "ĠÐºÐ¾": 1225,
      "ĠÑĤÑı": 1226,
      "ĠÐ¼Ð¾Ð¼": 1227,
      "ĠÐ¼Ð°ÑĪÐ¸": 1228,
      "ĠÐ´Ð¾Ð²": 1229,
      "ĠÐ´Ð¾Ð»": 1230,
      "ÐµÐ½Ð½ÑĭÐ¹": 1231,
      "ĠÐ±Ð¾ÑİÑģÑĮ": 1232,
      "ĠÑĩÐµÑĤ": 1233,
      "Ð¾Ð²Ð°Ð½": 1234,
      "ĠÐ¿ÑĢÐ¾Ð¿": 1235,
      "Ð¾Ð¹Ð´": 1236,
      "Ð½Ð¸Ð¸": 1237,
      "Ð½Ð¸Ñı": 1238,
      "Ð¿Ð¾Ð¼": 1239,
      "ĠÐ±ÑĭÐ²": 1240,
      "ÑĤÐ¸Ð²": 1241,
      "ĠÑĥÐ´": 1242,
      "ĠÐ»Ð°Ð´Ð½Ð¾": 1243,
      "ĠÐºÐ°ÐºÐ¾Ðµ": 1244,
      "ĠÐ¾ÑĤÐ¿": 1245,
      "ĠÐ¾Ð±ÑĢÐ°Ñī": 1246,
      "ÐºÐ¸Ðµ": 1247,
      "ĠÐ¿ÑĢÐ¸ÑĪ": 1248,
      "ĠÐ¿ÑĢÐ¸ÑĪÐµÐ»": 1249,
      "ĠÐŀÑĤ": 1250,
      "ĠÑģÐ»ÑĥÑĪ": 1251,
      "Ð°Ð¹Ð»Ð¾Ð²": 1252,
      "Ð°ÑİÑī": 1253,
      "ĠÐºÐ¾ÑĤÐ¾ÑĢÐ°Ñı": 1254,
      "ÑħÐ¾Ð´Ñı": 1255,
      "ÑĪÐ¸Ðµ": 1256,
      "ĠÐ¿ÑĢÐ¾Ð¸Ñģ": 1257,
      "ĠÑģÐ²Ð¾ÐµÐ¹": 1258,
      "ĠÐ¿Ð¾ÑĤÐ¾Ð¼": 1259,
      "ÑĢÐ°Ð·Ñĥ": 1260,
      "ĠÐ²Ð¾Ð·Ð¼Ð¾Ð¶": 1261,
      "ĠÐ¾ÑĤÐ²ÐµÑĩ": 1262,
      "ĠÐºÐ¾Ð½ÐµÑĩÐ½Ð¾": 1263,
      "Ð¼Ð¾ÑĤÑĢÑı": 1264,
      "ĠÑĥÐ¶Ð°Ñģ": 1265,
      "ĠÑĤÐ¾ÑĤÑĩÐ°Ñģ": 1266,
      "Ð¾Ð±ÑĢÐ°Ð¶": 1267,
      "ĠÐŁÐµÑĤÑĢÐ¾Ð²Ð¸Ñĩ": 1268,
      "ĠÐ¼Ð¾ÑĢÐ³Ð°Ñİ": 1269,
      "ĠÐ¾Ð±ÑĢÐ°Ð·Ð¾Ð¼": 1270,
      "ĠÑĤÐ²Ð¾": 1271,
      "Ð¾Ð»ÑĮÐ·Ð¾Ð²": 1272,
      "ĠÐ°Ð½Ð¸Ð¼Ð°ÑĤÑĢÐ¾Ð½Ð¸Ðº": 1273,
      "ĠÐ²Ð¾ÑĢÐ¾ÑĤ": 1274,
      "am": 1275,
      "re": 1276,
      "Ð¸ÑĨÐ¸": 1277,
      "Ð»Ð¾Ð½": 1278,
      "Ð»ÐµÐ¹": 1279,
      "Ð»Ð¾Ð¶": 1280,
      "ÑıÐ´": 1281,
      "ÑĭÐ¼Ð¸": 1282,
      "ĠÐ¿ÑĭÑĤ": 1283,
      "ĠÐ¿Ð¸ÑģÑĮ": 1284,
      "ĠÐ½ÐµÐ±": 1285,
      "ĠÐ²Ð¾Ð¿": 1286,
      "ÑĩÐ¸Ðº": 1287,
      "ĠÑģÑĤÐ¾": 1288,
      "ĠÑģÑĥÐ¿": 1289,
      "ĠÑģÑĢÐ°Ð·Ñĥ": 1290,
      "Ð¼Ð°": 1291,
      "ĠÑĤÑĥ": 1292,
      "ĠÑĤÐµÑħ": 1293,
      "ĠÐ´Ð¾Ð±": 1294,
      "ĠÐ´ÐµÐ»Ð°": 1295,
      "ÐµÐ½ÐµÐ³": 1296,
      "ĠÐ±ÐµÐ´": 1297,
      "ĠÑĩÐ¸Ñģ": 1298,
      "ÑģÑĤÑĥÐ¿": 1299,
      "ÐµÐ»Ñı": 1300,
      "Ð½Ð¾Ñģ": 1301,
      "ĠÐ¿ÑĢÐ¾ÑĤ": 1302,
      "ĠÐ¿ÑĢÐ¾Ñĩ": 1303,
      "ĠÐ½ÐµÐµ": 1304,
      "ĠÐ·Ð°Ð²": 1305,
      "Ð½Ð¸Ñĩ": 1306,
      "Ð½Ð¸ÐºÐ°": 1307,
      "ĠÐ½Ð°ÑħÐ¾Ð´": 1308,
      "ĠÑĢÐ°Ð´": 1309,
      "ĠÑĢÐµÐ±": 1310,
      "ĠÑıÑĢ": 1311,
      "ĠÑĥÐ»": 1312,
      "ĠÑĥÑģÐ»": 1313,
      "Ð°Ð²Ð½Ð¾Ðµ": 1314,
      "ĠÐ²ÑģÐµÐ¼": 1315,
      "ĠÐ²ÑģÐµÐ³": 1316,
      "ĠÐ¿Ð¾ÑįÑĤÐ¾Ð¼Ñĥ": 1317,
      "Ð¾Ð»ÑĮÐ½Ð¾": 1318,
      "Ð¾ÐºÐ°": 1319,
      "ĠÑĤÐ°ÐºÐ¾Ð¹": 1320,
      "ĠÐŁÐ¾": 1321,
      "ÑģÑĤÐ²Ðµ": 1322,
      "Ð°ÑıÑģÑĮ": 1323,
      "ĠÑģÐ»ÐµÐ´": 1324,
      "ĠÐ¿Ð¾Ð´Ð¾Ð¶": 1325,
      "ÐµÑĩÐ¸": 1326,
      "ÑĢÑĭÐ²": 1327,
      "ĠÐ´Ð²Ð°": 1328,
      "ĠÐ¿Ð¾ÑģÐ»ÐµÐ´": 1329,
      "ĠÐ³Ð¾ÑĢÐ¾Ð´": 1330,
      "ĠÐ²Ð¸Ð´Ð¸ÑĤ": 1331,
      "ĠÑĪÐ°Ð³": 1332,
      "ĠÐ¿ÑĢÐµÐ´ÑģÑĤÐ°Ð²": 1333,
      "ĠÐ¾ÐºÐµÐ¹": 1334,
      "ÑģÑĤÐ°ÑĤÐ¸": 1335,
      "ĠÐ³Ð»Ð°Ð·Ð°": 1336,
      "Ð´Ð¾ÑĢÐ¾Ð²": 1337,
      "ĠÐ´ÐµÐ²ÑĥÑĪ": 1338,
      "ĠÐ¸ÑģÑĤÐ¾ÑĢ": 1339,
      "ĠÐ¼Ð¸Ð»Ð¾ÑģÑĤÐ¸Ð²ÑĭÐ¹": 1340,
      "ĠÐ¾Ð±ÑĬÑıÑģ": 1341,
      "ĠÑħÐ¾ÑĤÐµÐ»Ð¾ÑģÑĮ": 1342,
      "ÑħÐ²Ð°ÑĤ": 1343,
      "ÐµÑĢÐ±ÑĥÑĢ": 1344,
      "ĠÐ¼Ð°Ð»ÐµÐ½ÑĮ": 1345,
      "ĠÐ½ÐµÑģÐ¼Ð¾ÑĤÑĢÑı": 1346,
      "ĠÐ²ÑĭÑģÐ¾Ðº": 1347,
      "ĠÐ²ÑģÐµÐ³Ð´Ð°": 1348,
      "ME": 1349,
      "Ðķ": 1350,
      "Ġt": 1351,
      "Ð¾Ñī": 1352,
      "ÐµÐµÐº": 1353,
      "ÑĤÐ°Ðº": 1354,
      "ÑģÑİÐ´Ð°": 1355,
      "Ð½Ð½Ð¾": 1356,
      "Ð»Ñĥ": 1357,
      "Ð»Ð°Ð³": 1358,
      "ÑĥÐ»Ñı": 1359,
      "ĠÐ²ÐµÐ»": 1360,
      "ĠÐ²Ð¾ÑĪ": 1361,
      "ĠÐ²ÐºÐ»ÑİÑĩ": 1362,
      "ÑĩÐ¸Ð²": 1363,
      "ĠÑģÐ±": 1364,
      "ĠÑģÐ¸Ð»ÑĮ": 1365,
      "ÐºÐ½ÑĥÐ»": 1366,
      "Ð²Ð¾ÑĢ": 1367,
      "ĠÐºÐ°Ð¼": 1368,
      "ÑĪÐºÐ°": 1369,
      "ÑĪÐ°Ñı": 1370,
      "ÑĪÐ¸Ñħ": 1371,
      "ÐµÐ½Ð½Ð¾Ðµ": 1372,
      "Ð¾Ð²Ð°ÑĤÑĮ": 1373,
      "ÐµÐ»Ñİ": 1374,
      "ĠÐ¿ÑĢÐµÐ²": 1375,
      "ĠÐ·Ð°ÑĢ": 1376,
      "Ð¸Ð»ÐµÑĤ": 1377,
      "Ð½Ð¸Ðµ": 1378,
      "Ð¿Ð°": 1379,
      "Ð·Ð°": 1380,
      "Ð³Ð»Ñı": 1381,
      "ĠÐ¿Ð¾ÑģÑĤ": 1382,
      "Ð½ÑĥÑĤ": 1383,
      "Ð¸Ð¼Ð¾": 1384,
      "ÐµÐºÑĤ": 1385,
      "ĠÑģÑĤÐ°Ð»Ð¾": 1386,
      "ĠÑĤÐ°ÐºÐ°Ñı": 1387,
      "ĠÐ²ÑĭÐ·": 1388,
      "ÑģÑĤÐ²ÐµÐ½Ð½Ð¾": 1389,
      "ĠÐ¿ÑĢÐ¸Ð·": 1390,
      "ÑĢÑĥÐ±": 1391,
      "ĠÐĺÐ·": 1392,
      "ĠÐ¡Ð»": 1393,
      "ÑĳÐ¼": 1394,
      "Ð°Ð¹ÑĤÐ¸": 1395,
      "ĠÐ¸Ð·Ð²ÐµÑģÑĤ": 1396,
      "ĠÐļÐ¾Ð³Ð´Ð°": 1397,
      "ĠÑģÐ¿ÑĢÐ¾Ñģ": 1398,
      "ĠÐ¿Ð¾Ð»Ð¾Ð¶": 1399,
      "ÑħÐ¾Ð´Ð¸ÑĤÑĮ": 1400,
      "ĠÐºÑĢÐµÐ¿": 1401,
      "ÐµÐ¶Ð°Ð»": 1402,
      "ĠÐ¾Ð´Ð½Ð¾Ð¹": 1403,
      "ĠÐ²Ð¸Ð´Ðµ": 1404,
      "ÑĦÐ¾ÑĢÐ¼": 1405,
      "ÑĭÐ²Ð°ÑĤÑĮ": 1406,
      "ĠÑģÐ¼ÑĭÑģÐ»": 1407,
      "ĠÐ»ÑİÐ´": 1408,
      "ĠÐ³Ð»ÑĥÐ±": 1409,
      "ĠÑĢÐ°ÑģÑģ": 1410,
      "ÑĩÐ°ÑģÑĤÑĮ": 1411,
      "ĠÐ´ÑĢÑĥÐ³Ð¾Ð¹": 1412,
      "ĠÐ³Ð¾Ð²Ð¾ÑĢÐ¸ÑĤ": 1413,
      "ĠÐ¿Ð¾ÐºÐ°Ð·": 1414,
      "ĠÐºÐ¾Ð¼Ð½Ð°ÑĤÑĥ": 1415,
      "ĠÑģÐ¾Ð±ÑģÑĤÐ²ÐµÐ½": 1416,
      "ÑĢÐµÐ´ÐµÐ»": 1417,
      "ĠÑģÑĤÑĢÐ°Ð½": 1418,
      "ĠÐ´ÐµÐ»Ð¾": 1419,
      "ĠÑĢÑĥÐºÐ¸": 1420,
      "ĠÐ³Ð¾Ð»Ð¾Ñģ": 1421,
      "ĠÐ¸Ð³ÑĢÐ°ÑĤÑĮ": 1422,
      "ĠÐ¾ÑģÑĤÐ°Ð½Ð¾Ð²": 1423,
      "Ð°ÑİÑĤÑģÑı": 1424,
      "Ð½Ð°ÑĩÐ°Ð»Ð°": 1425,
      "ÐµÑİÑģÑĮ": 1426,
      "ĠÐ¸Ð´ÑĤÐ¸": 1427,
      "ĠÐ·Ð°Ð¼ÐµÑĤ": 1428,
      "ĠÐĶÑĥÐ½ÐµÑĩÐºÐ°": 1429,
      "ĠÑģÐ¾ÑģÑĤÐ¾Ñı": 1430,
      "ĠÐ¿ÑĢÐ¾Ð´Ð¾Ð»Ð¶Ð°Ð»": 1431,
      "ĠÐ¿Ð¾ÑĪÐ»Ð°": 1432,
      "ĠÐ³Ð¾Ð´Ð°": 1433,
      "Ð½Ð°Ð´ÑĨÐ°ÑĤÑĮ": 1434,
      "ĠÑģÑĤÐ¾ÑıÐ»": 1435,
      "ĠÐºÐ¾Ð¿ÐµÐµÐº": 1436,
      "ĠÐ»Ð¸ÑĨÐ¾": 1437,
      "ĠÐ²Ð¾Ð»Ð¾ÑģÑĭ": 1438,
      "ĠÐ²Ð¼ÐµÑģÑĤÐµ": 1439,
      "ĠÐ²ÐµÑĩÐµÑĢ": 1440,
      "ĠÐ¼Ð¾Ð¼ÐµÐ½ÑĤ": 1441,
      "ĠÐ²Ð¾Ð¿ÑĢÐ¾Ñģ": 1442,
      "ĠÑıÑĢÐºÐ¾": 1443,
      "ĠÐ¿Ð¾Ð´Ð¾Ð¶Ð´Ð¸": 1444,
      "ÐµÑĢÐ±ÑĥÑĢÐ³": 1445,
      "\",": 1446,
      "AG": 1447,
      "SS": 1448,
      "Ġc": 1449,
      "Ġg": 1450,
      "Ð¸Ñİ": 1451,
      "Ð¸Ð½Ð¸": 1452,
      "Ð½ÐµÑĤ": 1453,
      "Ð½Ð°Ð»Ð¸": 1454,
      "ÑĢÐ°Ð¼": 1455,
      "Ð»ÐµÐ½Ð¸Ðµ": 1456,
      "ÑĥÐµÑĤ": 1457,
      "ÑĭÐº": 1458,
      "ÑĭÐºÐ°": 1459,
      "ĠÐ²Ð¾Ð´": 1460,
      "ĠÐ²Ð°ÑĢÐ¸": 1461,
      "ÑĩÐ°Ñı": 1462,
      "ĠÑģÐµÐº": 1463,
      "ĠÑģÑĢÐµÐ´": 1464,
      "ĠÑģÐ¸ÑģÑĤ": 1465,
      "ĠÑģÑĩÐ°ÑģÑĤÑĮ": 1466,
      "ÐºÐ¾ÑĢ": 1467,
      "ÐºÐ¾Ð³Ð¾": 1468,
      "Ð´Ñĭ": 1469,
      "Ð´Ð°Ð»": 1470,
      "ÑĤÐ¾Ñĩ": 1471,
      "Ð²ÐµÑĤ": 1472,
      "ĠÐ¾Ñħ": 1473,
      "ĠÐºÐ¾Ð´": 1474,
      "ĠÑĤÐµÐ»": 1475,
      "ĠÐ´Ð¾Ñĩ": 1476,
      "ĠÐ´ÐµÐ¹ÑģÑĤÐ²": 1477,
      "ĠÐ´ÐµÐ½ÐµÐ³": 1478,
      "ĠÑĩÐ¸Ð½Ð¾Ð²": 1479,
      "Ð¾Ð²Ð°Ð»Ð°": 1480,
      "Ð¾Ð»Ð½Ðµ": 1481,
      "Ð°ÐºÐ°": 1482,
      "ĠÐ·Ð°Ð»": 1483,
      "ĠÐ·Ð°Ð½": 1484,
      "Ð¾ÑĢÐ°": 1485,
      "ĠÐµÐ´": 1486,
      "ÑīÐµÐ¹": 1487,
      "ĠÑĥÐ´Ð°": 1488,
      "Ð»Ð¸Ñĩ": 1489,
      "ĠÐ³ÑĢ": 1490,
      "ĠÐºÐ°ÐºÐ°Ñı": 1491,
      "Ð¾Ð»ÑĮÑĪ": 1492,
      "ĠÐ°Ðº": 1493,
      "ĠÑģÑĤÐ°Ð½Ð¾Ð²": 1494,
      "ĠÐ¾Ð±Ðµ": 1495,
      "ĠÐ¾Ð±ÑĭÑĩ": 1496,
      "ÑģÑĤÐ²Ð¾Ð¼": 1497,
      "ĠÐĿÐµÑĤ": 1498,
      "ÐºÐ¾Ðµ": 1499,
      "ĠÐ·Ð°ÑĩÐµÐ¼": 1500,
      "ĠÐŀÐ´": 1501,
      "ĠÑĢÐ°Ð·Ð²": 1502,
      "ĠÑģÐ»ÐµÐ·": 1503,
      "ĠÐĺÐ±Ð¾": 1504,
      "ÐµÑģÑģ": 1505,
      "ÐµÑģÑĤÐ¾": 1506,
      "ĠÐ¿Ð¾Ð´ÑĥÐ¼": 1507,
      "Ð¾ÑĩÐµÐ¼": 1508,
      "ĠÑģÐ²ÐµÑĤ": 1509,
      "ĠÑģÐ²Ð¾Ðµ": 1510,
      "ĠÐ¿Ð¾Ð»ÐµÐ·": 1511,
      "ĠÐ´Ð²ÐµÑĢ": 1512,
      "ÐºÑĥÑģ": 1513,
      "ĠÑģÐºÐ¾Ð»ÑĮÐºÐ¾": 1514,
      "ĠÐºÐ¾ÑĤÐ¾ÑĢÐ¾Ð¹": 1515,
      "ĠÐºÐ¾ÑĤÐ¾ÑĢÑĥÑİ": 1516,
      "ĠÐºÑĢÐ¸Ñĩ": 1517,
      "ĠÐ¾Ð´Ð½Ñĥ": 1518,
      "ÐµÐ³Ð¾Ð´": 1519,
      "ĠÐ½Ð°Ð´ÐµÑİÑģÑĮ": 1520,
      "ĠÐ²Ð·ÑıÑĤÑĮ": 1521,
      "ĠÐ¼Ð¾Ð³Ð»Ð°": 1522,
      "ĠÐĶÑĥÐ½Ñİ": 1523,
      "ĠÐ¸Ð³ÑĢÐ°": 1524,
      "ĠÐ¾Ð¿ÑĢÐµÐ´ÐµÐ»": 1525,
      "ĠÐĳÐ¾Ð½Ð½Ð¸": 1526,
      "ÑĢÐ¸Ð³": 1527,
      "ÑĥÑħÐ°": 1528,
      "ĠÐŁÐµÑĤÐµÑĢÐ±ÑĥÑĢÐ³": 1529,
      "ĠÐ¿ÑĢÐµÐ´Ð»Ð¾Ð¶": 1530,
      "ĠÐ²ÑĢÐµÐ¼ÐµÐ½Ð¸": 1531,
      "ĠÐ½Ð¸ÐºÐ¾Ð³Ð´Ð°": 1532,
      "ĠÐ¸Ð¼ÐµÐ½Ð½Ð¾": 1533,
      "ĠÐ¸Ð½Ð¾Ð³Ð´Ð°": 1534,
      "ĠÐ¼ÑĥÐ¶Ñĩ": 1535,
      "ĠÐ¿Ð¾Ð·Ð²Ð¾Ð»": 1536,
      "ĠÐķÑģÐ»Ð¸": 1537,
      "ÐŀÐ½": 1538,
      "ĠÐ´ÐµÐ½ÑĮÐ³": 1539,
      "ĠÐ¿ÑĢÐ°Ð²Ð´Ð°": 1540,
      "Ð½Ð°ÑĩÐµ": 1541,
      "ĠÐ¿Ð¾Ð¹ÑĤÐ¸": 1542,
      "ĠÐ¿ÑĢÐ¸Ð²ÑĭÑĩ": 1543,
      "Ð¸ÑĨÐµÐ¹": 1544,
      "ĠÑĢÑĥÐ±Ð»Ñı": 1545,
      "ÑĢÐ°ÑĤÐ½Ð¾": 1546,
      "ing": 1547,
      "ĠÐ½ÐµÐ¿ÑĢ": 1548,
      "ĠÐ³Ð¾ÑģÐ¿Ð¾Ð´Ð¸Ð½": 1549,
      "ÐĲÐĲÐĲÐĲÐĲÐĲÐĲÐĲÐĲÐĲÐĲÐĲÐĲÐĲÐĲÐĲÐĲÐĲÐĲÐĲÐĲÐĲÐĲÐĲÐĲÐĲÐĲÐĲÐĲÐĲÐĲÐĲÐĲÐĲÐĲÐĲÐĲÐĲÐĲÐĲÐĲÐĲÐĲÐĲÐĲÐĲÐĲÐĲÐĲÐĲÐĲÐĲÐĲÐĲÐĲÐĲÐĲÐĲÐĲÐĲÐĲÐĲÐĲÐĲ": 1550,
      "ĠÐ³Ð¾Ð»Ð¾Ð²Ñĥ": 1551,
      "Ð¸Ð¶Ñĥ": 1552,
      "ĠÐ¿Ð¾Ð¶Ð°Ð»ÑĥÐ¹": 1553,
      "ĠÐ»ÐµÑģÑĤÐ½Ð¸ÑĨÐµ": 1554,
      "ĠÑĩÐ°ÑģÑĤÐ¸": 1555,
      "ĠÐĴÑģÐµ": 1556,
      "ĠÑĤÐµÐºÑģÑĤ": 1557,
      "ĠÐ´Ð°Ð»ÑĮÑĪÐµ": 1558,
      "ĠÐ¶ÐµÐ½Ñī": 1559,
      "ĠÑģÐ¿Ð¾ÐºÐ¾Ð¹Ð½Ð¾": 1560,
      "ÑĩÐ°ÑģÑĤÐ»Ð¸Ð²": 1561,
      "ĠÐ¾ÑĤÐ¿ÑĢÐ°Ð²": 1562,
      "MESS": 1563,
      "AGE": 1564,
      "MESSAGE": 1565,
      "an": 1566,
      "en": 1567,
      "er": 1568,
      "io": 1569,
      "Ð¤": 1570,
      "ĠS": 1571,
      "Ġp": 1572,
      "ĠÑİ": 1573,
      "Ð¾ÑıÑĤÐ½Ð¾": 1574,
      "Ð°Ð½Ð°": 1575,
      "Ð°ÑĤÐ¸": 1576,
      "Ð¸ÐºÐ¸": 1577,
      "Ð½ÐµÐ³Ð¾": 1578,
      "ÑĢÐµÐ½": 1579,
      "ÑĢÐ¾Ðº": 1580,
      "ÑĢÐ°ÑĤÑĮÑģÑı": 1581,
      "Ð»ÑĥÑĪ": 1582,
      "ÑĥÑīÐµ": 1583,
      "ÑıÐ¼": 1584,
      "ÑıÑİ": 1585,
      "ÑıÑģÑĮ": 1586,
      "ÑĭÐ±": 1587,
      "ĠÐ¿ÑĥÑģÑĤ": 1588,
      "ĠÐ½Ð°Ð»": 1589,
      "ĠÐ½ÐµÑĢ": 1590,
      "ĠÐ½ÑĢÐ°Ð²": 1591,
      "ĠÐ²ÑĤÐ¾ÑĢ": 1592,
      "ÑĩÐµÐ³Ð¾": 1593,
      "ĠÑģÐ¾ÑģÑĤ": 1594,
      "ĠÑģÑĥÐ´Ð°ÑĢÑĮ": 1595,
      "ĠÑģÐµÐ³Ð¾Ð´": 1596,
      "ĠÑģÑĩÐ°ÑģÑĤÐ»Ð¸Ð²": 1597,
      "Ð´ÐµÑĢÐ¶": 1598,
      "Ð´Ð¾Ñħ": 1599,
      "ĠÐºÑĢÑĭ": 1600,
      "ĠÐºÑģÑĤÐ°ÑĤÐ¸": 1601,
      "Ð¼Ñĭ": 1602,
      "Ð¼ÐµÐ½": 1603,
      "ĠÑĤÐµÑĢ": 1604,
      "ĠÑĤÐ²ÐµÑĢ": 1605,
      "ĠÐ¼ÐµÑĢ": 1606,
      "ĠÐ¼Ð°Ñģ": 1607,
      "ĠÐ¼ÐµÐ¶": 1608,
      "ĠÐ¼ÐµÑģÑĤÐ¾": 1609,
      "ĠÐ´ÐµÑĢ": 1610,
      "ĠÐ´Ð½Ñı": 1611,
      "ÐµÐ½Ð¾": 1612,
      "ÐµÐ½Ð½Ð°Ñı": 1613,
      "ĠÐ±Ð¾": 1614,
      "ĠÐ±Ð°ÑĤ": 1615,
      "ĠÐ±ÑĢÐ°ÑĤ": 1616,
      "ĠÑĩÐµÑģÑĤ": 1617,
      "ĠÐ¿ÑĢÐ¾Ð±": 1618,
      "ĠÐ¿ÑĢÐµÐº": 1619,
      "ĠÐ·Ð°Ñģ": 1620,
      "ĠÐ·Ð°Ð³": 1621,
      "ĠÐ·Ð½Ð°Ð»": 1622,
      "Ð¸Ð»Ð¸Ñĩ": 1623,
      "Ð½Ð¸Ñħ": 1624,
      "Ð½Ð¸ÐºÐ¸": 1625,
      "ĠÑĢÐµÐ·": 1626,
      "ĠÑıÐ²": 1627,
      "ĠÐ±ÑĭÑģÑĤÑĢÐ¾": 1628,
      "Ð¾Ð±Ñī": 1629,
      "ÑĤÐ¸ÑĤÑĮ": 1630,
      "ĠÑĥÑģÐ¿": 1631,
      "ĠÑĥÐ²ÐµÑĢ": 1632,
      "Ð¾Ð½Ð¾Ð¼": 1633,
      "Ð³Ð¾Ð²Ð¾ÑĢ": 1634,
      "ĠÐ³ÑĢÑĥÐ±": 1635,
      "ĠÐ»Ð¸Ñĩ": 1636,
      "ĠÐ²ÑģÐµÐ¼Ñĥ": 1637,
      "ĠÐ¾ÑĤÑģÑİÐ´Ð°": 1638,
      "Ð¸Ð²Ð¾Ñĩ": 1639,
      "Ð¾Ð¶ÐµÑĤ": 1640,
      "ĠÑģÑĤÐ°Ð»": 1641,
      "ĠÑģÑĤÑĢÐ°ÑĪ": 1642,
      "ĠÑĤÐ°ÐºÐ¸Ñħ": 1643,
      "ĠÐ¾Ð±Ð¾": 1644,
      "ÐµÐ½Ð¸Ð¹": 1645,
      "Ð¸Ð´ÑĨÐ°ÑĤÑĮ": 1646,
      "ĠÐŀÐ±": 1647,
      "ĠÑĢÐ°Ð·ÑĢ": 1648,
      "ĠÑģÐ»Ð°Ð±": 1649,
      "ĠÐ¡Ð²Ð¸Ð´": 1650,
      "ĠÐ¢ÐµÐ¿ÐµÑĢÑĮ": 1651,
      "ĠÐľÐ¾Ð½": 1652,
      "ĠÑĤÐ¾ÑĩÐ½Ð¾": 1653,
      "ÐµÑĢÑĮÐµÐ·": 1654,
      "Ð¾ÑĩÐµ": 1655,
      "ĠÑģÐ²Ð¾Ð¹": 1656,
      "Ð°Ð»ÑĮÐ½Ð¾Ð¹": 1657,
      "ĠÐ¿Ð¾Ð»Ð¸ÑĨÐ¸": 1658,
      "ĠÐ¿Ð¾Ð»Ð¸ÑĨÐµÐ¹": 1659,
      "ĠÑģÐºÐ°Ð¶": 1660,
      "ĠÐºÐ¾ÑĤÐ¾ÑĢÑĭÑħ": 1661,
      "ĠÐ¿Ð¾ÑģÑĤÐ¾Ñı": 1662,
      "ĠÐ³Ð¾ÑĢ": 1663,
      "ĠÑĦÐµÐ´Ð¾ÑĢ": 1664,
      "Ð½ÑĥÐ»Ð°ÑģÑĮ": 1665,
      "ĠÐ±ÑĥÐ´Ñĥ": 1666,
      "Ð°Ð³Ð¾Ð½": 1667,
      "ĠÐ²Ð·Ð³Ð»ÑıÐ´": 1668,
      "ĠÑģÐ²Ð¾Ð¸": 1669,
      "ĠÑģÐ²Ð¾ÐµÐ³Ð¾": 1670,
      "ÑĨÐ¸Ð¸": 1671,
      "ĠÑģÐ¾Ñħ": 1672,
      "ĠÐ³Ð¾Ð²Ð¾ÑĢÑı": 1673,
      "ĠÐ±Ð¾Ð»ÐµÐ·": 1674,
      "ĠÐ²Ð¿Ð¾Ð»Ð½Ðµ": 1675,
      "ĠÐ¤ÐµÐ´Ð¾ÑĢ": 1676,
      "ĠÐ½Ð¸ÐºÑĤÐ¾": 1677,
      "Ð½Ð¾Ð²Ð°": 1678,
      "ĠÐ¼ÑĥÐ¶Ð°": 1679,
      "ĠÐ¿ÑĢÑıÐ¼": 1680,
      "ÑģÑĤÐ²ÐµÐ½Ð½ÑĭÐ¹": 1681,
      "ÑĥÑģÐ¾ÑĢ": 1682,
      "ĠÐºÐ¾Ð»Ð¸": 1683,
      "ĠÐ¾ÑĤÐºÑĢÑĭÐ²": 1684,
      "ĠÐ¾ÑĤÐºÑĢÑĭÑĤÑĮ": 1685,
      "ĠÐ²Ð¾ÑģÐº": 1686,
      "ĠÑįÑĤÐ¸Ñħ": 1687,
      "ĠÑĥÐ³Ð»Ñĥ": 1688,
      "ĠÐĶÑĥÐ½ÐµÑĩÐºÐ¸": 1689,
      "ĠÑĢÐ°ÑģÐ¿Ð¸Ð²Ð¾Ñĩ": 1690,
      "ĠÐ¿ÑĮÑıÐ½": 1691,
      "ĠÐ½Ð¾ÑĩÑĮ": 1692,
      "Ġan": 1693,
      "ĠÑģÐ¾Ð·Ð´Ð°": 1694,
      "ĠÑģÐ»ÑĥÐ¶Ð±": 1695,
      "ĠÐ¼Ð½Ð¾Ð³": 1696,
      "ĠÑĢÐ¾Ð´Ð½Ð¾Ð¹": 1697,
      "ĠÑģÐ¿Ð¾ÑģÐ¾Ð±ÑģÑĤÐ²": 1698,
      "ĠÐ¿ÑĢÐ¾Ð³ÑĢÐ°Ð¼": 1699,
      "ĠÐŁÐ¾ÑĤÐ¾Ð¼Ñĥ": 1700,
      "ĠÐ±Ð»Ð°Ð³Ð¾ÑĢÐ¾Ð´": 1701,
      "ĠÑģÑĤÐ¾ÑĢÐ¾Ð½Ñĭ": 1702,
      "ĠÑĤÑıÐ¶": 1703,
      "ĠÐ´Ð¾Ð²Ð¾Ð»ÑĮÐ½Ð¾": 1704,
      "ĠÑĩÐµÑĤÑĭ": 1705,
      "ĠÑĥÑģÐ»ÑĭÑĪ": 1706,
      "ĠÑģÐ¼ÑĭÑģÐ»Ðµ": 1707,
      "ĠÐ²Ð°ÑĢÐ¸Ð°Ð½": 1708,
      "ĠÐ¿Ð¾Ð´ÑĥÐ¼Ð°Ð»": 1709,
      "ÑĢÐ¸Ð³Ð°Ð¹Ð»Ð¾Ð²": 1710,
      "ĠÑģÐµÐ³Ð¾Ð´Ð½Ñı": 1711,
      "ĠÐ¼ÐµÐ¶Ð´Ñĥ": 1712,
      "ĠÐ¡Ð²Ð¸Ð´ÑĢÐ¸Ð³Ð°Ð¹Ð»Ð¾Ð²": 1713,
      "?\"": 1714,
      "at": 1715,
      "or": 1716,
      "ro": 1717,
      "Ð§": 1718,
      "ÐŃ": 1719,
      "ÐµÑĨÐ¸": 1720,
      "Ð°Ð°": 1721,
      "ÑĤÐ¾Ð³Ð¾": 1722,
      "Ð¸Ð½Ñĭ": 1723,
      "ÑģÐºÐ¸Ð¹": 1724,
      "Ð½ÑĮ": 1725,
      "Ð½Ð´": 1726,
      "Ð½Ð³": 1727,
      "Ð½Ð¾Ð¼Ñĥ": 1728,
      "Ð»Ð¾Ð¼": 1729,
      "Ð»ÐµÑĤ": 1730,
      "Ð»Ð¾ÑģÑĮ": 1731,
      "ÑĥÑģÑĮ": 1732,
      "ÑĥÐºÐ¸": 1733,
      "ÑĥÑģÑĤÑĮ": 1734,
      "ÑĥÐ»ÑĮ": 1735,
      "ÑıÐ»Ð¸": 1736,
      "ÑıÐ¸Ð½": 1737,
      "ÑĮÑĪÐµ": 1738,
      "ÑĭÐ´": 1739,
      "ĠÐ¿ÑĭÐ»": 1740,
      "ĠÐ¿Ð¾Ð»ÑĮÐ·Ð¾Ð²": 1741,
      "ĠÐ½Ð°Ð¶": 1742,
      "ĠÐ½Ð¾ÑĢÐ¼": 1743,
      "ĠÐ²Ð°Ð¶": 1744,
      "ĠÐ²ÑħÐ¾Ð´": 1745,
      "ĠÐ²ÐµÑī": 1746,
      "ÑĩÐ¸Ñģ": 1747,
      "ĠÑģÐµÑģÑĤ": 1748,
      "ĠÑģÑĥÐ¼": 1749,
      "ĠÑģÐµÑĢÑĮÐµÐ·": 1750,
      "ĠÑģÐ½Ð¾Ð²Ð°": 1751,
      "ÐºÐ¸Ð¼": 1752,
      "Ð´Ð¾": 1753,
      "Ð´Ð°Ð²": 1754,
      "ĠÐ¸Ð½Ð°ÑĩÐµ": 1755,
      "Ð²Ð°": 1756,
      "ĠÐ¾Ñī": 1757,
      "ĠÐºÐ¾Ñģ": 1758,
      "ĠÐºÐ¾Ð³Ð¾": 1759,
      "Ð¼Ðµ": 1760,
      "ĠÑĤÐµÐ¿": 1761,
      "ĠÑĤÑĢÐ¸": 1762,
      "ĠÐ¼Ð»": 1763,
      "ĠÐ¼ÐµÐ»": 1764,
      "ĠÐ¼ÐµÑĤ": 1765,
      "ĠÐ¼ÐµÐ´": 1766,
      "ĠÐ¼ÐµÑĩ": 1767,
      "ĠÐ¼ÐµÑģÑĤ": 1768,
      "ĠÐ¼Ð¾Ð»Ð¾Ð´": 1769,
      "ĠÐ¼ÑĥÑģÐ¾ÑĢ": 1770,
      "ĠÐ´Ð¾Ñģ": 1771,
      "ĠÐ´Ð¸Ð²": 1772,
      "ĠÐ´ÑĢÑĥÐ": 1773,
      "Ð°Ð»ÐµÑĤ": 1774,
      "ÑĪÐ¸Ð¼Ð¸": 1775,
      "ÐµÐ½Ñĭ": 1776,
      "ÐµÐ½Ð½Ð¾Ð³Ð¾": 1777,
      "ÐµÐ½Ð½ÑĭÑħ": 1778,
      "ÐµÐ½Ð½ÑĭÐ¼": 1779,
      "ĠÐ±ÑĢ": 1780,
      "ĠÐ±Ð¾Ð½Ð½Ð¸": 1781,
      "ÑİÑĪÐºÐ°": 1782,
      "ÐµÑĢÑĪ": 1783,
      "Ð°ÐºÑģ": 1784,
      "ĠÐ½ÐµÑİ": 1785,
      "ĠÐ·Ð»": 1786,
      "ĠÐ·Ð°ÑĤ": 1787,
      "Ð¿Ð¾Ð½": 1788,
      "Ð±Ð¸": 1789,
      "ĠÑĢÐ¾Ð±": 1790,
      "ĠÑĢÐ°Ð½": 1791,
      "ĠÑĢÐµÐº": 1792,
      "ÑĨÐµÐ²": 1793,
      "Ð´Ð°ÑĤÑĮ": 1794,
      "ÑīÐ¸Ð¹": 1795,
      "ĠÑĥÑĩ": 1796,
      "ĠÑĥÐ²": 1797,
      "Ð°Ð²Ð½Ð¾": 1798,
      "Ð¾Ð³Ð»Ð°Ñģ": 1799,
      "ĠÐ³ÑĢÐ¾Ð¼": 1800,
      "ĠÐ»Ð¾Ð¼": 1801,
      "ĠÐ»ÐµÐ³": 1802,
      "ĠÐ²ÑģÐµÐ¹": 1803,
      "ĠÐ²ÑģÐ¿Ð¾Ð¼": 1804,
      "ĠÐ¿Ð¾ÐµÑħ": 1805,
      "Ð°Ð½Ð½Ð°Ñı": 1806,
      "ÑĤÐ¾ÑĢÐ°": 1807,
      "ÐµÐ±ÐµÐ·": 1808,
      "ĠÑģÑĤÐ°Ð½": 1809,
      "ĠÑĤÐ°ÐºÐ¸Ðµ": 1810,
      "ĠÑħÐ¾ÑĢÐ¾ÑĪ": 1811,
      "ÐµÐ·Ð´Ðµ": 1812,
      "ÐµÐ·Ð½Ð°ÐºÐ¾Ð¼": 1813,
      "ĠÐ²ÑĭÑħÐ¾Ð´": 1814,
      "ÐµÐ½Ð¸Ñİ": 1815,
      "ÐµÐ½Ð¸ÐµÐ¼": 1816,
      "ĠÐ¿ÑĢÐ¸Ð¿": 1817,
      "ĠÐ¿ÑĢÐ¸Ð±": 1818,
      "ĠÐ¿ÑĢÐ¸ÑħÐ¾Ð´": 1819,
      "Ð»ÑıÑĤÑĮ": 1820,
      "ĠÑĢÐ°Ð·Ð³Ð¾Ð²Ð¾ÑĢ": 1821,
      "ĠÐ¡Ð¿": 1822,
      "ÑĳÐ´Ð¾ÑĢ": 1823,
      "Ð¸ÐºÑĥ": 1824,
      "ĠÐļÐ¾ÑĢ": 1825,
      "ÐµÑĩÐ°ÑĤ": 1826,
      "ÑĥÐ¶ÐµÐ»Ð¸": 1827,
      "Ð¾ÑĩÐ½Ð¾": 1828,
      "ÑīÐµÐµ": 1829,
      "Ð¾Ð¿ÑĭÑĤ": 1830,
      "ĠÑģÐ¿ÑĥÑģÑĤ": 1831,
      "ĠÑģÐ¿ÐµÑĨÐ¸": 1832,
      "ÑıÑĤÐ½Ð¸ÐºÐ¾Ð²": 1833,
      "ĠÐ´Ð²ÑĥÑħ": 1834,
      "ĠÐ¿ÐµÑĢÐµÑģ": 1835,
      "ÐºÑĥÑİ": 1836,
      "ĠÐºÐ¾ÑĤÐ¾ÑĢÐ¾Ð¼": 1837,
      "ĠÑģÐ°Ð¼Ð¾Ð¼": 1838,
      "ĠÐºÑĢÐ¾Ð²": 1839,
      "ĠÐºÑĢÐ¾ÑĪ": 1840,
      "ĠÐ¾Ð´Ð½Ð°": 1841,
      "ĠÑĦÐ°Ð·": 1842,
      "ĠÑĦÐ°Ð¹": 1843,
      "ÑıÑĤÑĮÑģÑı": 1844,
      "ĠÐ½Ð°Ð´ÐµÐ¶": 1845,
      "ÑĤÐ¾Ð±Ñĭ": 1846,
      "ĠÐłÐ°Ð·": 1847,
      "ĠÐ²Ð·Ð³Ð»Ñı": 1848,
      "Ð½ÑıÐ»": 1849,
      "Ð½ÑıÑı": 1850,
      "ĠÐ¿Ð¾ÑĤÐµÑĢ": 1851,
      "ĠÐ»ÑİÐ´Ð¸": 1852,
      "ÑĢÐµÐ¼ÐµÐ½Ð½Ð¾": 1853,
      "ĠÐ¸Ð³ÑĢÐ¾Ð²": 1854,
      "ĠÐĹÐ´ÐµÑģÑĮ": 1855,
      "ĠÐ¿Ð¾Ð½ÑıÐ»": 1856,
      "ĠÐ´Ð¾Ð¼Ðµ": 1857,
      "ĠÐ³Ð¾Ð²Ð¾ÑĢÐ¸Ð»": 1858,
      "ĠÐ±Ð¾Ð»ÑĤ": 1859,
      "ĠÐºÐ¾Ð¼Ð½Ð°ÑĤÐ°": 1860,
      "ĠÐºÐ¾Ð¼Ð½Ð°ÑĤÑĭ": 1861,
      "ĠÐ²ÐµÑĢÐ¾ÑıÑĤÐ½Ð¾": 1862,
      "ĠÑģÐ¾Ð±Ð¾Ð¹": 1863,
      "ĠÑģÐ¾Ð±Ð¸ÑĢ": 1864,
      "ĠÐ¾ÐºÐ°Ð·": 1865,
      "ĠÑĩÑĥÑĤÑĮ": 1866,
      "ĠÐ¤ÑĳÐ´Ð¾ÑĢ": 1867,
      "ĠÐ¿Ð¾Ð¼ÐµÑī": 1868,
      "ĠÐĽÑİ": 1869,
      "ĠÐĽÐµÐ±ÐµÐ·": 1870,
      "ĠÐ´ÐµÐ»Ð°ÑĤÑĮ": 1871,
      "ĠÑģÐºÐ°Ð·Ð°ÑĤÑĮ": 1872,
      "ĠÐ½Ð°Ð·ÑĭÐ²": 1873,
      "ĠÐ¿Ð¾Ð·Ð¶Ðµ": 1874,
      "ÑıÐ»ÑģÑı": 1875,
      "Ð½ÑİÑİ": 1876,
      "ĠÐ¿ÑĢÐ°Ð²Ð¸Ð»ÑĮ": 1877,
      "Ð½Ð°ÐºÐ¾": 1878,
      "ĠÐ½Ð°ÑĩÐ°Ð»": 1879,
      "ĠÑĢÑĥÐ±Ð»ÐµÐ¹": 1880,
      "ĠÐŁÐµÑĤÑĢÐ¾Ð²Ð½Ð°": 1881,
      "ĠÐ¥Ð¾ÑĢÐ¾ÑĪÐ¾": 1882,
      "Ġ10": 1883,
      "ĠÐ¼Ð¸Ð»ÑĭÐ¹": 1884,
      "Ð½Ð¾ÑģÑĤÑĮÑİ": 1885,
      "ĠÐłÐ°ÑģÐºÐ¾Ð»ÑĮÐ½Ð¸ÐºÐ¾Ð²Ð°": 1886,
      "ĠÐ±ÐµÑģÐ¿": 1887,
      "ĠÐ´Ð°Ð²Ð½Ð¾": 1888,
      "ĠÐ´Ð°Ð²Ð°Ð¹": 1889,
      "Ð¸Ð¼ÐµÑĢÐ½Ð¾": 1890,
      "ĠÐ´Ð²Ð¾ÑĢÐµ": 1891,
      "ĠÐ¿ÑĢÐ¾Ð¸Ð·Ð¾ÑĪ": 1892,
      "ĠÑģÐ´ÐµÐ»Ð°ÑĤÑĮ": 1893,
      "ĠÑĥÐ»Ð¸ÑĨÑĥ": 1894,
      "ĠÐ¿Ð»Ð°ÑĤ": 1895,
      "Ð°ÑĤÐµÐ»ÑĮÐ½Ð¾": 1896,
      "ĠÐ¡Ð¾Ð½ÐµÑĩ": 1897,
      "ĠÐ¼Ð¸Ð½ÑĥÑĤÑĥ": 1898,
      "ÑĥÑİÑĤÑģÑı": 1899,
      "ĠÑģÐµÑĢÐ´ÑĨÐµ": 1900,
      "Ġ20": 1901,
      "ĠÐ¿ÑĢÐ¾Ð²ÐµÑĢ": 1902,
      "ĠÐľÐ°ÑĢÑĦÐ°": 1903,
      "ĠÐ¸Ð½ÑĤÐµÑĢÐµÑģ": 1904,
      "ĠÐ¿ÑĢÐ¾Ð¸ÑģÑħÐ¾Ð´Ð¸ÑĤ": 1905,
      "ame": 1906,
      "ĠÐ¿Ð¸ÑģÑĮÐ¼Ð¾": 1907,
      "ĠÐ½ÐµÐ±Ð¾Ð»ÑĮÑĪ": 1908,
      "ĠÑģÑĤÐ¾Ð¸ÑĤ": 1909,
      "ĠÑģÑĥÐ¿ÑĢÑĥÐ³": 1910,
      "ĠÑĩÐ¸ÑģÑĤÐ¾": 1911,
      "ĠÑĥÐ»ÑĭÐ±": 1912,
      "Ð´Ð¾ÑĢÐ¾Ð²Ð¾": 1913,
      "ÑĤÐ°ÐºÐ¸": 1914,
      "ÑĥÐ»ÑıÑĢ": 1915,
      "ĠÑģÐ¸ÑģÑĤÐµÐ¼": 1916,
      "ĠÐ´ÐµÐ½ÑĮÐ³Ð¸": 1917,
      "ĠÐºÑĢÑĭÑģ": 1918,
      "ĠÐ±Ð°ÑĤÑİÑĪÐºÐ°": 1919,
      "ĠÐ¿ÑĢÐµÐºÑĢÐ°Ñģ": 1920,
      "ĠÐľÐ¾Ð½ÑĤÐ¸": 1921,
      "ĠÑĢÐ°Ð½ÑĮÑĪÐµ": 1922,
      "ĠÐĽÐµÐ±ÐµÐ·ÑıÑĤÐ½Ð¸ÐºÐ¾Ð²": 1923,
      "ĠÐ¿ÑĢÐ°Ð²Ð¸Ð»ÑĮÐ½Ð¾": 1924,
      "it": 1925,
      "us": 1926,
      "Ġb": 1927,
      "ÑĤÐµÐ»": 1928,
      "ÑĤÐµÐ»ÑĮ": 1929,
      "ÑģÐ½Ð¾": 1930,
      "ÑģÐºÐ¸Ðµ": 1931,
      "Ð½ÐµÐ·": 1932,
      "Ð½ÐµÐ·Ð´": 1933,
      "ÑĢÐµÑĤ": 1934,
      "ÑĢÐ¾Ð±": 1935,
      "ÑĢÐ°Ð´": 1936,
      "ÑĢÐ¾ÑĩÐµÐ¼": 1937,
      "ÑĥÐ»": 1938,
      "ÑıÐµÑĤ": 1939,
      "ÑıÐ³": 1940,
      "ĠÐ¿Ð¾Ð³": 1941,
      "ĠÐ¿Ð¾ÑĤÑĢ": 1942,
      "ĠÐ½Ð°Ð¹ÑĤÐ¸": 1943,
      "ĠÐ½ÐµÐ·Ð½Ð°ÐºÐ¾Ð¼": 1944,
      "ĠÐ²ÑĢ": 1945,
      "ĠÐ²ÑģÑĤ": 1946,
      "ĠÐ²ÐµÑģ": 1947,
      "ĠÐ²Ð¸Ð¶Ñĥ": 1948,
      "ĠÐ²Ð½ÐµÐ·": 1949,
      "ÑĩÐµ": 1950,
      "ĠÑģÑĭ": 1951,
      "ĠÑģÑİ": 1952,
      "ĠÑģÐ¾Ð»": 1953,
      "ĠÑģÐ¸Ð¼": 1954,
      "ĠÑģÑĩÐ¸ÑĤ": 1955,
      "ĠÑģÑĩÐµÑĤ": 1956,
      "ĠÑģÐ¾Ð³Ð»Ð°Ñģ": 1957,
      "ÐºÐ»Ð°Ð´": 1958,
      "Ð´ÐµÐ½Ð¸Ðµ": 1959,
      "ÑĤÐ¾ÑĦ": 1960,
      "Ð²ÐµÑī": 1961,
      "ĠÐ¾ÑĦ": 1962,
      "ĠÐºÐ°Ð½": 1963,
      "ĠÐºÐ°ÑĢ": 1964,
      "ĠÐºÐ°Ð¿": 1965,
      "ĠÐºÑĢÑĥÐ³": 1966,
      "ĠÐºÑĥÑħ": 1967,
      "ĠÐºÑĥÐ¿": 1968,
      "ĠÐºÐ»ÑİÑĩ": 1969,
      "ĠÐºÐ°ÑĢÐ¼": 1970,
      "ĠÐºÑĥÑģ": 1971,
      "ĠÑĤÐ¾Ð²": 1972,
      "ĠÑĤÐ¾Ð»": 1973,
      "ĠÐ¼Ð°ÑĤÑĮ": 1974,
      "ĠÐ¼ÐµÐ»ÑĮ": 1975,
      "ĠÐ¼Ð°Ð³": 1976,
      "ĠÐ¼Ð¸ÑĢ": 1977,
      "ĠÐ¼Ð°ÐºÑģ": 1978,
      "ĠÐ´Ð¾Ð¼Ñĥ": 1979,
      "ĠÐ´Ð¾Ð¿": 1980,
      "ÑĪÐºÐ¸": 1981,
      "ÑĪÐµÐ³Ð¾": 1982,
      "ÑĪÐµÐ¼Ñĥ": 1983,
      "ÐµÐ½Ð½Ð¾Ð¼": 1984,
      "ĠÐ±Ð°ÑĢ": 1985,
      "ĠÐ±ÑĥÑĤ": 1986,
      "ĠÐ±ÑĢÐ¾Ñģ": 1987,
      "ĠÑĩÐ¸ÑĤ": 1988,
      "Ð¾Ð²Ð°": 1989,
      "Ð¾Ð²Ð°Ð»": 1990,
      "Ð¾Ð²ÑĭÐµ": 1991,
      "ÐµÑĢÑĥ": 1992,
      "Ð¾Ð»Ð¾": 1993,
      "Ð¾Ð»Ð¾Ð³": 1994,
      "ÐµÐ»ÐµÐ¹": 1995,
      "ÐµÐ»Ð¾ÑģÑĮ": 1996,
      "Ð¾Ð¼Ðµ": 1997,
      "Ð¾Ð¼Ð½": 1998,
      "Ð¾Ð¼ÐµÐ½": 1999,
      "Ð¾Ð¼Ð¾ÑĢÐ³": 2000,
      "ĠÐ¿ÑĢÐ¾Ð½": 2001,
      "ĠÐ½ÐµÑĩÐµÐ³Ð¾": 2002,
      "ĠÐ½ÐµÑĥÐ¶ÐµÐ»Ð¸": 2003,
      "ĠÐ·Ð½Ð°ÐºÐ¾Ð¼": 2004,
      "ÑģÑıÑĤ": 2005,
      "Ð½Ð°ÑĤÑĮ": 2006,
      "ĠÑĢÑĥÐ´": 2007,
      "ĠÑĢÑĥÐ³": 2008,
      "ĠÐµÑī": 2009,
      "Ð°ÑģÑĤÑĮ": 2010,
      "ÐĲÐ¤": 2011,
      "ÑĨÐµÐ¼": 2012,
      "Ð¾Ð±ÑĢÐ°Ð·": 2013,
      "ÑīÐ¸Ðµ": 2014,
      "ĠÑĥÑĤ": 2015,
      "Ð¾Ð½Ñĩ": 2016,
      "Ð¾Ð½Ð°ÑĢ": 2017,
      "ĠÐ³Ð»ÑıÐ´": 2018,
      "Ð°Ð´ÑĨÐ°ÑĤÑĮ": 2019,
      "ĠÐ¿Ð¾Ð¸Ð³": 2020,
      "ĠÐ¿Ð¾ÑıÐ²": 2021,
      "ĠÐºÐ°ÐºÐ¸Ð¼": 2022,
      "ĠÐºÐ°ÐºÐ¸Ðµ": 2023,
      "Ð°ÑĢÐ°Ðº": 2024,
      "Ð¸Ð¼ÐµÑĤ": 2025,
      "Ð¸Ð²Ð°Ð»": 2026,
      "Ð¸Ð²Ð°Ñı": 2027,
      "ĠÑģÑĤÑĥÐ´": 2028,
      "ĠÑģÑĤÐ°Ð»Ð¸": 2029,
      "ĠÑģÑĤÐ¾Ð»ÑĮÐºÐ¾": 2030,
      "ĠÑĤÐ°ÐºÐ¾Ð³Ð¾": 2031,
      "ĠÑħÑĥÐ´": 2032,
      "ĠÑħÐ°ÑĢÐ°Ðº": 2033,
      "ÐµÐ·Ð¶": 2034,
      "ĠÐ¾Ð±ÑĢÐ°ÑĤÐ½Ð¾": 2035,
      "ĠÐ²ÑĭÐ±": 2036,
      "ĠÐ²ÑĭÑĢÐ°Ð·": 2037,
      "ĠÐ²ÑĭÐ³Ð»ÑıÐ´": 2038,
      "ĠÐŁÐ¾Ð»": 2039,
      "ĠÐŁÐ¾Ñģ": 2040,
      "ĠÐŁÑĢÐ¸": 2041,
      "ĠÐĿÐ¸ÑĩÐµÐ³Ð¾": 2042,
      "ĠÐ¿ÑĢÐ¸Ð½": 2043,
      "...\"": 2044,
      "ĠÐ·Ð°Ñħ": 2045,
      "ĠÐ·Ð°Ð½Ð¸Ð¼": 2046,
      "ĠÑĢÐ°Ð·Ð±": 2047,
      "ĠÐ¡ÐµÐ¹ÑĩÐ°Ñģ": 2048,
      "ĠÐ¢Ð¾Ð³Ð´Ð°": 2049,
      "ĠÐ¢ÑĥÑĤ": 2050,
      "ĠÐĲÐ³Ð°": 2051,
      "ĠÐľÐ¾Ð»Ð¾Ð´Ð¾Ð¹": 2052,
      "ĠÐĴÑĭ": 2053,
      "ĠÐ¸Ð·Ð²Ð¾Ð»": 2054,
      "ĠÐļÑĥÐ´Ð°": 2055,
      "ÐµÑĩÐµ": 2056,
      "ÐµÑĩÑĮ": 2057,
      "Ð¾ÑĩÐºÐ°": 2058,
      "Ð°ÑİÑģÑĮ": 2059,
      "Ð°Ð¿ÑĢÐ¸Ð¼ÐµÑĢ": 2060,
      "Ð¸ÑĩÐµÑģ": 2061,
      "ĠÑģÐ¿ÑĢ": 2062,
      "ĠÑģÐ¿ÑĢÐ°Ð²": 2063,
      "ĠÐ¿ÐµÑĢÐµÐº": 2064,
      "ĠÐ¿ÐµÑĢÐµÑģÑĤ": 2065,
      "ĠÐºÐ¾ÑĤÐ¾ÑĢÐ¾Ð³Ð¾": 2066,
      "ĠÑģÐ°Ð¼ÑĭÑħ": 2067,
      "ĠÑįÑĤÐ°Ð¶": 2068,
      "Ð¸ÑģÑĭÐ²": 2069,
      "ĠÐºÑĢÐ¸Ðº": 2070,
      "ĠÐºÑĢÐ¾Ð¼Ðµ": 2071,
      "ĠÐ¾Ð´Ð½Ð¾": 2072,
      "ÑģÐºÐ¾Ð¼": 2073,
      "ÑģÐºÐ¾ÑĢ": 2074,
      "ÑģÐºÐ¾Ð³Ð¾": 2075,
      "ÑĪÐµÐµ": 2076,
      "ĠÐ»Ð¸ÑĪ": 2077,
      "ĠÑĦÐ¸Ð³": 2078,
      "ĠÐ´Ð°ÑģÑĤ": 2079,
      "Ð°Ð½Ð¸ÐµÐ¼": 2080,
      "ĠÐ¼Ð¾Ð¶ÐµÐ¼": 2081,
      "ĠÐ²Ð·ÑıÐ»": 2082,
      "ĠÐºÐ¾Ð¼Ð°Ð½": 2083,
      "ĠÐ¸Ð³ÑĢÑĭ": 2084,
      "ĠÐ³Ð»Ð°Ð²Ð½Ð¾Ðµ": 2085,
      "ĠÑĢÐ°ÑģÑģÐº": 2086,
      "ĠÐ´ÑĢÑĥÐ³Ð¾Ð¼": 2087,
      "ĠÐĳÑĭ": 2088,
      "ĠÐĳÐ»Ð¸Ð½": 2089,
      "ĠÐ¼Ð¾Ñİ": 2090,
      "ĠÐ¼Ð¾ÐµÐ¹": 2091,
      "ĠÐ¼Ð¾Ð¸Ð¼": 2092,
      "ĠÑģÐ¾Ð¾Ð±Ñī": 2093,
      "ĠÐ´Ð¾Ð¼Ð¾Ð¹": 2094,
      "ĠÐ³Ð¾Ð²Ð¾ÑĢÐ¸ÑĤÑĮ": 2095,
      "ĠÑĤÑĢÑĥÐ´": 2096,
      "ĠÑĤÑĢÐ¸Ð´ÑĨÐ°ÑĤÑĮ": 2097,
      "ĠÐ·Ð½Ð°ÑĩÐ¸ÑĤ": 2098,
      "ĠÐ½Ð¸Ñī": 2099,
      "ĠÐ¾ÑĤÐ²Ð¾ÑĢ": 2100,
      "ĠÐ²ÐµÑĢÐ½ÑĥÐ»ÑģÑı": 2101,
      "ĠÐ²Ð¿ÑĢÐ¾ÑĩÐµÐ¼": 2102,
      "ĠÑĤÐµÐ¼Ð½Ð¾": 2103,
      "ĠÐ»ÑİÐ±Ð¾Ð¿ÑĭÑĤ": 2104,
      "ĠÐ¤ÐĿ": 2105,
      "Ð°ÑĩÐ°": 2106,
      "Ð°ÑĩÐµÐ¼": 2107,
      "ĠÑģÑĤÑĢÐ°Ð´": 2108,
      "ĠÐ¸Ð¼ÐµÑİ": 2109,
      "ĠÑģÐºÐ°Ð·Ð°Ð»Ð°": 2110,
      "ĠÐ¿Ð¾ÑĩÐ¸ÑĤ": 2111,
      "ĠÐ¿Ð¾ÑĩÐµÐ¼Ñĥ": 2112,
      "ĠÑģÐ¾Ð²ÐµÑĢÑĪ": 2113,
      "ĠÐ·Ð°Ð¿ÐµÑĢ": 2114,
      "ĠÐ·Ð°ÐºÑĢÑĭ": 2115,
      "Ð»Ð¸Ð²Ð¾": 2116,
      "ĠÑģÑĤÐ°ÑĢÑĥÑħ": 2117,
      "ĠÐ²Ð¾Ð»Ð½": 2118,
      "ĠÑĤÐ¸Ð¿Ð°": 2119,
      "ÑĢÑıÐ·": 2120,
      "ĠÐĵÐ»": 2121,
      "ÑĥÐºÐ²": 2122,
      "ĠÐ¿Ð¾Ð¹Ð´": 2123,
      "ĠÐ¿Ð¾Ð¹Ð¼": 2124,
      "ĠÐ¸Ð´ÐµÑĤ": 2125,
      "ĠÐ¸ÑģÐ¿ÑĥÐ³": 2126,
      "ĠÐ¼Ð½Ð¾Ð³Ð¾Ðµ": 2127,
      "ĠÐ¿ÑĢÐ¸Ð²ÑĭÐº": 2128,
      "ĠÐ¿Ð¾Ð»ÑĥÑĩÐ¸ÑĤÑĮ": 2129,
      "ĠÐºÐ¾Ð»ÐµÐ½": 2130,
      "ĠÐ¿ÐµÑĢÐ²Ð¾Ð³Ð¾": 2131,
      "ĠÐ¿ÐµÑĢÐ²ÑĭÐ¹": 2132,
      "ĠÐ¼ÐµÑģÑıÑĨÐ°": 2133,
      "ĠÐ¾ÑģÐ¾Ð±ÐµÐ½Ð½Ð¾": 2134,
      "ĠÐ¼Ð¾ÑĢÐ³Ð°ÑĤÑĮ": 2135,
      "ĠÑģÐ»ÑĥÑĩÐ°Ð¹": 2136,
      "ĠÐłÐ°ÑģÐºÐ¾Ð»ÑĮÐ½Ð¸ÐºÐ¾Ð²Ñĥ": 2137,
      "ĠÐ¾Ð±ÑĢÐ°Ð·Ð¾Ð²Ð°Ð½": 2138,
      "ĠÑģÐºÐ¾ÑĢÐ¾": 2139,
      "ĠÐ´Ð¾ÑĢÐ¾Ð³Ð¸": 2140,
      "ÐľÐ°ÑĢÐ¼ÐµÐ»Ð°Ð´Ð¾Ð²": 2141,
      "ĠÐ´ÑĥÐ¼Ð°Ð»": 2142,
      "ĠÑģÐ¼Ð¾ÑĤÑĢÐµÑĤÑĮ": 2143,
      "ĠÑĨÐµÐ»ÑĭÐ¹": 2144,
      "ĠÐºÐ²Ð°ÑĢÑĤÐ¸ÑĢÐµ": 2145,
      "ĠÐ¿ÑĢÐ¾Ð¸Ð·Ð²": 2146,
      "ĠÐ´Ð¾Ð»Ð¶ÐµÐ½": 2147,
      "ĠÐ´Ð¾Ð»Ð¶Ð½Ð¾": 2148,
      "ĠÐ¿Ð¾Ð²ÑĤÐ¾ÑĢ": 2149,
      "ĠÐ´ÐµÑĤÐµÐ¹": 2150,
      "ĠÑĢÐµÐ°Ð»ÑĮÐ½Ð¾": 2151,
      "ĠÑĥÐ»Ð¸ÑĨÐµ": 2152,
      "ĠÑģÐ»Ð¾Ð²Ð°": 2153,
      "ĠÐ¿Ð¾ÑģÐ¼Ð¾ÑĤÑĢÐµÐ»": 2154,
      "ĠÐ´Ð¾ÑģÑĤÐ°Ð²": 2155,
      "Ð½ÑĥÑĤÑĮÑģÑı": 2156,
      "ĠÐ¡Ð¾Ð½Ñı": 2157,
      "ĠÐ½Ð°Ð²ÐµÑĢÐ½Ð¾": 2158,
      "ĠÐ½Ð°Ð²ÐµÑĢÐ½Ð¾Ðµ": 2159,
      "ĠÐ¼Ð°Ð¼Ð°": 2160,
      "ĠÐ¿Ð¾Ð½Ð¸Ð¼Ð°ÐµÑĤÐµ": 2161,
      "ĠÐºÐ¾ÑĢÐ¾Ð±ÐºÐ¸": 2162,
      "Ð¸Ð´Ð°Ð½Ð¸Ñı": 2163,
      "ĠÐ²ÐµÑģÑĮÐ¼Ð°": 2164,
      "ĠÐ¼Ð¸Ð½ÑĥÑĤ": 2165,
      "ĠÐ¿ÑĢÐ¾Ð³Ð¾Ð²Ð¾ÑĢ": 2166,
      "ĠÐ·Ð²ÑĥÐºÐ¸": 2167,
      "ĠÐŁÐ¾ÑĤÐ¾Ð¼": 2168,
      "ĠÐ½Ð¸ÐºÐ°ÐºÐ¸Ñħ": 2169,
      "ĠÐ¿ÑĢÐ¾Ð¿Ð¸Ð»": 2170,
      "Ð¾Ð¹Ð´ÐµÐ¼": 2171,
      "ĠÐ¿ÑĢÐ¸ÑĪÐ»Ð¾ÑģÑĮ": 2172,
      "ĠÐ°Ð½Ð¸Ð¼Ð°ÑĤÑĢÐ¾Ð½Ð¸ÐºÐ¾Ð²": 2173,
      "ĠÑĤÑĥÐ°Ð»ÐµÑĤ": 2174,
      "ĠÐ´ÐµÐ²ÑĥÑĪÐºÐ°": 2175,
      "ÐķÑģÐ»Ð¸": 2176,
      "ĠÐ²ÐµÐ»Ð¸Ðº": 2177,
      "ĠÐ³Ð»ÑĥÐ±Ð¾Ðº": 2178,
      "Ġgame": 2179,
      "ĠÐ´Ð¾ÑĩÑĮ": 2180,
      "ĠÐ´ÐµÐ¹ÑģÑĤÐ²Ð¸ÑĤÐµÐ»ÑĮÐ½Ð¾": 2181,
      "ĠÐ¾Ð±ÑĭÑĩÐ½Ð¾": 2182,
      "ĠÐ½ÑĢÐ°Ð²Ð¸ÑĤÑģÑı": 2183,
      "ĠÑĢÐ°ÑģÐ¿Ð¸Ð²Ð¾ÑĩÐ½Ð¾Ð¹": 2184,
      "ĠÑĩÐµÑĤÑĭÑĢÐµ": 2185,
      "ĠÐ¿Ð¾Ð»ÑĮÐ·Ð¾Ð²Ð°ÑĤ": 2186,
      "ĠÐ½Ð¾ÑĢÐ¼Ð°Ð»ÑĮÐ½Ð¾": 2187,
      "ĠÐ¼Ð»Ð½": 2188,
      "ĠÐ¼ÐµÑĩÑĤ": 2189,
      "ĠÐ´Ð¸Ð²Ð°Ð½": 2190,
      "ĠÐºÑĢÐ¾ÑĪÐµÑĩ": 2191,
      "Ð½ÐµÐ·Ð´Ð¾": 2192,
      "ĠÐ²Ð½ÐµÐ·Ð°Ð¿": 2193,
      "ĠÐ±ÑĥÑĤÑĭÐ»": 2194,
      "ĠÐµÑīÑĳ": 2195,
      "ĠÐ¤ÐĿÐĲÐ¤": 2196,
      "ac": 2197,
      "ec": 2198,
      "ge": 2199,
      "he": 2200,
      "ou": 2201,
      "Ð£": 2202,
      "ÐĶ": 2203,
      "ĠG": 2204,
      "Ð¾ÑĦ": 2205,
      "ÐµÐµÑĤ": 2206,
      "ÐµÐµÑĤÑģÑı": 2207,
      "Ð°Ðµ": 2208,
      "Ð°Ñĥ": 2209,
      "Ð°ÑĤÐ¾": 2210,
      "ÑĤÑĭÐ¹": 2211,
      "Ð¸ÐµÐ¼": 2212,
      "Ð¸ÑĤÐ¸": 2213,
      "Ð¸Ð½Ðµ": 2214,
      "Ð¸ÑħÐ¾": 2215,
      "Ð¸Ð±Ð¾": 2216,
      "ÑģÐµÐ»": 2217,
      "ÑģÐºÐ¸": 2218,
      "ÑģÑĥÐ´": 2219,
      "ÑģÐºÐ°Ñı": 2220,
      "Ð½ÐµÑĢ": 2221,
      "Ð½Ð°Ð»Ð°": 2222,
      "Ð½ÐµÐ¼Ñĥ": 2223,
      "ÑĢÐ°Ð»": 2224,
      "ÑĢÑĥÑĩ": 2225,
      "ÑĢÐµÐ¶": 2226,
      "Ð»Ð°Ð½": 2227,
      "Ð»Ð¾Ðº": 2228,
      "Ð»ÐµÐ½Ð¸Ñı": 2229,
      "Ð»ÐµÐ½Ð¸Ð¸": 2230,
      "ÑĥÑģÐº": 2231,
      "ÑıÑħ": 2232,
      "ÑıÑİÑĤ": 2233,
      "ĠÐ¿Ð°Ñģ": 2234,
      "ĠÐ¿Ð¸Ð²": 2235,
      "ĠÐ¿Ð°Ð»ÑĮ": 2236,
      "ĠÐ¿Ð¸Ð·": 2237,
      "ĠÐ¿ÑĮÑİ": 2238,
      "ĠÐ½Ð¾Ñģ": 2239,
      "ĠÐ½Ð°Ð±": 2240,
      "ĠÐ²Ð°Ð½": 2241,
      "ĠÐ²Ð½Ð¸Ð¼": 2242,
      "ĠÐ²Ð½ÑĥÑĤ": 2243,
      "ĠÐ²Ð°Ð³Ð¾Ð½": 2244,
      "ĠÑģÑĥ": 2245,
      "ĠÑģÐ¸ÑĤ": 2246,
      "ĠÑģÑĬ": 2247,
      "ĠÑģÐ¸Ñı": 2248,
      "ĠÑģÐ½Ð°ÑĩÐ°Ð»Ð°": 2249,
      "Ð´ÑĢ": 2250,
      "Ð´Ð°Ðº": 2251,
      "ĠÐ¸Ñī": 2252,
      "Ð²Ð°Ð»Ð°": 2253,
      "Ð²Ð¸Ð½": 2254,
      "ĠÐ¾ÑģÐºÐ¾ÑĢ": 2255,
      "ĠÐºÐ½Ð¸": 2256,
      "ĠÐºÐµÐ¼": 2257,
      "ĠÐºÐ°Ð·": 2258,
      "ĠÐºÐ°Ð±": 2259,
      "ĠÐºÐ°ÑĢÑĤÐ¸": 2260,
      "ÑħÐµ": 2261,
      "Ð¼ÐµÐ»": 2262,
      "Ð¼Ð°Ð»Ð¸": 2263,
      "ĠÑĤÐµ": 2264,
      "ĠÑĤÐ°": 2265,
      "ĠÑĤÐ¾Ð½": 2266,
      "ĠÑĤÐ°Ð¹": 2267,
      "ĠÐ¼Ð³": 2268,
      "ĠÐ¼Ð°Ð»ÑĮ": 2269,
      "ĠÐ¼ÐµÑĪ": 2270,
      "ĠÐ´Ð°Ð¼": 2271,
      "ĠÐ´ÐµÑĤÑĮ": 2272,
      "ÑĪÐ»Ð°": 2273,
      "ĠÐ±Ð¾ÑĤ": 2274,
      "ĠÐ±ÐµÐ³": 2275,
      "ĠÐ±Ð»Ð°ÑģÑĤÐµÑĢ": 2276,
      "ĠÐ±Ð¸Ð»ÐµÑĤ": 2277,
      "ĠÐ±ÑĥÐºÐ²": 2278,
      "ÑİÑģÑĮ": 2279,
      "ÐµÑĢÐº": 2280,
      "ÐµÑĢÐµÑĪ": 2281,
      "ÑģÑĤÐ°Ð½Ð¾Ð²": 2282,
      "Ð¾Ð»ÐµÑĤ": 2283,
      "Ð¾Ð»Ð³Ð¾": 2284,
      "Ð½Ð¾ÑĪ": 2285,
      "ĠÐ¿ÑĢÐµ": 2286,
      "ĠÐ¿ÑĢÐµÐ·": 2287,
      "ĠÐ¿ÑĢÐ¸Ð»Ð¸Ñĩ": 2288,
      "ĠÐ¿ÑĢÐ¸Ð¼ÐµÑĢÐ½Ð¾": 2289,
      "ÑĥÐ·": 2290,
      "ĠÐ½ÐµÐ¾Ð¶": 2291,
      "ĠÐ·ÐµÐ¼": 2292,
      "ĠÐ·Ð²ÐµÑĢ": 2293,
      "Ð¾Ð¹ÑĤÐ¸": 2294,
      "ĠÐ½Ð°Ñħ": 2295,
      "ĠÐ½Ð°ÑģÑĤ": 2296,
      "ĠÐ½Ð°ÑģÐ»": 2297,
      "Ð¿Ð¾Ð´": 2298,
      "Ð¿Ð¸ÑĤ": 2299,
      "Ð¿ÐµÑĪ": 2300,
      "ÐµÐ¼ÐµÐ½": 2301,
      "ĠÑĢÐ°": 2302,
      "Ð¾ÑģÑħÐ¾Ð´": 2303,
      "Ð¾ÑģÑĢÐ°ÑĤÑĮÑģÑı": 2304,
      "ĠÑıÑģÐ½Ð¾": 2305,
      "Ð¾ÑĤÐ°Ð»": 2306,
      "Ð°Ð·ÐµÑĢ": 2307,
      "ÑĨÐ°Ð¼Ð¸": 2308,
      "Ð´Ð°Ñİ": 2309,
      "ÑīÐ¸": 2310,
      "ÑīÐ°Ð´": 2311,
      "ĠÑįÐº": 2312,
      "ĠÑįÐ´Ð°Ðº": 2313,
      "Ð¾Ð½Ð¸Ð¼": 2314,
      "ĠÐ³Ð¼": 2315,
      "ĠÐ³ÑĥÐ±": 2316,
      "ĠÐ³ÑĢÑıÐ·": 2317,
      "ĠÐ»Ð¾Ñħ": 2318,
      "Ð¸ÑĤÐ²Ð¾ÑĢ": 2319,
      "ĠÐ¿Ð¾ÑħÐ²": 2320,
      "Ð°Ð½Ð½Ð¾Ð³Ð¾": 2321,
      "Ð°Ð½Ð½ÑĭÐ¹": 2322,
      "Ð°Ð½Ð½Ð¾Ðµ": 2323,
      "Ð°Ð½Ð½ÑĭÑħ": 2324,
      "ĠÐºÐ°ÐºÑĥÑİ": 2325,
      "Ð°ÑĢÑĥ": 2326,
      "Ð½ÑĥÐ²": 2327,
      "ĠÐ¾ÑĤÑĤ": 2328,
      "ĠÐ¾ÑĤÑģÑĤÐ°Ð²": 2329,
      "Ð¸Ð¼ÑģÑı": 2330,
      "Ð¸Ð²Ð°ÐµÐ¼": 2331,
      "ĠÐ°Ð»": 2332,
      "Ð¾Ð¶Ð´": 2333,
      "Ð¾Ð¶Ð½Ð¾": 2334,
      "ÐµÐ±ÐµÐ»ÑĮ": 2335,
      "ĠÑģÑĤÑĥÐº": 2336,
      "ĠÑģÑĤÑĢÐ°Ñħ": 2337,
      "ĠÑģÑĤÑĭÐ´": 2338,
      "ĠÑĤÐ°ÐºÐ¶Ðµ": 2339,
      "ÐµÐ·Ð´Ð°": 2340,
      "ĠÐ¾Ð±Ð»": 2341,
      "ĠÐ²ÑĭÐ¼": 2342,
      "ĠÐŁÑĢÐ¾Ñģ": 2343,
      "ĠÐŁÐ¾ÐºÐ°": 2344,
      "ĠÐŁÐ¾Ð½Ð¸Ð¼": 2345,
      "ÑģÑĤÐ²Ð¸Ðµ": 2346,
      "Ð¸Ð´Ð¾ÑĢÐ°": 2347,
      "ĠÐ¿ÑĢÐ¸Ñĩ": 2348,
      "ĠÐ¿ÑĢÐ¸ÑıÑĤ": 2349,
      "ĠÐ¿ÑĢÐ¸ÑģÐ»": 2350,
      "ĠÐ¶Ð°Ð½": 2351,
      "Ð¾Ð·Ð²": 2352,
      "Ð¶ÐµÑĤ": 2353,
      "ĠÐŀÑģ": 2354,
      "ĠÐŀÐ½Ð¸": 2355,
      "Ð»ÑıÐ»Ð°": 2356,
      "ĠÑĢÐ°Ð·Ñĥ": 2357,
      "ĠÑĢÐ°Ð·ÑĥÐ¼": 2358,
      "ĠÑĢÐ°Ð·Ð»Ð¸Ñĩ": 2359,
      "ĠÑģÐ»Ð¾Ð¼": 2360,
      "ĠÐĺÐ½": 2361,
      "ĠÐ¡Ð½Ð°ÑĩÐ°Ð»Ð°": 2362,
      "Ð¸Ð½Ð³": 2363,
      "ĠÐĲÐ»": 2364,
      "ĠÐĲÐ¹": 2365,
      "ĠÐĲÐ¼Ð°Ð»Ð¸": 2366,
      "ĠÐ¿Ð¾Ð´Ð¾Ð±": 2367,
      "ĠÐ¿Ð¾Ð´Ð´ÐµÑĢÐ¶": 2368,
      "ĠÐĴÐ¸Ð´": 2369,
      "ĠÐ¸Ð·Ð¾Ð±ÑĢÐ°Ð¶": 2370,
      "ÐµÐ½ÑĮÐºÐ°Ñı": 2371,
      "ĠÐļÑį": 2372,
      "Ð¾Ð¿Ð°Ñģ": 2373,
      "ĠÑģÐ²Ð°Ð»": 2374,
      "ĠÑģÐ²ÑıÐ·": 2375,
      "ĠÑģÐ²Ð¸Ð´Ð°Ð½Ð¸Ñı": 2376,
      "Ð¾ÐµÑħ": 2377,
      "ÑıÑĤÑģÑı": 2378,
      "ÐµÑģÑĤÐ¸": 2379,
      "ÑĢÑĭÐ¼": 2380,
      "ĠÐ¿Ð¾Ð»Ð½Ð¾ÑģÑĤÑĮÑİ": 2381,
      "ĠÐ´Ð²Ðµ": 2382,
      "ĠÐ´Ð²Ð°Ð´ÑĨÐ°ÑĤÑĮ": 2383,
      "ĠÐºÐ¾ÑĤÐ¾ÑĢÑĭÐ¼Ð¸": 2384,
      "ĠÐ¿Ð¾ÑģÐ¿ÐµÑĪ": 2385,
      "ĠÐºÑĢÐ°Ð¹": 2386,
      "ĠÐ²Ð¸Ð´ÐµÐ»Ð°": 2387,
      "ÑģÐºÐ¾Ð¹": 2388,
      "ĠÐ¼ÑĭÑģÐ»": 2389,
      "ĠÐ»Ð¸ÑĪÑĮ": 2390,
      "ĠÑĦÐ°Ðº": 2391,
      "ĠÑĦÐ¾ÑĢÐ¼": 2392,
      "ÑĥÐ¼Ð°Ð»ÑģÑı": 2393,
      "ÑĭÐ²Ð°Ð»Ð°": 2394,
      "ĠÐ±ÑĥÐ´ÐµÐ¼": 2395,
      "Ð¾ÑĤÑĢÑĥÐ´": 2396,
      "ĠÐŃÐ¹": 2397,
      "ĠÑģÐ¼ÑĥÑī": 2398,
      "ĠÐ¿ÑĢÐ¾ÑĨ": 2399,
      "ĠÐ²Ð·Ð´Ð¾ÑĢ": 2400,
      "ĠÐºÐ¾Ð¼Ð¿": 2401,
      "ĠÑģÐ²Ð¾Ð¸Ð¼Ð¸": 2402,
      "ĠÑĪÐµÐ»": 2403,
      "Ð°ÑħÐ°ÑĢ": 2404,
      "ÑĢÐ°Ð²Ð¸Ð»Ð¾ÑģÑĮ": 2405,
      "ÑĨÐ¸Ñİ": 2406,
      "ĠÐ§Ð¸ÐºÐ°": 2407,
      "ĠÐ§ÑĤÐ¾Ð±Ñĭ": 2408,
      "ĠÐ³Ð»Ð°Ð²": 2409,
      "ĠÐŃÑĤÐ¾ÑĤ": 2410,
      "ĠÐ´ÑĢÑĥÐ³Ð°Ñı": 2411,
      "ĠÐ¼Ð¾Ð¸": 2412,
      "Ð¸ÑĤÐµÐ»ÑĮÐ½ÑĭÐµ": 2413,
      "ĠÐ¾ÑģÐ½Ð¾Ð²": 2414,
      "ĠÐ½Ð°ÑģÑĤÐ¾Ñı": 2415,
      "ĠÐ½Ð°Ð¿ÑĢÐ°Ð²": 2416,
      "ĠÐ½Ð°Ð¿ÑĢÑı": 2417,
      "ĠÐ½Ð°Ð¿ÑĢÐ¸Ð¼ÐµÑĢ": 2418,
      "ĠÐ¿Ð¾Ð½ÑıÑĤÑĮ": 2419,
      "ĠÐ¿Ð¾Ð½ÑıÐ»Ð°": 2420,
      "ĠÐ¿Ð¾Ð½ÑĢÐ°Ð²Ð¸Ð»Ð¾ÑģÑĮ": 2421,
      "ĠÐŁÐµÑĤÑĢÐ°": 2422,
      "ĠÑĩÐµÑĢÑĤÐ°": 2423,
      "ĠÐ·Ð½Ð°ÐµÑĤ": 2424,
      "ĠÐ·Ð½Ð°ÐµÑĪÑĮ": 2425,
      "ĠÐ²Ð¾Ð·ÑĢÐ°": 2426,
      "ĠÐ¿Ð¾ÑĢÑĤ": 2427,
      "ĠÐ²ÐµÑĢÑħ": 2428,
      "ĠÐ²ÐµÑĢÐ½ÑĥÐ»Ð°ÑģÑĮ": 2429,
      "ÐµÐ»Ð¸ÑģÑĮ": 2430,
      "ĠÐ¿ÑĢÐµÐ´Ð¿": 2431,
      "ĠÐ²Ð¿ÐµÑĩÐ°ÑĤ": 2432,
      "ĠÐ»ÑİÐ±Ð¸ÑĤ": 2433,
      "Ð¾Ð¶ÐµÑĪÑĮ": 2434,
      "ĠÐ¾ÐºÐ¾Ð»Ð¾": 2435,
      "Ð¼Ð¾ÑĤÑĮ": 2436,
      "ĠÑĩÐ°ÑģÑĤÑĮ": 2437,
      "ĠÐĽÐ°Ð´Ð½Ð¾": 2438,
      "ĠÐ´ÐµÐ»Ðµ": 2439,
      "ĠÑĢÑĥÐºÐ¾Ð¹": 2440,
      "ĠÐºÐ¾ÑĢÐ¸Ð´Ð¾ÑĢÐ°": 2441,
      "Ð½ÐµÐ¹ÑĪÐ¸Ðµ": 2442,
      "ĠÑģÐ¾Ð²ÐµÑĤ": 2443,
      "ĠÐ¼ÑĥÐ¶Ð¸Ðº": 2444,
      "ĠÐ·Ð°ÐºÐ¾Ð½Ñĩ": 2445,
      "ĠÐ½Ð°ÑĪÐ°": 2446,
      "ĠÐ½Ð°ÑĪÐµÐ³Ð¾": 2447,
      "ĠÐ¾ÑģÑĤÐ°Ð»Ð¾ÑģÑĮ": 2448,
      "ÐŀÐŀ": 2449,
      "ĠÐ¿ÑĢÐ°Ð²Ð¸Ð»Ð¾": 2450,
      "ĠÑĩÑĥÐ²ÑģÑĤÐ²ÑĥÑİ": 2451,
      "ĠÐĵÐ¾Ð²Ð¾ÑĢ": 2452,
      "ĠÐ¿Ð¾Ð¹Ð´Ñĥ": 2453,
      "ĠÐ¸Ð´ÐµÐ¼": 2454,
      "ĠÐ·Ð°Ð¼ÐµÑĩ": 2455,
      "ĠÑĥÐ¼ÐµÑİ": 2456,
      "ĠÑħÐ¾ÑĩÐµÑĤ": 2457,
      "ĠÑģÐ»ÑĥÑĩÐ¸Ð»Ð¾ÑģÑĮ": 2458,
      "ĠÑģÐ»ÑĥÑĩÐ°Ðµ": 2459,
      "ĠÐ¿Ð»Ð°ÑĤÑĮ": 2460,
      "ĠÐ½ÐµÐ¿ÑĢÐµÐ¼ÐµÐ½Ð½Ð¾": 2461,
      "ĠÑģÐ¾ÑģÐµÐ´": 2462,
      "ĠÑĢÐ°Ð±Ð¾ÑĤÐ°ÑĤÑĮ": 2463,
      "ĠÐ´Ð¾ÑĢÐ¾Ð³Ðµ": 2464,
      "ĠÐ´Ð¾ÑĢÐ¾Ð³Ñĥ": 2465,
      "ĠÐ´ÑĥÐ¼Ð°Ñİ": 2466,
      "ĠÑģÐ¼Ð¾ÑĤÑĢÑİ": 2467,
      "ĠÑģÐ¼Ð¾ÑĤÑĢÐµÐ»": 2468,
      "ÑıÐ·ÑĭÑĩ": 2469,
      "ĠÐºÐ²Ð°ÑĢÑĤÐ¸ÑĢÑĥ": 2470,
      "ĠÐ´ÐµÑĤÐ¸": 2471,
      "ĠÑĢÐµÐ°Ð»ÑĮ": 2472,
      "ĠÑĥÐ²Ð¸Ð´ÐµÐ»Ð°": 2473,
      "ĠÐ¶Ð°Ð»ÐµÑĤÑĮ": 2474,
      "ĠÐ¶Ð°Ð»Ð¾Ð²Ð°Ð½": 2475,
      "ĠÐ´Ð¾ÑģÑĤÐ°ÑĤÐ¾": 2476,
      "ĠÐ»ÐµÐ¶Ð°Ð»": 2477,
      "Ð¡ÑĤ": 2478,
      "ĠÑħÐ¾Ð´Ð¸ÑĤÑĮ": 2479,
      "ĠÐĴÑģÑĳ": 2480,
      "ĠÐ¿Ð¾Ð½Ð¸Ð¼Ð°Ñİ": 2481,
      "ĠÐºÐ°Ð¶Ð´ÑĭÐ¹": 2482,
      "ĠÐĸÐ¸Ð²": 2483,
      "ĠÐ²ÑģÑĤÑĢÐµÑĩÐ¸": 2484,
      "ĠÐ¿ÑĢÐµÐ¶Ð´Ðµ": 2485,
      "ĠÐ½Ð°Ð¿Ð¸ÑģÐ°ÑĤÑĮ": 2486,
      "Ġok": 2487,
      "Ð°ÑĨÐ¸Ñı": 2488,
      "ÑĥÐ½Ð´Ñĥ": 2489,
      "ĠÐ¸ÑģÐºÐ»ÑİÑĩ": 2490,
      "ĠÐ´Ð¾Ð±ÑĢÑĭÐ¹": 2491,
      "ĠÑīÐµÐº": 2492,
      "Ð½ÐµÑģÐ»Ð°": 2493,
      "ĠÑĢÐ°Ð·Ð´ÑĢÐ°Ð¶": 2494,
      "ĠÐľÐ°ÑĢÑĦ": 2495,
      "ĠÐ±Ð¾Ð»ÑĮÑĪÐ¾Ð¹": 2496,
      "ÑĩÐµÑģÐºÐ¸": 2497,
      "ĠÐ¾Ð³ÑĢÐ¾Ð¼": 2498,
      "ĠÐ´Ð¾Ð»Ð³": 2499,
      "ĠÐ±ÑĭÐ²Ð°ÐµÑĤ": 2500,
      "ĠÐ²Ð¾Ð·Ð¼Ð¾Ð¶Ð½Ð¾": 2501,
      "ĠÐ¾ÑĤÐ²ÐµÑĩÐ°Ð»": 2502,
      "ĠÐŁÐµÑĤÑĢÐ¾Ð²Ð¸ÑĩÐ°": 2503,
      "ĠÑĤÐ²Ð¾Ð¸": 2504,
      "ĠÐ¿ÑĢÐ¾ÑĤÐ¸Ð²": 2505,
      "ĠÐ½Ð°ÑħÐ¾Ð´Ð¸ÑĤÑģÑı": 2506,
      "ĠÑĢÐ°Ð´Ð¸": 2507,
      "ĠÑĢÐµÐ±ÑıÑĤ": 2508,
      "ĠÑģÐ»ÐµÐ´ÑĥÑİ": 2509,
      "ĠÐ¾Ð±ÑĬÑıÑģÐ½": 2510,
      "ĠÐ²Ð¾ÑĪÐ»Ð¸": 2511,
      "ÑĩÐ¸Ð²Ð¾ÑģÑĤÑĮ": 2512,
      "ĠÐ¿ÑĢÐµÐ²Ð¾ÑģÑħÐ¾Ð´": 2513,
      "ĠÑĢÐ°ÑģÑģÑĩÐ¸ÑĤ": 2514,
      "ĠÐ¾ÑģÑĤÐ°Ð½Ð¾Ð²Ð¸Ð»ÑģÑı": 2515,
      "ĠÐ·Ð°Ð¼ÐµÑĤÐ¸Ð»": 2516,
      "ĠÑģÐ¾ÑģÑĤÐ¾ÑıÐ½Ð¸Ð¸": 2517,
      "Ġcre": 2518,
      "ĠÑģÐµÐºÑĢÐµÑĤ": 2519,
      "ĠÐµÐ´Ð¸Ð½": 2520,
      "ĠÐ°ÐºÑĤÐ¸Ð²": 2521,
      "ĠÐ´Ð²ÐµÑĢÐ¸": 2522,
      "ĠÐ¶ÐµÐ½ÑīÐ¸Ð½Ð°": 2523,
      "ÑĥÑīÐµÑģÑĤÐ²": 2524,
      "Ð´Ð¾ÑħÐ½ÑĥÐ»": 2525,
      "ĠÐ¼ÐµÑĢÐµ": 2526,
      "ĠÑĥÐ²ÐµÑĢÐµÐ½Ð°": 2527,
      "ĠÐ¿Ð¾ÑģÑĤÐ¾ÑıÐ½Ð½Ð¾": 2528,
      "ĠÑģÐ¾ÑħÑĢÐ°Ð½": 2529,
      "ĠÐ±Ð¾Ð»ÐµÐ·Ð½": 2530,
      "ĠÐ¿ÑĢÐ¾Ð³ÑĢÐ°Ð¼Ð¼Ð¸": 2531,
      "ĠÑĤÑıÐ¶ÐµÐ»": 2532,
      "Ð§ÑĤÐ¾": 2533,
      "Ð½Ð´Ð¸Ñģ": 2534,
      "ÑĩÐ¸ÑģÐ»ÐµÐ½": 2535,
      "ĠÑģÐµÑĢÑĮÐµÐ·Ð½Ð¾": 2536,
      "Ð´Ð°Ð²Ð°ÑĤÑĮ": 2537,
      "ĠÐ¾ÑīÑĥÑī": 2538,
      "ĠÑĤÐµÐ¿ÐµÑĢÐµÑĪ": 2539,
      "ĠÑĢÐ¾Ð±Ð¾ÑĤ": 2540,
      "ĠÑĢÐµÐºÐ¾Ð¼ÐµÐ½": 2541,
      "ĠÐ³ÑĢÐ¾Ð¼ÐºÐ¾": 2542,
      "ĠÐļÐ¾ÑĢÐ¾ÑĩÐµ": 2543,
      "ĠÐ¿Ð¾ÑĤÐµÑĢÑıÐ»": 2544,
      "ĠÐ¡Ð¾Ð½ÐµÑĩÐºÐ°": 2545,
      "Ġ202": 2546,
      "ĠÑģÑİÐ¶ÐµÑĤ": 2547,
      "ĠÑĤÐ¾Ð²Ð°ÑĢÐ¸": 2548,
      "ĠÐ¼Ð°ÐºÑģÐ¸Ð¼": 2549,
      "ĠÐ¿Ð¾Ð¸Ð³ÑĢÐ°ÑĤÑĮ": 2550,
      "ĠÑĢÐ°ÑģÑģÐºÐ°Ð·": 2551,
      "ĠÐĵÐ»Ð°Ð²Ð½Ð¾Ðµ": 2552,
      "ĠÐ²Ð½ÐµÐ·Ð°Ð¿Ð½Ð¾": 2553,
      "Ð»Ð¾ÐºÑģ": 2554,
      "ĠÐ¾ÑģÐºÐ¾ÑĢÐ±": 2555,
      "ĠÐ¼Ð³Ð½Ð¾Ð²": 2556,
      "ĠÐ¿ÑĢÐµÐ·ÑĢ": 2557,
      "ĠÐ½ÐµÐ¾Ð¶Ð¸Ð´Ð°": 2558,
      "ĠÐ»Ð¾ÑħÐ¼Ð¾ÑĤÑĮ": 2559,
      "ĠÐŁÐ¾Ð½Ð¸Ð¼Ð°ÐµÑĤÐµ": 2560,
      "ĠÐļÑįÐ½Ð´Ð¸Ñģ": 2561,
      "ĠÐ²Ð¿ÐµÑĩÐ°ÑĤÐ»ÐµÐ½Ð¸Ðµ": 2562,
      "ĠÐ´Ð¾ÑģÑĤÐ°ÑĤÐ¾ÑĩÐ½Ð¾": 2563,
      ").": 2564,
      "ain": 2565,
      "ate": 2566,
      "dio": 2567,
      "is": 2568,
      "tu": 2569,
      "ua": 2570,
      "ve": 2571,
      "Ġ,": 2572,
      "Ġ9": 2573,
      "ĠC": 2574,
      "ĠM": 2575,
      "ĠP": 2576,
      "ĠY": 2577,
      "Ġm": 2578,
      "ĠÑĤÐ¾ÑĢ": 2579,
      "ĠÑĪÐ¸": 2580,
      "Ġus": 2581,
      "ĠÐ¦": 2582,
      "Ð¾Ñĥ": 2583,
      "ÐµÑģÑĤÐ²Ðµ": 2584,
      "ÑĤÐ½Ð¾": 2585,
      "ÑĤÐ¾Ð¼": 2586,
      "ÑĤÐ¾Ð¶": 2587,
      "Ð¸Ð±": 2588,
      "Ð¸ÐµÐ¹": 2589,
      "ÑģÐ¾ÑĢ": 2590,
      "ÑģÐ¾Ð½": 2591,
      "Ð½Ð°Ð¹": 2592,
      "ÑĢÐµÐ»": 2593,
      "ÑĢÐ¸Ñĩ": 2594,
      "ÑĢÐ°Ð»ÑģÑı": 2595,
      "Ð»ÐµÐ¼": 2596,
      "Ð»ÐµÐ·": 2597,
      "Ð»Ð°Ð¹": 2598,
      "Ð»ÑĭÐ¹": 2599,
      "Ð»ÐµÐºÑĤ": 2600,
      "ÑıÑı": 2601,
      "ÑĮÐ¸": 2602,
      "ÑĭÑĤÑĮ": 2603,
      "ÑĭÐ¿": 2604,
      "ÑĭÑĪÐ¸": 2605,
      "ĠÐ¿ÐµÐ½": 2606,
      "ĠÐ¿Ð¸Ð»": 2607,
      "ĠÐ¿Ð°Ð¼": 2608,
      "ĠÐ¿Ð¸ÑĤÑĮ": 2609,
      "ĠÐ¿Ð¸Ñģ": 2610,
      "ĠÐ¿Ð»Ð¾": 2611,
      "ĠÐ¿ÑĥÑģÑĤÑĮ": 2612,
      "ĠÐ½Ð¸Ñĩ": 2613,
      "ĠÐ½Ð°Ð³": 2614,
      "ĠÐ½ÐµÐ¼Ñĥ": 2615,
      "ĠÐ½Ð¸Ð¼Ð¸": 2616,
      "ĠÐ²Ð½Ð¸": 2617,
      "ĠÐ²ÐµÐ´": 2618,
      "ĠÐ²ÑģÑĤÐ°Ð²": 2619,
      "ĠÐ²ÐµÐ½ÑĤ": 2620,
      "ĠÐ²ÐµÐ·Ð´Ðµ": 2621,
      "ÑĩÐ°Ð»": 2622,
      "ĠÑģÐ¸Ð»": 2623,
      "ĠÑģÐ¾Ð´": 2624,
      "ĠÑģÐ¾ÑĢ": 2625,
      "ĠÑģÐ½Ð°": 2626,
      "ĠÑģÐµÐ¹": 2627,
      "ĠÑģÐ¾Ðº": 2628,
      "ĠÑģÐµÐ³Ð¾": 2629,
      "ĠÑģÐ½Ð¸Ð¼": 2630,
      "ĠÑģÐ¸Ðµ": 2631,
      "ĠÑģÐ»Ð¸Ð²": 2632,
      "ĠÑģÑħÐ²Ð°ÑĤ": 2633,
      "ĠÑģÑĥÐ½Ð´Ñĥ": 2634,
      "ĠÑģÑģÐ¾ÑĢ": 2635,
      "ÐºÐ°ÑĤÑĮ": 2636,
      "ÐºÐ¾Ð½": 2637,
      "ÐºÑĢÑĭ": 2638,
      "ÐºÐ¸Ð¼Ð¸": 2639,
      "Ð´ÐµÐ½Ð¸Ñı": 2640,
      "ÑĤÐ¾Ñİ": 2641,
      "ÑĤÐ¾Ð¸Ð½": 2642,
      "Ð²Ð¾Ð½": 2643,
      "Ð²Ð°ÑĤ": 2644,
      "Ð²ÑĢÐ°Ñī": 2645,
      "ĠÐ¾ÑĢÑĥÐ¶": 2646,
      "ĠÐºÐ¾Ð¼Ñĥ": 2647,
      "ÑħÐ°": 2648,
      "ÑħÐ°Ð»": 2649,
      "Ð¼ÐµÐ»ÑĮ": 2650,
      "Ð¼ÐµÑĪ": 2651,
      "ĠÑĤÑĢÑĥÐ¿": 2652,
      "ĠÐ¼Ð¸": 2653,
      "ĠÐ¼Ñĥ": 2654,
      "ĠÐ¼ÐµÐ½": 2655,
      "ĠÐ¼Ð¾Ð½": 2656,
      "ĠÐ¼Ð¾ÑģÑĤ": 2657,
      "ĠÐ¼Ð°ÑĤÐµÑĢ": 2658,
      "ĠÐ¼Ð¸Ð¼Ð¾": 2659,
      "ĠÐ¼Ð¾Ð¶ÐµÑĪÑĮ": 2660,
      "ĠÐ´Ñĭ": 2661,
      "ĠÐ´Ð°Ð»": 2662,
      "ĠÐ´Ð¾Ðº": 2663,
      "ĠÐ´ÑĥÑĪ": 2664,
      "ĠÐ´ÐµÑģÑı": 2665,
      "ĠÐ´Ð½ÐµÐ¹": 2666,
      "ĠÐ´ÐµÑĢÐ¶": 2667,
      "ÑĪÐºÑĥ": 2668,
      "ÐµÐ½ÑĤÐ¸": 2669,
      "ÐµÐ½Ð½ÑĭÐµ": 2670,
      "ÐµÐ½Ð½ÑĥÑİ": 2671,
      "ĠÐ±Ð¾Ð¹": 2672,
      "ĠÐ±Ð¾Ð³": 2673,
      "ĠÐ±Ð¾Ð¶": 2674,
      "ĠÐ±Ð»Ð¸Ð½": 2675,
      "ĠÑĩÑĥÐ¶": 2676,
      "ĠÑĩÐ¸ÑģÑĤ": 2677,
      "Ð¾Ð²ÐµÑĢ": 2678,
      "Ð¾Ð²Ð½Ð¾": 2679,
      "Ð¾Ð²Ð°ÑĢ": 2680,
      "Ð¾Ð²ÑĭÐ¹": 2681,
      "Ð¾Ð²Ð°Ð½Ð¸Ðµ": 2682,
      "ÐµÑĢÐ²": 2683,
      "ÐµÑĢÑħ": 2684,
      "ÑģÑĤÐ°Ð»": 2685,
      "Ð¾Ð»Ð¾ÑĤ": 2686,
      "Ð½Ð¾ÑıÐ·ÑĭÑĩ": 2687,
      "Ð°ÐºÐ°Ð½": 2688,
      "ĠÐ¿ÑĢÐµÑģ": 2689,
      "ĠÐ¿ÑĢÐ¾Ð¼Ð¾ÑĢÐ³": 2690,
      "ĠÐ¿ÑĢÐ¸ÑĤÐ²Ð¾ÑĢ": 2691,
      "³Ð¾Ðµ": 2692,
      "ÐµÑĤÑħ": 2693,
      "ĠÐ·Ð´Ð¾ÑĢÐ¾Ð²Ð¾": 2694,
      "ĠÐ·ÐµÑĢÐº": 2695,
      "Ð¸Ð»Ñı": 2696,
      "Ð¸Ð»Ð¾ÑģÑĤÐ¸Ð²ÑĭÐ¹": 2697,
      "Ð¾Ð´ÑĥÑĪ": 2698,
      "Ð½Ð¸ÐµÐ¼": 2699,
      "Ð½Ð¸Ð¼Ð¸": 2700,
      "Ð½Ð¸ÑĨÑĥ": 2701,
      "ĠÐ½Ð°ÑĥÑĪ": 2702,
      "ĠÐ½Ð°ÑĪÐµÐ»": 2703,
      "Ð¿ÐµÐ²": 2704,
      "Ð¾ÑĢÐ¾Ð´": 2705,
      "Ð±Ñĥ": 2706,
      "Ð±Ð»Ð°ÑģÑĤÐµÑĢ": 2707,
      "ĠÑĢÐµÐ³": 2708,
      "ĠÑĢÑıÐ´": 2709,
      "ĠÑĢÐ°Ð²Ð½Ð¾": 2710,
      "Ð·Ð°Ðº": 2711,
      "Ð·Ð¸ÑĤÐµÐ»ÑĮÐ½ÑĭÐµ": 2712,
      "ĠÑıÐ·": 2713,
      "ĠÑıÐ¿Ð¾Ð½": 2714,
      "ĠÐµÑĳ": 2715,
      "ĠÐµÐ´Ð¸": 2716,
      "Ð¾ÑĤÐ¸Ð²": 2717,
      "Ð¾ÑĤÐµÐ»Ð¾ÑģÑĮ": 2718,
      "Ð°Ð¼ÐµÑĢ": 2719,
      "Ð¹ÑĤÐ¸": 2720,
      "ÑĨÐ¾Ð²": 2721,
      "Ð´Ð°Ð½Ð¸Ðµ": 2722,
      "ÑīÐ°Ñı": 2723,
      "ÑīÐ¸Ñħ": 2724,
      "ĠÑĥÑģ": 2725,
      "ĠÑĥÑĢÐ¾Ð²": 2726,
      "ĠÑĥÐºÐ°Ð·": 2727,
      "ĠÑĥÐ½Ð¸Ñĩ": 2728,
      "ĠÑĥÐºÐ¾ÑĢ": 2729,
      "ĠÑįÐ½ÐµÑĢ": 2730,
      "Ð¾Ð½Ðµ": 2731,
      "Ð¾Ð½Ð°": 2732,
      "Ð¾Ð½ÐºÐ°": 2733,
      "Ð°Ð²Ð¸Ð»": 2734,
      "Ð°Ð²Ð»Ð¸Ð²": 2735,
      "Ð»Ð¸Ð·": 2736,
      "Ð»Ð¸ÑĩÐ½Ð¾": 2737,
      "Ð¾Ð³Ðµ": 2738,
      "ÐµÐ´Ð¸Ð½": 2739,
      "ĠÐ³Ð¾Ð»Ð¾Ð´": 2740,
      "ĠÐ³Ð½ÐµÐ·Ð´Ð¾": 2741,
      "ĠÐ»Ð°Ð²": 2742,
      "Ð¸ÑĤÐµÐ»ÐµÐ¹": 2743,
      "Ð°Ð´Ð¸": 2744,
      "ĠÐ¿Ð¾ÑģÑĤÐ°Ð²": 2745,
      "Ð°Ð½ÐºÐ¸": 2746,
      "ĠÐºÐ°ÐºÐ¾Ð¼": 2747,
      "ĠÐºÐ°ÐºÐ¾Ð³Ð¾": 2748,
      "Ð°ÑĢÑĥÑħÐ°": 2749,
      "Ð½ÑĥÑģ": 2750,
      "Ð½ÑĥÐ»Ð¸": 2751,
      "ĠÐ¾ÑĤÐºÑĥ": 2752,
      "ĠÐ¾ÑĤÑĢÐµ": 2753,
      "ĠÐ¾ÑĤÐ½Ð¾Ñģ": 2754,
      "ĠÐ¾ÑĤÑĩÐ°Ñı": 2755,
      "ĠÐ¾ÑĤÐ»Ð¸ÑĩÐ½Ð¾": 2756,
      "Ð¾Ð»ÑĮÑĤÐµ": 2757,
      "Ð¸Ð¼Ð¾ÑģÑĤÐ¸": 2758,
      "ĠÑĥÐ¹": 2759,
      "Ð¸Ð²Ð¾": 2760,
      "Ð¸Ð²Ð°Ð»Ð°": 2761,
      "Ð¸Ð²Ð°Ð»ÑģÑı": 2762,
      "Ð¸Ð²Ð°ÑĤÑĮÑģÑı": 2763,
      "ĠÐ°Ð´": 2764,
      "ĠÐ°Ð²": 2765,
      "ĠÐ°Ð½Ð³": 2766,
      "Ð¾Ð¶Ð¸Ð»": 2767,
      "ÐµÐ±Ðµ": 2768,
      "ĠÑģÑĤÐµÐ½": 2769,
      "ĠÑģÑĤÐ¾Ð¹": 2770,
      "ĠÑģÑĤÐ°ÐºÐ°Ð½": 2771,
      "ĠÑĤÐ°ÐºÑģÐ¸": 2772,
      "ĠÐ¾Ð±Ð¼": 2773,
      "ĠÐ¾Ð±Ð¾ÑĢ": 2774,
      "ĠÐ¾Ð±Ð¾ÑĪ": 2775,
      "ĠÐ¾Ð±ÑıÐ·": 2776,
      "ĠÐ¾Ð½Ð»Ð°Ð¹": 2777,
      "ĠÐ²ÑĭÑģÐ»": 2778,
      "ĠÐ²ÑĭÑĪÐµÐ»": 2779,
      "ĠÐŁÐ¾Ð´": 2780,
      "ĠÐŁÐ¾Ð¹Ð´ÐµÐ¼": 2781,
      "ĠÐĿÐµÐ¿": 2782,
      "ĠÐĿÐ¸Ðº": 2783,
      "Ð¸Ð´Ð½Ð¾": 2784,
      "Ð¸Ð´ÐµÑĤ": 2785,
      "ĠÐ¿ÑĢÐ¸Ð½ÐµÑģ": 2786,
      "ĠÐ¶Ð¸Ð»": 2787,
      "ĠÐ¶Ð°Ð»ÑĮ": 2788,
      "ÐµÐ¿ÑĤ": 2789,
      "ĠÐ·Ð°ÑģÑĤ": 2790,
      "Ð¾Ð·ÑĮ": 2791,
      "Ð¾Ð·Ð¼Ð¾Ð¶": 2792,
      "ĠÐŀÑĩ": 2793,
      "ĠÑĢÐ°Ð·Ð´ÐµÐ»": 2794,
      "ĠÑģÐ»ÑĭÑĪÐ¸": 2795,
      "ÐµÐ²Ð¾": 2796,
      "ÐµÐ²ÑĭÐ¹": 2797,
      "ĠÐ¡Ð°Ð¼": 2798,
      "ĠÐ¡Ð¼Ð¾ÑĤÑĢ": 2799,
      "Ð¸Ð½Ð°Ð»": 2800,
      "ÐµÐ»ÑĮÑı": 2801,
      "ÐµÑģÐºÐ°ÑĤÑĮ": 2802,
      "ĠÐĶÐ¾": 2803,
      "ĠÐĶÐ°Ð²": 2804,
      "ĠÐĶÐ°Ð¶Ðµ": 2805,
      "ĠÐĲÑĦÐ°": 2806,
      "ĠÐľÐ°Ð»ÑĮ": 2807,
      "ĠÐľÐ¸Ð»Ð¾ÑģÑĤÐ¸Ð²ÑĭÐ¹": 2808,
      "Ð°Ð¶ÐµÑĤÑģÑı": 2809,
      "ĠÐ¿Ð¾Ð´Ð»Ðµ": 2810,
      "ĠÐ¿Ð¾Ð´Ð²Ð°Ð»": 2811,
      "ĠÐĴÐµÐ´ÑĮ": 2812,
      "Ð°Ð¹ÑģÑı": 2813,
      "ĠÐ¸Ð·ÑĥÑĩ": 2814,
      "ĠÐ¸Ð·Ð¼ÐµÐ½": 2815,
      "Ð¸ÐºÐµ": 2816,
      "ÐµÐ½ÑĮÐºÐ¾Ð¹": 2817,
      "ĠÑĤÐ¾Ñĩ": 2818,
      "ĠÐļÑĤÐ¾": 2819,
      "ĠÐļÑĢÐ¾Ð¼": 2820,
      "ÑĥÐ¶Ð´Ð°Ñİ": 2821,
      "ÑĢÐ°Ð½Ð°": 2822,
      "Ð¾ÑĩÐ¸": 2823,
      "Ð¾ÑĩÐµÐº": 2824,
      "Ð°Ð»ÑĮÐ½ÑĭÐ¹": 2825,
      "ÑĥÑĩÑĪ": 2826,
      "ĠÑģÐ¿Ð°Ñģ": 2827,
      "ĠÑģÐ¿Ð°Ð»Ð°": 2828,
      "ĠÑģÐ¿ÐµÑĪ": 2829,
      "ÑĢÑĭÐ³": 2830,
      "ĠÐ´Ð²Ð¸Ð¶": 2831,
      "ĠÐ¿ÐµÑĢÐµÐ½": 2832,
      "ĠÐ¿ÐµÑĢÐµÐ¿": 2833,
      "Ð¼Ð¸ÑĢ": 2834,
      "ĠÐºÐ¾ÑĤÐ¾ÑĢÐ¾Ðµ": 2835,
      "ĠÑģÐ°Ð¼Ð¾Ð¹": 2836,
      "Ð¸ÑģÐº": 2837,
      "ĠÐ¾Ð´Ð½Ð¾Ñİ": 2838,
      "ĠÐ¾Ð´Ð½Ð°ÐºÐ¾": 2839,
      "ĠÐ³Ð¾ÑĢÐ°Ð·": 2840,
      "ĠÐ²Ð¸Ð´Ð°Ð»": 2841,
      "ĠÐ²Ð¸Ð´Ð½Ð¾": 2842,
      "ĠÐ²Ð¸Ð´ÐµÑĤÑĮ": 2843,
      "ÑģÐºÐ¸Ð¼": 2844,
      "ĠÐ¼ÑĭÑĪ": 2845,
      "ÑĦÐ¸Ð³": 2846,
      "ĠÐ»Ð¸ÑģÑĤ": 2847,
      "ĠÐ»Ð¸Ð±Ð¾": 2848,
      "ĠÑĦÐ°Ð¹Ð»Ð¾Ð²": 2849,
      "ĠÑĦÐ»Ð°Ð³": 2850,
      "ÑĥÐ¼Ð½Ð¾": 2851,
      "ÑĭÐ²Ð°Ð»": 2852,
      "ÑĭÐ²Ð°Ñı": 2853,
      "ÑĭÐ²Ð°Ñİ": 2854,
      "ÑĭÐ²Ð°ÐµÑĪÑĮ": 2855,
      "ÑĢÐ¾Ð²Ð°Ð½Ð½Ð¾Ð³Ð¾": 2856,
      "ĠÐ±ÑĥÐ´ÑĥÑī": 2857,
      "ĠÐ½Ð°Ð´ÐµÐ»Ð°": 2858,
      "Ð°Ð½Ð¸Ð¹": 2859,
      "ÑĥÑĪÐºÐ°": 2860,
      "ÑĥÑĪÑĤÐ¾ÑĦ": 2861,
      "Ð°Ð³Ð¸ÑĢÐ¾Ð²": 2862,
      "ĠÑģÐ¼ÐµÑħ": 2863,
      "ĠÐ²Ð·ÑıÐ»Ð°": 2864,
      "ĠÐ²Ð·Ð´ÑĢ": 2865,
      "ĠÑģÐ²Ð¾Ð¸Ñħ": 2866,
      "ÑĨÐ¸Ñı": 2867,
      "ĠÐ§Ñĥ": 2868,
      "ĠÐ§ÐµÐ»": 2869,
      "ĠÐ´ÑĢÑĥÐ³Ð¸Ð¼": 2870,
      "ĠÐ´ÑĢÑĥÐ³Ð¸Ñħ": 2871,
      "ĠÐĳÐ»Ð°ÑģÑĤÐµÑĢ": 2872,
      "ÑĢÐ¸ÑıÑĤ": 2873,
      "ĠÑģÐ¾Ð¾Ð±ÑĢÐ°Ð¶": 2874,
      "Ð¸ÑĤÐµÐ»ÑĮÐ½ÑĭÐ¹": 2875,
      "Ð¸ÑĤÐµÐ»ÑĮÐ½Ð¾Ð¼": 2876,
      "ĠÐĹÐ°": 2877,
      "ĠÐĹÐ°Ðº": 2878,
      "ĠÐĹÐ°ÑĩÐµÐ¼": 2879,
      "ĠÐĹÐ°ÑħÐ°ÑĢ": 2880,
      "ĠÐ¾ÑģÑĤÐ¾ÑĢ": 2881,
      "ĠÐ¾ÑģÑĥÐ¶Ð´Ð°Ñİ": 2882,
      "Ð¸ÑĢÑĥÑİÑĤÑģÑı": 2883,
      "ĠÐ³Ð¾Ð²Ð¾ÑĢÐ¸Ð»Ð°": 2884,
      "ĠÐŁÐµÑĤÑĢ": 2885,
      "ÑĢÐ¾ÑģÐ¸Ð»": 2886,
      "ĠÐ·Ð½Ð°ÑĤÑĮ": 2887,
      "Ð¸Ð½ÑĥÐ»Ð¸": 2888,
      "ĠÐ²Ð¾Ð·Ð²ÑĢÐ°Ñī": 2889,
      "ĠÐ±ÐµÐ·Ð½Ð°Ð´": 2890,
      "ĠÐ±ÐµÐ·Ð¾Ð¿Ð°Ñģ": 2891,
      "ĠÐºÐ¾Ð½Ñĩ": 2892,
      "ĠÐºÐ¾Ð½ÐµÑĨ": 2893,
      "ĠÐºÐ¾Ð½ÑĨÐµ": 2894,
      "ĠÐ»ÑİÐ±Ð¸Ð¼": 2895,
      "ĠÐ»ÑİÐ±ÑıÑĤ": 2896,
      "ĠÐ¾ÐºÑĢÑĥÐ¶": 2897,
      "ÑĢÐµÐ´ÐºÐ°": 2898,
      "ĠÐ¤ÑĥÑħ": 2899,
      "ĠÐ¿Ð¾Ð¼Ð¾Ð³": 2900,
      "ĠÐ¿Ð¾Ð¼Ð½Ñİ": 2901,
      "ĠÐ¿Ð¾Ð¼Ð¾Ñī": 2902,
      "ĠÐ½Ð¸ÐºÐ¾Ð³Ð¾": 2903,
      "ĠÑĩÐ°ÑģÑĭ": 2904,
      "ĠÑĩÐ°ÑģÐ¾Ð²": 2905,
      "ĠÑĢÑĥÐºÑĥ": 2906,
      "ĠÑĢÑĥÐºÐ°Ñħ": 2907,
      "ĠÐ¸Ð½ÑĤÐµÐ»": 2908,
      "Ð»ÑıÐ´ÑĮ": 2909,
      "ĠÐ¸Ð³ÑĢÐµ": 2910,
      "ĠÐ¸Ð³ÑĢÐ°Ð»": 2911,
      "ĠÐ·Ð°Ð´Ð½Ð¸Ð¹": 2912,
      "ĠÐ·Ð°Ð´Ð½ÐµÐ¼": 2913,
      "ĠÐ·Ð°Ð´Ð°ÑĩÐ°": 2914,
      "Ð½Ð¾Ð²ÑĮ": 2915,
      "ĠÐ½ÐµÐ¼ÐµÑĨ": 2916,
      "ĠÐ³ÐµÐ½ÐµÑĢ": 2917,
      "ĠÐ·Ð°ÐºÑĢÐ¸Ñĩ": 2918,
      "ĠÐ½Ð°ÑĪÐ»Ð¸": 2919,
      "ĠÐķÐ³Ð¾": 2920,
      "ĠÐķÑīÐµ": 2921,
      "ĠÐ¾ÑģÑĤÐ°Ð»ÑĮ": 2922,
      "ĠÐ±Ð»Ð¾Ðº": 2923,
      "ĠÐ±Ð»Ð°Ð³": 2924,
      "Ð¾ÑĢÐ¼Ð¾ÑĤÐ°Ð»": 2925,
      "ĠÐ½ÐµÐºÑĥÐ´Ð°": 2926,
      "ĠÐŁÑĢÐ¾Ñī": 2927,
      "ĠÑĩÑĥÐ²ÑģÑĤÐ²Ð¾": 2928,
      "ĠÐ·Ð°Ð±Ð¾ÑĢ": 2929,
      "ĠÐ³Ð»Ð°Ð·Ð°Ð¼Ð¸": 2930,
      "ĠÐĵÐ´Ðµ": 2931,
      "ĠÐ¸ÑģÐ¿Ð¾Ð»ÑĮÐ·": 2932,
      "ĠÐ¿Ð¾Ð»ÑĥÑĩÐ¸Ð»": 2933,
      "ĠÐ´Ð¾ÑĢÐ¾Ð¶": 2934,
      "ĠÐ¸ÑģÐºÑĥÑģ": 2935,
      "ĠÑĢÑĥÐ±Ð°ÑĪ": 2936,
      "ĠÐ¥Ð¾ÑĢÐ¾ÑĪ": 2937,
      "ÑĩÐ°ÑģÑĤÐ¸": 2938,
      "ÐĿÐ¾": 2939,
      "ÐĿÐ°": 2940,
      "ÑıÑģÐ½": 2941,
      "ĠÐ±ÐµÑģÑĨ": 2942,
      "ĠÑĢÐµÑĪÐ¸Ð»": 2943,
      "ĠÑĢÐ°Ð±Ð¾ÑĤÐ°": 2944,
      "ĠÑģÐºÐ¾ÑĢÐ±Ð¸": 2945,
      "ĠÐ½ÐµÐ´Ð¾Ð²ÐµÑĢ": 2946,
      "ĠÐ´ÑĥÐ¼Ð°Ñı": 2947,
      "ĠÑĥÐ±Ð¸Ð²Ð°ÑĤÑĮ": 2948,
      "ĠÑħÐ¾Ð·ÑıÐ¸Ð½": 2949,
      "ĠÐ³Ð¾ÑģÐ¿Ð¾Ð´Ð¸": 2950,
      "ĠÐ½Ð¾Ð³Ð¸": 2951,
      "ĠÐ½Ð¾Ð³Ð°Ñħ": 2952,
      "ĠÐ½Ð¾ÑĩÐµÐ¹": 2953,
      "ĠÐ³Ð¾Ð»Ð¾Ð²Ðµ": 2954,
      "ĠÐ°Ð½Ð¸Ð¼Ð°ÑĤÑĢÐ¾Ð½Ð¸ÐºÐ°": 2955,
      "ĠÐ½ÐµÐºÐ¾ÑĤÐ¾ÑĢÐ¾Ðµ": 2956,
      "ĠÐ½ÐµÐºÐ¾ÑĤÐ¾ÑĢÑĭÐ¼": 2957,
      "ÐŁÐ¾": 2958,
      "ĠÑģÐ¾Ð·Ð´Ð°Ð²Ð°ÑĤÑĮ": 2959,
      "ĠÑģÐ´ÐµÐ»Ð°Ð»": 2960,
      "ÐµÑĢÐ±Ð»Ð°ÑģÑĤÐµÑĢ": 2961,
      "ĠÐ»ÐµÑģÑĤÐ½Ð¸ÑĨÑĭ": 2962,
      "ĠÐ¶Ð¸Ð²Ñĥ": 2963,
      "ĠÑģÐ»ÑĭÑĪÐ°Ð»Ð°": 2964,
      "ĠÑģÐ»ÑĭÑĪÐ¸ÑĤÐµ": 2965,
      "ĠÐ¿Ð¾ÑģÐ¼Ð¾ÑĤÑĢÐ¸Ð¼": 2966,
      "ĠÑģÐµÐ¼ÐµÐ¹": 2967,
      "ĠÑģÑĤÐ¾ÑıÐ»Ð°": 2968,
      "ĠÐ¿ÑĢÐ¾ÑģÑĤÐ¸ÑĤ": 2969,
      "ÐłÐ°ÑģÐºÐ¾Ð»ÑĮÐ½Ð¸ÐºÐ¾Ð²": 2970,
      "ĠÑĥÐ¿ÑĢÐ°Ð²": 2971,
      "ĠÐºÐ¾ÑĢÐ¾Ð±ÐºÐ°": 2972,
      "ĠÐºÐ¾ÑĢÐ¾Ð±ÐºÑĥ": 2973,
      "ĠÐ²ÑģÑĤÑĢÐµÑĩÐµ": 2974,
      "ĠÑģÐ¸Ð´ÐµÐ»": 2975,
      "ĠÑĤÐµÐºÑģÑĤÐ°": 2976,
      "ĠÐ½Ð°Ð¿Ð¸ÑģÐ°Ð½Ð¾": 2977,
      "ĠÑħÐ¾Ð·ÑıÐ¹ÐºÐ¸": 2978,
      "ĠÑħÐ¾Ð·ÑıÐ¹ÐºÐ¾Ð¹": 2979,
      "ĠÐ¿Ð¾ÑħÐ¾Ð¶Ðµ": 2980,
      "ÑģÐ¸Ð¾Ð½Ð°": 2981,
      "ĠÐ½Ð¾Ð²ÑĭÐ¹": 2982,
      "ĠÑģÑĤÐ¾ÑĢÐ¾Ð½Ñĥ": 2983,
      "ĠÐºÐ¾ÑĦ": 2984,
      "ĠÐ¼Ð°ÑĪÐ¸Ð½Ñĭ": 2985,
      "ĠÐ¼Ð°ÑĪÐ¸Ð½Ðµ": 2986,
      "ĠÐ´Ð¾Ð»Ð³Ð¾": 2987,
      "ĠÑĩÐµÑĤÐ²ÐµÑĢ": 2988,
      "ĠÑĥÐ´Ð¸Ð²": 2989,
      "ĠÐ¿ÑĢÐ¸ÑĪÐµÐ»ÐµÑĨ": 2990,
      "Ð°ÑİÑīÐ¸Ðµ": 2991,
      "ĠÑĤÐ²Ð¾ÐµÐ³Ð¾": 2992,
      "ĠÑĥÐ»ÑĥÑĩÑĪ": 2993,
      "ĠÐ¿Ð¾ÑģÐ»ÐµÐ´Ð½ÐµÐµ": 2994,
      "ĠÐ³Ð¾ÑĢÐ¾Ð´Ðµ": 2995,
      "ĠÑĪÐ°Ð³Ð¾Ð²": 2996,
      "ĠÐ¸ÑģÑĤÐ¾ÑĢÐ¸Ñı": 2997,
      "ĠÐ¸ÑģÑĤÐ¾ÑĢÐ¸Ñİ": 2998,
      "ĠÐ¾Ð±ÑĬÑıÑģÐ½Ð¸ÑĤÑĮ": 2999,
      "Ġto": 3000,
      "Ġthe": 3001,
      "ĠÑģÐ±ÐµÐ¶Ð°Ð»": 3002,
      "ĠÑģÐ¸Ð»ÑĮÐ½ÐµÐµ": 3003,
      "ĠÐ·Ð°ÑĢÐ°Ð±Ð¾ÑĤ": 3004,
      "ĠÐ¿Ð¾ÑģÑĤÐµÐ»ÑĮ": 3005,
      "ĠÐ»ÑİÐ´ÐµÐ¹": 3006,
      "ĠÐ¿Ð¾ÐºÐ°Ð·Ð°Ð»Ð¾ÑģÑĮ": 3007,
      "Ð¸Ð½Ð¸ÑĤÐµ": 3008,
      "ĠÐ²Ð¾Ð´Ñĥ": 3009,
      "ĠÑģÑĩÐ°ÑģÑĤÑĮÑİ": 3010,
      "ĠÐ¾ÑħÑĢÐ°Ð½": 3011,
      "ĠÐºÐ¾Ð´Ð¸ÑĢÐ¾Ð²": 3012,
      "ĠÑĩÐ¸Ð½Ð¾Ð²Ð½Ð¸Ðº": 3013,
      "ĠÑĩÐ¸Ð½Ð¾Ð²Ð½Ð¸ÐºÐ°": 3014,
      "ĠÐµÐ´Ð²Ð°": 3015,
      "ĠÑģÐ²Ð¾ÐµÑİ": 3016,
      "ĠÐŁÐµÑĤÐµÑĢÐ±ÑĥÑĢÐ³Ðµ": 3017,
      "ĠÐ¿ÑĢÐµÐ´Ð»Ð¾Ð¶Ð¸Ð»Ð°": 3018,
      "ĠÐ¼ÑĥÐ¶ÑĩÐ¸Ð½Ð°": 3019,
      "ĠÐ¼ÑĥÐ¶ÑĩÐ¸Ð½Ñĥ": 3020,
      "ÐĲÐĲÐĲÐĲÐĲÐĲÐĲÐĲÐĲÐĲÐĲÐĲÐĲÐĲÐĲÐĲÐĲÐĲÐĲÐĲÐĲÐĲÐĲÐĲÐĲÐĲÐĲÐĲÐĲÐĲÐĲÐĲÐĲÐĲÐĲÐĲÐĲÐĲÐĲÐĲÐĲÐĲÐĲÐĲÐĲÐĲÐĲÐĲÐĲÐĲÐĲÐĲÐĲÐĲÐĲÐĲÐĲÐĲÐĲÐĲÐĲÐĲÐĲÐĲÐĲÐĲÐĲÐĲÐĲÐĲÐĲÐĲÐĲÐĲÐĲÐĲÐĲÐĲÐĲÐĲÐĲÐĲÐĲÐĲÐĲÐĲÐĲÐĲÐĲÐĲÐĲÐĲÐĲÐĲÐĲÐĲÐĲÐĲÐĲÐĲÐĲÐĲÐĲÐĲÐĲÐĲÐĲÐĲÐĲÐĲÐĲÐĲÐĲÐĲÐĲÐĲÐĲÐĲÐĲÐĲÐĲÐĲÐĲÐĲÐĲÐĲÐĲÐĲ": 3021,
      "ion": 3022,
      "ĠStu": 3023,
      "Ġpl": 3024,
      "ĠÐ½Ð°Ð»ÐµÐ²Ð¾": 3025,
      "ĠÐ½ÐµÑĢÐ²": 3026,
      "ĠÑģÐ¾ÑģÑĤÐ°Ð²": 3027,
      "ĠÐ´Ð½ÑıÑħ": 3028,
      "ĠÐ±ÑĢÐ°ÑĤÐ°": 3029,
      "ĠÑģÑĤÑĢÐ°ÑĪÐ½Ð¾": 3030,
      "ĠÑĢÐ°Ð·ÑĢÐ°Ð±Ð¾ÑĤ": 3031,
      "ĠÑģÐºÐ°Ð¶ÐµÑĤ": 3032,
      "ĠÐ²Ð¾ÑģÐºÐ»Ð¸": 3033,
      "Ġand": 3034,
      "ĠÑģÐ»ÑĥÐ¶Ð±Ðµ": 3035,
      "ĠÑģÐ¿Ð¾ÑģÐ¾Ð±ÑģÑĤÐ²Ð¾Ð²Ð°Ð»Ð°": 3036,
      "ation": 3037,
      "ÐŃÑĤÐ¾": 3038,
      "ÑĥÐ»ÑĮÑĤ": 3039,
      "ÑıÐ»Ð¸ÑģÑĮ": 3040,
      "ĠÐ²Ð°Ð¶Ð½Ð¾": 3041,
      "ĠÐºÐ¾ÑģÐ½Ð¾ÑıÐ·ÑĭÑĩ": 3042,
      "ĠÐ¼Ð¾Ð»Ð¾Ð´Ð¾Ð³Ð¾": 3043,
      "ĠÐ´Ð¾ÑģÑĤÐ¾Ð¸Ð½": 3044,
      "ĠÐ»ÐµÐ³ÐºÐ¾Ð¼": 3045,
      "ĠÐ¡Ð¿Ð¾ÐºÐ¾Ð¹": 3046,
      "ĠÐºÑĢÐ¾Ð²ÑĮ": 3047,
      "ĠÐ½Ð°Ð´ÐµÐ¶Ð´Ð°": 3048,
      "ĠÐłÐ°Ð·Ð²": 3049,
      "ĠÐ¿ÑĢÐ¾Ð¸Ð·Ð¾ÑĪÐ»Ð¾": 3050,
      "ĠÐ¿Ð»Ð°ÑĤÑĦÐ¾ÑĢÐ¼": 3051,
      "ĠÑĩÐ¸ÑģÑĤÐ¾ÑĤÐ°": 3052,
      "ĠÑģÐ¸ÑģÑĤÐµÐ¼Ð°": 3053,
      "ĠÐºÑĢÑĭÑģÐ¸ÑĤÑĮ": 3054,
      "ĠÐ¿ÑĢÐµÐºÑĢÐ°ÑģÐ½Ð¾": 3055,
      "ĠÐ²ÑĢÐ°Ð³": 3056,
      "ĠÐºÐ°ÑĢÐ¼Ð°Ð½": 3057,
      "ĠÐ¿ÑĢÐ¾Ð½Ð·Ð¸ÑĤÐµÐ»ÑĮÐ½ÑĭÐµ": 3058,
      "Ð¾Ð½Ð°ÑĢÐ¸Ðº": 3059,
      "ĠÑħÐ°ÑĢÐ°ÐºÑĤÐµÑĢ": 3060,
      "ĠÐ²ÑĭÑĢÐ°Ð·Ð¸Ð»ÑģÑı": 3061,
      "ĠÐŁÐ¾ÑģÐ»Ðµ": 3062,
      "ĠÐºÑĢÐ¸ÐºÐ½ÑĥÐ»": 3063,
      "ĠÑĤÑĢÑĥÐ´Ð½Ð¾": 3064,
      "ĠÑģÐ¾Ð²ÐµÑĢÑĪÐµÐ½Ð½Ð¾": 3065,
      "ĠÐ²Ð¾Ð»Ð½ÐµÐ½Ð¸Ð¸": 3066,
      "ĠÐ±ÑĥÑĤÑĭÐ»ÐºÑĥ": 3067,
      "ĠÐ¿Ð°ÑģÑħÐ°Ð»": 3068,
      "ĠÐ²Ð°Ð½Ð½Ð¾Ð¹": 3069,
      "ĠÐºÐ°Ð·Ð°Ð»Ð¾ÑģÑĮ": 3070,
      "ĠÐ´Ð°Ð¼Ð°": 3071,
      "ĠÐ´ÐµÑĤÑĮÐ¼Ð¸": 3072,
      "ÑĥÐ·ÑĭÐºÐ°": 3073,
      "ĠÐ¾ÑĤÑĤÑĥÐ´Ð°": 3074,
      "ĠÐŁÑĢÐ¾ÑģÑĤÐ¾": 3075,
      "ĠÐºÑĢÐ°Ð¹Ð½ÐµÐ¹": 3076,
      "ĠÐºÐ¾Ð¼Ð¿Ð°Ð½Ð¸": 3077,
      "ĠÐ½Ð°Ð¿ÑĢÑıÐ¶": 3078,
      "ĠÐ²Ð¾Ð·ÑĢÐ°ÑģÑĤ": 3079,
      "ĠÑģÐ¾Ð²ÐµÑĤÐ½Ð¸Ðº": 3080,
      "ĠÐ¿Ð»Ð°ÑĤÑĮÐµ": 3081,
      "ĠÐ¸ÑģÐºÐ»ÑİÑĩÐ¸ÑĤÐµÐ»ÑĮÐ½Ð¾": 3082,
      "ĠÐ¿ÑĢÐµÐ²Ð¾ÑģÑħÐ¾Ð´Ð¸ÑĤÐµÐ»ÑĮ": 3083,
      "Ġcreate": 3084,
      "ĠÐ¾ÑīÑĥÑīÐµÐ½Ð¸Ðµ": 3085,
      "ĠÑĤÐ¾Ð²Ð°ÑĢÐ¸Ñī": 3086,
      "ĠÐ½ÐµÐ¾Ð¶Ð¸Ð´Ð°Ð½": 3087,
      "ĠÐ¿ÐµÐ½ÑģÐ¸Ð¾Ð½Ð°": 3088,
      "ĠÐ²Ð½Ð¸Ð·": 3089,
      "ĠÐ²ÐµÐ½ÑĤÐ¸Ð»Ñı": 3090,
      "ĠÑģÐ¾Ð´ÐµÑĢÐ¶": 3091,
      "ĠÑģÑģÐ¾ÑĢÐµ": 3092,
      "ÐºÑĢÑĭÑĤÑĮ": 3093,
      "ĠÑĤÑĢÑĥÐ¿Ñĭ": 3094,
      "ĠÐ´ÐµÑģÑıÑĤÑĮ": 3095,
      "ĠÐ½Ð°ÑĥÑĪÐ½Ð¸ÐºÐ¸": 3096,
      "ĠÑĥÐ½Ð¸ÑĩÑĤÐ¾Ð¶": 3097,
      "ĠÑįÐ½ÐµÑĢÐ³": 3098,
      "ĠÐ¾ÑĤÐºÑĥÐ´Ð°": 3099,
      "ĠÐ¾ÑĤÑĢÐµÐ°Ð³Ð¸ÑĢÐ¾Ð²": 3100,
      "ĠÐ¾ÑĤÑĩÐ°ÑıÐ½Ð¸Ð¸": 3101,
      "Ð¾Ð·Ð¼Ð¾Ð¶Ð½Ð¾": 3102,
      "ĠÑģÐ»ÑĭÑĪÐ¸ÑĪÑĮ": 3103,
      "ĠÐĲÑĦÐ°Ð½Ð°": 3104,
      "ĠÐļÑĢÐ¾Ð¼Ðµ": 3105,
      "ĠÐ³Ð¾ÑĢÐ°Ð·Ð´Ð¾": 3106,
      "ĠÐĹÐ°ÑħÐ°ÑĢÑĭÑĩ": 3107,
      "ĠÐ±ÐµÐ·Ð½Ð°Ð´ÐµÐ¶": 3108,
      "ĠÐ±ÐµÐ·Ð¾Ð¿Ð°ÑģÐ½Ð¾ÑģÑĤÐ¸": 3109,
      "ĠÐ¸Ð½ÑĤÐµÐ»Ð»ÐµÐºÑĤ": 3110,
      "ĠStudio": 3111,
      "\".": 3112,
      "57": 3113,
      "?..": 3114,
      "Lua": 3115,
      "de": 3116,
      "le": 3117,
      "llo": 3118,
      "ta": 3119,
      "th": 3120,
      "ver": 3121,
      "xc": 3122,
      "ys": 3123,
      "Ð¥": 3124,
      "Ðĵ": 3125,
      "ÐĹ": 3126,
      "Ġ.": 3127,
      "Ġ5": 3128,
      "Ġs": 3129,
      "Ġin": 3130,
      "Ġen": 3131,
      "ĠLua": 3132,
      "ĠÐ¨": 3133,
      "ĠÐģ": 3134,
      "Ð¾Ñı": 3135,
      "Ð¾ÑĤÐ¾": 3136,
      "Ð¾ÐµÐ²": 3137,
      "ÐµÑı": 3138,
      "Ð°Ð½Ñĭ": 3139,
      "Ð°Ñī": 3140,
      "ÑĤÑı": 3141,
      "ÑĤÑģÑı": 3142,
      "ÑĤÑĢÐ°": 3143,
      "ÑĤÐ°Ð±": 3144,
      "ÑĤÐ°Ñħ": 3145,
      "ÑĤÑĢÑĥÐ¿": 3146,
      "Ð¸ÑīÐµ": 3147,
      "Ð¸Ð½ÑĥÐ»ÑģÑı": 3148,
      "Ð¸ÑģÑıÑĤ": 3149,
      "ÑģÐµ": 3150,
      "ÑģÑĭ": 3151,
      "ÑģÐ¸ÑĤ": 3152,
      "ÑģÑĥÑĤ": 3153,
      "ÑģÐ¸Ñı": 3154,
      "ÑģÐºÐ¸Ñħ": 3155,
      "ÑģÐºÑĥÑİ": 3156,
      "Ð½Ð°Ð²": 3157,
      "Ð½ÐµÐ½ÑĮ": 3158,
      "Ð½Ð¾Ð¿": 3159,
      "Ð½Ð½Ð¾Ð³Ð¾": 3160,
      "Ð½Ð½ÑĭÐµ": 3161,
      "Ð½ÑıÑĤÑĮ": 3162,
      "Ð½Ð°Ð¿ÑĢÐ¸Ð¼ÐµÑĢ": 3163,
      "Ð½ÐµÐ»Ð¸ÑģÑĮ": 3164,
      "ÑĢÐ¸ÑĤ": 3165,
      "ÑĢÐºÐ¸": 3166,
      "ÑĢÐ½ÑĭÐµ": 3167,
      "ÑĢÐ°Ð±Ð¾ÑĤ": 3168,
      "ÑĢÐµÐ½Ð°": 3169,
      "Ð»ÑģÑı": 3170,
      "Ð»Ð°ÑĤÑĮ": 3171,
      "Ð»Ð°Ð²": 3172,
      "Ð»Ð¾Ð³Ð¾": 3173,
      "Ð»ÐµÐº": 3174,
      "Ð»ÐºÐ¸": 3175,
      "Ð»ÑĥÐ±": 3176,
      "Ð»ÐµÐ½Ð½Ð¾": 3177,
      "Ð»ÑĥÑħ": 3178,
      "Ð»ÐµÑĨ": 3179,
      "ÑĥÑĥ": 3180,
      "ÑĥÐ²": 3181,
      "ÑĥÐµÐ¼": 3182,
      "ÑĥÐ»Ð°": 3183,
      "ÑĥÐ°ÑĨÐ¸": 3184,
      "ÑıÐ½": 3185,
      "ÑĮÐ¼Ð¸": 3186,
      "ÑĭÐ³": 3187,
      "ĠÐ¿Ð°Ð»": 3188,
      "ĠÐ¿ÐµÑĤ": 3189,
      "ĠÐ¿ÑĤÐ¸": 3190,
      "ĠÐ¿Ð¸ÑĤ": 3191,
      "ĠÐ¿Ð°Ð¿": 3192,
      "ĠÐ¿ÑĥÑĤ": 3193,
      "ĠÐ¿Ð¾Ð²Ð¾ÑĢ": 3194,
      "ĠÐ¿Ð¸ÑĨ": 3195,
      "ĠÐ¿ÑĥÐ³": 3196,
      "ĠÐ¿Ð¾Ð»ÑĮÐ·": 3197,
      "ĠÐ¿ÑıÑĤÐ¸": 3198,
      "ĠÐ½ÐµÐ½": 3199,
      "ĠÐ½Ð°Ð¼Ð¸": 3200,
      "ĠÐ½Ð¸Ð·": 3201,
      "ĠÐ²Ð°Ð»": 3202,
      "ĠÐ²Ð¾Ð¹": 3203,
      "ĠÐ²Ð¾Ð½": 3204,
      "ĠÐ²Ð»Ð¸": 3205,
      "ĠÐ²Ð½Ñĥ": 3206,
      "ĠÐ²Ð¸Ð·": 3207,
      "ĠÐ²ÐºÑĥÑģ": 3208,
      "ĠÐ²Ð°Ñĥ": 3209,
      "ĠÐ²Ð½Ð¾Ð²ÑĮ": 3210,
      "ĠÐ²Ð¸Ð½Ð¸ÑĤÐµ": 3211,
      "ÑĩÐ¸ÐºÐ°": 3212,
      "ĠÑģÐ´": 3213,
      "ĠÑģÐµÐ»": 3214,
      "ĠÑģÐ·": 3215,
      "ĠÑģÑĨ": 3216,
      "ĠÑģÑĤÐ¸": 3217,
      "ĠÑģÐ°Ð´": 3218,
      "ĠÑģÐ¶": 3219,
      "ĠÑģÑĥÑĤ": 3220,
      "ĠÑģÑĥÑħ": 3221,
      "ĠÑģÐµÐ¼Ñĥ": 3222,
      "ĠÑģÐ¸Ð¶Ñĥ": 3223,
      "ĠÑģÑĢÐ¾Ðº": 3224,
      "ĠÑģÐ¼Ð¸ÑĢ": 3225,
      "ÐºÐ°Ð»": 3226,
      "ÐºÐ°Ðº": 3227,
      "ÐºÐ¾Ð³": 3228,
      "Ð´Ð½Ð¾": 3229,
      "ĠÐ¸Ð½ÑĭÐµ": 3230,
      "ĠÐ¸Ð´Ñĥ": 3231,
      "Ð²Ð¸": 3232,
      "Ð²ÐµÑĢÑĮ": 3233,
      "Ð²Ð¸Ð¶": 3234,
      "ĠÐ¾ÑĢ": 3235,
      "ĠÐ¾Ð²": 3236,
      "ĠÐ¾Ð¼": 3237,
      "ĠÐ¾Ð½Ð¾": 3238,
      "ĠÐ¾Ð·": 3239,
      "ĠÐ¾Ð¶": 3240,
      "ĠÐ¾ÐºÑĥ": 3241,
      "ĠÐ¾ÑħÐ²Ð°ÑĤ": 3242,
      "ĠÐºÐ¸Ð»": 3243,
      "ĠÐºÐ¾ÑĤ": 3244,
      "ĠÐºÐ°Ñģ": 3245,
      "ĠÐºÐ¸Ð´": 3246,
      "ĠÐºÐ¸ÑĢ": 3247,
      "ĠÐºÐ°ÑĪ": 3248,
      "ĠÐºÑĢÑĥÐ¿": 3249,
      "ĠÐºÐ½Ð¾Ð¿": 3250,
      "ÑħÐ¾Ð¶": 3251,
      "ÑħÑĢÐµÐ½": 3252,
      "Ð¼ÐµÑĤ": 3253,
      "Ð¼Ð¾Ñģ": 3254,
      "Ð¼Ð¾Ð½": 3255,
      "Ð¼ÐµÐ½ÑĤ": 3256,
      "ĠÑĤÐ¾Ð¹": 3257,
      "ĠÑĤÐ¸Ñħ": 3258,
      "ĠÑĤÑĥÐ¿": 3259,
      "ĠÐ¼Ñı": 3260,
      "ĠÐ¼Ð¾Ðµ": 3261,
      "ĠÐ¼Ð°Ð»Ð¾": 3262,
      "ĠÐ¼Ð°ÑĪ": 3263,
      "ĠÐ¼Ð½Ð¾Ñİ": 3264,
      "ĠÐ¼ÐµÑģÑĤÐµ": 3265,
      "ĠÐ¼Ð¸Ð½Ð¸": 3266,
      "ĠÐ¼ÐµÐ±ÐµÐ»ÑĮ": 3267,
      "ĠÐ´ÐµÐ±": 3268,
      "ĠÐ´Ð°Ð¹": 3269,
      "ĠÐ´ÑĥÑħ": 3270,
      "ĠÐ´Ð»Ð¸Ð½": 3271,
      "ĠÐ´ÑĢÑĥÐ¶": 3272,
      "ĠÐ´ÐµÑģÐºÐ°ÑĤÑĮ": 3273,
      "ÑĪÐµÐ¼": 3274,
      "ÐµÐ½ÐµÐ¼": 3275,
      "ÐµÐ½ÑĭÐ¹": 3276,
      "ÐµÐ½ÐºÐ¾Ð¼": 3277,
      "ĠÐ±ÐµÐ»": 3278,
      "ĠÐ±ÑĥÑħ": 3279,
      "ĠÐ±Ð¾Ð¶Ðµ": 3280,
      "ĠÐ±Ð»ÑıÑĤÑĮ": 3281,
      "ĠÐ±Ð»Ð¸Ð·": 3282,
      "ĠÐ±Ð»ÑıÐ´ÑĮ": 3283,
      "ĠÐ±Ð¾ÑĢÐ¼Ð¾ÑĤÐ°Ð»": 3284,
      "ÑİÐ¼": 3285,
      "ĠÑĩÑĳ": 3286,
      "ĠÑĩÑĥÑĤ": 3287,
      "Ð¾Ð²Ð¾": 3288,
      "Ð¾Ð²Ð¾Ð³Ð¾": 3289,
      "Ð¾Ð²Ð°Ð½Ð¸Ñı": 3290,
      "ÐµÑĢÐµÐ¼": 3291,
      "ÐµÑĢÐ½Ð°": 3292,
      "ÐµÑĢÐ½Ð¾Ðµ": 3293,
      "ÐµÑĢÑĭÐ²": 3294,
      "Ð¾Ð»Ð¾Ñģ": 3295,
      "ÐµÐ»ÑıÑĤÑĮ": 3296,
      "ÐµÐ»ÑıÐ¼Ð¸": 3297,
      "Ð½Ð¾Ñĩ": 3298,
      "Ð¾Ð¼ÐµÑĢ": 3299,
      "Ð¾Ð¼ÐµÑĤ": 3300,
      "Ð¾Ð¼Ð½Ð¸": 3301,
      "Ð°ÐºÑĤÐ¸": 3302,
      "ĠÐ¿ÑĢÐµÐ¼": 3303,
      "ĠÐ¿ÑĢÐ¸Ð¼ÐµÑĤ": 3304,
      "ĠÐ¿ÑĢÑĭÐ³": 3305,
      "ÐµÑĤÐ°": 3306,
      "ĠÐ½ÐµÑĩÐ°Ñı": 3307,
      "ĠÐ·Ð½Ð°Ñı": 3308,
      "ĠÐ·ÑĥÐ±": 3309,
      "ĠÐ·Ð°Ð¹ÑĤÐ¸": 3310,
      "Ð¾Ð´Ñĥ": 3311,
      "Ð¾Ð´Ð½Ð¾": 3312,
      "Ð½Ð¸Ð²": 3313,
      "Ð½Ð¸ÐºÑĥ": 3314,
      "Ð½Ð¸Ð²ÐµÑĢ": 3315,
      "Ð½Ð¸ÐºÐ°Ñħ": 3316,
      "ĠÐ½Ð°ÑĢ": 3317,
      "ĠÐ½Ð°ÑĪÐµ": 3318,
      "ĠÐ½Ð°ÑĢÐ¾Ð´": 3319,
      "ĠÐ½Ð°ÑģÑĤÐ°": 3320,
      "Ð¿Ðµ": 3321,
      "Ð¿Ð°Ð´": 3322,
      "Ð¾ÑĢÑıÐ´": 3323,
      "Ð±Ð°": 3324,
      "Ð±Ð»": 3325,
      "Ð±Ñĭ": 3326,
      "Ð±Ð°Ð½": 3327,
      "ĠÑĢÑĭ": 3328,
      "ĠÑĢÐ°Ð¹": 3329,
      "ĠÑĢÐ¾ÑģÑĤ": 3330,
      "ĠÑĢÐ¾Ð²Ð½Ð¾": 3331,
      "Ð¾ÑģÐ»ÐµÐ´": 3332,
      "Ð·ÐµÐ»ÑĮ": 3333,
      "ĠÐµÐ»": 3334,
      "ĠÐµÑħ": 3335,
      "Ð¾ÑĤÑĥ": 3336,
      "Ð¾ÑĤÐ¾Ð¼Ñĥ": 3337,
      "Ð¾ÑĤÐ²ÐµÑĤ": 3338,
      "Ð°Ð·Ð¸Ð½": 3339,
      "ÑĨÐ¾Ð¼": 3340,
      "ÑĨÐµÑģÑģ": 3341,
      "Ð´Ð°ÑĢ": 3342,
      "Ð´Ð°Ñı": 3343,
      "Ð¾Ð±Ð»Ð¾ÐºÑģ": 3344,
      "ÑĤÐ¸ÐºÐ°": 3345,
      "ĠÑĥÑĢÐ¾Ðº": 3346,
      "ĠÑĥÐºÐ»Ð°Ð´": 3347,
      "ĠÑĥÑģÑĤÐ°Ð»": 3348,
      "ĠÑĥÐ½Ð¸Ð²ÐµÑĢ": 3349,
      "Ð¾Ð½ÑıÑĤÐ½Ð¾": 3350,
      "Ð¾Ð½ÐµÑĩÐ½Ð¾": 3351,
      "Ð°Ð²Ð»Ñı": 3352,
      "Ð°Ð²ÐµÑģ": 3353,
      "Ð°Ð²ÑĪÐ¸Ð¹": 3354,
      "Ð°Ð²ÑĪÐ¸Ðµ": 3355,
      "Ð°Ð²ÐµÑĢÐ½Ð¾Ðµ": 3356,
      "Ð¾Ð³Ð°": 3357,
      "Ð¾Ð³Ð¸Ñĩ": 3358,
      "Ð¾Ð³Ð½Ð°Ð»Ð¸": 3359,
      "ÐµÐ´ÐµÑĤ": 3360,
      "ÐµÐ´Ð°Ð¼": 3361,
      "ÐµÐ´ÐµÐ½Ð¸Ñı": 3362,
      "Ð³Ð»Ð°Ð³": 3363,
      "ĠÐ»Ð°Ñģ": 3364,
      "ĠÐ»Ð°Ð·ÐµÑĢ": 3365,
      "Ð°Ð´Ð¾Ð»Ð³Ð¾": 3366,
      "Ð°Ð´ÐµÐ´Ð°Ð¼": 3367,
      "ĠÐ²ÑģÐºÑĢ": 3368,
      "ĠÐ²ÑģÐ»ÑĥÑħ": 3369,
      "ĠÐ¿Ð¾ÑħÐ¾Ð´": 3370,
      "ĠÐ¿Ð¾ÐµÐ·Ð´": 3371,
      "ĠÐ¿Ð¾ÑīÐ°Ð´": 3372,
      "Ð°Ð½ÐµÐµ": 3373,
      "Ð°Ð½ÑĮÐµ": 3374,
      "Ð°Ð½Ð°Ð²Ð»Ð¸Ð²": 3375,
      "Ð°ÑĢÑı": 3376,
      "Ð°ÑĢÐºÐ°": 3377,
      "ĠÐ¾ÑĤÐ´": 3378,
      "ĠÐ¾ÑĤÑĨÐ°": 3379,
      "ĠÐ¾ÑĤÐ»Ð¸Ñĩ": 3380,
      "Ð¸Ð²ÐµÑĤ": 3381,
      "Ð¸Ð²Ð°Ð»Ð°ÑģÑĮ": 3382,
      "Ð¸Ð²Ð°ÑİÑĤ": 3383,
      "ÑĤÐ¾ÑĢÐµ": 3384,
      "ĠÐ°Ð±": 3385,
      "ÐµÐºÑģÑĤ": 3386,
      "ÐµÐºÐ»Ñı": 3387,
      "Ð¾ÐºÐ¾": 3388,
      "Ð¾ÐºÑģÐ¸": 3389,
      "ĠÑģÑĤÐ¾Ð¿": 3390,
      "ĠÑģÑĤÐµÐ½Ñĭ": 3391,
      "ĠÑĤÐ°ÐºÐ¸Ð¼": 3392,
      "Ð»Ð°ÑĤ": 3393,
      "ĠÑħÐµÑĢ": 3394,
      "ĠÑħÐ¸Ñħ": 3395,
      "ÐµÐ·Ð»Ð¸": 3396,
      "ĠÐ¾Ð±Ð¾Ð´": 3397,
      "ĠÐ¾Ð±Ð¾Ñģ": 3398,
      "ĠÐ¾Ð±Ñī": 3399,
      "ĠÐ¾Ð±ÐµÐ´": 3400,
      "ĠÐ¾Ð±Ð¾Ð·": 3401,
      "ĠÐ¾Ð±Ð½Ð¸Ð¼": 3402,
      "ĠÐ¾Ð±Ð¼ÐµÐ½": 3403,
      "ĠÐ¾Ð±Ð¾Ð¹ÑĤÐ¸": 3404,
      "ĠÐ²ÑĭÐº": 3405,
      "ĠÐ²ÑĭÐ´": 3406,
      "ĠÐ²ÑĭÐ²": 3407,
      "ĠÐ²ÑĭÑĪ": 3408,
      "ĠÐ²ÑĭÐ³": 3409,
      "ĠÐ²ÑĭÑĪÐµ": 3410,
      "ĠÐ²ÑĭÐ¸Ð³": 3411,
      "ĠÐ²ÑĭÐºÐ»ÑİÑĩ": 3412,
      "ĠÐ²ÑĭÑĢÐ°Ð¶": 3413,
      "ĠÐ²ÑĭÑģÑĤÑĥÐ¿": 3414,
      "ĠÐ²ÑĭÐ»ÐµÐ·": 3415,
      "ĠÐŁÐ¾Ñĩ": 3416,
      "ĠÐŁÑıÑĤ": 3417,
      "ĠÐŁÑĢÐµÐ´": 3418,
      "ĠÐŁÐ¾Ð¶Ð°Ð»": 3419,
      "ĠÐŁÐµÑĢÐµÐ´": 3420,
      "ĠÐŁÑĥÑģÑĤÑĮ": 3421,
      "ĠÐŁÐ¾Ð·Ð²": 3422,
      "ĠÐŁÐ¾Ð³Ð½Ð°Ð»Ð¸": 3423,
      "ÑĥÐ´ÑĢÑĭ": 3424,
      "Ð°ÑĤÐµ": 3425,
      "Ð°ÑĤÐµÐ¼": 3426,
      "ÑģÑĤÐ²Ñĥ": 3427,
      "ÑģÑĤÐ²Ð¸Ð¹": 3428,
      "ÑģÑĤÐ²Ð¸Ð¸": 3429,
      "ĠÐĿÐ°Ð´": 3430,
      "ĠÐĿÐ°Ð¶": 3431,
      "ĠÐĿÐ°Ð¿ÑĢÐ¸Ð¼ÐµÑĢ": 3432,
      "ĠÐ¿ÑĢÐ¸ÐµÐ¼": 3433,
      "ĠÐ¿ÑĢÐ¸Ð½Ð¸Ð¼": 3434,
      "ĠÐ¿ÑĢÐ¸ÐµÑħ": 3435,
      "ĠÐ¿ÑĢÐ¸ÐºÐ¾Ð»ÑĮ": 3436,
      "ĠÐ¿ÑĢÐ¸ÐºÐ°Ð·": 3437,
      "ĠÐ¶Ð°Ð¶": 3438,
      "ĠÐ¶Ð´Ð°ÑĤÑĮ": 3439,
      "ÐµÐ¿ÐµÐ½Ð½Ð¾": 3440,
      "ĠÐ·Ð°ÑīÐ¸": 3441,
      "Ð¾Ð·ÑĢ": 3442,
      "Ð¾Ð·ÑıÐ¸Ð½": 3443,
      "Ð¶Ñĥ": 3444,
      "ĠÐŀÑħÑĢÐµÐ½": 3445,
      "Ð»ÑıÑİ": 3446,
      "Ð»ÑıÑħÐ°": 3447,
      "ĠÑĢÐ°Ð·Ð¼": 3448,
      "ĠÑĢÐ°Ð·Ð½ÑĭÐµ": 3449,
      "ĠÑģÐ»Ð¾Ð¶": 3450,
      "ĠÑģÐ»ÐµÐ³": 3451,
      "ĠÐĺÐ»Ð¸": 3452,
      "ÐµÐ²Ð°ÑĤÑĮ": 3453,
      "ÐµÐ²ÑĪÐ¸Ð¹": 3454,
      "ĠÐ¡Ð¾": 3455,
      "ĠÐ¡ÑİÐ´Ð°": 3456,
      "ĠÐ¡ÐºÐ°Ð·": 3457,
      "ĠÐ¡ÐµÐ¼ÐµÐ½": 3458,
      "ĠÐ¡Ð¾ÑĤÑĢÑĥÐ´": 3459,
      "Ð¸Ð½Ð¾Ð¹": 3460,
      "Ð¸Ð½ÐºÑĥ": 3461,
      "ĠÐ¶ÐµÑģÑĤ": 3462,
      "ÑĳÐ»": 3463,
      "Ð³Ð¾ÑĤÐ¾Ð²": 3464,
      "ĠÐ¢ÑĢ": 3465,
      "ĠÐ¢ÐµÐ¼": 3466,
      "ĠÐ¢Ð¸ÑħÐ¾": 3467,
      "ĠÐ¢ÐµÐ±Ðµ": 3468,
      "ĠÐĶÐ°ÑĢ": 3469,
      "ĠÐĶÐ»Ñı": 3470,
      "ĠÐĶÐ²ÐµÑĢÑĮ": 3471,
      "ĠÐĲÐ°Ð°": 3472,
      "ĠÐľÐ¾Ð¹": 3473,
      "ĠÐľÐ¾Ð¶ÐµÑĤ": 3474,
      "Ð°Ð¶Ð´ÐµÐ½Ð¸Ðµ": 3475,
      "ĠÐ¿Ð¾Ð´Ð¿": 3476,
      "ĠÐ¿Ð¾Ð´Ð¾ÑĪ": 3477,
      "ĠÐ¿Ð¾Ð´Ð½Ð¸Ð¼": 3478,
      "ĠÐ¿Ð¾Ð´ÑĬ": 3479,
      "ĠÐ¿Ð¾Ð´Ð½ÑıÐ»": 3480,
      "ĠÐ¿Ð¾Ð´Ð»ÐµÑĨ": 3481,
      "ĠÐ¿Ð¾Ð´Ð¾Ð·ÑĢ": 3482,
      "ĠÐĴÐ¾": 3483,
      "ĠÐ¸Ð·Ð±": 3484,
      "ĠÐ¸Ð·ÑĬ": 3485,
      "ĠÐ¸Ð·ÑĢÐµÐ´ÐºÐ°": 3486,
      "Ð¸ÐºÐ¾Ð¹": 3487,
      "ĠÐļÐ²ÐµÑģÑĤ": 3488,
      "ĠÐļÑģÑĤÐ°ÑĤÐ¸": 3489,
      "ĠÐļÐ¾Ð½ÐµÑĩÐ½Ð¾": 3490,
      "ÐµÑĩÐµÑģ": 3491,
      "ÑĥÐ¶Ð´": 3492,
      "ÑĢÐ°ÑĦ": 3493,
      "Ð¾ÑĩÑĮ": 3494,
      "Ð¾ÑĩÐºÐ¾Ð¹": 3495,
      "Ð¾Ð¿Ð¾Ð»": 3496,
      "ĠÑģÐ²ÐµÑĢÑħ": 3497,
      "Ð°Ð»ÑĮÐ½Ð¾Ð³Ð¾": 3498,
      "ĠÑģÐ¿ÑĢÐ°ÑĪ": 3499,
      "Ð´ÐµÑĤÑĮ": 3500,
      "Ð´ÐµÑĨ": 3501,
      "Ð´ÐµÑģÑıÑĤ": 3502,
      "ÑĢÑĭÐ²Ð°Ð»": 3503,
      "ĠÐ¿Ð¾Ð»Ñĥ": 3504,
      "ĠÐ¿Ð¾Ð»Ð¾Ð²": 3505,
      "ĠÐ¿Ð¾Ð»ÑĤÐ¾ÑĢÐ°": 3506,
      "ĠÐ¿Ð¾Ð»ÑĥÑĪÑĤÐ¾ÑĦ": 3507,
      "ĠÐ¿ÐµÑĢÐµ": 3508,
      "Ð¾ÑĪÑĥ": 3509,
      "ĠÑģÐºÐ¾Ð²Ð¾ÑĢ": 3510,
      "ÑħÐ¾Ð´Ð½Ð°Ñı": 3511,
      "ĠÑģÐ°Ð¼Ð¾Ð³Ð¾": 3512,
      "ĠÑģÐ°Ð¼Ð¾Ð¼Ñĥ": 3513,
      "ĠÑģÐ°Ð¼ÑĭÐ¹": 3514,
      "ĠÐ¿Ð¾ÑģÐ°Ð´": 3515,
      "ĠÐ¿Ð¾ÑģÑĢÐµÐ´": 3516,
      "ĠÐ¿Ð¾ÑģÐ»ÑĥÑĪ": 3517,
      "ĠÐºÑĢÐ¸Ð¿": 3518,
      "ĠÐºÑĢÐ¾Ð²Ð°ÑĤÑĮ": 3519,
      "ÑĥÐ´Ð°ÑĢ": 3520,
      "ÐµÐ¶Ð½ÐµÐ¼Ñĥ": 3521,
      "ĠÐ¾Ð´ÑĥÐ¼Ð°Ð»ÑģÑı": 3522,
      "ĠÐ³Ð¾ÑĢÑı": 3523,
      "ĠÐ²Ð¸Ð´Ð¾Ð¼": 3524,
      "ĠÐ²Ð¸Ð´ÐµÐ»Ð¸": 3525,
      "ĠÐ¼ÑĭÑģÐ»Ð¸": 3526,
      "ÑĪÐµÑİ": 3527,
      "ÑĪÐ¸Ð±": 3528,
      "ÐµÐ»Ð¾Ð²ÐµÐº": 3529,
      "ĠÐ»Ð¸ÑĨÐµ": 3530,
      "ĠÐ»Ð¸ÑĨÐ°": 3531,
      "ÐµÐ³Ðµ": 3532,
      "ÑĭÐ²Ð°Ð»Ð¸": 3533,
      "ÑĭÐ²Ð°ÐµÑĤ": 3534,
      "ÑĭÐ²Ð°Ð»Ð°ÑģÑĮ": 3535,
      "ÑĢÐ¾Ð²Ð°Ð½Ð¸Ñı": 3536,
      "ĠÐ±ÑĥÐ´ÑĥÑĤ": 3537,
      "ĠÐ±ÑĥÐ´ÐµÑĪÑĮ": 3538,
      "ÑĥÑĪÐ¾Ð½ÐºÐ°": 3539,
      "âĢľ": 3540,
      "ĠÑģÐ¼Ñĭ": 3541,
      "ĠÑģÐ¼Ð°Ð·": 3542,
      "ĠÑģÐ¼ÐµÑģÑĮ": 3543,
      "ĠÐ¿ÑĢÐ¾ÑħÐ¾Ð´Ð¸ÑĤÑĮ": 3544,
      "ĠâĢŀ": 3545,
      "ĠÐ¾ÑĩÐµÐ²": 3546,
      "ĠÑĩÐµÐ»Ð¾Ð²ÐµÐºÑĥ": 3547,
      "ĠÐ²Ð·Ð²Ð¾Ð»": 3548,
      "ĠÐºÐ¾Ð¼Ð¾Ð´": 3549,
      "ĠÐ¼Ð¾Ð³Ð»Ð¸": 3550,
      "ĠÐ¼Ð¾Ð³ÑĥÑĤ": 3551,
      "ĠÐ´Ð¾ÑħÐ¾Ð´": 3552,
      "ĠÑģÐ²Ð¾Ð¸Ð¼": 3553,
      "ĠÑĪÐ»Ñı": 3554,
      "ĠÑĪÑĥÑĤ": 3555,
      "ĠÑĪÐµÑģÑĤÑĮ": 3556,
      "ĠÑĪÐµÐ¿ÑĤ": 3557,
      "ÑĨÐ¸Ð¹": 3558,
      "ÑĨÐ¸Ð¾Ð½": 3559,
      "ĠÐ¿ÑĢÐ¾ÑģÐ½ÑĥÐ»ÑģÑı": 3560,
      "ĠÐ§ÐµÑĢ": 3561,
      "ĠÐ§Ð¸ÐºÑĥ": 3562,
      "ÑĢÐµÐ¼Ñı": 3563,
      "ĠÑħÐ¾ÑĤÐµÐ»Ð°": 3564,
      "ĠÐĶÑĥÐ½Ð¸": 3565,
      "ĠÐ¾Ð¿Ð°": 3566,
      "ĠÐ¾Ð¿Ð°Ñģ": 3567,
      "ĠÐ¾Ð¿Ð¸Ñģ": 3568,
      "ĠÐ¾Ð¿ÑĢÐ°Ð²": 3569,
      "ĠÐ¾Ð¿ÑĥÑģÑĤ": 3570,
      "ĠÐ³Ð»ÑĥÐ¿": 3571,
      "ĠÑĢÐ°ÑģÑģÑĤÑĢ": 3572,
      "ĠÑĢÐ°ÑģÑģÑĤÑĢÐ¾": 3573,
      "ĠÐ´ÑĢÑĥÐ³Ð°": 3574,
      "ĠÐ´ÑĢÑĥÐ³Ñĥ": 3575,
      "ĠÐ´ÑĢÑĥÐ³ÑĥÑİ": 3576,
      "ĠÐ´ÑĢÑĥÐ³Ð¸Ðµ": 3577,
      "ĠÐ´ÑĢÑĥÐ³Ð¸Ð¼Ð¸": 3578,
      "Ð¸ÑĤÐµÐ»ÑĮÐ½Ð¾Ðµ": 3579,
      "ĠÐĹÐ½Ð°": 3580,
      "ĠÐĹÐ´Ð¾ÑĢÐ¾Ð²Ð¾": 3581,
      "ĠÐ¾ÑģÐ²ÐµÑī": 3582,
      "Ð¼ÑĥÑī": 3583,
      "ĠÐ¿Ð¾Ð½ÑıÑĤÐ½Ð¾": 3584,
      "ĠÐ´Ð¾Ð¼Ð°Ñħ": 3585,
      "ÐµÑħÐ°ÑĤÑĮ": 3586,
      "ÐµÑħÐ·ÐµÐ»ÑĮ": 3587,
      "ĠÐ³Ð¾Ð²Ð¾ÑĢÑİ": 3588,
      "ĠÐ³Ð¾Ð²Ð¾ÑĢÐ¸Ð»Ð¸": 3589,
      "ĠÐ¢Ð°ÐºÐ¸Ð¼": 3590,
      "Ð¸Ð½Ð°ÐµÑĤ": 3591,
      "ĠÑĤÑĢÐ¾Ð³": 3592,
      "ĠÑĤÑĢÐµÑĤÑĮ": 3593,
      "ĠÐŁÐµÑĤÑĢÑĥ": 3594,
      "ĠÐ¿Ð¾ÐºÑĥÐ¿": 3595,
      "ĠÐ·Ð½Ð°Ñĩ": 3596,
      "ĠÐ·Ð½Ð°ÐµÑĤÐµ": 3597,
      "Ð¸Ð½ÑĥÑĤÑĮ": 3598,
      "Ð¸Ð½ÑĥÑĤÐ½Ð¾": 3599,
      "ĠÐ²Ð¾Ð·Ð±": 3600,
      "ĠÐ²Ð¾Ð·Ð³Ð»Ð°Ð³": 3601,
      "ĠÐ¿Ð¾ÑĢÑĥ": 3602,
      "ĠÐ¿Ð¾ÑĢÐ¾Ðº": 3603,
      "ĠÐ¿Ð¾ÑĢÐ°Ð¶": 3604,
      "ĠÐ½ÑĥÐ¶Ð½Ñĭ": 3605,
      "ĠÐ²ÐµÑĢÑģÑĤ": 3606,
      "ĠÐ±ÐµÐ·Ð¾Ð±ÑĢÐ°Ð·": 3607,
      "ĠÐ²Ð¿Ð¾ÑģÐ»ÐµÐ´": 3608,
      "ĠÑģÐ¾Ð±ÑĢ": 3609,
      "ĠÐºÐ¾Ð½ÑĤ": 3610,
      "ĠÑĤÐµÐ¼Ð½ÑĭÐ¼Ð¸": 3611,
      "ĠÐ»ÑİÐ±Ð»Ñİ": 3612,
      "Ð¾Ð¶ÐµÑģÑĤÐ²Ð¾": 3613,
      "ÑĭÑĪÐ¸ÑĤÐµ": 3614,
      "ĠÐ¾ÐºÐ½Ð¾": 3615,
      "ĠÐ¾ÐºÐ½Ð°": 3616,
      "ĠÑĩÑĥÐ»ÐºÐ¸": 3617,
      "ĠÑĨÐ°ÑĢ": 3618,
      "ĠÐ¤ÑĢÐ°Ð½": 3619,
      "ĠÐ¿Ð¾Ð¼Ð½Ð¸": 3620,
      "ĠÐ¿Ð¾Ð¼Ð¾Ð¶ÐµÑĤ": 3621,
      "ĠÐ¿Ð¾Ð¼Ð¸Ð½ÑĥÑĤÐ½Ð¾": 3622,
      "ĠÐ¼Ð¾Ð¶ÐµÑĤÐµ": 3623,
      "ĠÑģÑĤÑĢÐ¾Ð³Ð¾": 3624,
      "ĠÐĽÐ¸Ð¿": 3625,
      "ĠÐ¸Ð¼ÐµÐµÑĤ": 3626,
      "ĠÐ´ÐµÐ»Ð°Ð»": 3627,
      "ĠÐ´ÐµÐ»Ð°Ñİ": 3628,
      "ĠÑĢÑĥÐºÐ°": 3629,
      "ĠÑģÐºÐ°Ð·Ð°Ð»Ð¸": 3630,
      "ĠÑģÐºÐ°Ð·Ð°Ð½Ð¾": 3631,
      "ĠÐ¾ÑĤÐºÐ°Ð·": 3632,
      "ĠÐ²ÑģÑıÐºÐ¸Ð¹": 3633,
      "ĠÐ²ÑģÑıÐºÐ¾Ð³Ð¾": 3634,
      "ĠÐºÐ¾ÑĢÐ¾ÑĩÐµ": 3635,
      "ĠÐ¸Ð³ÑĢÑĥ": 3636,
      "Ð½ÐµÐ¹ÑĪÐ¸Ð¹": 3637,
      "ĠÐ¼ÑĥÐ¶ÑģÐºÐ¾Ð¹": 3638,
      "ĠÐ¿ÑĢÐ¾Ð´ÑĥÐº": 3639,
      "ĠÐ¿Ð¾Ð·Ð²Ð¾Ð½": 3640,
      "ĠÐ½Ð°ÑĪÐµÐ¼": 3641,
      "ĠÐ½Ð°ÑĪÐµÐ¹": 3642,
      "ĠÐ½Ð°ÑĪÐµÐ¼Ñĥ": 3643,
      "ÑĭÑĤÐ°Ð»ÑģÑı": 3644,
      "ĠÐ¾ÑģÑĤÐ°Ð»Ð°ÑģÑĮ": 3645,
      "ĠÑģÑĤÐ°ÑĢÑĭÐ¹": 3646,
      "ÐŀÐ½Ð°": 3647,
      "ĠÐ²Ð¾Ð»Ñı": 3648,
      "ĠÐ¿ÑĢÐ°Ð²Ð´Ñĥ": 3649,
      "ĠÑĩÑĥÐ²ÑģÑĤÐ²Ð°": 3650,
      "ĠÑĩÑĥÐ²ÑģÑĤÐ²Ð¾Ð²Ð°Ð»": 3651,
      "ĠÐ·Ð°Ð±ÑĢÐ°ÑĤÑĮÑģÑı": 3652,
      "ĠÐ¿ÐµÑĢÐµÐ´Ð°Ñĩ": 3653,
      "Ð°Ð½Ð¸ÑıÐ¼Ð¸": 3654,
      "ĠÐĺÐ²Ð°Ð½Ð¾Ð²Ð¸Ñĩ": 3655,
      "ĠÐĵÐ¼": 3656,
      "ĠÐ¸ÑģÐ¿ÑĭÑĤ": 3657,
      "ĠÐ¸ÑģÐ¿Ð¾Ð»Ð½": 3658,
      "ĠÐ¸ÑģÐ¿Ð¾Ð»ÑĮÐ·Ð¾Ð²": 3659,
      "ĠÐ¼Ð½Ð¾Ð³Ð¾ÑĩÐ¸ÑģÐ»ÐµÐ½": 3660,
      "ĠÐ¿Ð¾Ð»ÑĥÑĩÐ¸Ð»Ð¸": 3661,
      "ĠÐºÐ¾Ð»Ð¸Ñĩ": 3662,
      "ĠÐ´ÐµÐ²ÑıÑĤ": 3663,
      "ĠÐ´ÐµÐ²Ð¾ÑĩÐºÐ°": 3664,
      "ĠÐ¿ÐµÑĢÐ²ÑĥÑİ": 3665,
      "ĠÐ¾Ð´Ð¸Ð½Ð½Ð°Ð´ÑĨÐ°ÑĤÑĮ": 3666,
      "ĠÐ¾ÑĤÐºÑĢÑĭÐ»Ð¸": 3667,
      "ĠÐ²Ð¾ÑģÑĤÐ¾ÑĢ": 3668,
      "ĠÐ²Ð¾ÑģÐ¿Ð¸ÑĤ": 3669,
      "Ð²Ð¾Ð»Ð¾Ð²": 3670,
      "ĠÑĥÐ¼Ð¾Ð»": 3671,
      "ĠÑįÑĤÐ¸Ð¼": 3672,
      "ĠÐ³Ð¾ÑģÑĥÐ´Ð°ÑĢ": 3673,
      "ĠÐ¾ÑģÐ¾Ð±ÐµÐ½Ð½ÑĭÐ¼": 3674,
      "ĠÐŁÐµÑĤÑĢÐ¾Ð²Ð½Ñĭ": 3675,
      "Ð°ÑĪÐ°": 3676,
      "ĠÑģÐ»ÑĥÑĩÐ°Ñİ": 3677,
      "ÐĿÑĥ": 3678,
      "Ġ16": 3679,
      "Ġ157": 3680,
      "ĠÐ±ÑĥÐ´ÐµÑĤÐµ": 3681,
      "ĠÐ¿Ð»Ð°Ðº": 3682,
      "ĠÐ¿Ð»Ð°Ð½": 3683,
      "ĠÐ¿ÑĮÑıÐ½ÑĭÑħ": 3684,
      "ĠÑģÐ¾ÑģÑĢÐµÐ´": 3685,
      "ĠÐ±ÐµÑģÑģ": 3686,
      "ĠÑĢÐµÑĪÐ¸Ð»Ð°": 3687,
      "ĠÑĢÐµÑĪÐ¸ÑĤÐµÐ»ÑĮÐ½Ð¾": 3688,
      "ĠÐ¾Ð±ÑĬÑıÐ²": 3689,
      "ĠÐ¶Ð¸Ð·Ð½ÑĮ": 3690,
      "ĠÑģÐºÐ¾ÑĢÐ¾Ð³Ð¾": 3691,
      "ĠÐ´Ð¾ÑĢÐ¾Ð³Ð°": 3692,
      "ÐľÑĭ": 3693,
      "ÐľÐ°Ð»": 3694,
      "ÐľÐ¾Ð»Ð¾Ð´Ð¾Ð¹": 3695,
      "ĠÐ½ÐµÐ´ÐµÐ»ÑĮ": 3696,
      "ĠÐ½ÐµÐ´ÐµÐ»Ñİ": 3697,
      "ĠÐ½ÐµÐ´Ð°Ð²Ð½Ð¾": 3698,
      "ĠÑĤÐ²Ð¾ÑĢ": 3699,
      "ĠÑĤÐ²Ð¾Ðµ": 3700,
      "ĠÐ´ÑĥÐ¼Ð°ÐµÑĤ": 3701,
      "ĠÐ¿Ð¾ÑĪÐ»Ð¸": 3702,
      "ĠÑĥÐ±Ð¸Ð¹": 3703,
      "ÑĢÐ°ÑĪÐºÐ¸": 3704,
      "ĠÑĨÐµÐ»Ð°Ñı": 3705,
      "ĠÐ³Ð¾ÑģÐ¿Ð¾Ð´Ð¸Ð½Ð°": 3706,
      "ÑĮÑİÑĪÐºÑĥ": 3707,
      "ĠÐ½Ð¾Ð³Ñĥ": 3708,
      "ĠÐºÐ²Ð°ÑĢÑĤÐ¸ÑĢÐ°": 3709,
      "ĠÐºÐ²Ð°ÑĢÑĤÐ¸ÑĢÑĭ": 3710,
      "ĠÐ°Ð½Ð¸Ð¼Ð°ÑĤÑĢÐ¾Ð½Ð¸ÐºÐ¸": 3711,
      "ĠÐ¿Ð¾Ð¿ÑĥÐ»ÑıÑĢ": 3712,
      "ĠÐ¿Ð¾Ð¿ÑĢÐ¾Ð±": 3713,
      "ĠÐ¿Ð¾Ð¿ÑĭÑĤÐ°Ð»ÑģÑı": 3714,
      "ĠÐ´Ð¾Ð»Ð¶Ð½Ð°": 3715,
      "ĠÐ¶ÐµÐ»ÑĤ": 3716,
      "ĠÐ¶ÐµÐ»ÐµÐ·": 3717,
      "Ð¾ÑģÑĤÐ¸Ñİ": 3718,
      "ĠÐ½ÐµÐºÐ¾ÑĤÐ¾ÑĢÐ¾Ð³Ð¾": 3719,
      "ĠÐ½ÐµÐºÐ¾ÑĤÐ¾ÑĢÑĭÑħ": 3720,
      "ĠÐ½ÐµÐºÐ¾ÑĤÐ¾ÑĢÑĭÐµ": 3721,
      "ÐŁÑĢ": 3722,
      "Ð°ÐµÐ¼ÑĭÐ¹": 3723,
      "ĠÐ´ÐµÑĤÑģÑĤÐ²Ðµ": 3724,
      "ĠÑĢÐµÐ°Ð»ÑĮÐ½Ð¾Ð¹": 3725,
      "ĠÑĥÐ²Ð¸Ð´ÐµÐ»": 3726,
      "ĠÐ»ÐµÑģÑĤÐ½Ð¸ÑĨÑĥ": 3727,
      "ĠÐ¶Ð¸Ð²Ð¾Ð¹": 3728,
      "ĠÑģÐ»Ð¾Ð²Ð¾": 3729,
      "ĠÑģÐ»ÑĭÑĪÐ°Ð»": 3730,
      "ĠÐ¿Ð¾ÑģÐ¼Ð¾ÑĤÑĢÐµÐ»Ð°": 3731,
      "ĠÐ¿Ð¾ÑģÐ¼Ð¾ÑĤÑĢÐµÑĤÑĮ": 3732,
      "ĠÑģÐµÐ¼ÑĮ": 3733,
      "ĠÐ´Ð¾ÑģÑĤÐ¸Ð³": 3734,
      "ĠÐ»ÐµÐ¶Ð¸ÑĤ": 3735,
      "ĠÐ²ÑģÑİÐ´Ñĥ": 3736,
      "ĠÑģÑĤÐ¾Ð»Ð°": 3737,
      "Ð°ÑĤÐµÐ»ÑĮÑģÑĤÐ²Ð°": 3738,
      "ÑĤÑĢÐµÐ½": 3739,
      "ĠÐ½ÐµÐ²Ð¸Ð½": 3740,
      "ĠÐ½ÐµÐ²Ð¾Ð»ÑĮÐ½Ð¾": 3741,
      "ĠÐ½ÐµÐ²Ð¾Ð·Ð¼Ð¾Ð¶Ð½Ð¾": 3742,
      "ĠÐ¼Ð¾Ð»Ñĩ": 3743,
      "ĠÐ¼Ð¾Ð»ÑĩÐ°": 3744,
      "ĠÐ¼Ð°Ð¼Ñĥ": 3745,
      "ĠÐ¼Ð°Ð¼Ñĭ": 3746,
      "ĠÑĥÐ¿Ð¾ÑĢ": 3747,
      "ĠÐ²ÑĭÐ¿Ð¸Ð»": 3748,
      "ĠÐ²ÑĭÐ¿Ð¾Ð»Ð½": 3749,
      "ĠÐ¡ÑĤÐ°ÑĢ": 3750,
      "ĠÐ¡ÑĤÐ¾Ð¿": 3751,
      "ĠÐºÑĢÐ°ÑģÐ½ÑĭÐµ": 3752,
      "ĠÐ»Ð¸ÑĨÐ¾Ð¼": 3753,
      "ĠÐºÐ°Ð¶Ð´Ð¾Ð¼Ñĥ": 3754,
      "ĠÐĸÐµÑģÑĤÑĮ": 3755,
      "ĠÐ¿Ð¾Ð±ÐµÐ´": 3756,
      "ĠÐ²ÑģÑĤÑĢÐµÑĤ": 3757,
      "ĠÐ´ÑĢÐ¾Ð¶": 3758,
      "ĠÐ´ÑĢÐ°Ð´ÐµÐ´Ð°Ð¼": 3759,
      "ĠÐ·Ð²Ð¾Ð½": 3760,
      "ĠÐ·Ð²ÑĥÐº": 3761,
      "Ð¿ÑĢÐ¾ÑĩÐµÐ¼": 3762,
      "Ð¿ÑĢÐµÐ¶Ð½ÐµÐ¼Ñĥ": 3763,
      "ĠÑĥÐ·Ð½Ð°Ð»Ð¸": 3764,
      "ĠÑĥÐ·Ð½Ð°Ð»Ð°": 3765,
      "ĠÐ½Ð°Ð¿Ð¸ÑģÐ°Ð»Ð°": 3766,
      "ĠÐ²Ð¾Ð»Ð¾ÑģÐ°Ð¼Ð¸": 3767,
      "ĠÑģÐµÑĢÐ´ÑĨÐ°": 3768,
      "ĠÑħÐ¾Ð·ÑıÐ¹ÐºÐ°": 3769,
      "Ð¢Ð°Ðº": 3770,
      "Ġof": 3771,
      "ĠÐ¿Ð°ÑĢÐµÐ½ÑĮ": 3772,
      "ÑĩÐ¸ÐºÐ¸": 3773,
      "ÑĩÑĥÑģÑĮ": 3774,
      "ĠÑģÑĥÐ´Ñı": 3775,
      "ĠÐ¾ÑģÑĤÐ°Ð²Ð°ÑĤÑĮÑģÑı": 3776,
      "ĠÐ´Ð¾Ð±ÑĢÐ°ÑĤÑĮÑģÑı": 3777,
      "ĠÐ¿ÑĢÐ¾Ð²Ð°Ð»": 3778,
      "ĠÐ¿Ð¾ÑħÐ¾Ð¶": 3779,
      "ĠÐ¿Ð¾ÑħÐ¼ÐµÐ»ÑĮ": 3780,
      "ÑĢÑĥÐ¿Ð¿": 3781,
      "ĠÐ¸Ð½ÑĤÐµÑĢÐ½ÐµÑĤ": 3782,
      "ÐļÐ°Ðº": 3783,
      "Ð¸ÑĪÑĮÑģÑı": 3784,
      "ĠÐ¿ÑıÑĤÐ½Ð°Ð´ÑĨÐ°ÑĤÑĮ": 3785,
      "ĠÐ½Ð¾Ð²Ð¾Ðµ": 3786,
      "ÐºÑĢÐµÐ¿": 3787,
      "Ð¿Ð¾Ð¼Ð¸Ð½Ð°": 3788,
      "ĠÑĥÐ´ÐµÑĢÐ¶": 3789,
      "ĠÐ¾Ð±ÑĢÐ°ÑīÐ°ÑıÑģÑĮ": 3790,
      "ĠÐŀÑĤÑĤÐ¾Ð³Ð¾": 3791,
      "ĠÑģÐ»ÑĥÑĪÐ°ÑĤÑĮ": 3792,
      "Ð°ÑİÑīÐ¸Ñħ": 3793,
      "ĠÐ²Ð¾Ð·Ð¼Ð¾Ð¶Ð½Ð¾ÑģÑĤÐ¸": 3794,
      "ĠÐ²Ð¾Ð·Ð¼Ð¾Ð¶Ð½Ð¾ÑģÑĤÑĮ": 3795,
      "ĠÐ¾ÑĤÐ²ÐµÑĩÐ°Ñİ": 3796,
      "ĠÑĥÐ¶Ð°ÑģÐ½ÑĭÐµ": 3797,
      "ĠÐŁÐµÑĤÑĢÐ¾Ð²Ð¸ÑĩÑĥ": 3798,
      "ĠÐ°Ð½Ð¸Ð¼Ð°ÑĤÑĢÐ¾Ð½Ð¸ÐºÐ°Ð¼": 3799,
      "ĠÐ²Ð¾ÑĢÐ¾ÑĤÐ°": 3800,
      "ĠÐ¿ÑĭÑĤÐ°Ð»Ð¸ÑģÑĮ": 3801,
      "ĠÐ´ÐµÐ»Ð°ÐµÑĪÑĮ": 3802,
      "ĠÑĩÐ¸ÑģÐ»Ð°": 3803,
      "ÑģÑĤÑĥÐ¿Ð¸Ð»Ð°": 3804,
      "ĠÐ¿ÑĢÐ¾ÑĤÑı": 3805,
      "ĠÐ½Ð°ÑħÐ¾Ð´Ð¸Ð»ÑģÑı": 3806,
      "ĠÑĢÐµÐ±ÑıÑĤÐ¸": 3807,
      "ĠÐ³Ð¾ÑĢÐ¾Ð´Ð°": 3808,
      "ĠÐ¿ÑĢÐµÐ´ÑģÑĤÐ°Ð²Ð¸ÑĤÑĮ": 3809,
      "ĠÐ´ÐµÐ²ÑĥÑĪÐºÑĥ": 3810,
      "ĠÐ¸ÑģÑĤÐ¾ÑĢÐ¸Ð¸": 3811,
      "ĠÐ¼Ð°Ð»ÐµÐ½ÑĮÐºÐ°Ñı": 3812,
      "ĠÐ²Ð¾ÑĪÐµÐ´": 3813,
      "ĠÐ²ÐºÐ»ÑİÑĩÐ¸Ð»Ð°": 3814,
      "ĠÑģÐ¸Ð»ÑĮÐ½Ð¾": 3815,
      "ĠÐºÐ°Ð¼Ð¾ÑĢ": 3816,
      "ĠÐºÐ°Ð¼ÐµÑĢÑĥ": 3817,
      "ÐµÐ»ÑİÑģÑĮ": 3818,
      "ĠÐ¿ÑĢÐµÐ²ÑĮÑİÑĪÐºÑĥ": 3819,
      "ĠÐ·Ð°ÑĢÐ°Ð½ÐµÐµ": 3820,
      "ĠÐ¿Ð¾ÑģÑĤÐµÐ¿ÐµÐ½Ð½Ð¾": 3821,
      "ĠÐ²ÑĭÐ·Ð²": 3822,
      "ĠÐ²ÑĭÐ·Ð²Ð°Ð»": 3823,
      "ĠÐ¡Ð»ÑĥÑĩ": 3824,
      "ĠÐ¸Ð·Ð²ÐµÑģÑĤÐ½Ð¾": 3825,
      "ĠÑģÐ¿ÑĢÐ¾ÑģÐ¸Ð»": 3826,
      "ĠÐ¿Ð¾Ð»Ð¾Ð¶ÐµÐ½Ð¸Ðµ": 3827,
      "ĠÐºÑĢÐµÐ¿ÐºÐ¾": 3828,
      "ĠÐ²Ð¸Ð´ÐµÐ¾": 3829,
      "ĠÐ»ÑİÐ´ÑıÐ¼": 3830,
      "ĠÑĢÐ°ÑģÑģÑĥÐ´": 3831,
      "ĠÑģÑĤÑĢÐ°Ð½Ð½Ð¾Ðµ": 3832,
      "ĠÐ·Ð°Ð¼ÐµÑĤÐ¸Ð»Ð°": 3833,
      "ĠÑĤÐµÐ»ÐµÐ³Ðµ": 3834,
      "ĠÐ·Ð°Ð½ÑıÑĤÐ¸": 3835,
      "ĠÐ·Ð°Ð½Ð°Ð²ÐµÑģ": 3836,
      "ĠÑģÑĤÐ°Ð½Ð¾Ð²Ð¸ÑĤÑģÑı": 3837,
      "ĠÐŀÐ´Ð½Ð°ÐºÐ¾": 3838,
      "ĠÑĢÐ°Ð·Ð²Ðµ": 3839,
      "ĠÐºÑĢÐ¸ÑĩÐ°Ð»Ð°": 3840,
      "ĠÐ¾Ð¿ÑĢÐµÐ´ÐµÐ»ÐµÐ½Ð½Ð¾Ð¹": 3841,
      "ĠÐ¿Ð¾Ð·Ð²Ð¾Ð»ÑıÑİ": 3842,
      "ĠÐ¿Ð¾Ð·Ð²Ð¾Ð»ÑıÐµÑĤ": 3843,
      "ĠÐ¿ÑĢÐ¸Ð²ÑĭÑĩÐºÐ¸": 3844,
      "ĠÐ½ÐµÐ¿ÑĢÐ¸Ð»Ð¸Ñĩ": 3845,
      "ĠÐ½ÐµÐ¿ÑĢÐ¸Ð¼ÐµÑĤ": 3846,
      "ĠÐ¿Ð¾Ð¶Ð°Ð»ÑĥÐ¹ÑģÑĤÐ°": 3847,
      "ĠÐ¶ÐµÐ½ÑīÐ¸Ð½Ñĥ": 3848,
      "ange": 3849,
      "Ġpro": 3850,
      "ĠÑİÐ±": 3851,
      "ĠÐ¿ÑĥÑģÑĤÑı": 3852,
      "ĠÐ²ÑĤÐ¾ÑĢÑĥÑİ": 3853,
      "ĠÑģÐ¾ÑģÑĤÑĢÐ°Ð´": 3854,
      "ĠÑĤÐµÑĢÐ¿": 3855,
      "ĠÑĤÐ²ÐµÑĢÐ´": 3856,
      "ĠÐ´ÐµÑĢÐµÑĤ": 3857,
      "ĠÐ´ÐµÑĢÐµÐ²": 3858,
      "ĠÐ±Ð¾ÑıÐ»ÑģÑı": 3859,
      "ĠÑĩÐµÑģÑĤÐ½Ð¾": 3860,
      "ĠÑĢÐµÐ·ÐºÐ¾": 3861,
      "ĠÑĥÑģÐ¿ÐµÐ»Ð°": 3862,
      "ĠÐ³ÑĢÑĥÐ±Ð¾": 3863,
      "ĠÐ¾Ð±Ð¾Ð¸Ñħ": 3864,
      "ĠÐŀÐ±Ð¾ÑģÑĢÐ°ÑĤÑĮÑģÑı": 3865,
      "ĠÐ¿Ð¾Ð»Ð¸ÑĨÐ¸Ñı": 3866,
      "ĠÐ¿Ð¾Ð»Ð¸ÑĨÐ¸Ñİ": 3867,
      "ĠÑģÐºÐ°Ð¶Ñĥ": 3868,
      "ĠÑģÐ¾ÑħÑĢÐ°": 3869,
      "ĠÐ±Ð¾Ð»ÐµÐ·Ð½Ð¸": 3870,
      "ĠÐ¤ÐµÐ´Ð¾ÑĢÐ¾Ð²": 3871,
      "ĠÐ¾ÑĤÐºÑĢÑĭÐ²Ð°ÑĤÑĮ": 3872,
      "ĠÐ¿ÑĮÑıÐ½ÐµÐ½ÑĮÐºÐ¾Ð¹": 3873,
      "ĠÑģÐ¾Ð·Ð´Ð°Ð½Ð¸Ñı": 3874,
      "ĠÐ±Ð»Ð°Ð³Ð¾ÑĢÐ¾Ð´Ð½Ð¾Ðµ": 3875,
      "ĠÑĥÑģÐ»ÑĭÑĪÐ°Ð»": 3876,
      "ĠÐ²Ð°ÑĢÐ¸Ð°Ð½ÑĤÐ¾Ð²": 3877,
      "ÐŃÐ¹": 3878,
      "ĠÐ¿ÑĭÐ»ÑĮ": 3879,
      "ĠÐ½Ð°Ð¶Ð¼Ð¸": 3880,
      "ĠÐ²ÐµÑīÐ¸": 3881,
      "ĠÐ²ÐµÑīÑĮ": 3882,
      "ĠÑģÐµÑģÑĤÑĢÑĥ": 3883,
      "ĠÐ¼ÐµÑģÑĤÐ°": 3884,
      "ĠÐ´ÑĢÑĥÐ·": 3885,
      "ĠÐ´ÑĢÑĥÐ³Ð¾Ðµ": 3886,
      "ÑĪÐ¸Ð¼Ð¸ÑģÑı": 3887,
      "ĠÐ±ÑĢÐ°ÐºÐ°": 3888,
      "ĠÐ·Ð°ÑĤÐµÐ¼": 3889,
      "ĠÑĥÐ²Ð°Ð¶": 3890,
      "ĠÐ»Ð¾Ð¼Ð°Ñı": 3891,
      "ĠÐ¿Ð¾ÐµÑħÐ°Ð»": 3892,
      "ĠÑģÑĤÐ°Ð½Ð´Ð°ÑĢ": 3893,
      "ĠÐ¿ÑĢÐ¸Ð±Ð°Ð²Ð¸Ð»": 3894,
      "ĠÑģÐ¿ÑĥÑģÑĤÑı": 3895,
      "ĠÑģÐ¿ÐµÑĨÐ¸Ð°Ð»ÑĮÐ½Ð¾": 3896,
      "ĠÑĦÐ°Ð·ÐµÑĢÐ±Ð»Ð°ÑģÑĤÐµÑĢ": 3897,
      "ĠÑĦÐ°Ð¹Ð»": 3898,
      "ĠÑĦÐ°Ð¹Ð»Ð°": 3899,
      "ĠÐ¸Ð³ÑĢÐ¾Ð²Ð¾Ð¹": 3900,
      "ĠÐ¸Ð³ÑĢÐ¾Ð²Ð°Ñı": 3901,
      "ĠÐ±Ð¾Ð»ÑĤÐ°Ñİ": 3902,
      "ĠÑģÐ¾Ð±Ð¸ÑĢÐ°Ð»Ð¸ÑģÑĮ": 3903,
      "ĠÐ¾ÐºÐ°Ð·Ð°Ð»ÑģÑı": 3904,
      "ĠÐĽÑİÐ´Ð¸": 3905,
      "ĠÐ½Ð°Ð·ÑĭÐ²Ð°ÐµÑĤÑģÑı": 3906,
      "ĠÐ½Ð°ÑĩÐ°Ð»Ðµ": 3907,
      "ĠÐ¸Ð½ÑĤÐµÑĢÐµÑģÐ½Ð¾": 3908,
      "ĠÑģÑĥÐ¿ÑĢÑĥÐ³Ð°": 3909,
      "ĠÑĥÐ»ÑĭÐ±Ð½ÑĥÐ»ÑģÑı": 3910,
      "ĠÐ¿Ð¾ÑĤÑĢÐµÐ±": 3911,
      "ĠÐ²ÐµÑģÐµÐ»": 3912,
      "ĠÐ²ÐµÑģÐµÐ»ÑĮÑı": 3913,
      "ĠÑģÐ¸Ð¼Ð²Ð¾Ð»Ð¾Ð²": 3914,
      "ĠÑģÑĩÐ¸ÑĤÐ°ÑĤÑĮ": 3915,
      "ĠÐ¾ÑĦÐ¸ÑĨ": 3916,
      "ĠÐºÐ°Ð½Ð°Ð»": 3917,
      "ĠÐºÐ°Ð¿Ð»Ð¸": 3918,
      "ĠÐºÑĢÑĥÐ³Ð¾Ð¼": 3919,
      "ĠÐºÑĥÐ¿Ð¸ÑĤÑĮ": 3920,
      "ĠÐ¼ÐµÐ»ÑĮÐº": 3921,
      "ĠÐ¼Ð°Ð³Ð½Ð¸": 3922,
      "ĠÐ¼Ð°Ð³Ð°Ð·Ð¸Ð½": 3923,
      "ĠÐ¼Ð¸ÑĢÐµ": 3924,
      "ĠÐ´Ð¾Ð¿ÑĥÑģÑĤ": 3925,
      "ĠÐ±ÑĢÐ¾ÑģÐ¸Ð»Ð°ÑģÑĮ": 3926,
      "ĠÑĢÑĥÐ´Ñĭ": 3927,
      "ĠÑģÑĤÑĥÐ´ÐµÐ½ÑĤ": 3928,
      "ĠÐ²ÑĭÐ³Ð»ÑıÐ´Ð¸ÑĤ": 3929,
      "ĠÐŁÐ¾Ð»ÑĤÐ¾ÑĢÐ°": 3930,
      "ĠÐ·Ð°ÑħÐ¾ÑĤÐµÐ»Ð¾ÑģÑĮ": 3931,
      "ĠÐ¸Ð·Ð²Ð¾Ð»Ð¸Ð»Ð¸": 3932,
      "ĠÑģÐ¿ÑĢÐ¸Ð½Ð³": 3933,
      "ĠÑģÐ¿ÑĢÐ°Ð²ÐµÐ´": 3934,
      "ĠÐ¿ÐµÑĢÐµÐºÐ»ÑİÑĩ": 3935,
      "ĠÐĳÑĭÐ»Ð¾": 3936,
      "ĠÐ½Ð¸ÑīÐµÑĤÐµ": 3937,
      "ĠÐ¿Ð¾ÑĩÐ¸ÑĤÐ°ÑĤÑĮ": 3938,
      "ĠÐ·Ð°ÐºÑĢÑĭÑĤÐ°": 3939,
      "ĠÐ¿Ð¾Ð¹Ð´ÐµÐ¼": 3940,
      "ĠÐºÐ¾Ð»ÐµÐ½ÐºÐ°Ñħ": 3941,
      "ĠÐ¿ÑĢÐ¾Ð¸Ð·Ð²Ð¾Ð´": 3942,
      "ĠÐ¿ÑĢÐ¾Ð³Ð¾Ð²Ð¾ÑĢÐ¸Ð»": 3943,
      "ĠÐ²ÐµÐ»Ð¸ÐºÐ¾Ð´ÑĥÑĪ": 3944,
      "Ġgames": 3945,
      "ĠÐ¿Ð¾Ð»ÑĮÐ·Ð¾Ð²Ð°ÑĤÐµÐ»Ñİ": 3946,
      "ĠÐºÑĢÐ¾ÑĪÐµÑĩÐ½Ð°Ñı": 3947,
      "ĠÐ¿Ð¸Ð²Ð°": 3948,
      "ĠÐ½Ð°Ð±Ð»Ñİ": 3949,
      "ĠÐ²Ð½ÑĥÑĤÑĢÐ¸": 3950,
      "ĠÐ²Ð°Ð³Ð¾Ð½Ðµ": 3951,
      "ĠÑģÐ¸ÑĤÑĥÐ°ÑĨÐ¸": 3952,
      "ĠÐ¸ÑīÑĥ": 3953,
      "ĠÐºÐ½Ð¸Ð¶": 3954,
      "ĠÐ¼Ð°Ð»ÑĮÑĩÐ¸": 3955,
      "ĠÐ±Ð¾ÑĤÐ¾Ð²": 3956,
      "ĠÐ±ÑĥÐºÐ²Ð°Ð»ÑĮÐ½Ð¾": 3957,
      "ÑģÑĤÐ°Ð½Ð¾Ð²Ð¸Ð»Ð°": 3958,
      "ĠÐ¿ÑĢÐµÐ¸Ð¼": 3959,
      "ĠÐ½Ð°ÑħÑĥÐ¹": 3960,
      "ĠÐ½Ð°ÑģÐ»Ð°Ð¶Ð´ÐµÐ½Ð¸Ðµ": 3961,
      "ĠÑĢÐ°ÑģÑĤ": 3962,
      "ĠÑįÐ´Ð°ÐºÐ°Ñı": 3963,
      "Ð½ÑĥÐ²ÑĪÐ¸ÑģÑĮ": 3964,
      "ĠÐ¾ÑĤÑģÑĤÐ°Ð²Ð½Ð¾Ð³Ð¾": 3965,
      "ĠÐ°Ð»ÐºÐ¾Ð³": 3966,
      "ĠÐ¾Ð±Ð»ÐµÐ³": 3967,
      "ĠÐ¶Ð°Ð½ÑĢÐ¾Ð²": 3968,
      "ĠÐŀÑģÐ¾Ð±": 3969,
      "ĠÑĢÐ°Ð·ÑĥÐ¼ÐµÐµÑĤÑģÑı": 3970,
      "ĠÑĢÐ°Ð·Ð»Ð¸ÑĩÐ½ÑĭÑħ": 3971,
      "ĠÑģÐ»Ð¾Ð¼Ð°Ð½": 3972,
      "ĠÐĺÐ½ÑĤÐµÑĢ": 3973,
      "ĠÐĲÐ»ÐµÐ½Ð°": 3974,
      "ĠÐ¿Ð¾ÑģÐ¿ÐµÑĪÐ¸Ð»": 3975,
      "ĠÐ¼ÑĭÑģÐ»ÑĮ": 3976,
      "ĠÐ¿ÑĢÐ¾ÑĨÐµÐ½ÑĤ": 3977,
      "ĠÐ¶Ð°Ð»Ð¾Ð²Ð°Ð½ÑĮÑı": 3978,
      "Ð¡ÑĤÐ°ÑĢÑĥÑħÐ°": 3979,
      "ĠÐľÐ°ÑĢÑĦÑĭ": 3980,
      "ĠÐµÐ´Ð¸Ð½ÑģÑĤÐ²ÐµÐ½": 3981,
      "ÑĥÑīÐµÑģÑĤÐ²ÑĥÐµÑĤ": 3982,
      "ĠÐ¿ÑĢÐ¾Ð³ÑĢÐ°Ð¼Ð¼Ð¸ÑĢÐ¾Ð²Ð°Ð½Ð¸Ñı": 3983,
      "ĠÑĢÐµÐºÐ¾Ð¼ÐµÐ½Ð´Ð°": 3984,
      "ĠÐ¼Ð³Ð½Ð¾Ð²ÐµÐ½Ð½Ð¾": 3985,
      "ĠYou": 3986,
      "ĠÐ¿Ð°Ð¼ÑıÑĤÐ¸": 3987,
      "ĠÐ¾ÑĢÑĥÐ¶Ð¸Ðµ": 3988,
      "ĠÐ¼ÑĥÑĢÐ°ÑĪÐºÐ¸": 3989,
      "ĠÐ¼ÐµÐ½ÐµÐµ": 3990,
      "Ð¿ÐµÐ²ÐµÑħÐ·ÐµÐ»ÑĮ": 3991,
      "ĠÑĢÑıÐ´Ð¾Ð¼": 3992,
      "ĠÑĥÐºÐ¾ÑĢÑıÑİÑĤ": 3993,
      "ĠÑĥÐ¹ÑĤÐ¸": 3994,
      "ĠÐ°Ð½Ð³ÐµÐ»": 3995,
      "ĠÐ¾Ð±Ð¼Ð°Ð½": 3996,
      "ĠÐ¾Ð±ÑıÐ·Ð°Ð½": 3997,
      "ĠÐ²ÑĭÑģÐ»Ð°ÑĤÑĮ": 3998,
      "ĠÐŀÑĩÐµÐ½ÑĮ": 3999,
      "ĠÐ¡Ð¼Ð¾ÑĤÑĢÐ¸": 4000,
      "ĠÐĶÐ°Ð²Ð°Ð¹": 4001,
      "ĠÐľÐ°Ð»ÑĮÑĩÐ¸Ðº": 4002,
      "ĠÐ²Ð·Ð´ÑĢÐ¾Ð³": 4003,
      "ĠÐ¾ÑģÑĤÐ¾ÑĢÐ¾Ð¶Ð½Ð¾": 4004,
      "ĠÐ¿Ð¾Ð¼Ð¾Ð³Ð°ÐµÑĤ": 4005,
      "ĠÐ³ÐµÐ½ÐµÑĢÐ¸ÑĢÑĥÑİÑĤÑģÑı": 4006,
      "ĠÐ±Ð»Ð°Ð³Ð¾Ð´": 4007,
      "ĠÐ¸ÑģÐºÑĥÑģÑģÑĤÐ²ÐµÐ½Ð½ÑĭÐ¹": 4008,
      "ĠÐ¥Ð¾ÑĢÐ¾ÑĪÐ¸Ð¹": 4009,
      "ĠÐ±ÐµÑģÑĨÐµÐ½Ð½ÑĭÐ¹": 4010,
      "ĠÐºÐ¾ÑĦÐµ": 4011,
      "ĠÑĩÐµÑĤÐ²ÐµÑĢÑĤÑĭÐ¹": 4012,
      "ĠÐ¾ÑħÑĢÐ°Ð½Ð½Ð¸ÐºÐ¾Ð²": 4013,
      "ĠÐºÐ¾Ð´Ð¸ÑĢÐ¾Ð²ÐºÐµ": 4014,
      "ĠÐ²Ð¾ÑģÐºÐ»Ð¸ÐºÐ½ÑĥÐ»": 4015,
      "ĠÐ¡Ð¿Ð¾ÐºÐ¾Ð¹Ð½Ð¾": 4016,
      "ĠÐłÐ°Ð·Ð²Ðµ": 4017,
      "ĠÐ²ÐµÐ½ÑĤÐ¸Ð»ÑıÑĨÐ¸Ñİ": 4018,
      "ĠÐ±ÐµÐ·Ð½Ð°Ð´ÐµÐ¶Ð½Ð¾": 4019,
      "ÑģÑĥÑĤÑģÑĤÐ²": 4020,
      "ĠÐ¿Ð¾Ð²Ð¾ÑĢÐ¾ÑĤ": 4021,
      "ĠÑģÐ·Ð°Ð´Ð¸": 4022,
      "ĠÑģÐ°Ð´Ñĥ": 4023,
      "ĠÐ¾ÐºÑĥÑĢÐºÐ¸": 4024,
      "ĠÐºÐ¸Ð»Ð¾Ð¼ÐµÑĤ": 4025,
      "ĠÐ¼Ð°ÑĪÐ¸Ð½": 4026,
      "ĠÐ¿ÑĢÐµÐ¼ÑĥÐ´ÑĢÑĭ": 4027,
      "ĠÐ½ÐµÑĩÐ°ÑıÐ½Ð½Ð¾": 4028,
      "ĠÑĥÑĢÐ¾ÐºÐ¸": 4029,
      "ĠÑĥÐ½Ð¸Ð²ÐµÑĢÑģÐ¸ÑĤ": 4030,
      "ĠÐŁÐ¾Ð¶Ð°Ð»ÑĥÐ¹": 4031,
      "ĠÐŁÐ¾Ð·Ð²Ð¾Ð»ÑĮÑĤÐµ": 4032,
      "ĠÐĿÐ°Ð¶Ð¼Ð¸": 4033,
      "ĠÐ¿ÑĢÐ¸ÐºÐ¾Ð»ÑĮÐ½Ð¾": 4034,
      "ĠÐ·Ð°ÑīÐ¸Ñī": 4035,
      "ĠÐŀÑħÑĢÐµÐ½ÐµÑĤÑĮ": 4036,
      "ĠÐ²Ð·Ð²Ð¾Ð»Ð½Ð¾Ð²": 4037,
      "ĠÐ²Ð¿Ð¾ÑģÐ»ÐµÐ´ÑģÑĤÐ²Ð¸Ð¸": 4038,
      "ĠÐ¤ÑĢÐ°Ð½ÑĨÐµÐ²": 4039,
      "ĠÐĽÐ¸Ð¿Ð¿ÐµÐ²ÐµÑħÐ·ÐµÐ»ÑĮ": 4040,
      "ĠÑģÐ¿ÑĢÐ¸Ð½Ð³ÑĤÑĢÑĥÐ¿": 4041,
      "!),": 4042,
      "10": 4043,
      "42": 4044,
      "Exc": 4045,
      "NA": 4046,
      "St": 4047,
      "af": 4048,
      "ah": 4049,
      "ay": 4050,
      "do": 4051,
      "ed": 4052,
      "es": 4053,
      "eta": 4054,
      "eah": 4055,
      "for": 4056,
      "gr": 4057,
      "hange": 4058,
      "ive": 4059,
      "jec": 4060,
      "mi": 4061,
      "ming": 4062,
      "nl": 4063,
      "on": 4064,
      "por": 4065,
      "ri": 4066,
      "raf": 4067,
      "se": 4068,
      "ub": 4069,
      "ws": 4070,
      "xt": 4071,
      "yth": 4072,
      "¦ÐµÐ»": 4073,
      "Ðĳ": 4074,
      "ÐĽ": 4075,
      "Ð¦ÐµÐ»": 4076,
      "Ġ3": 4077,
      "Ġ4": 4078,
      "Ġ6": 4079,
      "Ġ8": 4080,
      "ĠB": 4081,
      "ĠD": 4082,
      "ĠO": 4083,
      "ĠX": 4084,
      "Ġe": 4085,
      "Ġl": 4086,
      "Ġit": 4087,
      "Ġis": 4088,
      "ĠExc": 4089,
      "Ð¾Ð¸Ñĩ": 4090,
      "Ð¾ÑĤÐ¾Ñĩ": 4091,
      "ÐµÐµÐ¼": 4092,
      "ÐµÑīÐµ": 4093,
      "ÐµÑıÐ»Ð¸ÑģÑĮ": 4094,
      "Ð°ÑĪÑĮ": 4095,
      "ÑĤÐµÐ¼": 4096,
      "ÑĤÐ°Ð½": 4097,
      "ÑĤÐºÑĥ": 4098,
      "ÑĤÐ½Ð°Ñı": 4099,
      "ÑĤÐµÐ½Ð¸Ðµ": 4100,
      "ÑĤÐµÑĢÐ°": 4101,
      "ÑĤÐ¾Ð³Ðµ": 4102,
      "Ð¸Ð¾": 4103,
      "Ð¸Ð°Ð»": 4104,
      "Ð¸ÑĢÐ°": 4105,
      "Ð¸ÑĨÐ°": 4106,
      "ÑģÐ²": 4107,
      "ÑģÐºÐ¾": 4108,
      "ÑģÐ»Ñı": 4109,
      "ÑģÑĤÐ¾Ñı": 4110,
      "ÑģÐºÐ¾Ðµ": 4111,
      "Ð½ÑĤ": 4112,
      "Ð½Ðº": 4113,
      "Ð½Ð¾Ð³": 4114,
      "Ð½Ð¾Ð¶": 4115,
      "Ð½Ð¾Ðº": 4116,
      "Ð½ÐºÐ¸": 4117,
      "Ð½ÐµÐ²": 4118,
      "Ð½ÐµÐ½Ð¸Ðµ": 4119,
      "Ð½Ð½ÑĭÐ¼Ð¸": 4120,
      "ÑĢÐ¾": 4121,
      "ÑĢÐ´": 4122,
      "ÑĢÐ°Ðº": 4123,
      "ÑĢÐ¾Ð¹": 4124,
      "ÑĢÐ¾ÑĢ": 4125,
      "ÑĢÐ¾Ð¶": 4126,
      "ÑĢÐµÐ±": 4127,
      "ÑĢÐµÐ·": 4128,
      "ÑĢÐ°Ð±": 4129,
      "ÑĢÐ¾ÑĪ": 4130,
      "ÑĢÐ¸Ñģ": 4131,
      "ÑĢÐ½Ð°Ñı": 4132,
      "ÑĢÐµÐ½Ð¸Ðµ": 4133,
      "ÑĢÐ½ÑĭÑħ": 4134,
      "ÑĢÐµÑī": 4135,
      "ÑĢÐ½Ð°Ð´": 4136,
      "ÑĢÐ¾Ð¶Ð´": 4137,
      "ÑĢÐ¾ÑĤÐ¸Ð²": 4138,
      "Ð»Ð°Ðº": 4139,
      "Ð»Ð¸Ð»": 4140,
      "Ð»Ð°Ð·": 4141,
      "Ð»Ð°ÑĢ": 4142,
      "Ð»Ð°Ð»Ð°": 4143,
      "Ð»ÐµÐ²": 4144,
      "Ð»Ð°Ð¶": 4145,
      "Ð»Ð¾Ð¿": 4146,
      "Ð»ÑĥÑĩ": 4147,
      "Ð»Ð°Ð³Ð¾": 4148,
      "ÑĥÑĤÐ¸": 4149,
      "ÑĥÐºÐ°": 4150,
      "ÑĥÑĪÐµ": 4151,
      "ÑĥÑģÐ»Ð¸": 4152,
      "ÑĥÐ»Ð¸Ð½": 4153,
      "ÑĥÑĤÐ¸Ð²": 4154,
      "ÑĥÑĤÐ¸ÑĤÑĮ": 4155,
      "ÑıÐ¿": 4156,
      "ÑıÐ¶": 4157,
      "ÑıÐ½ÑĥÐ»": 4158,
      "ÑıÐ¿Ð¾Ð½": 4159,
      "ÑıÑīÐ¸Ð¹": 4160,
      "ÑıÐ½Ð¸ÐµÐ¼": 4161,
      "ÑĮÐµÑĤ": 4162,
      "ÑĮÐ·": 4163,
      "ÑĮÐµÑĪÑĮ": 4164,
      "ÑĭÑģ": 4165,
      "ÑĭÐ·": 4166,
      "ÑĭÐ»Ð°": 4167,
      "ÑĭÑģÐº": 4168,
      "ĠÐ¿Ð°": 4169,
      "ĠÐ¿ÐµÐ¿": 4170,
      "ĠÐ¿Ð¸Ðº": 4171,
      "ĠÐ¿ÐµÑĤÑĮ": 4172,
      "ĠÐ¿ÐµÑĩÐ¸": 4173,
      "ĠÐ¿Ð¾Ð¶Ð¸Ð»": 4174,
      "ĠÐ¿Ð¸ÑģÑıÑĤ": 4175,
      "ĠÐ¿ÑĮÐµÑĪÑĮ": 4176,
      "ĠÐ½ÐµÐ»": 4177,
      "ĠÐ½ÐµÐ»Ð¾Ð²": 4178,
      "ĠÐ½ÐµÐ³": 4179,
      "ĠÐ½ÑĳÐ¼": 4180,
      "ĠÐ²Ð¾Ðº": 4181,
      "ĠÐ²Ð¸Ñħ": 4182,
      "ĠÐ²Ð¾ÑģÑĤ": 4183,
      "ĠÐ²ÑĤÑĥ": 4184,
      "ĠÐ²Ð¸ÑĨ": 4185,
      "ĠÐ²Ð°ÑĪ": 4186,
      "ĠÐ²Ð»Ð°Ð´": 4187,
      "ĠÐ²ÑĤÑĢ": 4188,
      "ĠÐ²Ð°ÑĪÐ¸": 4189,
      "ĠÐ²Ð¸Ð´Ð°": 4190,
      "ĠÐ²ÑģÑĤÑĥÐ¿": 4191,
      "ĠÐ²Ð¸ÑĤÐ¸": 4192,
      "ĠÐ²Ð¸Ð½Ðµ": 4193,
      "ĠÐ²ÐµÑĤÑħ": 4194,
      "ÑĩÑĤÐ¾": 4195,
      "ÑĩÐµÐ½": 4196,
      "ÑĩÐºÐ°": 4197,
      "ÑĩÐ¸ÑĤÑĮ": 4198,
      "ÑĩÐ°Ð»Ð°": 4199,
      "ÑĩÐ½Ð¾Ð³Ð¾": 4200,
      "ÑĩÑĥÑĤ": 4201,
      "ÑĩÐ¸Ð½Ð¾Ð²": 4202,
      "ĠÑģÑĢ": 4203,
      "ĠÑģÑĪ": 4204,
      "ĠÑģÐµÐ½": 4205,
      "ĠÑģÐ°ÑĢ": 4206,
      "ĠÑģÐ¾Ð¿": 4207,
      "ĠÑģÐºÑĥ": 4208,
      "ĠÑģÑĥÐ±": 4209,
      "ĠÑģÐ¸ÑĢ": 4210,
      "ĠÑģÐµÐ»Ð¸": 4211,
      "ĠÑģÑĥÐ³": 4212,
      "ĠÑģÑĢÐ°Ð¶": 4213,
      "ĠÑģÐµÑģÑĤÑĮ": 4214,
      "ĠÑģÐ¾Ð»Ð½": 4215,
      "ĠÑģÑħÐ¾Ð´Ð¸ÑĤÑĮ": 4216,
      "ĠÑģÐ´Ð¾Ñħ": 4217,
      "ĠÑģÐµÐ½Ð½ÑĭÑħ": 4218,
      "ĠÑģÐ¾Ð¼Ð½": 4219,
      "ĠÑģÐ¾Ð¹Ð´ÐµÐ¼": 4220,
      "ĠÑģÐ¾ÑĤÑĢÑĥÐ´": 4221,
      "ĠÑģÑĩÐ°ÑģÑĤÐ¸": 4222,
      "ĠÑģÑĥÑīÐµÑģÑĤÐ²ÑĥÐµÑĤ": 4223,
      "ÐºÐ¾Ð»": 4224,
      "ÐºÐ¾Ñģ": 4225,
      "ÐºÐ°Ð¼": 4226,
      "ÐºÐµÐ¹": 4227,
      "ÐºÐ¾Ð¼Ñĥ": 4228,
      "ÐºÑĢÐ°Ñģ": 4229,
      "ÐºÐ°Ð½Ð½Ð°Ñı": 4230,
      "ÐºÑĨÐ¸Ð¹": 4231,
      "Ð´ÑĮ": 4232,
      "Ð´ÐµÑĤ": 4233,
      "Ð´Ð¾Ð¹": 4234,
      "Ð´ÐµÐ¼": 4235,
      "Ð´Ð¾Ñģ": 4236,
      "Ð´ÑĤÐ¸": 4237,
      "Ð´Ð¸Ð½": 4238,
      "Ð´Ð°Ð»ÑģÑı": 4239,
      "Ð´ÑĥÑİÑĤ": 4240,
      "ĠÐ¸ÑģÑĤ": 4241,
      "ĠÐ¸Ð¿": 4242,
      "ĠÐ¸Ð½ÑĭÑħ": 4243,
      "ĠÐ¸ÑģÑĤÐ¸": 4244,
      "ĠÐ¸Ð´Ð¸": 4245,
      "ĠÐ¸ÑĤÐ¾Ð³Ðµ": 4246,
      "Ð²ÑĥÐº": 4247,
      "Ð²ÑĪÐ¸Ñħ": 4248,
      "Ð²Ð¾Ð·ÑĮ": 4249,
      "Ð²Ð¾Ñı": 4250,
      "ĠÐ¾Ð¹": 4251,
      "ĠÐ¾ÐºÐ¸": 4252,
      "ĠÐ¾Ð´Ðµ": 4253,
      "ĠÐ¾ÑģÐ»": 4254,
      "ĠÐ¾Ð³Ð»ÑıÐ´": 4255,
      "ĠÐ¾ÑĢÐ°Ð½": 4256,
      "ĠÐ¾ÑĪÐ¸Ð±": 4257,
      "ĠÐºÐ¾Ðµ": 4258,
      "ĠÐºÐ¾ÑĪ": 4259,
      "ĠÐºÐ¾ÑģÑĤ": 4260,
      "ĠÐºÐµÐ³": 4261,
      "ĠÐºÐ°Ñĩ": 4262,
      "ĠÐºÑĢÐ°ÑĪ": 4263,
      "ĠÐºÐ»ÐµÑĤ": 4264,
      "ĠÐºÑĥÐ»": 4265,
      "ĠÐºÐ»ÑĥÐ±": 4266,
      "Ð¼ÐµÑĢ": 4267,
      "Ð¼ÐµÐ¼": 4268,
      "Ð¼ÐµÐ½Ð½Ð¾": 4269,
      "Ð¼Ð°ÑĤÑĢ": 4270,
      "Ð¼ÐµÐ»ÑİÑģÑĮ": 4271,
      "ĠÑĤÑī": 4272,
      "ĠÑĤÐ¸ÑĤ": 4273,
      "ĠÑĤÐµÑĪ": 4274,
      "ĠÑĤÐ°Ð±": 4275,
      "ĠÑĤÐºÐ½ÑĥÐ»": 4276,
      "ĠÐ¼Ð¾Ð´": 4277,
      "ĠÐ¼Ð°ÑĢ": 4278,
      "ĠÐ¼ÑĥÐ´": 4279,
      "ĠÐ¼Ð°Ð¹": 4280,
      "ĠÐ¼ÐµÐ½ÑĮ": 4281,
      "ĠÐ¼Ð°Ð½Ð¸": 4282,
      "ĠÐ¼Ð¸Ð³": 4283,
      "ĠÐ¼Ð°Ñĩ": 4284,
      "ĠÐ¼ÑıÑģ": 4285,
      "ĠÐ¼Ð¸ÑĢÐ¾Ð²": 4286,
      "ĠÐ¼Ð¾ÑĤÐ¸Ð²": 4287,
      "ĠÐ¼ÑĥÐ»ÑĮÑĤ": 4288,
      "ĠÐ¼ÑĥÐ·ÑĭÐºÐ°": 4289,
      "ĠÐ´Ð½Ð¸": 4290,
      "ĠÐ´Ñī": 4291,
      "ĠÐ´Ð°ÑĤÑĮ": 4292,
      "ĠÐ´Ð»Ð¸": 4293,
      "ĠÐ´Ð¾Ð³": 4294,
      "ĠÐ´Ð¾Ð³Ð¾": 4295,
      "ĠÐ´Ð°ÑĢ": 4296,
      "ĠÐ´Ð°Ð»Ð°": 4297,
      "ĠÐ´ÑĭÑĪ": 4298,
      "ĠÐ´ÑĥÑĢ": 4299,
      "ĠÐ´ÑĢÐ°ÑĤÑĮ": 4300,
      "ĠÐ´Ð°Ð½Ð½ÑĭÑħ": 4301,
      "ĠÐ´ÑĥÑĪÐµ": 4302,
      "Ð°Ð»Ð¸Ñĩ": 4303,
      "ÑĪÐµÐ¹": 4304,
      "ÑĪÐ¸Ð¼": 4305,
      "ÑĪÐ¾Ð¿": 4306,
      "ÑĪÑĥÑİ": 4307,
      "ÑĪÐ½Ð¸Ð¹": 4308,
      "ÑĪÑĤÐ°Ð±": 4309,
      "ÐµÐ½Ðµ": 4310,
      "ÐµÐ½ÐµÑĢ": 4311,
      "ÐµÐ½ÑĥÑİ": 4312,
      "ÐµÐ½ÑĤÑĥ": 4313,
      "ĠÐ±ÐµÑĢ": 4314,
      "ĠÐ±Ð°Ñģ": 4315,
      "ĠÐ±ÐµÑĪ": 4316,
      "ĠÐ±Ð°Ð±": 4317,
      "ĠÐ±Ð»Ñİ": 4318,
      "ĠÐ±Ð¸Ð½Ð°": 4319,
      "ĠÐ±ÑĥÑĢ": 4320,
      "ĠÐ±ÐµÐ¶Ð°Ð»": 4321,
      "ĠÐ±Ð¾ÑĢÐ¾Ð´": 4322,
      "ĠÑĩÐ°ÑĤ": 4323,
      "ĠÑĩÐ°Ð¹": 4324,
      "ĠÑĩÑĮÑı": 4325,
      "ĠÑĩÐ°ÑĪ": 4326,
      "ĠÑĩÑĢÐµÐ·": 4327,
      "Ð¾Ð²Ð¾Ð¹": 4328,
      "Ð¾Ð²Ð¾Ðµ": 4329,
      "Ð¾Ð²Ð°ÑĤÑĮÑģÑı": 4330,
      "Ð¾Ð²ÑĭÑħ": 4331,
      "Ð¾Ð²Ð¸ÑĨ": 4332,
      "Ð¾Ð²Ð¸ÐµÐ¼": 4333,
      "ÐµÑĢÑģ": 4334,
      "ÐµÑĢÐ´": 4335,
      "ÐµÑĢÑģÑı": 4336,
      "ÐµÑĢÐ»Ð°": 4337,
      "ÐµÑĢÐºÐ¸": 4338,
      "ÐµÑĢÐµÐ³": 4339,
      "ÐµÑĢÐµÐ´ÑĮ": 4340,
      "ÐµÑĢÐ½ÑĥÐ»Ð°": 4341,
      "ÑģÑĤÑĭ": 4342,
      "ÑģÑĤÐ¸ÑĤ": 4343,
      "ÑģÑĤÐµÐ¹": 4344,
      "ÑģÑĤÑıÐ¼Ð¸": 4345,
      "ÑģÑĤÑĢÑĭÐ¼": 4346,
      "Ð¾Ð»Ðµ": 4347,
      "Ð¾Ð»ÐµÐ½": 4348,
      "Ð¾Ð»ÐµÐ¿": 4349,
      "Ð¾Ð»ÑıÑĤ": 4350,
      "Ð¾Ð»Ð°Ð³": 4351,
      "Ð¾Ð»Ð¸ÐºÑĥ": 4352,
      "Ð¾Ð»ÑĩÐ°Ð»": 4353,
      "ÐµÐ»Ðµ": 4354,
      "ÐµÐ»ÐµÐ½": 4355,
      "ÐµÐ»Ð¸ÑĤÑĮ": 4356,
      "ÐµÐ»Ð¾Ñĩ": 4357,
      "ÐµÐ»Ð¸Ñĩ": 4358,
      "Ð½Ð¾ÑĢÐ¾Ð´": 4359,
      "Ð¾Ð¼Ð½Ñİ": 4360,
      "Ð¾Ð¼Ð¸Ð½Ð°Ð»": 4361,
      "Ð°ÐºÐ¾Ð¼": 4362,
      "ĠÐ¿ÑĢÐ¾Ð»": 4363,
      "ĠÐ¿ÑĢÐ¾Ð¼": 4364,
      "ĠÐ¿ÑĢÐ¾Ðº": 4365,
      "ĠÐ¿ÑĢÐ¸Ð´": 4366,
      "ĠÐ¿ÑĢÑıÑĤ": 4367,
      "ĠÐ¿ÑĢÐ°Ñħ": 4368,
      "ĠÐ¿ÑĢÐ¾ÐµÑħ": 4369,
      "ĠÐ¿ÑĢÐ°ÐºÑĤÐ¸": 4370,
      "ÐµÑĤÐ¸Ð½Ð°": 4371,
      "ÐµÑĤÐ¸ÑĢÐ¾Ð²": 4372,
      "ÐµÑĤÑģÐºÐ¾Ð³Ð¾": 4373,
      "ĠÐ½ÐµÐ¾Ð±": 4374,
      "ĠÐ½ÐµÐ¸Ð·": 4375,
      "ĠÐ½ÐµÑģÐ»": 4376,
      "ĠÐ½ÐµÑģÑĤÐ¸": 4377,
      "ĠÐ½ÐµÐµÑģÑĤÐµ": 4378,
      "ĠÐ½ÐµÑĥÐ²": 4379,
      "ĠÐ·Ð´": 4380,
      "ĠÐ·Ð°Ñı": 4381,
      "ĠÐ·Ð´Ð¾ÑĢÐ¾Ð²": 4382,
      "ĠÐ·Ð½Ð°Ð»Ð¸": 4383,
      "ĠÐ·Ð½Ð°Ð»Ð°": 4384,
      "ĠÐ·Ð¾Ð»Ð¾ÑĤ": 4385,
      "Ð¸Ð»Ð¾Ñģ": 4386,
      "Ð¾Ð¹Ð´Ñĥ": 4387,
      "Ð¾Ð´Ð¸ÑĤÑĮ": 4388,
      "Ð¾Ð´Ð°Ð»ÑĮ": 4389,
      "Ð½Ð¸Ð½": 4390,
      "Ð½Ð¸ÑĨ": 4391,
      "ĠÐ½Ð°Ð½": 4392,
      "ĠÐ½Ð°ÑĥÑĩ": 4393,
      "ĠÐ½Ð°ÑĪÐ¸": 4394,
      "ĠÐ½Ð°Ð½Ð¸Ð¼": 4395,
      "ĠÐ½Ð°ÑĢÑĥÐ¶": 4396,
      "ĠÐ½Ð°ÑģÑĤÑĢÐ¾": 4397,
      "ĠÐ½Ð°ÑĦÐ¸Ð³": 4398,
      "ĠÐ½Ð°ÑģÑĤÑĥÐ¿Ð¸Ð»Ð°": 4399,
      "Ð¿Ð¾": 4400,
      "Ð¿Ð¸Ñĩ": 4401,
      "Ð¿ÐµÐ»Ð°": 4402,
      "Ð¿ÑĭÑĤ": 4403,
      "Ð¿Ð¸ÑģÑĮ": 4404,
      "Ð¿ÐµÑĢÐ²": 4405,
      "Ð¿Ð»Ð°ÑĤ": 4406,
      "Ð¾ÑĢÐ´": 4407,
      "Ð¾ÑĢÑĤÐ¸ÑĤÑĮ": 4408,
      "ÐµÐ¼Ð°": 4409,
      "ÐµÐ¼Ð»Ñı": 4410,
      "Ð½Ð°ÑĢÑĥÐ¶": 4411,
      "Ð½Ð°Ð½Ð¸Ðµ": 4412,
      "Ð±Ð¾Ð»": 4413,
      "Ð±Ð¸Ð¼": 4414,
      "Ð±ÐµÐ·": 4415,
      "Ð±Ð¸ÑĤÑĮ": 4416,
      "Ð±ÑĢÐ¾Ð´": 4417,
      "ĠÑĢÐ²": 4418,
      "ĠÑĢÐ¾Ð¼": 4419,
      "ĠÑĢÐµÐ¼": 4420,
      "ĠÑĢÐ°Ð¼": 4421,
      "ĠÑĢÐµÑģ": 4422,
      "ĠÑĢÐµÑĩ": 4423,
      "ĠÑĢÑĥÑħ": 4424,
      "ĠÑĢÐµÑĩÐ¸": 4425,
      "ĠÑĢÐµÑĩÑĮ": 4426,
      "ĠÑĢÐ¸ÑģÐº": 4427,
      "Ð¾ÑģÐ¸": 4428,
      "Ð¾ÑģÐ°ÑĤ": 4429,
      "Ð¾ÑģÐ¿Ð¾Ð´": 4430,
      "Ð·ÐµÑĢ": 4431,
      "Ð·Ð½ÑĥÑĤÑĮ": 4432,
      "ĠÑıÐ¹": 4433,
      "ĠÑıÐ±Ð»": 4434,
      "ĠÐµÐ¼": 4435,
      "ĠÐµÐ·": 4436,
      "ĠÐµÑĪÑĮ": 4437,
      "ĠÐµÐ±Ð°": 4438,
      "Ð¾ÑĤÐµ": 4439,
      "Ð¾ÑĤÐ°": 4440,
      "Ð¾ÑĤÑı": 4441,
      "Ð¾ÑĤÐ°ÑĤÑĮ": 4442,
      "Ð¾ÑĤÐ½Ð¾Ð³Ð¾": 4443,
      "Ð¾ÑĤÐºÑĥ": 4444,
      "Ð¾ÑĤÐ²Ð¾ÑĢ": 4445,
      "Ð°Ð¼ÐµÑĤ": 4446,
      "Ð°Ð¼ÐµÑģÑĤ": 4447,
      "Ð°Ð¼Ð¸Ð»Ð¸": 4448,
      "Ð°ÑģÑĪÑĤÐ°Ð±": 4449,
      "Ð°ÑģÐ±ÑĢÐ¾Ð´": 4450,
      "Ð°Ð·Ð°ÑĤÑĮ": 4451,
      "ĠÐ±ÑĭÑģÑĤÑĢ": 4452,
      "ĠÐ±ÑĭÑģÑĤÑĢÑĭÐ¼": 4453,
      "ÑĨÐ°Ð¼": 4454,
      "ÑĨÐ°ÑĢ": 4455,
      "Ð¾Ð±Ð½Ð¾": 4456,
      "Ð¾Ð±ÐµÑī": 4457,
      "ÑīÐ¸ÑĤ": 4458,
      "ÑīÐµÐ¼Ñĥ": 4459,
      "ÑīÐ¸Ð½Ð°": 4460,
      "ÑĤÐ¸Ðµ": 4461,
      "ÑĤÐ¸Ð¼": 4462,
      "ÑĤÐ¸ÑĤÐµÐ»ÑĮ": 4463,
      "ÑĤÐ¸ÑĤÑģÑı": 4464,
      "ĠÑĥÐº": 4465,
      "ĠÑĥÑī": 4466,
      "ĠÑĥÐ½Ð¸Ð¼": 4467,
      "ĠÑĥÑĪÐµÐ»": 4468,
      "ĠÑĥÑģÑĤÑĢÐ¾": 4469,
      "ĠÑĥÑĤÑĢ": 4470,
      "ĠÑĥÐµÑħÐ°ÑĤÑĮ": 4471,
      "ĠÑĥÑĩÑĥÑģÑĮ": 4472,
      "ĠÑįÑĦ": 4473,
      "ĠÑįÐ¼Ð¾": 4474,
      "Ð¾Ð½Ð¸ÐµÐ¹": 4475,
      "Ð°Ð²Ð°": 4476,
      "Ð°Ð²ÑĪÐ¸": 4477,
      "Ð°Ð²Ð»Ñİ": 4478,
      "Ð°Ð²ÐµÑĨ": 4479,
      "Ð°Ð²ÑĪÐ°Ñı": 4480,
      "Ð°Ð²ÑĪÐµÐµ": 4481,
      "Ð°Ð²ÑģÐµÐ»": 4482,
      "Ð°Ð²ÑĪÐµÐ¼": 4483,
      "Ð»Ð¸ÑĢ": 4484,
      "Ð»Ð¸Ð°ÑĢ": 4485,
      "Ð¾Ð³Ð¸": 4486,
      "Ð³Ð¾Ð¼": 4487,
      "Ð³ÑĢÑĥ": 4488,
      "ĠÐ³Ð°Ð»": 4489,
      "ĠÐ³ÐµÑĢ": 4490,
      "ĠÐ³Ð°Ð´": 4491,
      "ĠÐ³Ð¾Ð»ÑĮ": 4492,
      "ĠÐ³ÑĢÐ°Ð²": 4493,
      "ĠÐ³Ð°ÑĢÐ¼": 4494,
      "ĠÐ³ÑĢÑĥ": 4495,
      "ĠÐ³Ð½ÑĥÑģ": 4496,
      "ĠÐ»ÐµÐ½": 4497,
      "ĠÐ»Ð°Ð¼": 4498,
      "ĠÐ»Ð¾Ð³": 4499,
      "ĠÐ»Ð¾Ðº": 4500,
      "ĠÐ»ÐµÐ·": 4501,
      "ĠÐ»ÐµÑģ": 4502,
      "ĠÐ»Ð±Ñĥ": 4503,
      "Ð¸ÑĤÐ°Ñı": 4504,
      "Ð¸ÑĤÐµÐ»Ð¸": 4505,
      "Ð¸ÑĤÐµÐ»Ñı": 4506,
      "Ð¸ÑĤÐµÐ»ÑıÐ¼Ð¸": 4507,
      "Ð°Ð´ÐµÑĤ": 4508,
      "Ð°Ð´ÐºÐ¸": 4509,
      "Ð°Ð´ÐºÐµ": 4510,
      "Ð°Ð´Ð½Ð¾ÑģÑĤÐ¸": 4511,
      "Ð°Ð´Ð°ÑĩÐ°": 4512,
      "ĠÐ²ÑģÐ»ÐµÐ´": 4513,
      "ĠÐ²ÑģÐ»ÑĥÑĪ": 4514,
      "ĠÐ¿Ð¾ÑĥÑĤ": 4515,
      "ĠÐ¿Ð¾ÑģÑĤÑĢ": 4516,
      "ĠÐ¿Ð¾ÐµÐ·Ð´Ð°": 4517,
      "ĠÐ¿Ð¾Ð¾Ð´Ð°Ð»ÑĮ": 4518,
      "ĠÐ¿Ð¾Ð¾Ð±ÐµÑī": 4519,
      "Ð°Ð½ÐºÐ°": 4520,
      "Ð°Ð½Ð½Ð¾Ð¼": 4521,
      "Ð°Ð½ÑĤÐ¾Ð²": 4522,
      "Ð°Ð½ÐµÑģÑģ": 4523,
      "Ð°Ð½ÑĨÐµÐ²": 4524,
      "Ð°Ð½Ð·Ð°Ðº": 4525,
      "ÐµÐ¹Ð·ÐµÑĢ": 4526,
      "Ð°ÑĢÐ°": 4527,
      "Ð°ÑĢÑĤ": 4528,
      "Ð°ÑĢÐ°Ð½": 4529,
      "Ð°ÑĢÐ¾Ðº": 4530,
      "Ð°ÑĢÐºÐ¾Ð²": 4531,
      "Ð½ÑĥÑĤÐ¾Ñİ": 4532,
      "ĠÐ¾ÑĤÐµÑĨ": 4533,
      "ĠÐ¾ÑĤÐ½Ñİ": 4534,
      "ĠÐ¾ÑĤÑĩÐµÑĤ": 4535,
      "ĠÐ¾ÑĤÐ´Ð°Ð»": 4536,
      "ĠÐ¾ÑĤÑĤÐ¾Ð³Ð¾": 4537,
      "ĠÐ¾ÑĤÐ½Ð¾ÑĪ": 4538,
      "ĠÐ¾ÑĤÐ´Ð¾ÑħÐ½ÑĥÐ»": 4539,
      "ĠÐ¾ÑĤÑĩÐ°ÑģÑĤÐ¸": 4540,
      "ĠÐ¾ÑĤÑĨÐ¾Ð¼": 4541,
      "ĠÐ¾ÑĤÑģÑĥÑĤÑģÑĤÐ²": 4542,
      "Ð¾Ð»ÑĮÐºÐ¸Ñħ": 4543,
      "ÑģÑĮÐµÐ²": 4544,
      "Ð¸Ð¼ÑĭÐ¼": 4545,
      "Ð¸Ð²Ð°Ð¹": 4546,
      "Ð¸Ð²Ð°Ñİ": 4547,
      "Ð¸Ð²Ð¾Ðµ": 4548,
      "Ð¸Ð²Ð°Ð»Ð¸": 4549,
      "Ð¸Ð²Ð°Ð»Ð¸ÑģÑĮ": 4550,
      "Ð¸Ð²ÑĪÐ¸ÑģÑĮ": 4551,
      "Ð¸Ð²Ð°ÑıÑģÑĮ": 4552,
      "Ð¸Ð²ÑĪÐ°Ñı": 4553,
      "ĠÐ°ÑĤ": 4554,
      "ĠÐ°Ð½": 4555,
      "ĠÐ°ÑĢ": 4556,
      "ĠÐ°Ð»Ð¸": 4557,
      "ĠÐ°Ð½Ð°Ð»": 4558,
      "ĠÐ°Ð»ÑĮ": 4559,
      "ÐµÐºÐ°": 4560,
      "ÐµÐºÑĤÑĭ": 4561,
      "ÐµÐºÑĤÑĢ": 4562,
      "ÐµÐ±ÑıÑĤ": 4563,
      "ÐµÐ±ÑĢÑı": 4564,
      "Ð¾ÐºÐ¾Ð²": 4565,
      "Ð¾ÐºÐ°Ñĩ": 4566,
      "Ð¾ÐºÐ»Ð¾Ð½": 4567,
      "ĠÑģÑĤÐµÑģ": 4568,
      "ĠÑģÑĤÐ°Ð»ÑĮ": 4569,
      "ĠÑģÑĤÑĥÑĩ": 4570,
      "ĠÑģÑĤÑĥÐ¿": 4571,
      "ĠÑģÑĤÑĥÐ»Ð°": 4572,
      "ĠÑģÑĤÐµÐºÐ»Ñı": 4573,
      "ĠÑĤÐ°ÐºÐ¾Ð²": 4574,
      "ĠÑĤÐ°ÐºÐ¾Ð¼": 4575,
      "ĠÑĤÐ°ÐºÐ¾Ð¼Ñĥ": 4576,
      "ĠÑĤÐ°ÐºÑĥÑİ": 4577,
      "ĠÑĤÐ°ÐºÑĤÐ¸ÐºÐ°": 4578,
      "Ð»Ð°Ñı": 4579,
      "ĠÑħÐ»": 4580,
      "ĠÑħÐ¸ÑĤ": 4581,
      "ĠÑħÐ¾Ð»Ð¾Ð´": 4582,
      "ĠÑħÐ¼ÐµÐ»": 4583,
      "ĠÑħÐ²Ð°ÑĤ": 4584,
      "ÐµÐ·ÑĤÐ¸": 4585,
      "ÐµÐ·Ð´Ñĥ": 4586,
      "ĠÐ¾Ð±Ð²": 4587,
      "ĠÐ¾Ð±Ð¸Ð´": 4588,
      "ĠÐ¾Ð±ÑīÐµ": 4589,
      "ĠÐ¾Ð±ÑĥÑĩ": 4590,
      "ĠÐ¾Ð±ÑħÐ¾Ð´": 4591,
      "ĠÐ¾Ð±ÐµÑī": 4592,
      "ĠÐ¾Ð±ÑĢÐ°ÑĤ": 4593,
      "ĠÐ¾Ð±ÑīÐµÐµ": 4594,
      "ĠÐ¾Ð±ÑģÑĥÐ´": 4595,
      "ĠÐ¾Ð±Ð²Ð¸Ð½": 4596,
      "ĠÐ¾Ð±ÑģÑĤÐ°Ð½Ð¾Ð²": 4597,
      "ĠÐ¾Ð±Ð¾ÑģÑĢÐ°ÑĤÑĮÑģÑı": 4598,
      "ĠÐ¾Ð±ÑĭÑģÐº": 4599,
      "ĠÐ¾Ð±Ð½Ð°ÑĢÑĥÐ¶": 4600,
      "ĠÐ²ÑĭÐ¹": 4601,
      "ĠÐ²ÑĭÐ½ÑĥÐ»": 4602,
      "ĠÐ²ÑĭÑģÑĤÐ°Ð²": 4603,
      "ĠÐ²ÑĭÑĤÐµÑĢ": 4604,
      "ĠÐ²ÑĭÑħÐ¾Ð´Ð¸ÑĤ": 4605,
      "ĠÐ²ÑĭÑħÐ¾Ð´Ñı": 4606,
      "ĠÐ²ÑĭÐ³Ð»Ñı": 4607,
      "ĠÐ²ÑĭÑĩÐ¸Ñģ": 4608,
      "ĠÐ²ÑĭÐµÐ·Ð¶": 4609,
      "ĠÐ²ÑĭÑĪÐ»Ð°": 4610,
      "ĠÐ²ÑĭÐ¹ÑĤÐ¸": 4611,
      "ĠÐ²ÑĭÑĢÐ°Ð±Ð¾ÑĤ": 4612,
      "ÐºÐ¸Ð´": 4613,
      "ĠÐŁÐ¾Ð¿": 4614,
      "ĠÐŁÐµÑĢÐ²": 4615,
      "ĠÐŁÐ¾Ð¼Ð½Ð¸": 4616,
      "ĠÐŁÐµÑĢÑģ": 4617,
      "ÑĥÐ´Ñĭ": 4618,
      "Ð°ÑĤÐ¸Ð»": 4619,
      "Ð°ÑĤÐ°Ñħ": 4620,
      "Ð°ÑĤÑĭÐ¼": 4621,
      "Ð°ÑĤÐµÐ»Ñı": 4622,
      "ĠÐĿÐ¸": 4623,
      "ĠÐĿÐ°Ðº": 4624,
      "ĠÐĿÐ°Ð¼": 4625,
      "ĠÐĿÐµÐ²": 4626,
      "ĠÐĿÐ°Ñĩ": 4627,
      "ĠÐĿÐµÐ»ÑĮÐ·Ñı": 4628,
      "ĠÐĿÐ°Ð²ÐµÑĢÐ½Ð¾Ðµ": 4629,
      "ĠÐĿÐ°ÑĪÐ°": 4630,
      "ÐĲÐĲÐĲÐĲÐĲÐĲ": 4631,
      "Ð¸Ð´ÐµÑģÑı": 4632,
      "ĠÐ¿ÑĢÐ¸Ð³": 4633,
      "ĠÐ¿ÑĢÐ¸Ð¶": 4634,
      "ĠÐ¿ÑĢÐ¸Ð¾Ð±ÑĢ": 4635,
      "ĠÐ¿ÑĢÐ¸ÑĩÐ¸": 4636,
      "ĠÐ¿ÑĢÐ¸ÑĩÐµÐ¼": 4637,
      "ĠÐ¿ÑĢÐ¸Ð¿Ð¾Ð¼": 4638,
      "ĠÐ¿ÑĢÐ¸Ð¹ÑĤÐ¸": 4639,
      "ĠÐ¿ÑĢÐ¸Ð³Ð¾ÑĤÐ¾Ð²": 4640,
      "ĠÐ¿ÑĢÐ¸ÐºÐ¾Ñģ": 4641,
      "ĠÐ¿ÑĢÐ¸Ð¾ÑĤÐ²Ð¾ÑĢ": 4642,
      "ĠÐ¶ÑĥÑĤ": 4643,
      "ĠÐ¶Ð¸Ð»Ð¸": 4644,
      "ĠÐ¶Ð¸ÑĢ": 4645,
      "ĠÐ¶Ð¸Ð»ÑĮ": 4646,
      "ĠÐ¶ÐµÐ½Ð°": 4647,
      "ĠÐ¶ÑĢÐ°ÑĤÑĮ": 4648,
      "ĠÐ¶Ð°ÑĢÑĥ": 4649,
      "ĠÐ¶Ð°Ð´Ð½Ð¾ÑģÑĤÐ¸": 4650,
      "ÑĢÑĥÐ·": 4651,
      "ÑĢÑĥÐ¶Ðµ": 4652,
      "ÐµÐ¿ÐµÑĤ": 4653,
      "ĠÐ·Ð°ÑĤÐ¾": 4654,
      "ĠÐ·Ð°ÑĪÐµÐ»": 4655,
      "ĠÐ·Ð°ÑħÐ²Ð°ÑĤ": 4656,
      "Ð¾Ð·Ð²Ð¾Ð»": 4657,
      "Ð¾Ð·ÐµÐ»Ñı": 4658,
      "Ð¶Ð°Ñı": 4659,
      "Ð¶ÐµÐ²ÑĭÐ¹": 4660,
      "Ð¶ÐµÐ½ÐµÑĢ": 4661,
      "ĠÐŀÐ½Ð¾": 4662,
      "ĠÐŀÐºÐ°Ð·": 4663,
      "ĠÐŀÐºÐµÐ¹": 4664,
      "Ð»ÑıÐµÑĤ": 4665,
      "Ð»ÑıÐ¹": 4666,
      "Ð»ÑıÐµÑĤÑģÑı": 4667,
      "Ð»ÑıÑıÑģÑĮ": 4668,
      "Ð»ÑıÐ»ÑģÑı": 4669,
      "Ð»ÑıÑĩÐºÐ°": 4670,
      "ÐµÐ³Ð¾ÑĢÐ¾Ð´": 4671,
      "ĠÑĢÐ°Ð·Ð¾Ð¼": 4672,
      "ĠÑĢÐ°Ð·Ð²ÐµÑĢ": 4673,
      "ĠÑĢÐ°Ð·Ð¾Ð±ÑĢ": 4674,
      "ĠÑĢÐ°Ð·ÑĢÑĥ": 4675,
      "ĠÑĢÐ°Ð·Ð´Ð¾ÑĢ": 4676,
      "ĠÑĢÐ°Ð·Ð³Ð»ÑıÐ´": 4677,
      "ĠÑĢÐ°Ð·Ð»ÑĥÑĩ": 4678,
      "ÑħÐ¾ÑĤÐ¾Ñĩ": 4679,
      "ĠÑģÐ»ÐµÐ¶": 4680,
      "ĠÐĺÑģÐ¿": 4681,
      "ĠÐĺÐ½Ð°ÑĩÐµ": 4682,
      "ÐµÐ²Ð¸Ð·": 4683,
      "ÐµÐ²ÑĪÐ°Ñı": 4684,
      "ĠÐ¡ÑĥÐ½": 4685,
      "ĠÐ¡ÐºÐ¾ÑĢ": 4686,
      "ĠÐ¡Ð¼ÑĥÑī": 4687,
      "ĠÐ¡Ð¾ÑģÐ¸": 4688,
      "Ð¸Ð½ÐºÐ¾Ð¹": 4689,
      "Ð¸Ð½ÑĮÑı": 4690,
      "Ð¸Ð½ÑģÐºÐ¸Ð¹": 4691,
      "Ð¸Ð½ÑĨÐµÑģÑģ": 4692,
      "ÐµÐ»ÑĮÐ½Ð¸": 4693,
      "ÐµÐ»ÑĮÐ±Ð°Ð½": 4694,
      "ÐµÑģÐ½Ð¾": 4695,
      "ÐµÑģÐµÐ½ÑĮ": 4696,
      "ĠÐ¢Ð°Ð¼": 4697,
      "ĠÐ¢Ð¾Ð»ÑĮÐºÐ¾": 4698,
      "ĠÐ¢Ð¾Ð¶Ðµ": 4699,
      "ĠÐ¢Ð²Ð¾Ñı": 4700,
      "ĠÐĶÐ¾Ð¼": 4701,
      "ĠÐĶÐµÐ¹ÑģÑĤÐ²": 4702,
      "ĠÐĶÐ°Ð¹ÑĤÐµ": 4703,
      "ĠÐĶÐµÐ½ÐµÐ³": 4704,
      "ĠÐĶÐ²Ð°": 4705,
      "ĠÐĲÐĲÐĲÐĲÐĲÐĲÐĲÐĲÐĲ": 4706,
      "ĠÐĲÐ½Ð¸Ð¼": 4707,
      "ĠÐĲÐ½Ð³": 4708,
      "ĠÐĲÐĲÐĲÐĲÐĲÐĲÐĲ": 4709,
      "ĠÐľÑĥÐ¶": 4710,
      "ĠÐľÐµÐ½Ñı": 4711,
      "ĠÐľÐ½Ð¾Ð³Ð¾": 4712,
      "ĠÐľÐ¾Ðµ": 4713,
      "ĠÐľÐ°Ð»Ð¾": 4714,
      "ĠÐľÐµÐ±ÐµÐ»ÑĮ": 4715,
      "ĠÐľÑĥÐ·ÑĭÐºÐ°": 4716,
      "Ð°Ð¶Ð´Ñĭ": 4717,
      "ĠÐ¿Ð¾Ð´ÑĤ": 4718,
      "ĠÐ¿Ð¾Ð´Ð´": 4719,
      "ĠÐ¿Ð¾Ð´Ð³Ð»ÑıÐ´": 4720,
      "ĠÐ¿Ð¾Ð´ÑħÐ¾Ð´Ð¸ÑĤ": 4721,
      "ĠÐ¿Ð¾Ð´ÑĢÐ¾Ð±": 4722,
      "ĠÐ¿Ð¾Ð´ÐºÑĢÐµÐ¿": 4723,
      "ĠÐ¿Ð¾Ð´Ð°ÑĪÑĮ": 4724,
      "ĠÐĴÐ´": 4725,
      "ĠÐĴÐ¾Ñģ": 4726,
      "ĠÐĴÐ¾Ð½": 4727,
      "ĠÐĴÑĭÐ»": 4728,
      "ĠÐĴÑħÐ¾Ð´Ñı": 4729,
      "ĠÐĴÐ°Ð½ÐµÑģÑģ": 4730,
      "ĠÐ¸Ð·Ð½Ð°Ñĩ": 4731,
      "ÐµÐ½ÑĮÐºÐ¸Ðµ": 4732,
      "ĠÑĤÐ¾ÑģÐºÐ¸": 4733,
      "ĠÐļÐ°Ð¿": 4734,
      "ĠÐļÐ²Ð°ÑĢÑĤÐ¸": 4735,
      "ĠÐļÐ¾Ð·ÐµÐ»Ñı": 4736,
      "ÐµÑĩÐ°": 4737,
      "ÐµÑĩÐ½ÑĭÐ¼Ð¸": 4738,
      "ÐµÑĢÑĮÑİ": 4739,
      "ÑĢÐ°ÑĤÐ¸ÑĤÐµÐ»ÑĮ": 4740,
      "Ð¾ÑĩÐ½ÑĭÐ¹": 4741,
      "Ð¾Ð¿Ð¸Ð»": 4742,
      "Ð¾Ð¿Ð¸Ð»Ð¾ÑģÑĮ": 4743,
      "ĠÑģÐ²Ð¾Ð±": 4744,
      "ĠÑģÐ²Ð¸Ð½ÑĮÑı": 4745,
      "Ð°ÑİÑīÐµÐµ": 4746,
      "Ð°Ð¿Ð¾Ð³Ð¸": 4747,
      "ÐµÐ½ÑıÑħ": 4748,
      "Ð°Ð»ÑĮÐ½ÑĭÐµ": 4749,
      "Ð°Ð»ÑĮÐ½Ð¾Ðµ": 4750,
      "Ð°Ð»ÑĮÐ½ÑĭÐ¼Ð¸": 4751,
      "Ð°Ð»ÑĮÐ±Ñĭ": 4752,
      "Ð¸ÑĩÐºÐ°": 4753,
      "Ð¸ÑĩÐ°Ñħ": 4754,
      "ÐµÑĪÐ½Ð¾": 4755,
      "ÐµÑĪÐ¸Ð¼Ð¾ÑģÑĤÐ¸": 4756,
      "ÑĥÑĩÐ½Ð¾": 4757,
      "ĠÑģÐ¿Ð°Ð»": 4758,
      "ĠÑģÐ¿Ð¾ÑĢ": 4759,
      "ĠÑģÐ¿Ð¾ÑĤ": 4760,
      "ĠÑģÐ¿ÑĥÑģ": 4761,
      "ĠÑģÐ¿ÐµÐºÑĤÑĢ": 4762,
      "ĠÑģÐ¿Ð¸ÑĩÐºÐ°": 4763,
      "ÐµÑģÑĤÐ¸Ð»ÑģÑı": 4764,
      "ĠÐ¿Ð¾Ð»Ð¾ÑģÐ°ÑĤ": 4765,
      "ĠÐ´Ð²Ð¸Ð³": 4766,
      "ĠÐ´Ð²Ð¾Ð¸Ñĩ": 4767,
      "Ð°Ð±Ð°Ð²": 4768,
      "Ð°Ð±Ð°ÑĤ": 4769,
      "ĠÐ¿ÐµÑĢÐµÐ»": 4770,
      "ĠÐ¿ÐµÑĢÐµÐ¶": 4771,
      "ĠÐ¿ÐµÑĢÐµÐ³Ð¾ÑĢÐ¾Ð´": 4772,
      "ÐºÑĥÐ»ÑĮ": 4773,
      "Ð¾ÑĪÐ»Ð¾": 4774,
      "ĠÑģÐºÐ¾ÑĤ": 4775,
      "ĠÑģÐºÑĥÑĩ": 4776,
      "ĠÑģÐºÐ»Ð¾Ð½": 4777,
      "ĠÑģÐºÑĢÑĭÐ²": 4778,
      "ĠÑģÐºÐ²Ð¾Ð·ÑĮ": 4779,
      "ĠÐºÐ¾ÑĤÐ¾ÑĢÑĭÐ¼": 4780,
      "ÑħÐ¾Ð´Ð¸ÑĤÐµ": 4781,
      "ÑħÐ¾Ð´Ð¸Ð»Ð¾": 4782,
      "ÑħÐ¾Ð´Ð¸Ð¼Ð¾": 4783,
      "Ð¾ÑģÑĤÐ¾Ð¹": 4784,
      "ÑĥÑĤÐ¸Ð»Ð°ÑģÑĮ": 4785,
      "ĠÑģÐ°Ð¼ÑĭÐµ": 4786,
      "ĠÑģÐ°Ð¼ÑĭÐ¼": 4787,
      "ĠÐ¿Ð¾ÑģÐµÑĤ": 4788,
      "ĠÐ¿Ð¾ÑģÐµÐ´": 4789,
      "ĠÐ¿Ð¾ÑģÑĥÐ´": 4790,
      "Ð¸ÑģÐ°": 4791,
      "Ð¸ÑģÑĤÐ¾": 4792,
      "ĠÐºÑĢÐµÐ´": 4793,
      "ĠÐºÑĢÐ¾Ð»Ð¸ÐºÑĥ": 4794,
      "ÐµÐ¶ÑĮ": 4795,
      "ĠÐ¾Ð´Ð½Ð¸": 4796,
      "ĠÐ¾Ð´Ð½Ð¾Ð³Ð¾": 4797,
      "ĠÐ¾Ð´Ð½Ð¾Ð¼Ñĥ": 4798,
      "ĠÐ¾Ð´Ð½Ð¾Ð³": 4799,
      "ÑĥÑİÑīÐµÐ¹": 4800,
      "ĠÐ³Ð¾ÑģÑĤÐ¸": 4801,
      "ĠÐ²Ð¸Ð´Ñĥ": 4802,
      "ĠÐ²Ð¸Ð´Ñı": 4803,
      "ĠÐ²Ð¸Ð´Ð¸ÑĤÐµ": 4804,
      "ĠÐ²Ð¸Ð´Ð¸Ð¼Ð¾": 4805,
      "ĠÐ²Ð¸Ð´Ð½ÐµÐ»Ð¸ÑģÑĮ": 4806,
      "ĠÐ¼ÑĭÑģÐ»Ñı": 4807,
      "ÑĦÐ¸Ð»ÑĮ": 4808,
      "ĠÐ»Ð¸Ð¿": 4809,
      "ĠÐ»Ð¸ÑĦ": 4810,
      "ĠÑĦÐ°Ð½": 4811,
      "ĠÑĦÐ¸Ð·": 4812,
      "ĠÑĦÐ¸Ð»ÑĮ": 4813,
      "ĠÑĦÑĥÐ½": 4814,
      "ĠÑĦÐ¾Ð½Ð°ÑĢÐ¸Ðº": 4815,
      "ĠÑĦÐ¾ÑĤÐ¾": 4816,
      "ĠÑĦÐ°Ð¼Ð¸Ð»Ð¸": 4817,
      "ÑĥÐ¼ÐµÐ½ÑĤ": 4818,
      "ÑĭÐ²Ð°Ð»ÑģÑı": 4819,
      "ÑĭÐ²Ð°ÑĤÑĮÑģÑı": 4820,
      "ÑĭÐ²Ð°ÑİÑīÐ¸Ðµ": 4821,
      "Ð¸Ð·Ð½ÑĮ": 4822,
      "ĠÐ½Ð°Ð´Ð¿Ð¸ÑģÑĮ": 4823,
      "ĠÐ½Ð°Ð´Ð¾Ð±Ð½Ð¾": 4824,
      "Ð°Ð½Ð¸ÑĤÑĮ": 4825,
      "ÑĥÑĪÐºÐ¸": 4826,
      "ÑĥÑĪÐµÐ½Ð¸Ñı": 4827,
      "ĠÑĩÐµÐ»Ð¾Ð²ÐµÑĩÐµ": 4828,
      "ĠÑĩÐµÐ»Ð¾Ð²ÐµÑĩÐµÑģ": 4829,
      "ĠÑģÐ¼ÐµÑıÐ»Ð¸ÑģÑĮ": 4830,
      "ĠÐ¿ÑĢÐ¾ÑħÐ¾Ð´Ñı": 4831,
      "ĠÐ¿ÑĢÐ¾ÐµÐºÑĤ": 4832,
      "ĠÐ¿ÑĢÐ¾ÑıÑģÐ½": 4833,
      "ĠÐ¿ÑĢÐ¾ÑħÐ¾Ð¶": 4834,
      "ĠÐ¿ÑĢÐ¾ÑħÐ¾Ð´Ð½Ð°Ñı": 4835,
      "Ð½Ð¸ÐºÐµ": 4836,
      "Ð½Ð¸ÐºÐ°Ð¼Ð¸": 4837,
      "ĠÐłÐ¾Ð´": 4838,
      "ĠÐłÐ¾Ð±Ð»Ð¾ÐºÑģ": 4839,
      "ĠÐłÐ¾ÐºÑģÐ¸": 4840,
      "ĠÐłÐµÐ±ÑıÑĤ": 4841,
      "ĠÐłÑĥÐ´Ñĭ": 4842,
      "ĠÐ¾ÑĩÐµÑĢÐµÐ´": 4843,
      "ĠÐ¾ÑĩÐµÑĢÐµÐ´ÑĮ": 4844,
      "ĠÑĩÐµÐ»Ð¾Ð²ÐµÐºÐ¾Ð¼": 4845,
      "ĠÐ²Ð·Ð°Ð´": 4846,
      "ĠÐ²Ð·ÑĢÑĭÐ²": 4847,
      "ĠÐºÐ¾Ð¼Ð¼ÐµÐ½ÑĤ": 4848,
      "ĠÑģÐ²Ð¾ÐµÐ¼": 4849,
      "ÑģÐ»Ð¾Ð²": 4850,
      "ÑģÐ»Ð¾Ð²Ð°": 4851,
      "Ð½ÑıÐ³Ð°": 4852,
      "ÑĥÐ±ÐµÐ¶": 4853,
      "ĠÑĪÐºÐ°": 4854,
      "ĠÑĪÐ¾Ðº": 4855,
      "ĠÑĪÐµÑģÑĤ": 4856,
      "ĠÑĪÑĥÐ¼": 4857,
      "ĠÑĪÑĤÑĥ": 4858,
      "ĠÑĪÐµÑģÑĤÐ¸": 4859,
      "ĠÑĪÐ¾Ñĥ": 4860,
      "ĠÑĪÑĥÐ¼Ð½Ð¾": 4861,
      "Ð»ÑİÐ±": 4862,
      "ÑĢÐ°Ð²ÑĪÐ¸Ð¹": 4863,
      "ÑĢÐ°Ð²ÑĪÐ¸ÑģÑĮ": 4864,
      "ÑĨÐ¸Ð¿Ðµ": 4865,
      "ĠÐ¿ÑĢÐ¾ÑģÐºÐ¾Ð»ÑĮ": 4866,
      "ĠÐ¿ÑĢÐ¾ÑģÐ²ÐµÑī": 4867,
      "ĠÐ§ÐµÐ»Ð¾Ð²ÐµÐº": 4868,
      "ĠÑħÐ¾ÑĤÑıÑĤ": 4869,
      "ĠÐĶÑĥÐ½ÐµÐ¹": 4870,
      "ĠÐ¾Ð¿ÑĮÑı": 4871,
      "ĠÐ¾Ð¿ÑĭÑĤ": 4872,
      "ĠÐ¾Ð¿Ð¸ÑģÑĭÐ²": 4873,
      "ĠÐ¾Ð¿ÐµÑĢÑģÑı": 4874,
      "ĠÑĢÐ°ÑģÑĩÐµÑĤ": 4875,
      "ÑĢÐ°Ð·ÑĥÐ¼": 4876,
      "ĠÐĳÑĭÐ»": 4877,
      "ĠÐĳÑĢÐµÐ»": 4878,
      "ÑĢÐ¸ÑĤÐ¾ÑĢ": 4879,
      "ÑĢÐ¸ÑıÑĤÐ¸": 4880,
      "ÑĢÐ¸ÑıÑĤÐ½Ð¾": 4881,
      "ĠÐ¼Ð¾ÐµÑĤ": 4882,
      "ĠÐ¼Ð¾ÐµÐ¼": 4883,
      "ĠÐ¼Ð¾Ñī": 4884,
      "ĠÐ¼Ð¾ÐµÐ³Ð¾": 4885,
      "ĠÐ¼Ð¾ÐµÐ¼Ñĥ": 4886,
      "ĠÑģÐ¾ÐµÐ´Ð¸Ð½": 4887,
      "ĠÑģÐ¾Ð¾ÑĤÐ²ÐµÑĤ": 4888,
      "Ð¸ÑĤÐµÐ»ÑĮÐ½Ð¾Ð³Ð¾": 4889,
      "Ð¸ÑĤÐµÐ»ÑĮÐ½ÑĥÑİ": 4890,
      "Ð¸ÑĤÐµÐ»ÑĮÐ½ÐµÐµ": 4891,
      "ÐµÐ½Ð¸ÑıÑħ": 4892,
      "ĠÐĹÐ°Ð²": 4893,
      "ĠÐĹÐ´Ð¾ÑĢÐ¾Ð²": 4894,
      "ĠÐĹÐ°ÑĤÐµÐ¼": 4895,
      "ĠÐĹÐ²ÑĥÐº": 4896,
      "ĠÐĹÐµÐ¼Ð»Ñı": 4897,
      "ĠÐĹÐ°Ð´Ð°ÑĩÐ°": 4898,
      "ÐµÐµÐµÐµ": 4899,
      "ĠÐ¾ÑģÐ¼Ð¾ÑĤÑĢ": 4900,
      "ĠÐ¾ÑģÐ¼ÐµÐ»": 4901,
      "ĠÐ½Ð°ÑģÐµÐ»": 4902,
      "ĠÐ½Ð°ÑģÐ¼ÐµÑĪ": 4903,
      "ĠÐ½Ð°Ð¿Ð¸ÑĤ": 4904,
      "ĠÐ½Ð°Ð¿Ð°ÑĢ": 4905,
      "ĠÐ½Ð°Ð¿ÑĢÐ¾ÑĤÐ¸Ð²": 4906,
      "ĠÐ½Ð°Ð¿Ð¾Ð¼Ð¸Ð½Ð°Ð»": 4907,
      "Ð¼ÑĥÐ½Ð´": 4908,
      "ÑĥÐ¿ÑĢÐµÐ¶": 4909,
      "ĠÐ¿Ð¾Ð½ÑıÑĤÐ¸": 4910,
      "ĠÐ¿Ð¾Ð½ÑıÐ»Ð¸": 4911,
      "ĠÐ´Ð¾Ð¼Ð¾Ð²": 4912,
      "ĠÐ´Ð¾Ð¼Ð°ÑĪ": 4913,
      "ÐµÑħÐµ": 4914,
      "ÐµÑħÐ¸": 4915,
      "ÐµÑħÐ°Ð»Ð°": 4916,
      "ÐµÑħÐ°Ð»Ð¸": 4917,
      "Ð¸ÑĢÑĥ": 4918,
      "Ð¸ÑĢÐ¾Ñģ": 4919,
      "Ð¸ÑĢÐ°ÑĤÑĮ": 4920,
      "ĠÐ³Ð¾Ð²Ð¾ÑĢÑıÑĤ": 4921,
      "ĠÐ³Ð¾Ð²Ð¾ÑĢÐ¸ÑĪÑĮ": 4922,
      "ĠÐ¢Ð°ÐºÐ¾Ð¹": 4923,
      "ĠÐ¢Ð°ÐºÐ¾Ðµ": 4924,
      "Ð¸Ð½Ð°ÑĤÑĮ": 4925,
      "ĠÑĤÑĢÐµÐ²": 4926,
      "ĠÑĤÑĢÐ¾Ðµ": 4927,
      "ĠÑĤÑĢÐµÑħ": 4928,
      "ĠÑĤÑĢÑĥÑģ": 4929,
      "ĠÑĤÑĢÐ¾ÑĤÑĥ": 4930,
      "ĠÑĤÑĢÑĥÑģÐ»Ð¸": 4931,
      "ĠÑĤÑĢÑıÐ¿": 4932,
      "ĠÐ¿Ð¾ÐºÑĢÑĭ": 4933,
      "ĠÐ¿Ð¾ÐºÐ°Ð¼ÐµÑģÑĤ": 4934,
      "ĠÐ²Ð¾Ð¾Ð±ÑĢÐ°Ð¶": 4935,
      "ĠÐ²Ð¾ÐµÐ²Ð°ÑĤÑĮ": 4936,
      "ĠÐ±Ð¾Ð»ÑĮÐ½ÐµÐ¹": 4937,
      "ÑģÑĤÐ°Ð²ÑĮ": 4938,
      "ĠÐ±Ð¾Ð»Ñİ": 4939,
      "ĠÑĩÐµÑĢÐ½ÑĭÐ¹": 4940,
      "ĠÑĩÐµÑĢÐ½Ð¾Ð¼": 4941,
      "ĠÑĩÐµÑĢÐ½ÑĭÐ¼Ð¸": 4942,
      "ĠÐ½Ð¸Ð¶Ðµ": 4943,
      "ĠÐ²Ð¾Ð·ÑĮ": 4944,
      "ĠÐ²Ð¾Ð·Ð»Ðµ": 4945,
      "ĠÐ²Ð¾Ð·ÑĭÐ¼": 4946,
      "Ð¾Ð»Ð¶Ð½Ð¾": 4947,
      "ĠÐ¾ÑĤÐ²Ð¸Ñģ": 4948,
      "ĠÐ¾ÑĤÐ²ÑĢÐ°Ñī": 4949,
      "ĠÐ¾ÑĤÐ²ÑĢÐ°ÑĤÐ¸ÑĤÐµÐ»ÑĮ": 4950,
      "ĠÐ¿Ð¾ÑĢÐ°": 4951,
      "ĠÐ¿Ð¾ÑĢÑıÐ´": 4952,
      "ĠÐ½ÑĥÐ¶ÐµÐ½": 4953,
      "ĠÐ½ÑĥÐ¶Ð½Ð°": 4954,
      "ĠÐ²ÐµÑĢÐ¸Ð»": 4955,
      "ĠÐ²ÐµÑĢÐ½ÐµÐµ": 4956,
      "ĠÐ²ÐµÑĢÐ½ÑĥÑĤÑĮÑģÑı": 4957,
      "ĠÐ²ÐµÑĢÑģÐ¸Ñı": 4958,
      "ĠÐ±ÐµÐ·ÑĥÐ¼Ð½Ð¾": 4959,
      "ĠÐ¿ÑĢÐµÐ´ÐµÐ»": 4960,
      "ĠÐ¿ÑĢÐµÐ´ÑĢÐ°Ñģ": 4961,
      "ĠÐ¿ÑĢÐµÐ´ÑĩÑĥ": 4962,
      "ĠÐ¿ÑĢÐµÐ´Ð¼ÐµÑĤ": 4963,
      "ĠÐ¿ÑĢÐµÐ´ÑĥÐ¿ÑĢÐµÐ¶": 4964,
      "ĠÑģÐ¾Ð±ÑģÑĤÐ²ÐµÐ½Ð½Ð¾": 4965,
      "ĠÐºÐ¾Ð½ÑĤÑĢ": 4966,
      "ĠÐºÐ¾Ð½ÑĤÐ¾ÑĢÐµ": 4967,
      "ĠÐ»ÑİÐ±Ð¾Ð²": 4968,
      "ĠÐ»ÑİÐ±Ð¾Ð¼": 4969,
      "ĠÐ»ÑİÐ±Ð¾Ð¹": 4970,
      "ĠÐ»ÑİÐ±ÐµÐ·": 4971,
      "ĠÐ»ÑİÐ±Ð¾Ð¼Ñĥ": 4972,
      "ĠÐ»ÑİÐ±Ð²Ð¸": 4973,
      "ÑĭÑĪÐ»ÐµÐ½": 4974,
      "ĠÐ²ÑĢÐµÐ¼ÐµÐ½ÐµÐ¼": 4975,
      "Ð²ÐµÑĢÐ´": 4976,
      "ĠÐ¾ÐºÐ°Ð¶ÐµÑĤÑģÑı": 4977,
      "ÑĢÐµÐ´Ð´Ð¸": 4978,
      "ĠÐ½ÐµÑĤÑĥ": 4979,
      "ĠÑĨÐµÐ»ÑĮ": 4980,
      "ĠÑĨÐ²ÐµÑĤ": 4981,
      "ĠÐ¤Ð¾Ð½Ð°ÑĢÐ¸Ðº": 4982,
      "ĠÐ¤ÐµÐ¹Ð·ÐµÑĢ": 4983,
      "ĠÐ¤ÑĢÐµÐ´Ð´Ð¸": 4984,
      "Ð¸Ð³Ð°ÑĤÑĮ": 4985,
      "Ð¸Ð³ÑĢÑĭ": 4986,
      "ĠÐ¿Ð¾Ð¼Ð¾ÑĩÑĮ": 4987,
      "ĠÐ¿Ð¾Ð¼Ð°Ð´ÐºÐ¸": 4988,
      "ÑĢÐ¾Ð´Ð½Ð¾Ð¹": 4989,
      "ĠÐ½Ð¸ÐºÐ¾Ð¼Ñĥ": 4990,
      "Ð¼Ð¾ÐµÐ¼Ñĥ": 4991,
      "ĠÑĩÐ°ÑģÐ°": 4992,
      "ĠÑĩÐ°ÑģÑĥ": 4993,
      "ĠÑģÑĤÑĢÐ¾": 4994,
      "ĠÑģÑĤÑĢÐ¾Ð¹": 4995,
      "ĠÑģÑĤÑĢÐ¸Ð¼": 4996,
      "ĠÑģÑĤÑĢÐ¾Ðº": 4997,
      "ĠÑģÑĤÑĢÑĥÐº": 4998,
      "ĠÑģÑĤÑĢÐµÐ»ÑıÑĤÑĮ": 4999,
      "ĠÐĽÐµÑģÑĤÐ½Ð¸": 5000,
      "ĠÐĽÐ°Ð·ÐµÑĢ": 5001,
      "ÑĭÑĩÐ½ÑĭÐ¹": 5002,
      "ĠÐ¸Ð¼Ñı": 5003,
      "ĠÐ¸Ð¼ÐµÐ»Ð¾ÑģÑĮ": 5004,
      "ĠÐ´ÐµÐ»Ð¾Ð¼": 5005,
      "ÑĪÑĮÑģÑı": 5006,
      "ĠÑĢÑĥÐºÐ°Ð¼Ð¸": 5007,
      "ĠÑĢÑĥÐ»ÐµÐ¼": 5008,
      "ÑĨÐ°ÑĤÐ¸": 5009,
      "ĠÐ¸Ð½ÑĦÐ¾ÑĢÐ¼": 5010,
      "ĠÐ¸Ð½ÑģÑĤÐ¸ÑĤ": 5011,
      "ĠÐ¸Ð½Ð¶ÐµÐ½ÐµÑĢ": 5012,
      "ĠÐ³Ð¾Ð»ÑĥÐ±": 5013,
      "Ð»ÑİÑĩÐ°ÐµÑĤÑģÑı": 5014,
      "ĠÐ½Ð°Ð·Ð²Ð°Ð»Ð°": 5015,
      "ĠÐ²ÑģÑıÐºÐ¾Ð¹": 5016,
      "ĠÐ²ÑģÑıÐºÐ¸Ñħ": 5017,
      "ĠÐ²ÑģÑıÐºÑĥÑİ": 5018,
      "ĠÐ²ÑģÑıÐºÐ¾Ð¼Ñĥ": 5019,
      "Ð²ÑģÑĤÐ²Ð¾": 5020,
      "Ð²ÑģÑĤÐ²Ð¾Ð²Ð°Ð»": 5021,
      "ĠÐºÐ¾ÑĢÐ¾ÑĤ": 5022,
      "ĠÐ¿Ð¾ÑĩÑĤ": 5023,
      "ĠÐ¸Ð³ÑĢÐ¾ÐºÐ¾Ð²": 5024,
      "ĠÐ¸Ð³ÑĢÑĥÑĪÐºÐ¸": 5025,
      "ĠÑģÐ¾Ð²Ð¿Ð°Ð´": 5026,
      "ĠÐ·Ð°Ð´ÑĥÐ¼": 5027,
      "ĠÐ·Ð°Ð´ÑĢÐµÐ¼": 5028,
      "ĠÐ·Ð°Ð´Ð°Ñĩ": 5029,
      "ĠÐ·Ð°Ð´Ð°Ð½Ð¸Ñı": 5030,
      "ĠÐ·Ð°Ð´Ð½ÐµÐ³Ð¾": 5031,
      "ĠÐ·Ð°Ð´Ð½ÑİÑİ": 5032,
      "ĠÐ·Ð°Ð´ÑĥÐ¼Ð°Ð»ÑģÑı": 5033,
      "ĠÐ¿ÑĢÐ¾Ð´Ð²Ð¸Ð¶": 5034,
      "ĠÐ·Ð°Ð¿Ð°Ñģ": 5035,
      "ĠÐ·Ð°Ð¿Ð»Ð°": 5036,
      "ĠÐ·Ð°Ð¿Ð¾Ð¼Ð½": 5037,
      "ĠÐ·Ð°Ð¿ÑĢÑĭÐ³": 5038,
      "ĠÐ·Ð°Ð¿ÑĢÐµÑī": 5039,
      "ĠÐ£Ð·": 5040,
      "ĠÐ£Ð¶": 5041,
      "ĠÐ£ÑĥÑĥ": 5042,
      "ĠÐ¿Ð¾Ð·Ð¾ÑĢ": 5043,
      "ĠÐ¿Ð¾Ð·Ð½Ð°ÐºÐ¾Ð¼": 5044,
      "ĠÐ¿Ð¾Ð·Ð´Ð½Ð¾": 5045,
      "ĠÐ·Ð°ÐºÐ»Ð°Ð´": 5046,
      "ĠÐ·Ð°ÐºÑĢÑĭÐ²": 5047,
      "ĠÐ·Ð°ÐºÐ°Ð·Ð°ÑĤÑĮ": 5048,
      "ĠÐ·Ð°ÐºÐ»ÑİÑĩÐ°ÐµÑĤÑģÑı": 5049,
      "ĠÐ½Ð°ÑĪÐ¸Ñħ": 5050,
      "ĠÐĺÐ²Ð°Ð½": 5051,
      "ĠÐķÑģÑĤÑĮ": 5052,
      "ĠÐķÐ¼Ñĥ": 5053,
      "ĠÐ¾ÑģÑĤÐ°ÐµÑĤÑģÑı": 5054,
      "ĠÐ¾ÑģÑĤÐ°Ð½Ð°Ð²Ð»Ð¸Ð²": 5055,
      "ĠÐ±Ð»ÐµÑģÑĤ": 5056,
      "ĠÐ±Ð»Ð°Ð³Ð¾Ð½": 5057,
      "ĠÐ±Ð»Ð¾Ð³Ð°": 5058,
      "ĠÑģÑĤÐ°ÑĢÐ°Ð»ÑģÑı": 5059,
      "ĠÑģÑĤÐ°ÑĢÑĭÑħ": 5060,
      "ĠÑģÑĤÐ°ÑĢÑĭÐµ": 5061,
      "ĠÑģÑĤÐ°ÑĢÐ°ÑİÑĤÑģÑı": 5062,
      "ĠÑģÑĤÐ°ÑĢÐ°ÑİÑģÑĮ": 5063,
      "ĠÑģÑĤÐ°ÑĢÑĥÑĪÐ¾Ð½ÐºÐ°": 5064,
      "ĠÐ´Ð²ÐµÑĢÑĮÑİ": 5065,
      "ÑĢÑĥÑģ": 5066,
      "ĠÐ½ÐµÐºÑĢÐ°Ñģ": 5067,
      "ĠÑĤÐ¸Ð¿": 5068,
      "Ð¸Ð»ÑĮÐ½ÑĭÐµ": 5069,
      "ĠÐŁÑĢÐ¾": 5070,
      "ĠÐŁÑĢÐ¸Ñĩ": 5071,
      "ĠÐŁÑĢÐ¸Ñģ": 5072,
      "ĠÐŁÑĢÐ¸Ð¼ÐµÑĢÐ½Ð¾": 5073,
      "ĠÐŁÑĢÐ¾Ð¼Ð¾ÑĢÐ³": 5074,
      "ĠÐŁÑĢÐ¸Ð½ÑĨÐµÑģÑģ": 5075,
      "ĠÑĩÑĥÐ²ÑģÑĤÐ²Ð¾Ð¼": 5076,
      "ĠÑĩÑĥÐ²ÑģÑĤÐ²Ð°Ñħ": 5077,
      "ÑĢÑıÐ´": 5078,
      "ĠÐ½Ð°ÐºÐ»Ð¾Ð½": 5079,
      "ĠÐ½Ð°ÐºÐ¾Ð¿Ð¸Ð»Ð¾ÑģÑĮ": 5080,
      "ĠÐ·Ð°Ð±ÑĢ": 5081,
      "ĠÐ·Ð°Ð±Ð¸ÑĤ": 5082,
      "ĠÐ·Ð°Ð±Ð¾ÑĢÐ°": 5083,
      "ĠÐ·Ð°Ð±ÑĭÑĤÑĮ": 5084,
      "ĠÐ¿ÐµÑĢÐµÐ´Ð¾": 5085,
      "ĠÐ³Ð»Ð°Ð·ÐºÐ¸": 5086,
      "ĠÐ³Ð»Ð°Ð·Ð°Ñħ": 5087,
      "ĠÐ³Ð»Ð°Ð·ÐºÐ°Ð¼Ð¸": 5088,
      "ĠÐ³ÐµÐ½ÐµÑĢÐ°ÑĤÐ¾ÑĢÑĥ": 5089,
      "ĠÐĺÐ²Ð°Ð½Ð¾Ð²Ð½Ñĭ": 5090,
      "ĠÐĺÐ²Ð°Ð½Ð¾Ð²Ð½Ñĥ": 5091,
      "ĠÐĺÐ²Ð°Ð½Ð¾Ð²Ð½Ðµ": 5092,
      "ĠÐĵÐ½ÐµÐ·Ð´Ð¾": 5093,
      "ÑĥÑģÐ°": 5094,
      "ĠÐ¸Ð´ÑĥÑĤ": 5095,
      "ĠÐ¸ÑģÐ¿Ð¾Ð»": 5096,
      "ĠÐ¸ÑģÐ¿ÑĢÐ°Ð²": 5097,
      "ĠÐ¸ÑģÐ¿Ð¾ÑĢÑĤÐ¸ÑĤÑĮ": 5098,
      "ĠÐ¿ÑĢÐ¸Ð²ÐµÑĤ": 5099,
      "ĠÐ¿ÑĢÐ¸Ð²Ð»ÐµÐº": 5100,
      "ĠÐ¿Ð¾Ð»ÑĥÑĩÐ¸Ð»Ð°": 5101,
      "Ð¸ÑĨÑĥ": 5102,
      "ĠÐºÐ¾Ð»ÐµÐ½ÑıÑħ": 5103,
      "ĠÑĤÐ¾Ð±Ð¾Ñİ": 5104,
      "ĠÐ´ÐµÐ²Ñı": 5105,
      "ÑĥÐ³Ð°ÑĤÑĮ": 5106,
      "ĠÐ·Ð°Ð¼Ð¾Ð»ÑĩÐ°Ð»": 5107,
      "ĠÐ¿ÐµÑĢÐ²Ð°Ñı": 5108,
      "ĠÐ¿ÐµÑĢÐ²Ð¾Ðµ": 5109,
      "ĠÐ¿ÐµÑĢÐ²ÑĭÐ¼": 5110,
      "ĠÐ¾ÑĤÐºÑĢÑĭÐ»": 5111,
      "ĠÐ²Ð¾ÑģÑģÑĤ": 5112,
      "ĠÐ²Ð¾ÑģÐºÑĢ": 5113,
      "ĠÐ²Ð¾ÑģÐ¿Ð¾Ð¼Ð¸Ð½Ð°": 5114,
      "ĠÐ²Ð¾ÑģÑģÑĤÐ°Ð½Ð¾Ð²Ð¸Ð»Ð°": 5115,
      "ĠÐ¸ÑģÑĤÐ¾": 5116,
      "ĠÐ¸ÑģÑĤÐ¾Ñĩ": 5117,
      "ĠÐ½Ð°ÑĩÐ°ÑĤÑĮ": 5118,
      "ĠÐ½Ð°ÑĩÐ°Ð»Ð°": 5119,
      "ĠÐ½Ð°ÑĩÐ¸Ð½": 5120,
      "ĠÐ½Ð°ÑĩÐ°Ð»Ð¸": 5121,
      "ĠÐ½Ð°ÑĩÐ½ÐµÑĤ": 5122,
      "ĠÐ½Ð°ÑĩÐ¸Ð½Ð°ÐµÑĤ": 5123,
      "ĠÑĢÑĥÐ±Ð»ÑĮ": 5124,
      "ĠÑĥÐ¼Ðµ": 5125,
      "ĠÑĥÐ¼ÐµÑĢ": 5126,
      "ĠÑįÑĤÐ¸Ð¼Ð¸": 5127,
      "ĠÐ¾ÑģÐ¾Ð±Ð¾": 5128,
      "ĠÐ¾ÑģÐ¾Ð±Ð°": 5129,
      "ĠÐ¾ÑģÐ¾Ð±Ð°Ñı": 5130,
      "ĠÐ¾ÑģÐ¾Ð±ÐµÐ½Ð½Ð¾Ð³Ð¾": 5131,
      "ĠÐ¥Ðµ": 5132,
      "ĠÐ¥Ðĺ": 5133,
      "ĠÐ¥Ð¾Ð·ÑıÐ¸Ð½": 5134,
      "ĠÑĥÐ³ÑĢ": 5135,
      "ĠÑĥÐ³Ð»Ðµ": 5136,
      "ĠÑĥÐ³Ð¾Ð²Ð°ÑĢ": 5137,
      "ĠÑĥÐ³Ð¾Ð´Ð½Ð¾": 5138,
      "ĠÑģÐ»ÑĥÑĩÐ°Ð»Ð¾ÑģÑĮ": 5139,
      "ÑĢÐ°ÑīÐ°ÐµÑĤÑģÑı": 5140,
      "ĠÐĶÑĥÐ½ÐµÑĩÐºÐ¾Ð¹": 5141,
      "ĠÐĶÑĥÐ½ÐµÑĩÐºÐµ": 5142,
      "lop": 5143,
      "Ġ12": 5144,
      "Ġ142": 5145,
      "ÑĤÑĭÐ¼Ð¸": 5146,
      "ĠÐ½Ð°Ð²Ð¸Ñģ": 5147,
      "ÑĩÐ¸ÑĤÐ°Ð»": 5148,
      "ĠÐ¼Ð¸Ð»Ð»Ð¸Ð°ÑĢ": 5149,
      "ĠÑĢÐ°ÑģÐ¿Ð½Ð¸": 5150,
      "ĠÑĢÐ°ÑģÐ¿Ð»Ð°": 5151,
      "ĠÑĢÐ°ÑģÐ¿ÑıÑĤÑĮ": 5152,
      "ĠÑĢÐ°ÑģÐ¿Ð¾ÑĢÑıÐ´": 5153,
      "ine": 5154,
      "inec": 5155,
      "Ð¾ÑħÐ¾ÑĤ": 5156,
      "ĠÐ¿Ð»Ð¾Ñģ": 5157,
      "ĠÐ¿Ð»ÐµÑĩÐ¸": 5158,
      "ĠÐ¿ÑĮÑıÐ½ÑĭÐ¹": 5159,
      "ĠÐ¿ÑĮÑıÐ½ÑĭÐ¼": 5160,
      "ĠÐ¿ÑĮÑıÐ½Ð¸ÑĨ": 5161,
      "ĠÐ½ÐµÐ¿ÑĢÐ¸ÑıÑĤ": 5162,
      "ĠÐ±ÐµÑģÐ¿ÑĢ": 5163,
      "ĠÐ½ÐµÑģÐºÐ¾Ð»ÑĮÐºÐ¸Ñħ": 5164,
      "ĠÑĢÐµÑĪÐµÐ½Ð¸Ðµ": 5165,
      "ĠÑĢÐµÑĪÐ¸Ð»Ð°ÑģÑĮ": 5166,
      "ĠÑĢÐµÑĪÐ¸ÑĤÐµÐ»ÑĮÐ½Ð¾Ð¼": 5167,
      "ĠÑĢÐ°Ð±Ð¾ÑĤÐµ": 5168,
      "ĠÑĢÐ°Ð±Ð¾ÑĤÑĥ": 5169,
      "ĠÑĢÐ°Ð±Ð¾ÑĤÐ°Ð»": 5170,
      "ĠÑĢÐ°Ð±Ð¾ÑĤÐ°ÐµÑĤ": 5171,
      "ĠÐļÐ°ÑĤÐµÑĢÐ¸Ð½Ñĥ": 5172,
      "ĠÐļÐ°ÑĤÐµÑĢÐ¸Ð½Ñĭ": 5173,
      "ĠÐļÐ°ÑĤÐµÑĢÐ¸Ð½Ðµ": 5174,
      "ĠÐ¿ÑĢÐ¾Ð´Ð¾Ð»Ð¶Ð°Ð»Ð°": 5175,
      "ĠÐ¿ÑĢÐ¾Ð´Ð¾Ð»Ð¶Ð°ÐµÐ¼": 5176,
      "!..\"": 5177,
      "ÐľÐ½Ðµ": 5178,
      "ĠÐ½ÐµÐ´Ð°Ð²": 5179,
      "ĠÐ½ÐµÐ´ÐµÐ»Ð¸": 5180,
      "ĠÑģÐµÑĢÐµÐ±ÑĢÑı": 5181,
      "ĠÐ´Ð°Ð²ÐµÑĩÐ°": 5182,
      "ĠÐ¿Ð¾ÑĪÐ»Ð¾": 5183,
      "ĠÐ¿Ð¾ÑĪÐ»ÑıÑĩÐºÐ°": 5184,
      "ĠÑĥÐ±Ð¸Ð»": 5185,
      "ĠÑĥÐ±Ð¸ÑĤ": 5186,
      "ĠÑĥÐ±Ð¸Ð²Ð°ÐµÐ¼": 5187,
      "ĠÑħÐ¾Ð·Ñı": 5188,
      "ĠÑģÐ¼Ð¾ÑĤÑĢÑı": 5189,
      "ĠÑĨÐµÐ»Ð¾Ðµ": 5190,
      "ĠÑĨÐµÐ»ÑĭÑħ": 5191,
      "ĠÑĨÐµÐ»ÐºÐ¾Ð²": 5192,
      "ĠÐ³Ð¾ÑģÐ¿Ð¾Ð´Ð¸Ð½Ñĥ": 5193,
      "Ð¸ÑģÑĤÐ¸ÑĤÑĮ": 5194,
      "Ð»ÐµÐ½Ð½ÑĭÐµ": 5195,
      "Ð»ÐµÐ½Ð½ÑĭÑħ": 5196,
      "ĠÐ½Ð¾Ð³Ð°Ð¼": 5197,
      "ĠÐ½Ð¾Ð³Ð°Ð¼Ð¸": 5198,
      "ĠÐºÐ²Ð°ÑĢÑĤÐ¸ÑĢÐ°Ñħ": 5199,
      "ĠÐ½Ð¾ÑĩÐ¸": 5200,
      "ĠÐ½Ð¾ÑĩÐ°Ð¼": 5201,
      "ĠÐ´Ð²Ð¾ÑĢÐ°": 5202,
      "ĠÐ¿ÑĢÐ¾Ð¸Ð·Ð½ÐµÑģ": 5203,
      "ĠÐ¿ÑĢÐ¾Ð¸Ð·Ð½ÐµÑģÐ»Ð°": 5204,
      "ĠÐ³Ð¾Ð»Ð¾Ð²Ð°": 5205,
      "ĠÐ³Ð¾Ð»Ð¾Ð²Ð¾Ð¹": 5206,
      "Ġallo": 5207,
      "ÑıÐ²Ð¾ÑĩÐºÐ°": 5208,
      "ĠÐ¿Ð¾Ð¿ÑĢÐ°Ð²": 5209,
      "ĠÐ¿Ð¾Ð¶Ð°Ð»ÐµÐ»Ð°": 5210,
      "ĠÐ¿Ð¾Ð¶Ð°Ð»ÐµÐµÑĤ": 5211,
      "ĠÐ´Ð¾Ð»Ð¶Ð½Ñĭ": 5212,
      "ÑĥÐ¹ÑĤÐµ": 5213,
      "ĠÐ¶ÐµÐ»Ñĩ": 5214,
      "ĠÐ¶ÐµÐ»Ð°Ñı": 5215,
      "ĠÐ¶ÐµÐ»Ð°Ð½Ð¸Ðµ": 5216,
      "ĠÐ¶ÐµÐ»ÑĤÐ¾Ð¼Ñĥ": 5217,
      "ÐŁÑĢÐ¸": 5218,
      "ÐŁÐ¾ÑĤÐ¾Ð¼Ñĥ": 5219,
      "ĠÐ¿Ð¾Ð²ÐµÑĢÑĮ": 5220,
      "ĠÐ¿Ð¾Ð²ÐµÐ´ÐµÐ½Ð¸Ñı": 5221,
      "ĠÐ¿ÑıÑĤÑĮÐ´ÐµÑģÑıÑĤ": 5222,
      "ĠÑģÐ¾Ð·Ð´Ð°Ð»": 5223,
      "ĠÑģÐ¾Ð·Ð½Ð°Ð½Ð¸Ðµ": 5224,
      "ĠÑģÐ´ÐµÐ»Ð°Ð»Ð¾ÑģÑĮ": 5225,
      "ĠÑĥÐ²Ð¸Ð´ÐµÐ²": 5226,
      "ĠÐ¶Ð°Ð»Ð¾Ð²Ð°Ð½Ð¸Ðµ": 5227,
      "ĠÐ¶Ð¸Ð²ÐµÑĤ": 5228,
      "ĠÐ¶Ð¸Ð²ÐµÐ¼": 5229,
      "ĠÑģÐ»ÑĥÐ¶Ñĥ": 5230,
      "ĠÑģÐ»ÑĭÑĪÑĥ": 5231,
      "ĠÐ¼ÐµÑģÑıÑĨÐµÐ²": 5232,
      "ĠÐ¿Ð»Ð°ÑĩÑĥ": 5233,
      "Ð²ÐµÑģÑĤÐ½Ð¾": 5234,
      "ĠÐ¼Ð°Ð»Ð¾Ð»ÐµÑĤ": 5235,
      "ĠÐ¿ÑĢÐ¾ÑģÑĤÑĭ": 5236,
      "ĠÐ¿ÑĢÐ¾ÑģÑĤÐ¾Ð¹": 5237,
      "ĠÐ½ÐµÑģÑĩÐ°ÑģÑĤ": 5238,
      "ĠÐ»ÐµÐ¶Ð°": 5239,
      "ĠÐ»ÐµÐ¶Ð°Ð»Ð°": 5240,
      "ĠÑģÑĤÐ¾Ð»Ð¸Ðº": 5241,
      "Ð°ÑĤÐµÐ»ÑĮÐ½Ð¾ÑģÑĤÐ¸": 5242,
      "ĠÐ¡Ð¾Ð½Ñİ": 5243,
      "ĠÐ½Ð°Ð²ÐµÑĢÑħ": 5244,
      "ÐłÐ£": 5245,
      "ÐłÐĵ": 5246,
      "ĠÐ²Ð¾ÑĢÐº": 5247,
      "ĠÐ¼Ð½ÐµÐ½Ð¸Ðµ": 5248,
      "ĠÐ¼Ð½ÐµÐ½Ð¸Ñİ": 5249,
      "ĠÐ¼Ð½Ð¾Ð¶ÐµÑģÑĤÐ²Ð¾": 5250,
      "ĠÐ¼Ð°Ð¼Ð¾Ð¹": 5251,
      "ĠÑĩÐ°ÑħÐ¾ÑĤÐ¾Ñĩ": 5252,
      "ĠÑĢÐ¾Ð´ÑģÑĤÐ²ÐµÐ½": 5253,
      "ĠÑĢÐ¾Ð´Ð¸ÑĤÐµÐ»Ð¸": 5254,
      "ĠÐ»ÑĥÑĩÑĪÐµÐ¼Ñĥ": 5255,
      "ĠÑĥÐ¿ÑĢÐ°Ð¶": 5256,
      "ĠÑĥÐ¿Ð¾Ð²Ð°Ð½Ð¸Ðµ": 5257,
      "ĠÑħÐ¾Ð´ÑıÑĤ": 5258,
      "ĠÑħÐ¾Ð´Ð¸Ð»Ð°": 5259,
      "ĠÑħÐ¾Ð´Ð¸Ð»Ð¸": 5260,
      "ĠÐ²ÑĭÐ¿Ð¸ÑĤÑĮ": 5261,
      "ĠÐ¡ÑĤÐ°Ð»Ð¾": 5262,
      "ĠÐ¡ÑĤÐµÑĤÑħ": 5263,
      "ĠÐļÐ°ÐºÐ¾Ð¹": 5264,
      "ĠÑģÐ¿Ð¾ÑģÐ¾Ð±ÐµÐ½": 5265,
      "ĠÐºÐ°Ð¶Ð´Ð¾Ðµ": 5266,
      "ĠÐĸÐ¸Ð·Ð½ÑĮ": 5267,
      "ĠÐ¿Ð¾Ð±ÐµÐ¶Ð°Ð»": 5268,
      "ĠÐ¿Ð¾Ð±Ð¾ÐµÐ²": 5269,
      "ĠÐ²ÑģÑĤÑĢÐµÑĩ": 5270,
      "ĠÑģÐ¸Ð´ÐµÐ»Ð°": 5271,
      "ĠÑģÐ¸Ð´ÐµÑĤÑĮ": 5272,
      "ĠÐ´ÑĢÐ¾": 5273,
      "ĠÐ´Ð°Ð»ÑĮÐ½Ð¸Ð¹": 5274,
      "ĠÐ´Ð°Ð»ÑĮÐ½ÐµÐ¹ÑĪÐ¸Ðµ": 5275,
      "ĠÐ¿ÑĢÐ¾ÑĪÐµÐ»": 5276,
      "ĠÐ¿ÑĢÐ¾ÑĪÐ»Ð¸": 5277,
      "ĠÐ¿ÑĢÐ¾ÑĪÐ»Ð°": 5278,
      "ĠÐ¿ÑĢÐ¾ÑĪÐ»Ð¾Ð¼": 5279,
      "ĠÐ¿ÑĢÐ¾ÑĪÐ»ÑĭÐ¹": 5280,
      "ĠÐ¿ÑĢÐ¾ÑĪÐ»Ð¾Ð³Ð¾": 5281,
      "ĠÐ¿ÑĢÐµÐ¶Ð½Ð¸Ñħ": 5282,
      "ĠÐ¿ÑĢÐµÐ¶Ð½ÑİÑİ": 5283,
      "ĠÐ¿ÑĢÐµÐ¶Ð½ÐµÐ¼Ñĥ": 5284,
      "Ð¿ÑĢÐµÑĤÐ¸ÑĢÐ¾Ð²": 5285,
      "ĠÑĥÐ·Ð½Ð°Ð»": 5286,
      "ĠÑĥÐ·Ð½Ð°ÑĤÑĮ": 5287,
      "ĠÐ¾ÑĤÐ²ÐµÑĤÐ°": 5288,
      "ĠÐ¾ÑĤÐ²ÐµÑĤÐ¸Ð»": 5289,
      "ĠÐ¾ÑĤÐ²ÐµÑĤÐ¸ÑĤÑĮ": 5290,
      "ĠÐ¾ÑĤÐ²ÐµÑĤÐ¸Ð»Ð°": 5291,
      "ĠÐ¾ÑĤÐ²ÐµÑĤÑģÑĤÐ²ÐµÐ½Ð½Ð¾": 5292,
      "ĠÐ±Ð»Ð°Ð³Ð¾ÑģÐ»Ð¾Ð²": 5293,
      "ĠÑģÐµÑĢÐ´ÑĨÑĥ": 5294,
      "ĠÑħÐ¾Ð·ÑıÐ¹ÐºÐµ": 5295,
      "Ð¢ÑĥÑĤ": 5296,
      "Ð°ÑĨÐ¸Ð¸": 5297,
      "Ð°ÑĨÐ¸ÐµÐ¹": 5298,
      "ĠÐ¿Ð°ÑĢÑĥ": 5299,
      "ĠÐ¿Ð°ÑĢÐ°Ð»Ð¸Ñĩ": 5300,
      "ÑĩÑĥÑĤÑĮ": 5301,
      "ÑĩÐµÑĤÐ½Ð¾": 5302,
      "ĠÑģÑĥÐ´Ð¾ÑĢ": 5303,
      "ĠÑģÑĥÐ´ÐµÐ±": 5304,
      "ĠÑģÑĥÐ´Ð¸ÑĤÑĮ": 5305,
      "ĠÑģÑĥÐ´Ð¸Ñı": 5306,
      "ĠÐ¸ÑģÐºÑĢÐµÐ½": 5307,
      "ĠÐ¾ÑģÑĤÐ°Ð²Ð°Ð»Ð¾ÑģÑĮ": 5308,
      "ĠÐ¾ÑģÑĤÐ°Ð²Ð»ÑıÐ¹": 5309,
      "ĠÑīÐµÐ»Ð¾Ñĩ": 5310,
      "ĠÐ¶ÐµÐ½Ðµ": 5311,
      "ĠÑĢÐ°Ð·Ð´Ð²": 5312,
      "ĠÑĢÐ°Ð·Ð´ÐµÐ²": 5313,
      "ĠÑĢÐ°Ð·Ð´ÑĥÐ¼": 5314,
      "ĠÑĢÐ°Ð·Ð´Ð°Ð»Ð¸ÑģÑĮ": 5315,
      "Ð°Ð¹ÑĤÐµÑģÑĮ": 5316,
      "ĠÑģÐ¿Ð¾ÐºÐ¾Ð¹Ð½ÐµÐ½ÑĮ": 5317,
      "ĠÐ±Ð¾Ð»ÑĮÑĪÐ¸Ð½": 5318,
      "ĠÐ±Ð¾Ð»ÑĮÑĪÐ¸Ð¼Ð¸": 5319,
      "ĠÐ¸Ð½ÑĤÐµÑĢÐ¿ÑĢÐµÑĤÐ¸ÑĢÐ¾Ð²": 5320,
      "ted": 5321,
      "tem": 5322,
      "ÐļÐ¾Ð³Ð´Ð°": 5323,
      "Ð»Ð°ÑģÐ½Ð¾Ðµ": 5324,
      "ĠÐ¿ÑıÑĤÐµÐ½": 5325,
      "ĠÐ¿ÑıÑĤÐ½Ð°": 5326,
      "ĠÐ½Ð¾Ð²ÐµÐ¹": 5327,
      "ĠÐ²ÐµÑĩÐµÑĢÐ°": 5328,
      "ÑĩÐµÑģÐºÐ¾Ð³Ð¾": 5329,
      "ĠÐ¾Ð³ÑĢÐ°Ð±": 5330,
      "ĠÑĤÑıÐ³Ð¾": 5331,
      "ĠÐ¼Ð¾Ð¼ÐµÐ½ÑĤÑĥ": 5332,
      "ĠÐ¼Ð°ÑĪÐ¸Ð½Ð°": 5333,
      "ĠÐ¼Ð°ÑĪÐ¸Ð½Ñĥ": 5334,
      "ĠÐ´Ð¾Ð²Ð¾Ð»ÐµÐ½": 5335,
      "ĠÐ¿ÑĢÐ¾Ð¿Ð°Ð»": 5336,
      "Ð¾Ð¹Ð´Ð¸ÑĤÐµ": 5337,
      "Ð¾Ð¹Ð´ÑĳÐ¼": 5338,
      "ĠÐ±ÑĭÐ²Ð°ÑİÑĤ": 5339,
      "ĠÑĥÐ´Ð°Ð»": 5340,
      "ĠÐ¾Ð±ÑĢÐ°ÑīÐ°Ñı": 5341,
      "ĠÐ¿ÑĢÐ¸ÑĪÐ»Ð¸": 5342,
      "ĠÐ¿ÑĢÐ¸ÑĪÐ»Ð°": 5343,
      "ĠÐŀÑĤÐºÑĢÑĭÑĤÑĮ": 5344,
      "ĠÑģÐ»ÑĥÑĪÐ°Ð»": 5345,
      "ĠÑģÐ»ÑĥÑĪÐ°ÑĤÐµÐ»Ñı": 5346,
      "ĠÑĥÐ¶Ð°ÑģÐ½Ð¾Ð³Ð¾": 5347,
      "ĠÑĤÐ²Ð¾Ñı": 5348,
      "ĠÐ²Ð¾ÑĢÐ¾ÑĤÐ¸Ð»ÑģÑı": 5349,
      "amming": 5350,
      "Ð»ÐµÐ¹ÑĤÐµ": 5351,
      "ĠÐ¿ÑĭÑĤÐ°ÑıÑģÑĮ": 5352,
      "ĠÐ¿ÑĭÑĤÐ°ÑİÑĤÑģÑı": 5353,
      "ĠÐ¿ÑĭÑĤÐ°Ð¹ÑĤÐµÑģÑĮ": 5354,
      "ĠÐ¿Ð¸ÑģÑĮÐ¼Ðµ": 5355,
      "ĠÐ½ÐµÐ±Ð»Ð°Ð³": 5356,
      "ÑĩÐ¸ÐºÐ¾Ð¼": 5357,
      "ÑĩÐ¸ÐºÐ°Ð¼Ð¸": 5358,
      "ĠÑģÑĥÐ¿ÑĢÑĥÐ¶Ðµ": 5359,
      "ĠÐ±ÐµÐ´Ð½Ð°Ñı": 5360,
      "ĠÐ¿ÑĢÐ¾ÑĩÐ»Ð°": 5361,
      "ĠÐ·Ð°Ð²Ð¸Ñģ": 5362,
      "ĠÐ·Ð°Ð²ÑĤÑĢÐ°": 5363,
      "ĠÐ½Ð°ÑħÐ¾Ð´Ð¸Ð»Ð°ÑģÑĮ": 5364,
      "ĠÑĢÐµÐ±ÐµÐ½ÐºÐ¾Ð¼": 5365,
      "ĠÑĥÑģÐ»Ð¾Ð²Ð¸ÐµÐ¼": 5366,
      "ĠÐ²ÑģÐµÐ¼Ð¸": 5367,
      "ĠÑģÐ»ÐµÐ´ÑĥÐµÑĤ": 5368,
      "ÑĢÑĭÐ²Ð°ÑĤÑĮ": 5369,
      "ĠÐ¿Ð¾ÑģÐ»ÐµÐ´Ð¾Ð²": 5370,
      "ĠÐ¿Ð¾ÑģÐ»ÐµÐ´Ð½ÐµÐ¼": 5371,
      "ĠÑĪÐ°Ð³Ð¾Ð¼": 5372,
      "ĠÐ¿ÑĢÐµÐ´ÑģÑĤÐ°Ð²Ð¸Ð»": 5373,
      "ĠÐ¿ÑĢÐµÐ´ÑģÑĤÐ°Ð²Ð»ÑıÑİ": 5374,
      "ĠÐ²ÑĭÑģÐ¾ÐºÐ¾Ð³Ð¾": 5375,
      "ĠÐ²ÑĭÑģÐ¾ÐºÐ°Ñı": 5376,
      "ĠÐ²ÑĭÑģÐ¾ÐºÐ¸Ð¹": 5377,
      "ĠÐ²ÑĭÑģÐ¾ÐºÐ¾Ð¼ÐµÑĢ": 5378,
      "ÐķÐ³Ð¾": 5379,
      "ĠÐ²ÐµÐ»ÐµÐ»Ð°": 5380,
      "ĠÐ²ÐºÐ»ÑİÑĩÐ¸ÑĤÑĮ": 5381,
      "ĠÐ²ÐºÐ»ÑİÑĩÐ°Ñı": 5382,
      "ÐºÐ½ÑĥÐ»Ð¾": 5383,
      "ĠÐºÐ°Ð¼Ð½Ñı": 5384,
      "ÑĪÐ¸ÑħÑģÑı": 5385,
      "ĠÐ·Ð°ÑĢÑıÐ´": 5386,
      "ÐµÐºÑĤÐ½Ð¾": 5387,
      "ĠÐ¿ÑĢÐ¸Ð·Ð½Ð°": 5388,
      "ĠÐ¡Ð»ÑĭÑĪÐ¸ÑĤÐµ": 5389,
      "ĠÐ¸Ð·Ð²ÐµÑģÑĤÐ½Ð°Ñı": 5390,
      "ĠÑģÐ¿ÑĢÐ¾ÑģÐ¸ÑĤÑĮ": 5391,
      "ĠÑģÐ¿ÑĢÐ¾ÑģÐ¸Ð»Ð°": 5392,
      "ĠÐ¿Ð¾Ð»Ð¾Ð¶Ð¸Ð»": 5393,
      "ĠÐ¿Ð¾Ð»Ð¾Ð¶Ð¸ÑĤÐµÐ»ÑĮÐ½ÑĭÐ¹": 5394,
      "ÑĦÐ¾ÑĢÐ¼Ð°": 5395,
      "ĠÐ»ÑİÐ´ÑĮÐ¼Ð¸": 5396,
      "ĠÐ³Ð»ÑĥÐ±Ð¸Ð½": 5397,
      "ĠÐ¿Ð¾ÐºÐ°Ð·ÑĭÐ²Ð°Ð»Ð°": 5398,
      "ĠÑģÐ¾Ð±ÑģÑĤÐ²ÐµÐ½Ð½ÑĭÐµ": 5399,
      "ĠÑģÑĤÑĢÐ°Ð½Ð½Ð¾": 5400,
      "ĠÑģÑĤÑĢÐ°Ð½Ð½Ð°Ñı": 5401,
      "ĠÐ³Ð¾Ð»Ð¾ÑģÐ¾Ðº": 5402,
      "ĠÐ¾ÑģÑĤÐ°Ð½Ð¾Ð²ÐºÐ¸": 5403,
      "ĠÑģÐ¾ÑģÑĤÐ¾ÑıÐ»Ð°": 5404,
      "ĠÐ²ÐµÑĩÐµÑĢÐ¾Ð¼": 5405,
      "ĠÐ²ÐµÑĩÐµÑĢÐ¸Ð½ÐºÑĥ": 5406,
      "Ġco": 5407,
      "Ġgen": 5408,
      "ÑĭÐºÐ°ÑİÑģÑĮ": 5409,
      "ĠÑģÑĢÐµÐ´Ð¸": 5410,
      "ĠÑģÑĢÐµÐ´ÑģÑĤÐ²Ð°": 5411,
      "ĠÑģÑĢÐµÐ´Ð½ÐµÐ³Ð¾": 5412,
      "ĠÑģÐ¸ÑģÑĤÐµÐ¼Ñĥ": 5413,
      "ĠÑģÑĩÐ°ÑģÑĤÑĮÐµ": 5414,
      "ĠÑģÑĩÐ°ÑģÑĤÑĮÑı": 5415,
      "ĠÐ¾ÑħÑĢÐ°Ð½Ð°": 5416,
      "ĠÐºÐ¾Ð´Ðµ": 5417,
      "ĠÑĤÐµÐ»Ð¾": 5418,
      "ĠÑĤÐµÐ»Ðµ": 5419,
      "ĠÑĤÐµÐ»ÐµÐ²Ð¸Ð·": 5420,
      "ĠÐ´Ð¾ÑĩÐºÐ°": 5421,
      "ĠÐ·Ð°Ð»Ðµ": 5422,
      "ĠÐ·Ð°Ð½ÑıÑĤ": 5423,
      "ĠÑĥÐ´Ð°ÑĢ": 5424,
      "ĠÑĥÐ´Ð°ÑĢÐ°": 5425,
      "ĠÐ³ÑĢÐ¾ÑĪ": 5426,
      "ĠÐ°ÐºÐºÑĥ": 5427,
      "ĠÐŀÐ´Ð½Ð°": 5428,
      "ĠÑģÐ»ÐµÐ·Ñĭ": 5429,
      "ĠÑģÐ»ÐµÐ·Ð°Ð¼Ð¸": 5430,
      "ĠÑģÐ²ÐµÑĤÑĥ": 5431,
      "ĠÐ¿Ð¾Ð»ÐµÐ·Ð½Ð¾Ð³Ð¾": 5432,
      "ĠÐºÑĢÐ¸ÑĩÑĥ": 5433,
      "ĠÐºÑĢÐ¸ÑĩÐ°Ð»": 5434,
      "ĠÐ¾Ð¿ÑĢÐµÐ´ÐµÐ»ÐµÐ½Ð½Ð¾Ð¼": 5435,
      "ĠÐ¿ÑĢÐµÐ´Ð»Ð¾Ð¶Ð¸ÑĤ": 5436,
      "ĠÐ¿ÑĢÐµÐ´Ð»Ð¾Ð¶ÐµÐ½Ð¸Ðµ": 5437,
      "ĠÐ¿Ð¾Ð·Ð²Ð¾Ð»Ð¸ÑĤÑĮ": 5438,
      "ĠÐ´ÐµÐ½ÑĮÐ³Ð°Ð¼Ð¸": 5439,
      "ĠÐ¿ÑĢÐ¸Ð²ÑĭÑĩÐºÐ°": 5440,
      "ĠÐ¾ÑĤÐ¿ÑĢÐ°Ð²Ð¸Ð»ÑģÑı": 5441,
      "ĠÐ¾ÑĤÐ¿ÑĢÐ°Ð²Ð¸Ð»Ð°ÑģÑĮ": 5442,
      "ĠSte": 5443,
      "Ð°ÑĤÐ¸ÑĢÐ¾Ð²Ð°Ð½Ð½Ð¾Ð³Ð¾": 5444,
      "ÑĢÐ¾ÐºÐ¸Ð¹": 5445,
      "ÑĥÑīÐµÑģÑĤÐ²ÐµÐ½Ð½Ð¾": 5446,
      "ĠÐ¿ÑĥÑģÑĤÐ¾Ð¹": 5447,
      "ĠÐ½Ð°Ð»Ð¸Ð»": 5448,
      "ĠÐ½ÐµÑĢÐµÑĪÐ¸Ð¼Ð¾ÑģÑĤÐ¸": 5449,
      "ĠÐ²ÑĤÐ¾ÑĢÐ¾Ð¹": 5450,
      "ĠÑģÑĩÐ°ÑģÑĤÐ»Ð¸Ð²Ñĭ": 5451,
      "ĠÑģÑĩÐ°ÑģÑĤÐ»Ð¸Ð²ÑĭÑħ": 5452,
      "ĠÑĤÐµÑĢÑĢÐ¸ÑĤÐ¾ÑĢ": 5453,
      "ĠÑĤÐ²ÐµÑĢÐ´Ð¾": 5454,
      "ĠÐ¼Ð°ÑģÐ»Ð°": 5455,
      "ĠÐ¼Ð°ÑģÐ»Ð¾Ð¼": 5456,
      "ĠÐ±Ð¾ÑıÑĤÑģÑı": 5457,
      "ĠÐ±Ð¾ÑĥÐ»Ð¸Ð½": 5458,
      "ĠÐ¿ÑĢÐ¾Ð±Ð»ÐµÐ¼": 5459,
      "ĠÐ·Ð°ÑģÐ»": 5460,
      "ĠÐ·Ð°ÑģÐ¼Ðµ": 5461,
      "ĠÐ·Ð°Ð³Ð¾Ð²Ð¾ÑĢ": 5462,
      "ĠÐ·Ð°Ð³Ð»ÑıÐ´": 5463,
      "ĠÑıÐ²Ð½Ð¾": 5464,
      "ĠÑĥÐ²ÐµÑĢÐµÐ½": 5465,
      "ĠÐ³ÑĢÑĥÐ±Ð¾ÑģÑĤÐ¸": 5466,
      "ĠÐ»Ð¸ÑĩÐ½Ð¾ÑģÑĤÐ¸": 5467,
      "ĠÐ¾Ð±Ð¾ÑıÐ¼Ð¸": 5468,
      "ĠÐŀÐ±ÑĭÑĩ": 5469,
      "ĠÑĢÐ°Ð·ÑĢÐ°Ð±Ð°ÑĤ": 5470,
      "ĠÐ¿Ð¾Ð»Ð¸ÑĨÐ¸Ð¸": 5471,
      "ĠÐ¿Ð¾Ð»Ð¸ÑĨÐµÐ¹ÑģÐºÑĥÑİ": 5472,
      "ĠÐ¿Ð¾ÑģÑĤÐ¾ÑıÐ½Ð½Ð¾Ð³Ð¾": 5473,
      "ĠÐ³Ð¾ÑĢÐ´Ð°": 5474,
      "ĠÐ³Ð¾ÑĢÐ¼Ð¾Ð½": 5475,
      "ĠÐ²Ð·Ð³Ð»ÑıÐ´Ð¾Ð¼": 5476,
      "ĠÐ¤ÐµÐ´Ð¾ÑĢÐ°": 5477,
      "ĠÐ¾ÑĤÐºÑĢÑĭÐ²Ð°ÐµÑĤÑģÑı": 5478,
      "ĠÐĶÑĥÐ½ÐµÑĩÐºÐ¸Ð½Ð¾Ð¹": 5479,
      "Ġany": 5480,
      "ĠÑģÐ¾Ð·Ð´Ð°Ð½Ð½ÑĭÐµ": 5481,
      "ĠÑģÐ»ÑĥÐ¶Ð±Ñĭ": 5482,
      "ĠÐ¼Ð½Ð¾Ð³Ð¸Ðµ": 5483,
      "ĠÐ±Ð»Ð°Ð³Ð¾ÑĢÐ¾Ð´ÑģÑĤÐ²Ð¾": 5484,
      "ĠÑĩÐµÑĤÑĭÑĢÐ½Ð°Ð´": 5485,
      "ĠÑĥÑģÐ»ÑĭÑĪÐ°Ð²": 5486,
      "ĠÑĥÑģÐ»ÑĭÑĪÐ°Ð»Ð°": 5487,
      "ĠÐ²Ð°ÑĢÐ¸Ð°Ð½ÑĤ": 5488,
      "ĠÐ¡Ð²Ð¸Ð´ÑĢÐ¸Ð³Ð°Ð¹Ð»Ð¾Ð²Ð°": 5489,
      "atfor": 5490,
      "orpor": 5491,
      "Ð§ÑĤÐ¾Ð±Ñĭ": 5492,
      "ĠÐ¿ÑĭÐ»ÐºÐ¸Ð¼": 5493,
      "ĠÐ½Ð°Ð¶Ð¸Ð¼": 5494,
      "ĠÐ²Ð°Ð¶Ð½Ð°Ñı": 5495,
      "ĠÐ²ÑħÐ¾Ð´Ð°": 5496,
      "ĠÐ²ÑħÐ¾Ð´Ð¸Ð»": 5497,
      "ĠÑģÑĥÐ¼ÐµÑĢÐºÐ¸": 5498,
      "ĠÑģÑĥÐ¼Ð°ÑģÐ±ÑĢÐ¾Ð´": 5499,
      "ĠÐ¼ÐµÐ»ÐºÐ¸Ñħ": 5500,
      "ĠÐ¼ÐµÐ»Ð¾ÑĩÐ¸": 5501,
      "ĠÐ¼ÐµÑĤÑĢÐ°Ñħ": 5502,
      "ĠÐ¼ÐµÑĤÐ°Ð²ÑģÐµÐ»": 5503,
      "ĠÐ¼ÐµÐ´Ð°Ð»ÑĮ": 5504,
      "ĠÐ¼ÐµÐ´Ð»ÐµÐ½Ð½Ð¾": 5505,
      "ĠÐ¼ÑĥÑģÐ¾ÑĢÐºÐµ": 5506,
      "ĠÐ±ÑĢÐµÐ¹": 5507,
      "ĠÐ·Ð»Ð¾Ð¹": 5508,
      "ĠÐ·Ð»ÑĭÑħ": 5509,
      "ĠÑĢÐ¾Ð±Ð»Ð¾ÐºÑģ": 5510,
      "ĠÑĢÐµÐºÐ¾ÑĢÐ´": 5511,
      "ĠÑĥÑĩÑĢÐµÐ¶": 5512,
      "ĠÑĥÐ²ÐµÐ»Ð¸Ñĩ": 5513,
      "ĠÐ³ÑĢÐ¾Ð¼ÑĩÐµ": 5514,
      "ĠÐ»ÐµÐ³Ð»Ð°": 5515,
      "ĠÐ²ÑģÐ¿Ð¾Ð¼Ð½Ð¸Ð²": 5516,
      "ĠÐ¿Ð¾ÐµÑħÐ°ÑĤÑĮ": 5517,
      "ĠÑģÑĤÐ°Ð½ÑĨÐ¸Ð¸": 5518,
      "ĠÑħÐ¾ÑĢÐ¾ÑĪÐ¸Ð¹": 5519,
      "ĠÐ²ÑĭÑħÐ¾Ð´Ðµ": 5520,
      "ĠÐ²ÑĭÑħÐ¾Ð´Ð¸ÑĤÐµ": 5521,
      "ĠÐ¿ÑĢÐ¸Ð¿Ð¸ÑģÑĭÐ²": 5522,
      "ĠÐ¿ÑĢÐ¸Ð¿Ð°ÑĢÐºÐ¾Ð²": 5523,
      "ĠÐ¿ÑĢÐ¸ÑħÐ¾Ð´Ð¸Ð»Ð¾ÑģÑĮ": 5524,
      "ĠÐļÐ¾ÑĢÐ¾Ð±": 5525,
      "ĠÑģÐ¿ÐµÑĨÐ¸Ð°Ð»Ð¸": 5526,
      "ĠÑĦÐ°Ð·Ð°": 5527,
      "ĠÐ²Ð·Ð³Ð»ÑıÐ´Ð°": 5528,
      "ĠÐ²Ð·Ð³Ð»ÑıÐ½ÑĥÐ»": 5529,
      "ĠÐ±Ð¾Ð»ÑĤÐ°ÑĤÑĮ": 5530,
      "ĠÐ¤ÑĳÐ´Ð¾ÑĢÑĥ": 5531,
      "ĠÐ¿Ð¾Ð¼ÐµÑīÐ°Ð»Ð°ÑģÑĮ": 5532,
      "ĠÐ½Ð°Ð·ÑĭÐ²Ð°ÑİÑĤ": 5533,
      "ĠÐ±ÐµÑģÐ¿Ð¾ÐºÐ¾Ð¹": 5534,
      "ĠÐ±ÐµÑģÐ¿Ð¾ÐºÐ¾": 5535,
      "ĠÐ¿ÑĢÐ¾Ð¸Ð·Ð¾ÑĪÐµÐ»": 5536,
      "ĠÐ¿Ð»Ð°ÑĤÐ¾Ðº": 5537,
      "ĠÐ¡Ð¾Ð½ÐµÑĩÐºÐ¸": 5538,
      "ĠÐ¿ÑĢÐ¾Ð²ÐµÑĢÐ¸ÑĤÑĮ": 5539,
      "ĠÐ½ÐµÐ±Ð¾Ð»ÑĮÑĪÐ¾Ð¹": 5540,
      "ĠÐ½ÐµÐ±Ð¾Ð»ÑĮÑĪÐ¾Ð³Ð¾": 5541,
      "ĠÑģÑĥÐ¿ÑĢÑĥÐ³Ñĥ": 5542,
      "ĠÑĥÐ»ÑĭÐ±ÐºÐ¾Ð¹": 5543,
      "ĠÐºÑĢÑĭÑģÐ¸ÑĩÐ°Ñħ": 5544,
      "ĠÐ¿ÑĢÐµÐºÑĢÐ°ÑģÐ½ÑĭÐ¼Ð¸": 5545,
      "Ġbo": 5546,
      "Ġby": 5547,
      "ÑĤÐµÐ»Ð°Ñı": 5548,
      "ĠÐ²ÑģÑĤÐ°Ð»": 5549,
      "ĠÐ²ÑģÑĤÐ°ÑĤÑĮ": 5550,
      "ĠÐ²ÑģÑĤÐ°Ð»Ð°": 5551,
      "ĠÑģÑĭÑĢ": 5552,
      "ĠÑģÑĭÑĢÐ¾Ð¼": 5553,
      "ĠÑģÐ¾Ð»Ð¸Ð´Ð½Ð¾": 5554,
      "ĠÑģÐ¾Ð³Ð»Ð°ÑģÐ½Ð°": 5555,
      "ĠÑģÐ¾Ð³Ð»Ð°ÑģÐ¸Ðµ": 5556,
      "ĠÐºÐ°Ð½Ð°Ð²": 5557,
      "ĠÐºÑĥÑģÐ¾Ðº": 5558,
      "ĠÐºÑĥÑģÐ¾ÑĩÐµÐº": 5559,
      "ĠÑĤÐ¾Ð»Ðº": 5560,
      "ĠÐ¼ÐµÐ»ÑĮÐºÐ½ÑĥÐ»Ð¾": 5561,
      "ĠÐ´Ð¾Ð¿Ð¸Ð»": 5562,
      "ĠÐ±Ð°ÑĢÐºÐ°Ñħ": 5563,
      "ĠÑĩÐ¸ÑĤÐ°ÑĤÑĮ": 5564,
      "Ð¾Ð»Ð¾Ð³Ð¸": 5565,
      "ĠÐ·Ð½Ð°ÐºÐ¾Ð¼ÑĭÑħ": 5566,
      "ĠÑĢÑĥÐ³Ð°ÑĤÐµÐ»ÑĮÑģÑĤÐ²Ð°": 5567,
      "ĠÐ³Ð»ÑıÐ´Ñı": 5568,
      "ĠÐ³Ð»ÑıÐ´ÐµÐ»Ð°": 5569,
      "ĠÐ¿Ð¾ÑıÐ²Ð¸Ð»Ð¾ÑģÑĮ": 5570,
      "ĠÐ¿Ð¾ÑıÐ²Ð¸Ð»Ð¸ÑģÑĮ": 5571,
      "ĠÑħÑĥÐ´Ð¾": 5572,
      "ĠÑħÐ°ÑĢÐ°ÐºÑĤÐµÑĢÐ°": 5573,
      "ÐµÐ·Ð¶Ð°Ñı": 5574,
      "ĠÐŁÐ¾ÑģÐ»ÐµÐ´": 5575,
      "ĠÐŁÑĢÐ¸ÑĪÐµÐ»": 5576,
      "ĠÐ¿ÑĢÐ¸Ð½ÑĥÐ¶Ð´": 5577,
      "ĠÐ¿ÑĢÐ¸Ð½ÑĨÐ¸Ð¿Ðµ": 5578,
      "ĠÑĢÐ°Ð·Ð±ÑĢÐ¾Ñģ": 5579,
      "ĠÐ¸Ð·Ð²Ð¾Ð»Ð¸ÑĤÐµ": 5580,
      "ĠÑģÐ¿ÑĢÐ¾ÑĪÑĥ": 5581,
      "ĠÑģÐ¿ÑĢÐ°Ð²Ð°": 5582,
      "ĠÐ¿ÐµÑĢÐµÑģÑĤÐ°Ð»Ð°": 5583,
      "ĠÑįÑĤÐ°Ð¶Ð¾Ð¼": 5584,
      "Ð¸ÑģÑĭÐ²Ð°Ð¹ÑģÑı": 5585,
      "ĠÐ»Ð¸ÑĪÐ½Ð¸Ð¼": 5586,
      "ĠÐ»Ð¸ÑĪÐ½ÐµÐµ": 5587,
      "ĠÑĦÐ¸Ð³Ñĥ": 5588,
      "ĠÑĦÐ¸Ð³Ð½Ñİ": 5589,
      "ĠÐºÐ¾Ð¼Ð°Ð½Ð´Ñĭ": 5590,
      "ĠÐĳÑĭÐ»Ð¸": 5591,
      "ĠÑģÐ¾Ð¾Ð±ÑīÐ¸ÑĤÑĮ": 5592,
      "ĠÑĤÑĢÑĥÐ´Ð¾Ð¼": 5593,
      "ĠÐ½Ð¸ÑīÐµÑĤÐ°": 5594,
      "ĠÐ¾ÑĤÐ²Ð¾ÑĢÐ¸Ð»Ð°": 5595,
      "ĠÑĤÐµÐ¼Ð½Ð¾ÑĤÑĭ": 5596,
      "ĠÐ»ÑİÐ±Ð¾Ð¿ÑĭÑĤÐ½Ð¾": 5597,
      "ĠÐ¸Ð¼ÐµÑİÑĤ": 5598,
      "ĠÐ¿Ð¾ÑĩÐ¸ÑĤÐ°ÐµÐ¼": 5599,
      "ĠÐ·Ð°Ð¿ÐµÑĢÑĤÐ°": 5600,
      "ĠÐ¿Ð¾Ð¹Ð´ÑĳÐ¼": 5601,
      "ĠÐ¿Ð¾Ð¹Ð¼ÐµÐ¼": 5602,
      "ĠÐ¿ÑĢÐ¸Ð²ÑĭÐºÐ»Ð¸": 5603,
      "ĠÐ¾Ð±ÑĢÐ°Ð·Ð¾Ð²Ð°Ð½Ð½Ð¾Ð³Ð¾": 5604,
      "ĠÐ¾Ð±ÑĢÐ°Ð·Ð¾Ð²Ð°Ð½Ð½Ð°Ñı": 5605,
      "ĠÐ´Ð¾ÑģÑĤÐ°Ð²ÐºÐ°": 5606,
      "ĠÐ²ÐµÐ»Ð¸ÐºÐ¾Ð»ÐµÐ¿": 5607,
      "ĠÐ³Ð»ÑĥÐ±Ð¾ÐºÑĥÑİ": 5608,
      "ĠÐ³Ð»ÑĥÐ±Ð¾ÐºÐ¸Ð¼Ð¸": 5609,
      "ĠÐ¿Ð¾Ð»ÑĮÐ·Ð¾Ð²Ð°ÑĤÐµÐ»ÐµÐ¹": 5610,
      "ĠÐ¼ÐµÑĩÑĤÐ°Ð½Ð¸Ð¹": 5611,
      "ĠÐ´Ð¸Ð²Ð°Ð½Ðµ": 5612,
      "ĠÐºÑĢÐ¾ÑĪÐµÑĩÐ½ÑĥÑİ": 5613,
      "ĠÐ¤ÐĿÐĲÐ¤Ðµ": 5614,
      "ace": 5615,
      "ĠÐ¿Ð°Ð»ÑĮÑĨÐµÐ¼": 5616,
      "ĠÐ¿Ð¸Ð·Ð´Ð¾ÑħÐ½ÑĥÐ»": 5617,
      "ĠÐ¿Ð¸Ð·Ð´ÐµÑĨ": 5618,
      "ĠÐ½Ð¾ÑģÐ¸ÑĤ": 5619,
      "ĠÐ²Ð½Ð¸Ð¼Ð°Ð½Ð¸Ñı": 5620,
      "ĠÐ²Ð½Ð¸Ð¼Ð°Ð½Ð¸Ðµ": 5621,
      "ĠÐ²Ð½ÑĥÑĤÑĢÑĮ": 5622,
      "ĠÑģÑĥÐºÐ°": 5623,
      "ĠÑģÑĬÐµÐ·Ð´Ð°": 5624,
      "ĠÐ¸ÑīÑĥÑĤ": 5625,
      "ĠÐºÐ½Ð¸Ð³": 5626,
      "ĠÐºÐ°ÑĢÑĤÐ¸Ð½Ñĭ": 5627,
      "ĠÑĤÐµÐ¾ÑĢ": 5628,
      "ĠÑĤÐ°Ð¹Ð½Ð¾": 5629,
      "ĠÐ¼Ð°Ð»ÑĮÑĩÐ¸ÐºÐ°Ð¼Ð¸": 5630,
      "ĠÐ±ÐµÐ³ÑĥÑĤ": 5631,
      "ĠÐ±Ð¸Ð»ÐµÑĤÑĥ": 5632,
      "ĠÐ·ÐµÐ¼Ð»Ðµ": 5633,
      "ĠÐ½Ð°ÑģÑĤÐ¾Ð»ÑĮÐºÐ¾": 5634,
      "ĠÐ½Ð°ÑģÑĤÐµÐ¶ÑĮ": 5635,
      "ĠÐ½Ð°ÑģÐ»Ð°Ð´": 5636,
      "ÑīÐ°Ð´ÐºÐµ": 5637,
      "ĠÑįÐºÑģÐ¿": 5638,
      "ĠÑįÐºÐ¾Ð½Ð¾Ð¼": 5639,
      "ĠÐ³ÑĢÑıÐ·ÑĮ": 5640,
      "ĠÐ¿Ð¾ÑħÐ²Ð°Ð»ÑĮÐ½ÑĭÐ¹": 5641,
      "ĠÐ¿Ð¾ÑħÐ²Ð°Ð»ÑĮÐ±Ñĭ": 5642,
      "ĠÑģÑĤÑĥÐºÐ½ÑĥÐ»": 5643,
      "ĠÑģÑĤÑĭÐ´Ð¸Ð»ÑģÑı": 5644,
      "ĠÐ¿ÑĢÐ¸ÑĩÐ¸Ð½Ð¾Ð¹": 5645,
      "ĠÐ¿ÑĢÐ¸ÑıÑĤÐ½Ð¾Ðµ": 5646,
      "ĠÐ¿ÑĢÐ¸ÑģÐ»ÑĥÐ³": 5647,
      "ĠÐ¶Ð°Ð½ÑĢÐµ": 5648,
      "ĠÑĢÐ°Ð·ÑĥÐ¼Ð½ÑĭÐµ": 5649,
      "ĠÐĺÐ½Ð¾Ð³Ð´Ð°": 5650,
      "ĠÐĲÐ¼Ð°Ð»Ð¸Ð¸": 5651,
      "ĠÐĲÐ¼Ð°Ð»Ð¸Ñı": 5652,
      "ĠÐ¿Ð¾Ð´Ð¾Ð±Ð½Ð¾Ðµ": 5653,
      "ĠÑģÐ²Ð°Ð»Ð¸Ð²Ð°ÑĤÑĮ": 5654,
      "Ð¾ÐµÑħÐ°Ð»Ð¸": 5655,
      "ĠÑģÐ¼ÑĥÑīÐµÐ½Ð¸Ð¸": 5656,
      "ĠÐ¾ÑģÐ½Ð¾Ð²Ð½Ð¾Ð¹": 5657,
      "ĠÐ½Ð°Ð¿ÑĢÐ°Ð²Ð»ÐµÐ½Ð¸Ð¸": 5658,
      "ĠÐ²ÐµÑĢÑħÑĥ": 5659,
      "ĠÐ¿ÑĢÐµÐ´Ð¿Ð¾Ð»Ð°Ð³": 5660,
      "ĠÐ¿ÑĢÐµÐ´Ð¿ÑĢÐ¸ÑıÑĤÐ¸": 5661,
      "ĠÐ¼ÑĥÐ¶Ð¸ÐºÐ¾Ð¼": 5662,
      "ĠÐ·Ð°ÐºÐ¾Ð½ÑĩÐ¸Ð»Ð°ÑģÑĮ": 5663,
      "ÐŀÐŀÐŀÐŀ": 5664,
      "ĠÐ·Ð°Ð¼ÐµÑĩÐ°Ñı": 5665,
      "ĠÑĢÐµÐ°Ð»ÑĮÐ½Ð¾Ð¼": 5666,
      "ĠÐ¶Ð°Ð»Ð¾Ð²Ð°Ð½ÑĮÐµ": 5667,
      "ĠÑīÐµÐºÐ°Ñħ": 5668,
      "ĠÐ¾Ð³ÑĢÐ¾Ð¼Ð½ÑĭÐ¹": 5669,
      "ĠÐ¾Ð³ÑĢÐ¾Ð¼Ð½Ð¾Ñİ": 5670,
      "ĠÑģÐ»ÐµÐ´ÑĥÑİÑīÐµÐ¹": 5671,
      "ĠÑģÐ»ÐµÐ´ÑĥÑİÑīÐ¸Ð¹": 5672,
      "ĠÐ¾Ð±ÑĬÑıÑģÐ½Ð¸Ð»": 5673,
      "ĠÑĢÐ°ÑģÑģÑĩÐ¸ÑĤÑĭÐ²Ð°ÑĤÑĮ": 5674,
      "ĠÐ°ÐºÑĤÐ¸Ð²Ð½ÑĭÑħ": 5675,
      "ĠÑģÐ¾ÑħÑĢÐ°Ð½Ñı": 5676,
      "ĠÐ±Ð¾Ð»ÐµÐ·Ð½ÐµÐ½Ð½Ð¾Ðµ": 5677,
      "ĠÐ±Ð¾Ð»ÐµÐ·Ð½ÐµÐ½Ð½Ð°Ñı": 5678,
      "ĠÐ¿ÑĢÐ¾Ð³ÑĢÐ°Ð¼Ð¼Ð¸ÑģÑĤ": 5679,
      "ĠÑĤÑıÐ¶ÐµÐ»Ð¾": 5680,
      "ĠÑĢÐ¾Ð±Ð¾ÑĤÐ¾Ð²": 5681,
      "ĠÑĢÐµÐºÐ¾Ð¼ÐµÐ½Ð´ÑĥÑİÑĤ": 5682,
      "Ġ2020": 5683,
      "ĠÐ¼Ð°ÐºÑģÐ¸Ð¼ÑĥÐ¼": 5684,
      "ĠÐ¼Ð°ÐºÑģÐ¸Ð¼Ð°Ð»ÑĮÐ½Ð¾": 5685,
      "ĠÑĢÐ°ÑģÑģÐºÐ°Ð·Ð°Ð»Ð°": 5686,
      "ĠÐ¿ÑĢÐµÐ·ÑĢÐµÐ½Ð¸Ñı": 5687,
      "ĠÐ»Ð¾ÑħÐ¼Ð¾ÑĤÑĮÑıÑħ": 5688,
      "velop": 5689,
      "ĠCorpor": 5690,
      "ĠMinec": 5691,
      "ĠPyth": 5692,
      "ĠÑĪÐ¸ÑĢÐ¾ÐºÐ¸Ð¹": 5693,
      "Ġusing": 5694,
      "Ġuser": 5695,
      "ĠÐ¿Ð¸ÑģÐ°ÑĤÑĮ": 5696,
      "ĠÐ¿Ð»Ð¾ÑħÐ¾": 5697,
      "ĠÐ¿Ð»Ð¾ÑīÐ°Ð´ÐºÐµ": 5698,
      "ĠÐ½Ð¸ÑĩÐµÐ¼": 5699,
      "ĠÐ²ÑģÑĤÐ°Ð²Ð°Ñı": 5700,
      "ĠÑģÐ¾ÑĢÐ¾Ðº": 5701,
      "ĠÑģÑħÐ²Ð°ÑĤÐ¸Ð»Ð°": 5702,
      "ĠÑģÑĥÐ½Ð´ÑĥÐºÐµ": 5703,
      "ĠÐ´Ð°Ð»ÐµÐº": 5704,
      "ĠÐ´Ð¾ÐºÐ°Ð·": 5705,
      "ĠÐ´Ð¾ÐºÑĥÐ¼ÐµÐ½ÑĤ": 5706,
      "ĠÐ´ÑĥÑĪÐ½Ð¾": 5707,
      "ĠÐ±Ð¾Ð³Ñĥ": 5708,
      "ĠÑĩÑĥÐ¶Ð¾Ð¼Ñĥ": 5709,
      "ĠÐ¿ÑĢÐµÑģÐ»ÐµÐ´": 5710,
      "ĠÐ¿ÑĢÐ¾Ð¼Ð¾ÑĢÐ³Ð°ÑĤÑĮÑģÑı": 5711,
      "ĠÐ·ÐµÑĢÐºÐ°Ð»Ð¾": 5712,
      "ĠÑĢÐµÐ³ÑĥÐ»ÑıÑĢ": 5713,
      "ĠÑıÐ·ÑĭÐº": 5714,
      "ĠÑıÐ¿Ð¾Ð½ÐºÐ°": 5715,
      "ĠÐµÐ´Ð¸Ð½ÑĭÐ¹": 5716,
      "ĠÐµÐ´Ð¸Ð½Ð¾ÑĢÐ¾Ð´": 5717,
      "ĠÑĥÑĢÐ¾Ð²ÐµÐ½ÑĮ": 5718,
      "ĠÑĥÐºÐ°Ð·ÑĭÐ²Ð°Ñı": 5719,
      "ĠÐ³Ð¾Ð»Ð¾Ð´Ð½ÑĭÐµ": 5720,
      "ĠÐ¾ÑĤÐ½Ð¾ÑģÐ¸ÑĤÑĮÑģÑı": 5721,
      "ĠÐ°Ð²ÑĤÐ¾Ð¼": 5722,
      "ĠÑģÑĤÐ¾Ð¹ÐºÐ¾Ð¹": 5723,
      "ĠÑģÑĤÐ°ÐºÐ°Ð½ÑĩÐ¸Ðº": 5724,
      "ĠÐ¾Ð±Ð¾ÑĢÐ²": 5725,
      "ĠÐ¾Ð±Ð¾ÑĪÑĳÐ»": 5726,
      "ĠÐ¾Ð½Ð»Ð°Ð¹Ð½": 5727,
      "ĠÐĿÐµÐ¿Ð¾Ð½ÑıÑĤÐ½Ð¾": 5728,
      "ĠÐĿÐ¸ÐºÐ°Ðº": 5729,
      "ĠÐ¿Ð¾Ð´Ð²Ð°Ð»Ðµ": 5730,
      "ĠÑĤÐ¾ÑĩÐ½Ð¾ÑģÑĤÐ¸": 5731,
      "ĠÑģÐ¿Ð°ÑģÐ¸Ð±Ð¾": 5732,
      "ĠÑģÐ¿ÐµÑĪÑĥ": 5733,
      "ĠÐ¿ÐµÑĢÐµÐ½Ð¾Ñģ": 5734,
      "ĠÐ¿ÐµÑĢÐµÐ¿Ð¾Ð»Ð½": 5735,
      "ĠÐ¼ÑĭÑĪÑĨÑĭ": 5736,
      "ĠÑĦÐ»Ð°Ð³Ð¸": 5737,
      "ĠÐ±ÑĥÐ´ÑĥÑīÐµÐ¼": 5738,
      "ĠÐ§ÑĥÑĤÑĮ": 5739,
      "ĠÐ§ÑĥÐ²ÑģÑĤÐ²Ð¾": 5740,
      "ĠÑģÐ¾Ð¾Ð±ÑĢÐ°Ð¶Ð°Ð»": 5741,
      "ĠÐĹÐ°ÐºÐ¸Ð½ÑĥÐ»Ð¸": 5742,
      "ĠÐºÐ¾Ð½ÑĩÐ¸Ð»Ð¾ÑģÑĮ": 5743,
      "ĠÐ»ÑİÐ±Ð¸Ð¼ÑĭÐ¹": 5744,
      "ĠÐ¾ÐºÑĢÑĥÐ¶Ð°ÑİÑī": 5745,
      "ĠÐ¿Ð¾Ð¼Ð¾ÑīÐ¸": 5746,
      "ĠÐ¿Ð¾Ð¼Ð¾ÑīÑĮ": 5747,
      "ĠÐ·Ð°ÐºÑĢÐ¸ÑĩÐ°Ð»": 5748,
      "ĠÐ·Ð°ÐºÑĢÐ¸ÑĩÐ°Ð»Ð°": 5749,
      "ĠÐ¾ÑģÑĤÐ°Ð»ÑĮÐ½ÑĭÑħ": 5750,
      "ĠÐ±Ð»Ð¾ÐºÐ¸": 5751,
      "ĠÐŁÑĢÐ¾ÑīÐ°Ð¹ÑĤÐµ": 5752,
      "ĠÐ´Ð¾ÑĢÐ¾Ð¶ÐºÐµ": 5753,
      "ĠÑĢÑĥÐ±Ð°ÑĪÐºÐµ": 5754,
      "ĠÐ½ÐµÐ´Ð¾Ð²ÐµÑĢÑĩÐ¸Ð²Ð¾ÑģÑĤÑĮ": 5755,
      "ĠÑĥÐ¿ÑĢÐ°Ð²Ð»Ñı": 5756,
      "ĠÑĥÐ¿ÑĢÐ°Ð²Ð»ÐµÐ½Ð¸Ñı": 5757,
      "ĠÑĥÐ»ÑĥÑĩÑĪÐµÐ½Ð¸Ðµ": 5758,
      "ĠÐ·Ð°ÑĢÐ°Ð±Ð¾ÑĤÐ°ÑĤÑĮ": 5759,
      "Ġplatfor": 5760,
      "ĠÐ½ÐµÑĢÐ²Ñĭ": 5761,
      "ĠÑģÐ¾ÑģÑĤÐ°Ð²Ð¸ÑĤÑĮ": 5762,
      "ĠÑĢÐ°Ð·ÑĢÐ°Ð±Ð¾ÑĤÑĩÐ¸ÐºÐ°": 5763,
      "ĠÐ´Ð¾ÑģÑĤÐ¾Ð¸Ð½ÑģÑĤÐ²Ð¾Ð¼": 5764,
      "ĠÐ»ÐµÐ³ÐºÐ¾Ð¼ÑĭÑģÐ»": 5765,
      "ĠÐ¿Ð»Ð°ÑĤÑĦÐ¾ÑĢÐ¼Ðµ": 5766,
      "ĠÐºÐ°ÑĢÐ¼Ð°Ð½Ðµ": 5767,
      "ĠÐ¿Ð°ÑģÑħÐ°Ð»ÐºÐ¸": 5768,
      "ĠÐ¿Ð°ÑģÑħÐ°Ð»ÐºÐµ": 5769,
      "ĠÐºÐ¾Ð¼Ð¿Ð°Ð½Ð¸Ð¸": 5770,
      "ĠÐºÐ¾Ð¼Ð¿Ð°Ð½Ð¸Ð¾Ð½Ð¾Ð¼": 5771,
      "ĠÐ¿ÑĢÐµÐ²Ð¾ÑģÑħÐ¾Ð´Ð¸ÑĤÐµÐ»ÑĮÑģÑĤÐ²Ð¾": 5772,
      "ĠÐ¿ÑĢÐµÐ²Ð¾ÑģÑħÐ¾Ð´Ð¸ÑĤÐµÐ»ÑĮÑģÑĤÐ²Ñĥ": 5773,
      "ĠÑĥÐ½Ð¸ÑĩÑĤÐ¾Ð¶Ð¸ÑĤÑĮ": 5774,
      "ĠÑįÐ½ÐµÑĢÐ³Ð¸Ñı": 5775,
      "ĠÐ¾ÑĤÑĢÐµÐ°Ð³Ð¸ÑĢÐ¾Ð²Ð°Ð»": 5776,
      "ĠÐ¾ÑĤÑĢÐµÐ°Ð³Ð¸ÑĢÐ¾Ð²Ð°Ð»Ð°": 5777,
      "ĠÐĲÑĦÐ°Ð½Ð°ÑģÑĮÐµÐ²": 5778,
      "ystem": 5779,
      "Ġ50": 5780,
      "Ġsystem": 5781,
      "ĠLuau": 5782,
      "ĠÐ¿Ð°Ð¿Ð¸ÑĢÐ¾Ñģ": 5783,
      "ĠÐ¿Ð¾Ð»ÑĮÐ·ÑĥÑİÑĤÑģÑı": 5784,
      "ĠÐ½ÐµÐ½Ð°Ð´Ð¾Ð»Ð³Ð¾": 5785,
      "ĠÐ²Ð°Ð»Ð¸Ð¼": 5786,
      "ĠÐ²Ð¾Ð¹Ð½Ðµ": 5787,
      "ĠÐ²Ð¾Ð½ÑĮ": 5788,
      "ĠÐ²Ð»Ð¸ÑıÐ½Ð¸ÐµÐ¼": 5789,
      "ĠÐ²Ð½ÑĥÑĤÑĢÐµÐ½": 5790,
      "ĠÑģÐ¶Ð¸Ð³Ð°ÑĤÑĮ": 5791,
      "ĠÐ¾ÑĢÐ³": 5792,
      "ĠÐ¾Ð¼Ð»ÐµÑĤ": 5793,
      "ĠÐ¾ÑħÐ²Ð°ÑĤÑĭÐ²Ð°ÑİÑīÐ¸Ðµ": 5794,
      "ĠÐºÐ¸Ð´Ð°Ð»": 5795,
      "ĠÐºÐ¸ÑĢÐ¿Ð¸Ñĩ": 5796,
      "ĠÐºÐ°ÑĪÐ»ÑıÐ»Ð°": 5797,
      "ĠÐºÐ½Ð¾Ð¿ÐºÑĥ": 5798,
      "ĠÑĤÑĥÐ¿Ð¾Ð¹": 5799,
      "ĠÐ¼ÑıÑĩ": 5800,
      "ĠÐ´ÐµÐ±Ð¸Ð»": 5801,
      "ĠÐ´ÑĥÑħÐµ": 5802,
      "ÐµÑĢÐ½Ð°ÑĥÐ¼": 5803,
      "Ð½Ð¾ÑĩÐºÑĥ": 5804,
      "ĠÐ¿ÑĢÐ¸Ð¼ÐµÑĤÐ½Ð°Ñı": 5805,
      "ĠÐ½Ð°ÑĢÑĥÑĪÐµÐ½Ð¸Ñı": 5806,
      "ĠÐ½Ð°ÑĢÐ¾Ð´Ñĥ": 5807,
      "ĠÑĢÐ°Ð¹Ð¾Ð½Ðµ": 5808,
      "ĠÑĢÐ¾ÑģÑĤÐ°": 5809,
      "ĠÐµÑħÐ°ÑĤÑĮ": 5810,
      "Ð¾Ð³Ð¸ÑĩÐ½Ð¾": 5811,
      "ĠÐ²ÑģÐºÑĢÐ¸Ðº": 5812,
      "ĠÐ¿Ð¾ÑīÐ°Ð´Ð¸ÑĤÑĮ": 5813,
      "ĠÐ¾ÑĤÐ»Ð¸ÑĩÐ°ÐµÑĤÑģÑı": 5814,
      "ĠÑħÐ¸ÑħÐ¸Ðº": 5815,
      "ĠÐ¾Ð±ÐµÐ´Ð°": 5816,
      "ĠÐ¾Ð±Ð¾Ð¹ÑĤÐ¸ÑģÑĮ": 5817,
      "ĠÐ²ÑĭÐºÑĥÐ¿": 5818,
      "ĠÐ²ÑĭÐ´ÑĥÐ¼": 5819,
      "ĠÐ²ÑĭÐ¸Ð³ÑĢÐ°Ð»": 5820,
      "ĠÐ²ÑĭÐºÐ»ÑİÑĩÐ¸ÑĤÑĮ": 5821,
      "ĠÐŁÐ¾ÑĩÐµÐ¼Ñĥ": 5822,
      "ĠÐŁÑıÑĤÐ½Ð°Ð´ÑĨÐ°ÑĤÑĮ": 5823,
      "ĠÐŁÑĢÐµÐ´ÑģÑĤÐ°Ð²ÑĮ": 5824,
      "ĠÐŁÐµÑĢÐµÐ´Ð¾": 5825,
      "ĠÐĿÐ°Ð´Ð¾": 5826,
      "ĠÐ¿ÑĢÐ¸ÐµÐ¼Ð»Ñİ": 5827,
      "ĠÐ¶Ð°Ð¶Ð´Ð°": 5828,
      "ĠÑģÐ»ÐµÐ³ÐºÐ°": 5829,
      "ĠÐ¡ÐºÐ°Ð·Ð°Ð»": 5830,
      "ĠÐ¡Ð¾ÑĤÑĢÑĥÐ´Ð½Ð¸Ðº": 5831,
      "ĠÐ¢ÑĢÐ¸Ð´ÑĨÐ°ÑĤÑĮ": 5832,
      "ĠÐĶÐ°ÑĢÑĮÑı": 5833,
      "ĠÐ¿Ð¾Ð´Ð¾ÑĪÐ»Ð°": 5834,
      "ĠÐĴÐ¾Ð¾Ð±ÑīÐµ": 5835,
      "ĠÐ¸Ð·Ð±Ð¸Ð»": 5836,
      "Ð¾Ð¿Ð¾Ð»ÑĥÑĩÐ½Ð¾": 5837,
      "ĠÐ¿Ð¾Ð»Ð¾Ð²Ð¸Ð½Ñĥ": 5838,
      "ĠÐ¿ÐµÑĢÐµÑĥÐ»": 5839,
      "ĠÑģÐºÐ¾Ð²Ð¾ÑĢÐ¾Ð´Ñĥ": 5840,
      "ĠÐ¿Ð¾ÑģÐ°Ð´Ð¸Ð»Ð¸": 5841,
      "ĠÐ³Ð¾ÑĢÑıÑĩÐ°Ñı": 5842,
      "âĢľ,": 5843,
      "ĠÑģÐ¼ÑĭÐ»Ð¸": 5844,
      "ĠÐ¾ÑĩÐµÐ²Ð¸Ð´": 5845,
      "ĠÑĪÐ»ÑıÐ¿": 5846,
      "ĠÐ¾Ð¿ÑĢÐ°Ð²Ð´Ð°Ð½Ð¸Ðµ": 5847,
      "ĠÑĤÑĢÐ¾Ð³Ð°Ð¹ÑĤÐµ": 5848,
      "ĠÐ²Ð¾Ð·Ð³Ð»Ð°Ð³Ð¾Ð»ÑıÑĤ": 5849,
      "ĠÑģÐ¾Ð±ÑĢÐ°Ð»Ð°ÑģÑĮ": 5850,
      "ĠÑĨÐ°ÑĢÑģÑĤÐ²Ð¸Ðµ": 5851,
      "ĠÐ¿ÑĢÐ¾Ð´ÑĥÐºÑĤÑĭ": 5852,
      "ĠÐ¿ÐµÑĢÐµÐ´Ð°ÑĩÑĥ": 5853,
      "ĠÐ¸ÑģÐ¿Ð¾Ð»ÑĮÐ·Ð¾Ð²Ð°Ð½Ð¸ÐµÐ¼": 5854,
      "ĠÐºÐ¾Ð»Ð¸ÑĩÐµÑģÑĤÐ²Ðµ": 5855,
      "ĠÐ³Ð¾ÑģÑĥÐ´Ð°ÑĢÑģÑĤÐ²ÐµÐ½": 5856,
      "ĠÑģÐ¾ÑģÑĢÐµÐ´Ð¾ÑĤÐ¾Ñĩ": 5857,
      "ĠÐ±ÐµÑģÑģÑĩÐµÑĤÐ½Ð¾": 5858,
      "ĠÐ¾Ð±ÑĬÑıÐ²Ð¸Ð»": 5859,
      "ÐľÐ°Ð»ÑıÐ²Ð¾ÑĩÐºÐ°": 5860,
      "ĠÐ¿Ð¾Ð¿ÑĥÐ»ÑıÑĢÐ½Ð¾ÑģÑĤÐ¸": 5861,
      "ĠÐ¿Ð¾Ð¿ÑĢÐ¾Ð±ÑĥÐ¹ÑĤÐµ": 5862,
      "ÐŁÑĢÐ¸Ð²ÐµÑĤ": 5863,
      "ĠÐ½ÐµÐ²Ð¸Ð½Ð½Ð¾ÑģÑĤÐ¸": 5864,
      "ĠÐ²ÑĭÐ¿Ð¾Ð»Ð½ÐµÐ½Ð¸Ñı": 5865,
      "ĠÐ¡ÑĤÐ°ÑĢÑĪÐ°Ñı": 5866,
      "ĠÐ´ÑĢÐ¾Ð¶Ð°Ð»Ð°": 5867,
      "ĠÐ´ÑĢÐ°Ð´ÐµÐ´Ð°Ð¼Ð¾Ð²ÑĭÐ¹": 5868,
      "ĠÐ¿Ð¾ÑħÐ¼ÐµÐ»ÑĮÐµ": 5869,
      "ĠÑĥÐ´ÐµÑĢÐ¶Ð°Ð»ÑģÑı": 5870,
      "ĠÑĢÐµÐ±ÑıÑĤÐ¸ÑĪÐºÐ¸": 5871,
      "ĠÐ²Ð¾ÑĪÐµÐ´ÑĪÐ¸Ñħ": 5872,
      "ĠÐºÐ°Ð¼Ð¾ÑĢÐºÑĥ": 5873,
      "ĠÐ¿Ð¾Ð·Ð²Ð¾Ð»ÑıÑİÑīÐ°Ñı": 5874,
      "ĠÐ½ÐµÐ¿ÑĢÐ¸Ð»Ð¸ÑĩÐ½Ð¾": 5875,
      "ĠÐ½ÐµÐ¿ÑĢÐ¸Ð¼ÐµÑĤÐ½Ð¾": 5876,
      "Ġprogr": 5877,
      "ĠÐ¿ÑĥÑģÑĤÑıÐºÐ°Ð¼Ð¸": 5878,
      "ĠÑģÐ¾ÑģÑĤÑĢÐ°Ð´Ð°Ð½Ð¸Ñı": 5879,
      "ĠÑģÐ¾ÑħÑĢÐ°Ð½Ð¸ÑĤÑĮ": 5880,
      "ĠÐ´ÑĢÑĥÐ·ÑĮÑı": 5881,
      "ĠÑģÑĤÐ°Ð½Ð´Ð°ÑĢÑĤÐ½Ð°Ñı": 5882,
      "ĠÑĦÐ°Ð¹Ð»Ñĭ": 5883,
      "ĠÐ¾ÑĦÐ¸ÑĨÐµÑĢÐ°": 5884,
      "ĠÐ¼ÐµÐ»ÑĮÐºÐ½ÑĥÐ»Ð°": 5885,
      "ĠÑģÐ¿ÑĢÐ°Ð²ÐµÐ´Ð»Ð¸Ð²Ð¾": 5886,
      "ĠÐ²ÐµÐ»Ð¸ÐºÐ¾Ð´ÑĥÑĪÐ½Ð°Ñı": 5887,
      "ĠÑģÐ¸ÑĤÑĥÐ°ÑĨÐ¸Ñİ": 5888,
      "ĠÐ¼Ð°Ð»ÑĮÑĩÐ¸ÑĪÐºÐ°": 5889,
      "ĠÐ¿ÑĢÐµÐ¸Ð¼ÑĥÑīÐµÑģÑĤÐ²ÐµÐ½Ð½Ð¾": 5890,
      "ĠÐ°Ð»ÐºÐ¾Ð³Ð¾Ð»ÑĮ": 5891,
      "ĠÐŀÑģÐ¾Ð±ÐµÐ½Ð½Ð¾": 5892,
      "ĠÐµÐ´Ð¸Ð½ÑģÑĤÐ²ÐµÐ½Ð½Ð°Ñı": 5893,
      "ĠÑĢÐµÐºÐ¾Ð¼ÐµÐ½Ð´Ð°ÑĨÐ¸Ñı": 5894,
      "ĠÐ²Ð·Ð´ÑĢÐ¾Ð³Ð½ÑĥÐ»": 5895,
      "ĠÐºÐ¸Ð»Ð¾Ð¼ÐµÑĤÑĢÐ¾Ð²": 5896,
      "ĠÐ¿ÑĢÐµÐ¼ÑĥÐ´ÑĢÑĭÐµ": 5897,
      "ĠÑĥÐ½Ð¸Ð²ÐµÑĢÑģÐ¸ÑĤÐµÑĤ": 5898,
      "ĠÐ²Ð·Ð²Ð¾Ð»Ð½Ð¾Ð²Ð°Ð½Ð½ÑĭÑħ": 5899,
      "ĠÐ¤ÑĢÐ°Ð½ÑĨÐµÐ²Ð½Ð°": 5900,
      "ject": 5901,
      "raft": 5902,
      "ĠExchange": 5903,
      "Ð½ÐºÑĢÐ°ÑĦ": 5904,
      "ÑıÐ¿Ð¾Ð½ÑģÐºÐ¸": 5905,
      "ĠÐ¿ÐµÐ¿ÐµÐ»ÑĮÐ½Ð¸": 5906,
      "ĠÐ¿Ð¸ÐºÐ°Ð¿": 5907,
      "ĠÐ½ÐµÐ»Ð¾Ð²ÐºÐ¾": 5908,
      "ĠÐ½ÐµÐ³Ð»Ð°ÑģÐ½Ð¾Ðµ": 5909,
      "ĠÐ²Ð¾ÐºÑĢÑĥÐ³": 5910,
      "ĠÐ²Ð¸ÑħÑĢÑĭ": 5911,
      "ĠÐ²ÑĤÑĥÐ½Ðµ": 5912,
      "ĠÐ²Ð¸ÑĨÐ¼ÑĥÐ½Ð´": 5913,
      "ĠÐ²Ð¸ÑĤÐ¸ÐµÐ²": 5914,
      "ÑĩÐ¸Ð½Ð¾Ð²Ð½Ð¸Ñĩ": 5915,
      "ĠÑģÑĪÐ¸ÑĤ": 5916,
      "ĠÑģÐ¸ÑĢÐ¾Ð¿": 5917,
      "ĠÑģÑĥÐ³ÑĥÐ±": 5918,
      "ĠÑģÐ¾Ð¹Ð´ÐµÐ¼ÑģÑı": 5919,
      "ĠÐ¾ÐºÐ¸Ð½ÑĥÐ»": 5920,
      "ĠÐ¾ÑģÐ»Ð°Ð±": 5921,
      "ĠÐ¾ÑĢÐ°Ð½Ð¶ÐµÐ²ÑĭÐ¹": 5922,
      "ĠÐºÐ¾ÑģÑĤÑİÐ¼": 5923,
      "ĠÐºÐµÐ³ÐµÐ»ÑĮÐ±Ð°Ð½": 5924,
      "ĠÐºÐ°ÑĩÐµÑģÑĤÐ²Ðµ": 5925,
      "ĠÐºÑĥÐ»Ð°ÐºÐ¾Ð¼": 5926,
      "ĠÑĤÐ¸ÑĤÑĥÐ»ÑıÑĢ": 5927,
      "ĠÐ¼Ð°ÑĢÐº": 5928,
      "ĠÐ¼ÑĥÐ´Ð°Ðº": 5929,
      "ĠÐ¼ÐµÐ½ÑĮÑĪÐµ": 5930,
      "ĠÐ¼ÑıÑģÐ¾": 5931,
      "ĠÐ¼Ð¸ÑĢÐ¾Ð²Ð¾Ð¹": 5932,
      "ĠÐ¼ÑĥÐ»ÑĮÑĤÑĦÐ¸Ð»ÑĮ": 5933,
      "ĠÐ´ÑīÐµÑĢÑĮ": 5934,
      "ĠÐ´Ð»Ð¸Ð½Ð¾Ð¹": 5935,
      "ĠÐ´Ð¾Ð³Ð°Ð´": 5936,
      "ĠÐ±ÑĥÑĢÐ½ÑĥÑģ": 5937,
      "ĠÐ¿ÑĢÑıÑĤÐ°ÑĤÑĮÑģÑı": 5938,
      "ĠÐ¿ÑĢÐ¾ÐµÑħÐ°ÑĤÑĮ": 5939,
      "ĠÐ¿ÑĢÐ°ÐºÑĤÐ¸ÑĩÐµÑģÐºÐ¸": 5940,
      "ĠÐ½ÐµÐ¾Ð±ÑħÐ¾Ð´Ð¸Ð¼Ð¾": 5941,
      "ĠÐ·Ð°ÑıÐ²": 5942,
      "Ð¸Ð»Ð¾ÑģÐ¾ÑĦ": 5943,
      "ĠÐ½Ð°Ð½Ð¸Ð¼Ð°Ð»": 5944,
      "Ð¿ÐµÑĢÐ²ÑĭÑħ": 5945,
      "Ð¿Ð»Ð°ÑĤÑĦÐ¾ÑĢÐ¼Ð°": 5946,
      "ĠÑĢÐ°Ð¼ÐºÐ°Ñħ": 5947,
      "Ð¾ÑģÐ¿Ð¾Ð´Ð¸": 5948,
      "ĠÑıÐ¹ÑĨÐ°": 5949,
      "ĠÑıÐ±Ð»Ð¾ÑĩÐ½ÑĭÐ¹": 5950,
      "ĠÐµÐ±Ð°Ð½ÑĭÐ¹": 5951,
      "ĠÐ±ÑĭÑģÑĤÑĢÐµÐµ": 5952,
      "ĠÑįÑĦÑĦ": 5953,
      "ĠÐ³Ð°Ð´ÐºÐ¾": 5954,
      "ĠÐ³Ð¾Ð»ÑĮÑĦ": 5955,
      "ĠÐ³ÑĢÐ°Ð²Ð¸ÑĤ": 5956,
      "ĠÐ³ÑĢÑĥÑģÑĤ": 5957,
      "ĠÐ¿Ð¾ÑĥÑĤÑĢÑĥ": 5958,
      "ĠÐ¿Ð¾ÑģÑĤÑĢÐ°Ð´": 5959,
      "ĠÐ¿Ð¾ÐµÐ·Ð´Ð°Ñħ": 5960,
      "ĠÐ¾ÑĤÐ½ÑİÐ´ÑĮ": 5961,
      "ĠÐ¾ÑĤÑĩÐµÑĤÐ»Ð¸Ð²Ð¾": 5962,
      "ĠÑģÑĤÐµÐºÐ»ÑıÐ½Ð½ÑĭÐ¼Ð¸": 5963,
      "ĠÐ¾Ð±ÑīÐµÑģÑĤÐ²Ð°": 5964,
      "ĠÐ¾Ð±ÑĥÑĩÐµÐ½Ð¸Ðµ": 5965,
      "ĠÐ¾Ð±ÑģÑĥÐ´Ð¸ÑĤÑĮ": 5966,
      "ĠÐ²ÑĭÑĤÐµÑĢÐ¿ÐµÐ»Ð°": 5967,
      "ĠÐŁÐµÑĢÐ²Ð¾Ðµ": 5968,
      "Ð¸Ð´ÐµÑģÑıÑĤÐ¸": 5969,
      "ĠÐ¶Ð°Ð´Ð½Ð¾ÑģÑĤÐ¸Ñİ": 5970,
      "ĠÐŀÐºÐ°Ð·Ð°Ð»Ð¾ÑģÑĮ": 5971,
      "ĠÑĢÐ°Ð·Ð²ÐµÑĢÐ½ÑĥÑĤÑĮÑģÑı": 5972,
      "ĠÑĢÐ°Ð·Ð¾Ð±ÑĢÐ°ÑĤÑĮÑģÑı": 5973,
      "ĠÑĢÐ°Ð·ÑĢÑĥÐ»Ð¸Ð»": 5974,
      "ĠÑģÐ»ÐµÐ¶ÑĥÑģÑĮ": 5975,
      "ĠÐ¡ÑĥÐ½ÑĮÐ·": 5976,
      "ĠÐ¡Ð¼ÑĥÑīÐµÐ½Ð¸Ðµ": 5977,
      "ĠÐĶÐµÐ¹ÑģÑĤÐ²Ð¸ÑĤÐµÐ»ÑĮÐ½Ð¾": 5978,
      "ĠÐĲÐĲÐĲÐĲÐĲÐĲÐĲÐĲÐĲÐĲÐĲ": 5979,
      "ĠÐ¿Ð¾Ð´Ð³Ð»ÑıÐ´ÑĭÐ²Ð°ÐµÑĪÑĮ": 5980,
      "ĠÐĴÑĭÐ»ÐµÑĤ": 5981,
      "ĠÐ¸Ð·Ð½Ð°ÑĩÐ°Ð»ÑĮÐ½Ð¾": 5982,
      "ĠÐļÐ°Ð¿ÐµÑĢÐ½Ð°ÑĥÐ¼": 5983,
      "ĠÐļÐ²Ð°ÑĢÑĤÐ¸ÑĢÐ½Ð°Ñı": 5984,
      "ĠÐ´Ð²Ð¸Ð³Ð°ÐµÑĤÑģÑı": 5985,
      "ĠÐ¿ÐµÑĢÐµÐ³Ð¾ÑĢÐ¾Ð´ÐºÐ¾Ð¹": 5986,
      "ÐºÑĥÐ»ÑĮÑĤÑĥ": 5987,
      "ĠÐ¾Ð´Ð½Ð¾Ð³ÑĢÑĥÐ¿Ð¿": 5988,
      "ĠÑĦÐ¸Ð·Ð¸ÑĩÐµÑģ": 5989,
      "ĠÑĦÑĥÐ½ÐºÑĨÐ¸Ð¹": 5990,
      "ĠÑĦÐ¾ÑĤÐ¾ÑĪÐ¾Ð¿": 5991,
      "ĠÐ¿ÑĢÐ¾ÑħÐ¾Ð¶Ð¸Ñħ": 5992,
      "ĠÐ¾ÑĩÐµÑĢÐµÐ´Ð¸": 5993,
      "ĠÐºÐ¾Ð¼Ð¼ÐµÐ½ÑĤÐ°ÑĢ": 5994,
      "ĠÑĪÑĤÑĥÐºÐ°": 5995,
      "ĠÐĳÑĢÐµÐ»Ð¾Ðº": 5996,
      "ĠÑģÐ¾Ð¾ÑĤÐ²ÐµÑĤÑģÑĤÐ²": 5997,
      "ĠÐĹÐ´Ð¾ÑĢÐ¾Ð²Ð°Ñı": 5998,
      "ĠÑĤÑĢÑĥÑģÐ»Ð¸Ð²": 5999,
      "ĠÑĤÑĢÑıÐ¿ÑĮÐµ": 6000,
      "ĠÐ¾ÑĤÐ²ÑĢÐ°ÑīÐµÐ½Ð¸Ñı": 6001,
      "ĠÐ¿ÑĢÐµÐ´ÑĢÐ°ÑģÑģÑĥÐ´": 6002,
      "ĠÑģÐ¾Ð±ÑģÑĤÐ²ÐµÐ½Ð½Ð¾ÑĢÑĥÑĩ": 6003,
      "ĠÑģÑĤÑĢÑĥÐºÑĤÑĥ": 6004,
      "ĠÐĽÐµÑģÑĤÐ½Ð¸ÑĨÐ°": 6005,
      "ĠÐ¸Ð½ÑģÑĤÐ¸ÑĤÑĥÑĤ": 6006,
      "ĠÐ¿ÑĢÐ¾Ð´Ð²Ð¸Ð¶ÐµÐ½Ð¸Ðµ": 6007,
      "ĠÐ·Ð°Ð¿Ð¾Ð¼Ð½ÑıÑĤ": 6008,
      "ĠÐ½ÐµÐºÑĢÐ°ÑģÐ¸Ð²Ð¾": 6009,
      "ĠÐŁÑĢÐ¾Ð¼Ð¾ÑĢÐ³Ð°Ð»Ð¸ÑģÑĮ": 6010,
      "ĠÐ²Ð¾ÑģÐºÑĢÐµÑģÐµÐ½ÑĮ": 6011,
      "ĠÐ¸ÑģÑĤÐ¾ÑĩÐ½Ð¸ÐºÐ°Ñħ": 6012,
      "ĠÐ¥ÐĺÐłÐ£": 6013,
      "ĠÐ¼Ð¸Ð»Ð»Ð¸Ð°ÑĢÐ´Ñĭ": 6014,
      "ĠÑĨÐµÐ»ÐºÐ¾Ð²ÑĭÑħ": 6015,
      "ĠÑĥÐ¿ÑĢÐ°Ð¶Ð½": 6016,
      "ĠÐ¾ÑĤÐ²ÐµÑĤÑģÑĤÐ²ÐµÐ½Ð½Ð¾ÑģÑĤÑĮ": 6017,
      "ĠÑģÐ¿Ð¾ÐºÐ¾Ð¹Ð½ÐµÐ½ÑĮÐºÐ¾": 6018,
      "ĠÐ¿ÑĢÐµÐ´ÑģÑĤÐ°Ð²Ð»ÑıÑİÑīÐ¸Ðµ": 6019,
      "Ġgenre": 6020,
      "ĠÑĤÐµÐ»ÐµÐ²Ð¸Ð·Ð¾ÑĢ": 6021,
      "ĠÐ±Ð¾ÑĥÐ»Ð¸Ð½Ð³": 6022,
      "ĠÐ·Ð°ÑģÐ¼ÐµÑıÐ»ÑģÑı": 6023,
      "ĠÐ³Ð¾ÑĢÐ¼Ð¾Ð½Ð¾Ð²": 6024,
      "ĠÐ¼ÐµÑĤÐ°Ð²ÑģÐµÐ»ÐµÐ½Ð½Ð¾Ð¹": 6025,
      "ĠÐ¿ÑĢÐ¸Ð½ÑĥÐ¶Ð´ÐµÐ½Ð°": 6026,
      "ĠCorporation": 6027,
      "ĠMinecraft": 6028,
      "ĠPython": 6029,
      "Ġplatform": 6030,
      "ĠÐĲÑĦÐ°Ð½Ð°ÑģÑĮÐµÐ²Ð¸Ñĩ": 6031,
      "Ġprogramming": 6032,
      "ĠÐ²Ð¸ÑĨÐ¼ÑĥÐ½Ð´Ð¸ÑĢ": 6033,
      "ĠÐ¥ÐĺÐłÐ£ÐłÐĵ": 6034
    },
    "merges": [
      [
        "Ġ",
        "Ð"
      ],
      [
        "Ð",
        "¾"
      ],
      [
        "Ð",
        "µ"
      ],
      [
        "Ð",
        "°"
      ],
      [
        "Ñ",
        "Ĥ"
      ],
      [
        "Ð",
        "¸"
      ],
      [
        "Ñ",
        "ģ"
      ],
      [
        "Ð¾",
        "Ð"
      ],
      [
        "Ð",
        "½"
      ],
      [
        "Ñ",
        "Ģ"
      ],
      [
        "Ð",
        "»"
      ],
      [
        "Ñ",
        "ĥ"
      ],
      [
        "Ð°",
        "Ð"
      ],
      [
        "Ñ",
        "ı"
      ],
      [
        "Ñ",
        "Į"
      ],
      [
        "Ðµ",
        "Ð"
      ],
      [
        "Ñ",
        "ĭ"
      ],
      [
        "ĠÐ",
        "¿"
      ],
      [
        "ĠÐ",
        "½"
      ],
      [
        "ĠÐ",
        "²"
      ],
      [
        "Ñ",
        "ĩ"
      ],
      [
        "Ġ",
        "Ñģ"
      ],
      [
        "Ð",
        "º"
      ],
      [
        "Ð",
        "´"
      ],
      [
        "ĠÐ",
        "¸"
      ],
      [
        "ÑĤ",
        "Ð¾"
      ],
      [
        "Ð",
        "²"
      ],
      [
        "ĠÐ",
        "¾"
      ],
      [
        "ĠÐ",
        "º"
      ],
      [
        "Ñ",
        "ħ"
      ],
      [
        "Ð",
        "¼"
      ],
      [
        "Ġ",
        "ÑĤ"
      ],
      [
        "ĠÐ",
        "¼"
      ],
      [
        "ÑĤ",
        "ÑĮ"
      ],
      [
        "ĠÐ",
        "´"
      ],
      [
        "Ð°",
        "Ð»"
      ],
      [
        "Ñ",
        "Ī"
      ],
      [
        "Ðµ",
        "Ð½"
      ],
      [
        "ĠÐ",
        "±"
      ],
      [
        "Ñ",
        "İ"
      ],
      [
        "Ġ",
        "Ñĩ"
      ],
      [
        "Ð¾Ð",
        "²"
      ],
      [
        "Ðµ",
        "ÑĢ"
      ],
      [
        "Ñģ",
        "ÑĤ"
      ],
      [
        "Ð¾Ð",
        "»"
      ],
      [
        "Ðµ",
        "Ð»"
      ],
      [
        "Ð½",
        "Ð¾"
      ],
      [
        "Ð¾Ð",
        "¼"
      ],
      [
        "Ð°Ð",
        "º"
      ],
      [
        "ĠÐ¿",
        "ÑĢ"
      ],
      [
        "Ñĥ",
        "Ð"
      ],
      [
        "³",
        "Ð¾"
      ],
      [
        "Ðµ",
        "ÑĤ"
      ],
      [
        "ĠÐ½",
        "Ðµ"
      ],
      [
        "ĠÐ",
        "·"
      ],
      [
        "Ð¸",
        "Ð»"
      ],
      [
        "Ð¾Ð",
        "¹"
      ],
      [
        "Ð¾Ð",
        "´"
      ],
      [
        "Ð½",
        "Ð¸"
      ],
      [
        "ĠÐ½",
        "Ð°"
      ],
      [
        "Ð",
        "¿"
      ],
      [
        "Ð¾",
        "ÑĢ"
      ],
      [
        "Ñģ",
        "Ñı"
      ],
      [
        "ÐµÐ",
        "¼"
      ],
      [
        "Ð½",
        "Ð°"
      ],
      [
        "Ð",
        "±"
      ],
      [
        "Ġ",
        "ÑĢ"
      ],
      [
        "Ð¾",
        "Ñģ"
      ],
      [
        "Ġ",
        "Ñ"
      ],
      [
        "Ð",
        "·"
      ],
      [
        "Ġ",
        "Ñı"
      ],
      [
        "ĠÐ",
        "µ"
      ],
      [
        "ĠÑĩ",
        "ÑĤÐ¾"
      ],
      [
        "Ð¾",
        "ÑĤ"
      ],
      [
        "Ð°Ð",
        "¼"
      ],
      [
        "Ð°",
        "Ñģ"
      ],
      [
        "Ð",
        "¹"
      ],
      [
        "Ð°Ð",
        "·"
      ],
      [
        "Ð",
        "Ĳ"
      ],
      [
        "¶",
        "Ðµ"
      ],
      [
        "ĠÐ±",
        "Ñĭ"
      ],
      [
        "Ñ",
        "Ĩ"
      ],
      [
        "ÐĲ",
        "ÐĲ"
      ],
      [
        "Ð´",
        "Ð°"
      ],
      [
        "Ð¾Ð",
        "±"
      ],
      [
        ".",
        "."
      ],
      [
        "Ð½",
        "Ñĭ"
      ],
      [
        "Ñ",
        "ī"
      ],
      [
        "ÑĤ",
        "Ð¸"
      ],
      [
        "Ġ",
        "Ñĥ"
      ],
      [
        "ĠÑ",
        "į"
      ],
      [
        "Ð°",
        "ÑĤÑĮ"
      ],
      [
        "Ð¾Ð",
        "½"
      ],
      [
        "Ð°Ð",
        "²"
      ],
      [
        "Ð»",
        "Ð¸"
      ],
      [
        "Ð¾Ð",
        "³"
      ],
      [
        "ÐµÐ",
        "´"
      ],
      [
        "Ð",
        "³"
      ],
      [
        "č",
        "Ċ"
      ],
      [
        "ĠÐ",
        "³"
      ],
      [
        "ĠÐ",
        "»"
      ],
      [
        "Ð¸",
        "ÑĤ"
      ],
      [
        "Ð°Ð",
        "´"
      ],
      [
        "ĠÐ²",
        "Ñģ"
      ],
      [
        "ĠÐ¿",
        "Ð¾"
      ],
      [
        "Ð°",
        "Ð½"
      ],
      [
        "Ð¾Ð",
        "³Ð¾"
      ],
      [
        "ĠÐº",
        "Ð°Ðº"
      ],
      [
        "ÐµÐ",
        "¹"
      ],
      [
        "Ð°",
        "ÑĢ"
      ],
      [
        "Ð½",
        "Ñĥ"
      ],
      [
        "ĠÐ¾",
        "ÑĤ"
      ],
      [
        "Ð¾Ð»",
        "ÑĮ"
      ],
      [
        "Ñģ",
        "ÑĮ"
      ],
      [
        "Ð½",
        "Ðµ"
      ],
      [
        "Ð¸",
        "Ð¼"
      ],
      [
        "Ġ",
        "ÑĥÐ"
      ],
      [
        "Ð¸",
        "Ð²"
      ],
      [
        "ÑĤÐ¾",
        "ÑĢ"
      ],
      [
        "ĠÐ",
        "°"
      ],
      [
        "Ð¾Ð",
        "¶"
      ],
      [
        "Ðº",
        "Ð°"
      ],
      [
        "ÐµÐ",
        "º"
      ],
      [
        "ÐµÐ",
        "±"
      ],
      [
        "Ð¾Ð",
        "º"
      ],
      [
        "ĠÑģ",
        "ÑĤ"
      ],
      [
        "ĠÑĤ",
        "Ð°Ðº"
      ],
      [
        "Ð»",
        "Ð°"
      ],
      [
        "Ġ",
        "Ñħ"
      ],
      [
        "ÐµÐ",
        "·"
      ],
      [
        "ĠÐ¾",
        "Ð±"
      ],
      [
        "ĠÐ¾",
        "Ð½"
      ],
      [
        "ĠÐ²",
        "Ñĭ"
      ],
      [
        "Ðº",
        "Ð¸"
      ],
      [
        "ĠÐ",
        "Ł"
      ],
      [
        "ĠÑį",
        "ÑĤÐ¾"
      ],
      [
        "Ñĥ",
        "Ð´"
      ],
      [
        "Ð¸",
        "ÑĤÑĮ"
      ],
      [
        "Ð°",
        "ÑĤ"
      ],
      [
        "ÑģÑĤ",
        "Ð²"
      ],
      [
        "Ð°",
        "Ñı"
      ],
      [
        "ĠÐ",
        "Ŀ"
      ],
      [
        "ÐµÐ½",
        "Ð¸"
      ],
      [
        "ÐĲÐĲ",
        "ÐĲÐĲ"
      ],
      [
        "Ð¸",
        "Ð´"
      ],
      [
        "ĠÐ¿ÑĢ",
        "Ð¸"
      ],
      [
        "ĠÐ",
        "¶"
      ],
      [
        "..",
        "."
      ],
      [
        "Ðº",
        "Ð¾"
      ],
      [
        "ĠÐ±Ñĭ",
        "Ð»"
      ],
      [
        "ÑĢ",
        "ÑĥÐ"
      ],
      [
        "ÐµÐ",
        "¿"
      ],
      [
        "Ð°Ð»",
        "Ð°"
      ],
      [
        "ĠÐ·",
        "Ð°"
      ],
      [
        "Ð¾Ð",
        "·"
      ],
      [
        "Ð",
        "¶"
      ],
      [
        "ĠÐ",
        "ŀ"
      ],
      [
        "Ð»",
        "Ñı"
      ],
      [
        "ÐµÐ",
        "³Ð¾"
      ],
      [
        "ĠÑĢ",
        "Ð°Ð·"
      ],
      [
        "Ñħ",
        "Ð¾"
      ],
      [
        "ĠÐ½",
        "Ð¾"
      ],
      [
        "ĠÑģ",
        "Ð»"
      ],
      [
        "ĠÐ",
        "ĺ"
      ],
      [
        "ÐµÐ",
        "²"
      ],
      [
        "ĠÐ",
        "¡"
      ],
      [
        "Ð¸",
        "Ð½"
      ],
      [
        "ÐµÐ»",
        "ÑĮ"
      ],
      [
        "ĠÐ",
        "¶Ðµ"
      ],
      [
        "Ñ",
        "ĳ"
      ],
      [
        "Ðµ",
        "Ñģ"
      ],
      [
        "Ð",
        "³Ð¾"
      ],
      [
        "ĠÐ",
        "¢"
      ],
      [
        "ĠÐ",
        "Ķ"
      ],
      [
        "Ð¾Ð¼",
        "Ñĥ"
      ],
      [
        "ĠÐ",
        "Ĳ"
      ],
      [
        "ĠÐ",
        "ľ"
      ],
      [
        "Ð°Ð",
        "¶"
      ],
      [
        "ĠÐ¿",
        "Ð¾Ð´"
      ],
      [
        "ĠÐ",
        "Ĵ"
      ],
      [
        "Ð°Ð",
        "¹"
      ],
      [
        "ĠÐ¸",
        "Ð·"
      ],
      [
        "Ð¸",
        "Ðº"
      ],
      [
        "Ñĭ",
        "Ð¹"
      ],
      [
        "ÐµÐ½",
        "ÑĮ"
      ],
      [
        "Ġ",
        "ÑĤÐ¾"
      ],
      [
        "ĠÐ",
        "ļ"
      ],
      [
        "Ðµ",
        "Ñĩ"
      ],
      [
        "ÐµÑĢ",
        "ÑĮ"
      ],
      [
        "ÑĥÐ",
        "¶"
      ],
      [
        "ÑĢ",
        "Ð°"
      ],
      [
        "Ð¾",
        "Ñĩ"
      ],
      [
        "Ñī",
        "Ðµ"
      ],
      [
        "ĠÐ",
        "¯"
      ],
      [
        "Ð¾Ð",
        "¿"
      ],
      [
        "Ð½",
        "Ð¾Ð¹"
      ],
      [
        "ĠÑģ",
        "Ð²"
      ],
      [
        "Ð¾",
        "ÑĤÐ¾ÑĢ"
      ],
      [
        "Ð°",
        "Ñİ"
      ],
      [
        "Ð°Ð",
        "¿"
      ],
      [
        "ÐµÐ½",
        "Ñı"
      ],
      [
        "Ð°Ð»",
        "ÑĮ"
      ],
      [
        "Ð¸",
        "Ñĩ"
      ],
      [
        "ÑĤÐ¸",
        "ÑħÐ¾"
      ],
      [
        "Ð¾Ð³",
        "Ð´Ð°"
      ],
      [
        "Ðµ",
        "ÑĪ"
      ],
      [
        "ĠÐ¼",
        "ÐµÐ½Ñı"
      ],
      [
        "ĠÐ²Ñģ",
        "Ðµ"
      ],
      [
        "ĠÑĥÐ",
        "¶Ðµ"
      ],
      [
        "Ñĥ",
        "Ñĩ"
      ],
      [
        "Ð½",
        "Ð¾Ð³Ð¾"
      ],
      [
        "ĠÑģ",
        "Ð¿"
      ],
      [
        "Ð´",
        "Ðµ"
      ],
      [
        "Ð¾",
        "Ðµ"
      ],
      [
        "Ñı",
        "ÑĤ"
      ],
      [
        "ĠÐµ",
        "Ð³Ð¾"
      ],
      [
        "ĠÐ¼",
        "Ð½Ðµ"
      ],
      [
        "Ġ",
        "-"
      ],
      [
        "Ðµ",
        "ÑģÑĤ"
      ],
      [
        "ÑĢ",
        "Ñĭ"
      ],
      [
        "ĠÐ¿",
        "Ð¾Ð»"
      ],
      [
        "ĠÐ´",
        "Ð²"
      ],
      [
        "Ð°Ð»",
        "Ð¸"
      ],
      [
        "Ð°Ð",
        "±"
      ],
      [
        "ĠÐ¿",
        "ÐµÑĢ"
      ],
      [
        "Ðº",
        "Ñĥ"
      ],
      [
        "Ð¸",
        "Ñħ"
      ],
      [
        "ÑĢÑĥÐ",
        "³"
      ],
      [
        "Ð¼",
        "Ð¸"
      ],
      [
        "Ð¾",
        "ÑĪ"
      ],
      [
        "ĠÑģ",
        "Ðº"
      ],
      [
        "Ð¾Ð»ÑĮ",
        "ÐºÐ¾"
      ],
      [
        "ĠÐº",
        "Ð¾ÑĤÐ¾ÑĢ"
      ],
      [
        "Ñħ",
        "Ð¾Ð´"
      ],
      [
        "Ð¾",
        "ÑģÑĤ"
      ],
      [
        "Ñĥ",
        "ÑĤ"
      ],
      [
        "ĠÑģ",
        "Ð°Ð¼"
      ],
      [
        "ĠÐ¾",
        "Ð½Ð°"
      ],
      [
        "ĠÐ¿",
        "Ð¾Ñģ"
      ],
      [
        "ĠÑį",
        "ÑĤ"
      ],
      [
        "Ð¸",
        "Ñģ"
      ],
      [
        "Ð½Ñĭ",
        "Ð¹"
      ],
      [
        "ĠÐº",
        "ÑĢ"
      ],
      [
        "Ñĥ",
        "Ð´Ð°"
      ],
      [
        "ÐµÐ",
        "¶"
      ],
      [
        "ĠÐ±ÑĭÐ»",
        "Ð¾"
      ],
      [
        "Ð°",
        "ÐµÑĤ"
      ],
      [
        "Ð¾Ñģ",
        "ÑĮ"
      ],
      [
        "Ñģ",
        "ÑĤÑĮ"
      ],
      [
        "ĠÐ¾",
        "Ð´"
      ],
      [
        "ĠÑĤ",
        "ÐµÐ±"
      ],
      [
        "ĠÐ²Ñģ",
        "Ñĳ"
      ],
      [
        "Ñĥ",
        "Ñİ"
      ],
      [
        "Ð½Ñĭ",
        "Ðµ"
      ],
      [
        "ĠÐ",
        "³Ð¾"
      ],
      [
        "ÐĲÐĲÐĲÐĲ",
        "ÐĲÐĲÐĲÐĲ"
      ],
      [
        "ĠÐ²",
        "Ð¸Ð´"
      ],
      [
        "Ñģ",
        "Ðº"
      ],
      [
        "ĠÑĤ",
        "Ñĭ"
      ],
      [
        "ĠÐ¼",
        "Ñĭ"
      ],
      [
        "Ð½Ð°",
        "Ñı"
      ],
      [
        "ÑĪ",
        "Ðµ"
      ],
      [
        "ÑĪ",
        "Ð¸"
      ],
      [
        "Ð½Ð¾",
        "Ðµ"
      ],
      [
        "Ð°Ñģ",
        "ÑĮ"
      ],
      [
        "Ñ",
        "Ħ"
      ],
      [
        "Ð¸Ð»",
        "Ð°"
      ],
      [
        "Ð°Ð",
        "¶Ðµ"
      ],
      [
        "Ð¾Ð²",
        "Ð¾ÑĢ"
      ],
      [
        "ÐµÐ»",
        "Ð¾Ð²"
      ],
      [
        "ĠÐ»",
        "Ð¸"
      ],
      [
        "ĠÑ",
        "Ħ"
      ],
      [
        "Ð°Ð¼",
        "Ð¸"
      ],
      [
        "Ñĥ",
        "Ð¼"
      ],
      [
        "ÐµÐ",
        "³"
      ],
      [
        "Ñĭ",
        "Ð²"
      ],
      [
        "ÐµÐ¿",
        "ÐµÑĢÑĮ"
      ],
      [
        "Ð¸",
        "Ð·"
      ],
      [
        "ÑĢ",
        "Ð¾Ð²"
      ],
      [
        "ĠÐ´",
        "Ð°Ð¶Ðµ"
      ],
      [
        "Ð½Ñĥ",
        "Ð»"
      ],
      [
        "Ñı",
        "ÑĤÑĮ"
      ],
      [
        "ĠÐ´",
        "Ð°"
      ],
      [
        "ĠÐ±",
        "ÑĥÐ´"
      ],
      [
        "Ð¸Ð»",
        "Ð¸"
      ],
      [
        "ĠÐ½",
        "Ð°Ð´"
      ],
      [
        "Ð°",
        "Ð½Ð¸"
      ],
      [
        "ÑĤ",
        "Ð¾Ð±"
      ],
      [
        "Ñĥ",
        "ÑĪ"
      ],
      [
        "Ð¾ÑĤ",
        "ÑĢ"
      ],
      [
        "â",
        "Ģ"
      ],
      [
        "Ð°Ð",
        "³"
      ],
      [
        "ĠÑĩ",
        "ÐµÐ»Ð¾Ð²"
      ],
      [
        "ÐµÐ½Ð¸",
        "Ðµ"
      ],
      [
        "ĠÐ",
        "Ń"
      ],
      [
        "ĠÑģ",
        "Ð¼"
      ],
      [
        "ĠÐ¼",
        "Ð¾Ð¶"
      ],
      [
        "ĠÐ¿ÑĢ",
        "Ð¾"
      ],
      [
        "ĠÐµ",
        "ÑīÐµ"
      ],
      [
        "Ð½Ð¸",
        "Ðº"
      ],
      [
        "Ġ",
        "âĢ"
      ],
      [
        "ĠÐ",
        "ł"
      ],
      [
        "ĠÑĤ",
        "ÐµÐ¿ÐµÑĢÑĮ"
      ],
      [
        "ĠÐ¾",
        "Ñĩ"
      ],
      [
        "Ð½Ð¸",
        "Ð¼"
      ],
      [
        "ĠÑĩÐµÐ»Ð¾Ð²",
        "ÐµÐº"
      ],
      [
        "Ñģ",
        "Ð¿"
      ],
      [
        "ĠÐ²",
        "Ð·"
      ],
      [
        "ĠÐº",
        "Ð¾Ð¼"
      ],
      [
        "ĠÐ¼",
        "Ð¾Ð³"
      ],
      [
        "ĠÐ´",
        "Ð¾"
      ],
      [
        "ĠÑĩ",
        "ÑĤÐ¾Ð±"
      ],
      [
        "ĠÑģÐ²",
        "Ð¾"
      ],
      [
        "Ñģ",
        "Ð»"
      ],
      [
        "Ð½",
        "Ñı"
      ],
      [
        "ÑĥÐ",
        "±"
      ],
      [
        "Ð½Ñĭ",
        "Ñħ"
      ],
      [
        "Ġ",
        "ÑĪ"
      ],
      [
        "Ð»",
        "Ñİ"
      ],
      [
        "ĠÐ¿",
        "Ð¾ÑĤ"
      ],
      [
        "ÐµÐ½",
        "Ð½Ð¾"
      ],
      [
        "ÐµÐ»",
        "Ð°"
      ],
      [
        "ĠâĢ",
        "Ķ"
      ],
      [
        "Ð°",
        "Ñħ"
      ],
      [
        "Ñģ",
        "Ð»Ð¸"
      ],
      [
        "ÑĢ",
        "Ð°Ð²"
      ],
      [
        "ÑĨ",
        "Ð¸"
      ],
      [
        "ĠÐ¿ÑĢ",
        "Ð¾Ñģ"
      ],
      [
        "ĠÐ»",
        "Ñİ"
      ],
      [
        "ĠÐ",
        "§"
      ],
      [
        "ÑĤ",
        "Ðµ"
      ],
      [
        "ÑĢ",
        "ÐµÐ¼"
      ],
      [
        "ĠÑħ",
        "Ð¾ÑĤ"
      ],
      [
        "ĠÐĶ",
        "Ñĥ"
      ],
      [
        "ĠÐ¸",
        "Ð³"
      ],
      [
        "ĠÐ¾",
        "Ð¿"
      ],
      [
        "ĠÑĤ",
        "Ð¾Ð»ÑĮÐºÐ¾"
      ],
      [
        "ÑģÑĤ",
        "Ð¸"
      ],
      [
        "ĠÐ³",
        "Ð»"
      ],
      [
        "ĠÐŃ",
        "ÑĤÐ¾"
      ],
      [
        "Ð¸Ð»",
        "ÑģÑı"
      ],
      [
        "ĠÑĢ",
        "Ð°Ñģ"
      ],
      [
        "Ð°Ð½",
        "Ð¾Ð²"
      ],
      [
        "ÑĢ",
        "Ð°Ð·"
      ],
      [
        "Ñĩ",
        "Ð°Ñģ"
      ],
      [
        "Ðº",
        "Ð¾Ð¹"
      ],
      [
        "ĠÐ´",
        "ÑĢÑĥÐ³"
      ],
      [
        "ĠÑĩÑĤÐ¾Ð±",
        "Ñĭ"
      ],
      [
        "ĠÐ",
        "ĳ"
      ],
      [
        "ÑĢ",
        "Ð¸"
      ],
      [
        "ĠÐ¼",
        "Ð¾"
      ],
      [
        "Ð°Ð»",
        "ÑģÑı"
      ],
      [
        "ĠÐµ",
        "Ðµ"
      ],
      [
        "Ð°ÑĤÑĮ",
        "ÑģÑı"
      ],
      [
        "ĠÑģ",
        "Ð¾"
      ],
      [
        "ĠÑģ",
        "ÐµÐ±"
      ],
      [
        "Ð¸ÑĤ",
        "ÐµÐ»ÑĮ"
      ],
      [
        "ÐµÐ½Ð¸",
        "Ñı"
      ],
      [
        "ĠÐ",
        "Ĺ"
      ],
      [
        "Ðµ",
        "Ðµ"
      ],
      [
        "Ñĥ",
        "Ñħ"
      ],
      [
        "ĠÐ¾",
        "Ñģ"
      ],
      [
        "Ð¸",
        "Ðµ"
      ],
      [
        "ĠÐ½Ð°",
        "Ñģ"
      ],
      [
        "ÐµÐ¼",
        "Ñĥ"
      ],
      [
        "ĠÐ±Ñĭ",
        "ÑĤÑĮ"
      ],
      [
        "ĠÐŀ",
        "Ð½"
      ],
      [
        "ĠÐ½",
        "Ð°Ð¿"
      ],
      [
        "Ð¼",
        "Ñĥ"
      ],
      [
        "ÑĥÐ",
        "¿"
      ],
      [
        "Ñĭ",
        "Ñħ"
      ],
      [
        "ĠÐ¿",
        "Ð¾Ð½"
      ],
      [
        "ĠÐ´",
        "Ð¾Ð¼"
      ],
      [
        "ĠÑĤÐµÐ±",
        "Ñı"
      ],
      [
        "ĠÐ¾Ñĩ",
        "ÐµÐ½ÑĮ"
      ],
      [
        "Ðµ",
        "Ñħ"
      ],
      [
        "Ð¸",
        "ÑĢ"
      ],
      [
        "Ñİ",
        "Ð´Ð°"
      ],
      [
        "ĠÐ³",
        "Ð¾Ð²Ð¾ÑĢ"
      ],
      [
        "ĠÐ¢",
        "Ð°Ðº"
      ],
      [
        "Ð¸",
        "Ð½Ð°"
      ],
      [
        "Ðº",
        "Ðµ"
      ],
      [
        "ĠÑĤ",
        "ÑĢ"
      ],
      [
        "ĠÐµ",
        "ÑģÑĤÑĮ"
      ],
      [
        "ĠÐŁ",
        "ÐµÑĤ"
      ],
      [
        "ĠÐĿ",
        "Ð¾"
      ],
      [
        "Ð´Ðµ",
        "ÑģÑĮ"
      ],
      [
        "Ġ",
        "\""
      ],
      [
        "ĠÐ¿",
        "Ð¾Ðº"
      ],
      [
        "ĠÐ²",
        "Ð¾"
      ],
      [
        "ĠÐ±",
        "Ð¾Ð»ÑĮ"
      ],
      [
        "ÐµÑĢ",
        "Ð°"
      ],
      [
        "ÑģÑĤ",
        "Ð°Ð²"
      ],
      [
        "Ðµ",
        "ÑĤÑĮ"
      ],
      [
        "Ðµ",
        "ÑĨ"
      ],
      [
        "ÑĢ",
        "Ð¾Ñģ"
      ],
      [
        "Ñĭ",
        "Ðµ"
      ],
      [
        "ÑĤÐ¾",
        "Ñı"
      ],
      [
        "ĠÐº",
        "Ð¾Ð³Ð´Ð°"
      ],
      [
        "ĠÐ±",
        "Ð¾Ð»"
      ],
      [
        "ĠÑĩ",
        "ÐµÑĢ"
      ],
      [
        "ĠÐ·",
        "Ð½Ð°"
      ],
      [
        "ĠÐºÐ¾Ð¼",
        "Ð½Ð°"
      ],
      [
        "Ð¸",
        "Ð½Ñĥ"
      ],
      [
        "ĠÐ½",
        "Ð¸"
      ],
      [
        "ĠÐ²",
        "Ð¾Ð·"
      ],
      [
        "ÑģÑĤ",
        "ÑĢ"
      ],
      [
        "Ð¾Ð»",
        "Ð¶"
      ],
      [
        "ĠÐ¾ÑĤ",
        "Ð²"
      ],
      [
        "ĠÐ¿",
        "Ð¾ÑĢ"
      ],
      [
        "ĠÐ½",
        "ÑĥÐ¶"
      ],
      [
        "ĠÐ²",
        "ÐµÑĢ"
      ],
      [
        "ĠÐ²",
        "Ð¾ÑĤ"
      ],
      [
        "ĠÐ±",
        "ÐµÐ·"
      ],
      [
        "ÐµÐ»",
        "Ð¸"
      ],
      [
        "ĠÐ¿ÑĢ",
        "ÐµÐ´"
      ],
      [
        "ĠÐ±Ñĭ",
        "Ð»Ð°"
      ],
      [
        "Ð½Ñĥ",
        "Ñİ"
      ],
      [
        "Ð½",
        "Ð¾Ð¼"
      ],
      [
        "ÑĮ",
        "Ñı"
      ],
      [
        "ĠÐ²",
        "Ð¿"
      ],
      [
        "ĠÑģ",
        "Ð¾Ð±"
      ],
      [
        "ĠÐ¸",
        "Ð»Ð¸"
      ],
      [
        "ĠÐº",
        "Ð¾Ð½"
      ],
      [
        "ĠÑĤ",
        "ÐµÐ¼"
      ],
      [
        "Ð¾Ð»",
        "Ð¾Ð´"
      ],
      [
        "ÐµÑĤ",
        "ÑģÑı"
      ],
      [
        "ĠÐ»Ñİ",
        "Ð±"
      ],
      [
        "Ð¾Ð",
        "¶Ðµ"
      ],
      [
        "Ð»",
        "Ðµ"
      ],
      [
        "Ñĭ",
        "ÑĪ"
      ],
      [
        "ĠÐ²",
        "ÑĢÐµÐ¼"
      ],
      [
        "Ð´",
        "Ñĥ"
      ],
      [
        "Ð²",
        "ÐµÑĢ"
      ],
      [
        "ĠÐ¾",
        "Ðº"
      ],
      [
        "ÑĪ",
        "ÐµÐ»"
      ],
      [
        "ĠÑĩ",
        "Ñĥ"
      ],
      [
        "ÐĲÐĲÐĲÐĲÐĲÐĲÐĲÐĲ",
        "ÐĲÐĲÐĲÐĲÐĲÐĲÐĲÐĲ"
      ],
      [
        "ÑĢ",
        "ÐµÐ´"
      ],
      [
        "ĠÐ½",
        "ÐµÑĤ"
      ],
      [
        "ĠÑ",
        "Ĩ"
      ],
      [
        "ÑĨ",
        "Ðµ"
      ],
      [
        "ÐµÑĪ",
        "ÑĮ"
      ],
      [
        "Ð½Ð¸Ðº",
        "Ð¾Ð²"
      ],
      [
        "ĠÐ",
        "¤"
      ],
      [
        "Ð¸",
        "Ð³"
      ],
      [
        "ĠÐ¿",
        "Ð¾Ð¼"
      ],
      [
        "Ð´",
        "Ð¸"
      ],
      [
        "ĠÐ·",
        "Ð´ÐµÑģÑĮ"
      ],
      [
        "Ð½Ñĭ",
        "Ð¼"
      ],
      [
        "ĠÐ¼Ð¾Ð¶",
        "ÐµÑĤ"
      ],
      [
        "ĠÐ¼Ð¾Ð³",
        "Ñĥ"
      ],
      [
        "Ð°",
        "Ñĩ"
      ],
      [
        "ÑĤ",
        "Ñĥ"
      ],
      [
        "ÑĢ",
        "Ð¾Ð´"
      ],
      [
        "ĠÐ½",
        "Ð¸Ðº"
      ],
      [
        "Ð¼",
        "Ð¾"
      ],
      [
        "ĠÑĤ",
        "Ð¾Ð³Ð¾"
      ],
      [
        "ĠÑĩ",
        "Ð°Ñģ"
      ],
      [
        "ĠÐµ",
        "ÑģÐ»Ð¸"
      ],
      [
        "ĠÐµ",
        "Ð¼Ñĥ"
      ],
      [
        "Ð¸Ð¼",
        "Ð¸"
      ],
      [
        "ĠÑģÑĤ",
        "ÑĢ"
      ],
      [
        "ÑĥÐ´",
        "ÑĮ"
      ],
      [
        "Ð°Ð±",
        "Ð¾ÑĤ"
      ],
      [
        "ĠÑĤÐµÐ±",
        "Ðµ"
      ],
      [
        "ĠÐ¿Ð¾ÑĤ",
        "Ð¾Ð¼Ñĥ"
      ],
      [
        "ĠÐ¿ÑĢÐ¾Ñģ",
        "ÑĤÐ¾"
      ],
      [
        "ĠÐ",
        "Ľ"
      ],
      [
        "Ñĭ",
        "Ñĩ"
      ],
      [
        "ĠÐ¸",
        "Ð¼"
      ],
      [
        "Ð¼",
        "Ð¾ÑĤÑĢ"
      ],
      [
        "ĠÐ´",
        "ÐµÐ»"
      ],
      [
        "ÑĪ",
        "ÑĮ"
      ],
      [
        "ĠÑĢ",
        "Ñĥ"
      ],
      [
        "ÑĨ",
        "Ð°"
      ],
      [
        "ĠÑĥÐ",
        "¶"
      ],
      [
        "ĠÑģÐº",
        "Ð°Ð·"
      ],
      [
        "Ñ",
        "Ĭ"
      ],
      [
        "ÑĢ",
        "ÑĮ"
      ],
      [
        "ĠÐ½",
        "Ð°Ð¼"
      ],
      [
        "ĠÐ¸",
        "Ð½"
      ],
      [
        "ĠÐº",
        "Ð°Ð¶"
      ],
      [
        "ÐµÐ½",
        "ÑĤ"
      ],
      [
        "Ð¾ÑĢ",
        "Ð¾ÑĪ"
      ],
      [
        "Ð±",
        "Ð¾"
      ],
      [
        "ĠÐ³",
        "Ð¾Ð»"
      ],
      [
        "ĠÐ¾ÑĤ",
        "Ðº"
      ],
      [
        "ĠÑĤÐ¾",
        "ÑĤ"
      ],
      [
        "Ð»Ñİ",
        "Ñĩ"
      ],
      [
        "Ðµ",
        "ÑģÑı"
      ],
      [
        "ĠÐ½",
        "Ð°Ð·"
      ],
      [
        "ĠÐ²",
        "ÑģÑı"
      ],
      [
        "Ð²",
        "ÑģÑĤÐ²"
      ],
      [
        "ĠÐº",
        "Ð¾ÑĢ"
      ],
      [
        "Ð¸Ð»",
        "Ð°ÑģÑĮ"
      ],
      [
        "Ð½Ð¸",
        "Ð±"
      ],
      [
        "Ð¸ÑĤ",
        "Ðµ"
      ],
      [
        "ĠÐ¿Ð¾",
        "Ñĩ"
      ],
      [
        "Ð»Ñı",
        "Ð´"
      ],
      [
        "ĠÐ¸Ð³",
        "ÑĢ"
      ],
      [
        "Ð½Ð¸Ð±",
        "ÑĥÐ´ÑĮ"
      ],
      [
        "Ð¸",
        "Ð¹"
      ],
      [
        "Ð½",
        "ÐµÐ¹"
      ],
      [
        "ĠÑģ",
        "Ð¾Ð²"
      ],
      [
        "ĠÑģ",
        "ÑİÐ´Ð°"
      ],
      [
        "Ðº",
        "Ð¾Ð¼"
      ],
      [
        "ĠÑĤ",
        "Ð°Ð¼"
      ],
      [
        "Ð°Ð»",
        "Ð¾"
      ],
      [
        "Ð°Ð»",
        "Ð°ÑģÑĮ"
      ],
      [
        "ĠÐ·",
        "Ð°Ð´"
      ],
      [
        "Ð¾Ð±",
        "ÑĢ"
      ],
      [
        "Ð°ÑĢ",
        "Ð¼"
      ],
      [
        "ĠÐ½Ð°Ð´",
        "Ð¾"
      ],
      [
        "ĠÑģÐµÐ±",
        "Ñı"
      ],
      [
        "ĠÐ½ÑĥÐ¶",
        "Ð½Ð¾"
      ],
      [
        "Ð¾",
        "Ñİ"
      ],
      [
        "Ðµ",
        "Ñī"
      ],
      [
        "Ð½",
        "Ð¾Ð²"
      ],
      [
        "Ð»",
        "Ð¾"
      ],
      [
        "ĠÐ½",
        "ÐµÐ¼"
      ],
      [
        "Ðº",
        "Ð¾Ð»ÑĮ"
      ],
      [
        "ĠÐ¼",
        "ÑĥÐ¶"
      ],
      [
        "ĠÐ¿ÑĢ",
        "Ð¾Ð´"
      ],
      [
        "ĠÐ·",
        "Ð°Ð¿"
      ],
      [
        "ĠÐ³",
        "ÐµÐ½"
      ],
      [
        "ĠÐ",
        "£"
      ],
      [
        "ĠÐ¿",
        "Ð¾Ð·"
      ],
      [
        "ĠÐ·",
        "Ð°Ðº"
      ],
      [
        "Ð¸Ð»",
        "Ð¾ÑģÑĮ"
      ],
      [
        "ĠÐ½Ð°",
        "ÑĪ"
      ],
      [
        "Ð¾ÑĢ",
        "Ð³"
      ],
      [
        "Ð»Ð¸",
        "Ð²"
      ],
      [
        "ÐµÐ¹",
        "ÑĩÐ°Ñģ"
      ],
      [
        "ĠÐĺ",
        "Ð²"
      ],
      [
        "ĠÐ",
        "ķ"
      ],
      [
        "ÑĤ",
        "Ð°"
      ],
      [
        "Ñı",
        "Ð»"
      ],
      [
        "Ñĭ",
        "ÑĤ"
      ],
      [
        "ĠÐ²",
        "Ð´"
      ],
      [
        "ĠÐ¾",
        "ÑģÑĤ"
      ],
      [
        "ĠÑĤ",
        "ÑĥÑĤ"
      ],
      [
        "ĠÐ±",
        "Ð»"
      ],
      [
        "ĠÑĩ",
        "ÐµÐ¼"
      ],
      [
        "Ð¾ÑĢ",
        "Ð¼"
      ],
      [
        "ĠÑģÑĤ",
        "Ð°ÑĢ"
      ],
      [
        "Ð°Ñİ",
        "ÑĤ"
      ],
      [
        "ĠÐ´Ð²",
        "ÐµÑĢÑĮ"
      ],
      [
        "ÐµÑĢÐ°",
        "ÑĤÐ¾ÑĢ"
      ],
      [
        "Ð",
        "ŀ"
      ],
      [
        "Ð½",
        "Ñİ"
      ],
      [
        "ÑĢ",
        "Ñĥ"
      ],
      [
        "ĠÐ½",
        "ÐµÐº"
      ],
      [
        "ĠÐ½",
        "ÐµÐ³Ð¾"
      ],
      [
        "ĠÐ²",
        "Ð¾Ð»"
      ],
      [
        "ĠÑĤ",
        "Ð¸"
      ],
      [
        "ĠÐ´",
        "ÐµÐ½ÑĮ"
      ],
      [
        "Ð°Ð»",
        "Ð¾ÑģÑĮ"
      ],
      [
        "Ð½Ð¾",
        "ÑģÑĤÐ¸"
      ],
      [
        "ĠÐ¿ÑĢ",
        "Ð°Ð²"
      ],
      [
        "Ð¸Ð»",
        "ÑĮ"
      ],
      [
        "ĠÐŁ",
        "ÑĢ"
      ],
      [
        "ÑĥÐ´Ð°",
        "ÑĢÑĮ"
      ],
      [
        "Ð°ÐµÑĤ",
        "ÑģÑı"
      ],
      [
        "ĠÐ²ÑĢÐµÐ¼",
        "Ñı"
      ],
      [
        "ĠÑĩÑĥ",
        "Ð²ÑģÑĤÐ²"
      ],
      [
        "ÑĢ",
        "Ñı"
      ],
      [
        "Ñĭ",
        "Ð¼"
      ],
      [
        "ĠÐ½",
        "Ð°Ðº"
      ],
      [
        "Ð²",
        "Ð¸Ð´"
      ],
      [
        "ÑģÑĤ",
        "Ð°"
      ],
      [
        "ĠÐ¿ÑĢ",
        "Ñı"
      ],
      [
        "ĠÐ·",
        "Ð°Ð±"
      ],
      [
        "Ð½Ð°",
        "Ñĩ"
      ],
      [
        "Ð°ÑĢ",
        "ÑĤÐ¸"
      ],
      [
        "Ð½Ðµ",
        "Ðµ"
      ],
      [
        "ÑģÑĤÐ²",
        "ÐµÐ½"
      ],
      [
        "ĠÐ¿ÐµÑĢ",
        "ÐµÐ´"
      ],
      [
        "Ð°Ð½Ð¸",
        "Ñı"
      ],
      [
        "ĠÑħÐ¾ÑĤ",
        "Ñı"
      ],
      [
        "ĠÐĶÑĥ",
        "Ð½Ðµ"
      ],
      [
        "ĠÐ³Ð»",
        "Ð°Ð·"
      ],
      [
        "ĠÐ³ÐµÐ½",
        "ÐµÑĢÐ°ÑĤÐ¾ÑĢ"
      ],
      [
        "ĠÐĺÐ²",
        "Ð°Ð½Ð¾Ð²"
      ],
      [
        "ĠÐ",
        "ĵ"
      ],
      [
        "Ðµ",
        "Ñİ"
      ],
      [
        "Ñĥ",
        "Ñģ"
      ],
      [
        "Ñĥ",
        "Ðº"
      ],
      [
        "ĠÐ¿",
        "Ð¾Ð¹"
      ],
      [
        "Ð´",
        "ÐµÐ»"
      ],
      [
        "ĠÐ¸",
        "Ð´"
      ],
      [
        "ĠÐ¸",
        "ÑģÐ¿"
      ],
      [
        "ĠÐ¼",
        "Ð½Ð¾Ð³Ð¾"
      ],
      [
        "ÐµÐ½",
        "Ð°"
      ],
      [
        "ĠÐ¿ÑĢ",
        "Ð¸Ð²"
      ],
      [
        "Ð°Ñģ",
        "ÐºÐ¾Ð»ÑĮ"
      ],
      [
        "Ð½Ñĭ",
        "Ð¼Ð¸"
      ],
      [
        "ĠÐ»",
        "ÐµÑĤ"
      ],
      [
        "Ð°Ð»ÑĮ",
        "Ð½Ð¾"
      ],
      [
        "ĠÐ¿Ð¾Ð»",
        "ÑĥÑĩ"
      ],
      [
        "ĠÐ²Ð´",
        "ÑĢÑĥÐ³"
      ],
      [
        "Ð°ÑģÐºÐ¾Ð»ÑĮ",
        "Ð½Ð¸ÐºÐ¾Ð²"
      ],
      [
        "Ġ",
        "("
      ],
      [
        "ÑĤ",
        "ÐµÑĢ"
      ],
      [
        "Ð¸",
        "Ñı"
      ],
      [
        "Ð¸",
        "ÑĨ"
      ],
      [
        "Ð½",
        "Ð°Ðº"
      ],
      [
        "Ð´",
        "Ð¾ÑĢ"
      ],
      [
        "ĠÐº",
        "Ð¾Ð»"
      ],
      [
        "ĠÑĤ",
        "Ð¾Ð±"
      ],
      [
        "ĠÐ´",
        "Ð¾ÑĢ"
      ],
      [
        "ĠÐ´",
        "Ð»Ñı"
      ],
      [
        "ĠÐ´",
        "ÐµÐ²"
      ],
      [
        "ÑĥÐ",
        "³"
      ],
      [
        "ĠÐ·",
        "Ð°Ð¼"
      ],
      [
        "Ð°ÑĤ",
        "ÐµÑĢ"
      ],
      [
        "Ð°Ð»Ð¸",
        "ÑģÑĮ"
      ],
      [
        "ĠÐ¿ÐµÑĢ",
        "Ð²"
      ],
      [
        "ĠÐ¾Ð´",
        "Ð¸Ð½"
      ],
      [
        "ĠÐ±Ð¾Ð»ÑĮ",
        "ÑĪÐµ"
      ],
      [
        "ĠÑĩÐµÑĢ",
        "ÐµÐ·"
      ],
      [
        "ĠÐ¾ÑĤÐº",
        "ÑĢÑĭ"
      ],
      [
        "Ñ",
        "į"
      ],
      [
        "Ñĥ",
        "ÑĢ"
      ],
      [
        "Ñĥ",
        "ÑģÑĤ"
      ],
      [
        "Ñı",
        "Ð¹"
      ],
      [
        "ĠÐ²",
        "Ð¾Ñģ"
      ],
      [
        "ĠÐ¸",
        "Ñģ"
      ],
      [
        "Ð²",
        "Ð¾Ð»"
      ],
      [
        "ĠÐ¾",
        "Ð½Ð¸"
      ],
      [
        "ĠÐ¼",
        "ÐµÑģÑı"
      ],
      [
        "ĠÐ½Ð°",
        "Ñĩ"
      ],
      [
        "ĠÑĢ",
        "ÑĥÐ±"
      ],
      [
        "ÑĨ",
        "Ð°ÑĤÑĮ"
      ],
      [
        "ĠÑĥ",
        "Ð¼"
      ],
      [
        "ĠÑį",
        "ÑĤÐ¸"
      ],
      [
        "ĠÐ³",
        "Ð´Ðµ"
      ],
      [
        "Ð¸ÑĤ",
        "ÑģÑı"
      ],
      [
        "ÐºÐ°",
        "Ñı"
      ],
      [
        "ĠÑħ",
        "Ð¾Ñĩ"
      ],
      [
        "Ð¸ÑĤÑĮ",
        "ÑģÑı"
      ],
      [
        "Ð°ÑĤ",
        "ÑĢ"
      ],
      [
        "ĠÐĿ",
        "Ñĥ"
      ],
      [
        "Ð¸Ñĩ",
        "ÐµÐ³Ð¾"
      ],
      [
        "ĠÐ³Ð¾",
        "Ñģ"
      ],
      [
        "ĠÐ¾Ñģ",
        "Ð¾Ð±"
      ],
      [
        "ĠÐŁÐµÑĤ",
        "ÑĢÐ¾Ð²"
      ],
      [
        "ĠÐ±Ð¾Ð»",
        "ÐµÐµ"
      ],
      [
        "ĠÐ",
        "¥"
      ],
      [
        "Ð°",
        "ÑĪ"
      ],
      [
        "ÑĢ",
        "Ð¾Ð¼"
      ],
      [
        "ĠÐ½",
        "ÐµÐ¹"
      ],
      [
        "Ñĩ",
        "Ð°"
      ],
      [
        "ĠÑģ",
        "ÐµÐ¹ÑĩÐ°Ñģ"
      ],
      [
        "ĠÑĤ",
        "Ð¾Ð¼Ñĥ"
      ],
      [
        "ĠÐ¼",
        "Ð¾ÑĢÐ³"
      ],
      [
        "ÐµÐ´",
        "ÑĮ"
      ],
      [
        "Ð°Ð´",
        "Ð¾Ð²"
      ],
      [
        "ĠÑĥÐ",
        "³"
      ],
      [
        "Ð¾Ð¶",
        "Ð°Ð»"
      ],
      [
        "ĠÑįÑĤÐ¾",
        "ÑĤ"
      ],
      [
        "ĠÑģÐ»",
        "ÑĥÑĩ"
      ],
      [
        "ĠÐĶ",
        "Ð°"
      ],
      [
        "ÑĢÐ°",
        "Ñī"
      ],
      [
        "ĠÐ±ÑĥÐ´",
        "ÑĤÐ¾"
      ],
      [
        "ĠÐĶÑĥÐ½Ðµ",
        "Ñĩ"
      ],
      [
        "ĠÑĤÐ¾Ð±",
        "Ð¾Ð¹"
      ],
      [
        "l",
        "o"
      ],
      [
        "Ð",
        "Ŀ"
      ],
      [
        "Ġ",
        "1"
      ],
      [
        "ÑĤ",
        "Ñĭ"
      ],
      [
        "ÑĢ",
        "Ð°ÑĤ"
      ],
      [
        "Ð»",
        "ÐµÐ´"
      ],
      [
        "ĠÐ½",
        "Ð°Ð²"
      ],
      [
        "Ñĩ",
        "Ð¸ÑĤ"
      ],
      [
        "ĠÐº",
        "ÑĤÐ¾"
      ],
      [
        "ĠÑĤ",
        "Ð¾Ð³Ð´Ð°"
      ],
      [
        "ĠÐ¼",
        "Ð¸Ð»"
      ],
      [
        "ÐµÑĢ",
        "Ð¶"
      ],
      [
        "ÐµÐ»",
        "Ð°Ð´Ð¾Ð²"
      ],
      [
        "Ð½Ð¾",
        "ÑģÑĤÑĮ"
      ],
      [
        "ĠÐ²Ñģ",
        "ÐµÐ³Ð¾"
      ],
      [
        "ÐºÐ°",
        "Ñħ"
      ],
      [
        "ĠÑĤÐ°Ðº",
        "Ð¾Ðµ"
      ],
      [
        "ÐºÐ¸",
        "Ð¹"
      ],
      [
        "ĠÐĿ",
        "Ðµ"
      ],
      [
        "Ð½ÑĥÐ»",
        "ÑģÑı"
      ],
      [
        "ĠÐ±ÑĥÐ´",
        "ÐµÑĤ"
      ],
      [
        "ĠÐ¼Ð¾Ð¶",
        "Ð½Ð¾"
      ],
      [
        "ĠÐł",
        "Ð°ÑģÐºÐ¾Ð»ÑĮÐ½Ð¸ÐºÐ¾Ð²"
      ],
      [
        "ĠÑĢÐ°Ñģ",
        "Ð¿"
      ],
      [
        "Ð¾Ð»Ð¾Ð´",
        "Ð¾Ð¹"
      ],
      [
        "Ð¾ÑĢÐ¾ÑĪ",
        "Ð¾"
      ],
      [
        "Ð°ÑĢÐ¼",
        "ÐµÐ»Ð°Ð´Ð¾Ð²"
      ],
      [
        "i",
        "n"
      ],
      [
        "Ð¾",
        "Ñħ"
      ],
      [
        "ÑĢ",
        "Ðµ"
      ],
      [
        "Ñı",
        "Ñģ"
      ],
      [
        "Ñĭ",
        "Ð»"
      ],
      [
        "ĠÐ¿",
        "Ð»"
      ],
      [
        "ĠÐ¿",
        "ÑĮÑı"
      ],
      [
        "ĠÐ½",
        "ÐµÐ¿"
      ],
      [
        "ĠÑģ",
        "Ð¾Ñģ"
      ],
      [
        "ĠÐ¸",
        "Ñħ"
      ],
      [
        "Ð²",
        "Ð°ÑĢÑĤÐ¸"
      ],
      [
        "ĠÐ¼",
        "Ð¾Ð¹"
      ],
      [
        "ĠÐ±",
        "ÐµÑģ"
      ],
      [
        "ĠÐ½Ðµ",
        "ÑģÐº"
      ],
      [
        "ĠÑĢ",
        "ÐµÑĪ"
      ],
      [
        "ĠÑĢ",
        "Ð°Ð±Ð¾ÑĤ"
      ],
      [
        "ÑĨ",
        "Ñĥ"
      ],
      [
        "Ð¾Ð±",
        "ÑīÐµ"
      ],
      [
        "Ð³",
        "Ð»ÑıÐ´"
      ],
      [
        "ĠÐ¾Ð±",
        "ÑĢÐ°Ð·"
      ],
      [
        "ĠÐ¾Ð±",
        "ÑĬ"
      ],
      [
        "ĠÐ¶",
        "Ð¸Ð·"
      ],
      [
        "ĠÐļ",
        "Ð°ÑĤÐµÑĢ"
      ],
      [
        "ĠÐ²ÑģÐµ",
        "Ñħ"
      ],
      [
        "ĠÑģÐº",
        "Ð¾ÑĢ"
      ],
      [
        "ĠÐ¿Ð¾Ñģ",
        "Ð»Ðµ"
      ],
      [
        "ĠÑįÑĤ",
        "Ð¾Ð³Ð¾"
      ],
      [
        "ĠÐ³Ð¾",
        "ÑģÐ¿"
      ],
      [
        "ĠÐ½Ð°Ð·",
        "Ð°Ð´"
      ],
      [
        "ĠÐ¿ÑĢÐ¾Ð´",
        "Ð¾Ð»Ð¶"
      ],
      [
        "ĠÐ´Ð¾ÑĢ",
        "Ð¾Ð³"
      ],
      [
        "!",
        ".."
      ],
      [
        "D",
        "O"
      ],
      [
        "E",
        "N"
      ],
      [
        "E",
        "X"
      ],
      [
        "F",
        "T"
      ],
      [
        "Ð",
        "Ĵ"
      ],
      [
        "Ð",
        "ľ"
      ],
      [
        "ÑĢ",
        "Ð°Ð½"
      ],
      [
        "ĠÐ½",
        "ÐµÐ´"
      ],
      [
        "ĠÐ²",
        "Ð°Ð¼"
      ],
      [
        "ĠÑģ",
        "ÐµÑĢ"
      ],
      [
        "ĠÑĤ",
        "Ð²"
      ],
      [
        "ĠÑĤ",
        "Ð¾Ð¼"
      ],
      [
        "ĠÑĤ",
        "Ð¾Ð¶Ðµ"
      ],
      [
        "ĠÐ´",
        "Ð°Ð²"
      ],
      [
        "ĠÐ´",
        "ÑĥÐ¼"
      ],
      [
        "Ð½Ð¾",
        "Ñİ"
      ],
      [
        "ĠÐ¿Ð¾",
        "ÑĪ"
      ],
      [
        "Ð¾Ð»ÑĮ",
        "Ð·"
      ],
      [
        "Ð¸Ð¼",
        "ÐµÑĢ"
      ],
      [
        "ĠÑĥÐ",
        "±"
      ],
      [
        "ĠÐ°",
        "Ð½Ð¸Ð¼"
      ],
      [
        "Ð¾Ðº",
        "Ð¾Ð¹"
      ],
      [
        "ĠÑħ",
        "Ð¾Ð·"
      ],
      [
        "ĠÐľ",
        "Ñĭ"
      ],
      [
        "ÑĢÐ°",
        "ÑĪ"
      ],
      [
        "ĠÑģÐ¼",
        "Ð¾ÑĤÑĢ"
      ],
      [
        "ĠÑħÐ¾ÑĤ",
        "ÐµÐ»"
      ],
      [
        "Ð¸ÑĤÐµÐ»ÑĮ",
        "Ð½Ð¾"
      ],
      [
        "ĠÑĨ",
        "ÐµÐ»"
      ],
      [
        "ĠÑĤÐ¸",
        "ÑħÐ¾"
      ],
      [
        "Ð°ÑĤÑĢ",
        "Ð¾Ð½"
      ],
      [
        "ĠÐ³Ð¾Ñģ",
        "ÑĥÐ´Ð°ÑĢÑĮ"
      ],
      [
        "ĠÐ³Ð¾ÑģÐ¿",
        "Ð¾Ð´"
      ],
      [
        "DO",
        "FT"
      ],
      [
        "EN",
        "DOFT"
      ],
      [
        "EX",
        "T"
      ],
      [
        "ENDOFT",
        "EXT"
      ],
      [
        "o",
        "b"
      ],
      [
        "Ðµ",
        "ÑģÑĮ"
      ],
      [
        "Ð¸",
        "ÑģÑĤ"
      ],
      [
        "Ð»",
        "ÐµÐ½"
      ],
      [
        "Ñĥ",
        "Ñī"
      ],
      [
        "Ñı",
        "Ð·"
      ],
      [
        "ÑĮ",
        "Ñİ"
      ],
      [
        "ĠÐ½",
        "Ñĥ"
      ],
      [
        "ĠÐ½",
        "Ð¾Ð³"
      ],
      [
        "ĠÐº",
        "ÑĥÐ´Ð°"
      ],
      [
        "ĠÐº",
        "Ð²Ð°ÑĢÑĤÐ¸"
      ],
      [
        "ÑĪ",
        "ÐºÐ¾Ð¼"
      ],
      [
        "ÑģÑĤ",
        "ÐµÑĢ"
      ],
      [
        "ĠÐ±Ñĭ",
        "Ð»Ð¸"
      ],
      [
        "Ð°ÑĢ",
        "Ð¸"
      ],
      [
        "ĠÐ½Ð¾",
        "Ñĩ"
      ],
      [
        "ÐµÑģÑĤ",
        "Ð½Ð¸"
      ],
      [
        "ĠÐ´Ð²",
        "Ð¾ÑĢ"
      ],
      [
        "ĠÑįÑĤ",
        "Ð¾Ð¼"
      ],
      [
        "Ð¸Ð»Ð¸",
        "ÑģÑĮ"
      ],
      [
        "ĠÐ¿ÑĢÐ¾",
        "Ð¸Ð·"
      ],
      [
        "ĠÑģÐµÐ±",
        "Ðµ"
      ],
      [
        "ÐĲÐĲÐĲÐĲÐĲÐĲÐĲÐĲÐĲÐĲÐĲÐĲÐĲÐĲÐĲÐĲ",
        "ÐĲÐĲÐĲÐĲÐĲÐĲÐĲÐĲÐĲÐĲÐĲÐĲÐĲÐĲÐĲÐĲ"
      ],
      [
        "ĠÐºÐ°Ð¶",
        "ÐµÑĤÑģÑı"
      ],
      [
        "ĠÐ³Ð¾Ð»",
        "Ð¾Ð²"
      ],
      [
        "ĠÐ½ÐµÑģÐº",
        "Ð¾Ð»ÑĮÐºÐ¾"
      ],
      [
        "ĠÐ°Ð½Ð¸Ð¼",
        "Ð°ÑĤÑĢÐ¾Ð½"
      ],
      [
        "R",
        "ob"
      ],
      [
        "Ð",
        "¶Ðµ"
      ],
      [
        "Ġ",
        "a"
      ],
      [
        "Ð¸",
        "Ð¶"
      ],
      [
        "Ð»",
        "Ð°Ð´"
      ],
      [
        "Ð°Ð",
        "³Ð¾"
      ],
      [
        "Ñı",
        "Ð²"
      ],
      [
        "Ñı",
        "ÑĤÐ¸"
      ],
      [
        "ĠÐ¿",
        "Ð¾Ð¿"
      ],
      [
        "ĠÐ¿",
        "Ð¾Ð¶Ð°Ð»"
      ],
      [
        "ĠÐ½",
        "Ð¸ÑĩÐµÐ³Ð¾"
      ],
      [
        "ĠÐ²",
        "Ð°Ñģ"
      ],
      [
        "Ñĩ",
        "Ð½Ð¾"
      ],
      [
        "ĠÑģ",
        "Ð¸Ñħ"
      ],
      [
        "Ñħ",
        "Ð²"
      ],
      [
        "ĠÐ´",
        "Ð¾Ð»Ð¶"
      ],
      [
        "ÐµÑĢ",
        "ÐµÐ´"
      ],
      [
        "ÑĥÐ",
        "¹"
      ],
      [
        "Ð¾Ð´",
        "Ñı"
      ],
      [
        "Ð·",
        "Ñı"
      ],
      [
        "Ð»Ð¸",
        "Ð½"
      ],
      [
        "Ð»Ð¸",
        "ÑĪÐºÐ¾Ð¼"
      ],
      [
        "Ð¸Ð²",
        "Ð°ÑĤÑĮ"
      ],
      [
        "ĠÐ¶",
        "ÐµÐ»"
      ],
      [
        "ĠÐ¢",
        "Ñĭ"
      ],
      [
        "Ð¾ÑģÑĤ",
        "Ð¸"
      ],
      [
        "ĠÑģÐ²Ð¾",
        "Ñİ"
      ],
      [
        "ĠÐ§",
        "ÑĤÐ¾"
      ],
      [
        "ĠÐ²Ð¾",
        "Ð¾Ð±ÑīÐµ"
      ],
      [
        "ĠÐ½ÐµÐº",
        "Ð¾ÑĤÐ¾ÑĢ"
      ],
      [
        "ĠÐ¿ÑĢÑı",
        "Ð¼Ð¾"
      ],
      [
        "ĠÐ¶Ð¸Ð·",
        "Ð½Ð¸"
      ],
      [
        "Ð",
        "¯"
      ],
      [
        "Ð",
        "Ł"
      ],
      [
        "Ġ",
        "Rob"
      ],
      [
        "Ð¾",
        "ÑĤÑĮ"
      ],
      [
        "Ð°",
        "ÐµÐ¼"
      ],
      [
        "ÑĢ",
        "Ð°Ñģ"
      ],
      [
        "ÑĢ",
        "Ð°ÑĤÑĮ"
      ],
      [
        "ĠÐ¿",
        "Ð¾Ð²"
      ],
      [
        "ĠÐ¿",
        "ÑıÑĤÑĮ"
      ],
      [
        "ĠÑģ",
        "Ð¾Ð·"
      ],
      [
        "ĠÑģ",
        "Ð´ÐµÐ»"
      ],
      [
        "ĠÑģ",
        "Ð»Ð¸ÑĪÐºÐ¾Ð¼"
      ],
      [
        "ĠÑĤ",
        "ÑĥÐ´Ð°"
      ],
      [
        "ĠÐ´",
        "ÐµÑĤ"
      ],
      [
        "Ñİ",
        "ÑĤ"
      ],
      [
        "ÐµÑĢ",
        "Ð±"
      ],
      [
        "ĠÑĢ",
        "Ðµ"
      ],
      [
        "Ð¾Ñģ",
        "ÑĤÑĮ"
      ],
      [
        "ĠÐµ",
        "Ð¹"
      ],
      [
        "ĠÑĥ",
        "Ð»Ð¸"
      ],
      [
        "ĠÑĥ",
        "Ð²Ð¸Ð´"
      ],
      [
        "Ð¾Ð½",
        "ÐµÑĨ"
      ],
      [
        "ĠÐ³",
        "Ð¾Ð´"
      ],
      [
        "ĠÐ»",
        "ÐµÑģÑĤÐ½Ð¸"
      ],
      [
        "Ð°Ð´",
        "Ð½Ð¾"
      ],
      [
        "Ð¸Ð²",
        "ÑĭÐ¹"
      ],
      [
        "Ð»Ð°",
        "ÑģÑĤÐµÑĢ"
      ],
      [
        "ĠÑħ",
        "Ð¾ÑĤÑĮ"
      ],
      [
        "ÑģÑĤÐ²",
        "Ð¾"
      ],
      [
        "ĠÐ¶",
        "Ð°Ð»"
      ],
      [
        "ĠÐ¶",
        "Ð¸Ð²"
      ],
      [
        "ÑĢÑĥÐ",
        "¶"
      ],
      [
        "ĠÑģÐ»",
        "Ð¾Ð²"
      ],
      [
        "ĠÑģÐ»",
        "ÑĥÐ¶"
      ],
      [
        "ĠÑģÐ»",
        "ÑĭÑĪ"
      ],
      [
        "ÐµÐ»ÑĮ",
        "Ð·Ñı"
      ],
      [
        "ĠÐľ",
        "Ð½Ðµ"
      ],
      [
        "ÑıÑĤ",
        "Ð½Ð¾"
      ],
      [
        "ĠÐ¿Ð¾Ñģ",
        "Ð¼Ð¾ÑĤÑĢ"
      ],
      [
        "ĠÐ¼Ð¾",
        "Ñı"
      ],
      [
        "ĠÐºÐ¾Ð¼Ð½Ð°",
        "ÑĤÐµ"
      ],
      [
        "ĠÐĺÐ²Ð°Ð½Ð¾Ð²",
        "Ð½Ð°"
      ],
      [
        "ĠÐ¼ÐµÑģÑı",
        "ÑĨ"
      ],
      [
        "ĠÑħÐ¾Ñĩ",
        "Ñĥ"
      ],
      [
        "lo",
        "x"
      ],
      [
        "Ð¸",
        "Ð¸"
      ],
      [
        "Ð¸",
        "ÐºÐ°"
      ],
      [
        "Ñģ",
        "ÐµÐ¼"
      ],
      [
        "Ð½",
        "Ð°Ð´"
      ],
      [
        "Ð»",
        "Ð¾Ð²"
      ],
      [
        "ĠÐ¿",
        "Ð»Ð°"
      ],
      [
        "ĠÑģ",
        "ÐµÐ¼"
      ],
      [
        "ĠÑģ",
        "ÑĤÐ¾Ñı"
      ],
      [
        "Ðº",
        "Ð°Ð¼Ð¸"
      ],
      [
        "Ðº",
        "Ð»ÑİÑĩ"
      ],
      [
        "Ð²",
        "ÐµÑģÑĤ"
      ],
      [
        "Ð¼",
        "Ð¾Ð¶"
      ],
      [
        "ĠÐ¼",
        "Ð°Ð»"
      ],
      [
        "ĠÐ´",
        "Ð¾ÑģÑĤ"
      ],
      [
        "ĠÐ¿ÑĢ",
        "Ð¾ÑģÑĤ"
      ],
      [
        "ĠÐ½Ðµ",
        "Ñģ"
      ],
      [
        "Ð½Ð¸",
        "Ð¹"
      ],
      [
        "Ð¾Ð½",
        "Ð½Ð¸"
      ],
      [
        "ÐµÐ´",
        "Ð¾ÑĢ"
      ],
      [
        "ĠÐ»",
        "ÐµÐ¶"
      ],
      [
        "ĠÐ²Ñģ",
        "Ñİ"
      ],
      [
        "Ð½Ñĥ",
        "ÑĤÑĮ"
      ],
      [
        "ĠÑģÑĤ",
        "Ð¾Ð»"
      ],
      [
        "ĠÐ²Ñĭ",
        "Ñģ"
      ],
      [
        "Ð°ÑĤ",
        "ÐµÐ»ÑĮ"
      ],
      [
        "ÑģÑĤÐ²",
        "Ð°"
      ],
      [
        "ĠÐĿ",
        "Ð°"
      ],
      [
        "ÐµÐ½Ð¸",
        "Ð¸"
      ],
      [
        "ĠÐ¶",
        "Ð¸ÑĤÑĮ"
      ],
      [
        "ĠÐ¡",
        "Ð¾Ð½"
      ],
      [
        "ĠÐľ",
        "Ð°ÑĢÐ¼ÐµÐ»Ð°Ð´Ð¾Ð²"
      ],
      [
        "ÐµÑģÑĤ",
        "Ðµ"
      ],
      [
        "ĠÐºÐ¾ÑĤÐ¾ÑĢ",
        "ÑĭÐ¹"
      ],
      [
        "ĠÑģÐ°Ð¼",
        "Ð°"
      ],
      [
        "ĠÑįÑĤ",
        "Ð°"
      ],
      [
        "Ð°Ð½Ð¸",
        "Ðµ"
      ],
      [
        "ĠÐ¾Ð¿",
        "ÑıÑĤÑĮ"
      ],
      [
        "ĠÐ´Ð¾Ð¼",
        "Ð°"
      ],
      [
        "ĠÐ¿Ð¾Ðº",
        "Ð°"
      ],
      [
        "ĠÐ·Ð½Ð°",
        "Ñİ"
      ],
      [
        "ÑģÑĤÑĢ",
        "Ð¾"
      ],
      [
[...]
